<unk>	0
<s>	0
</s>	0
String	0
java	0
org	0
assertEquals	0
com	0
springframework	0
util	0
android	0
IOException	0
ArrayList	0
List	0
Exception	0
Object	0
Integer	0
toString	0
System	0
result	0
value	0
annotation	0
context	0
equals	0
apache	0
append	0
javax	0
get	0
length	0
println	0
Assert	0
google	0
add	0
assertTrue	0
assertThat	0
junit	0
model	0
IllegalArgumentException	0
name	0
getName	0
size	0
request	0
printStackTrace	0
response	0
protobuf	0
out	0
builder	0
lwjgl3ApplicationConfiguration0	0
put	0
common	0
assertNotNull	0
Builder	0
data	0
findViewById	0
client	0
i	0
getString	0
getInstance	0
core	0
HashMap	0
message	0
StringBuilder	0
Map	0
io	0
index	0
Throwable	0
getValue	0
isEmpty	0
swing	0
lang	0
format	0
event	0
service	0
content	0
Collections	0
entity	0
id	0
RuntimeException	0
getMessage	0
savedInstanceState	0
type	0
Boolean	0
File	0
minecraft	0
config	0
persistence	0
annotations	0
contains	0
Collection	0
setText	0
api	0
build	0
net	0
Context	0
logger	0
view	0
GroupLayout	0
e	0
assertFalse	0
Long	0
InterruptedException	0
Logger	0
position	0
assertNull	0
LoggerFactory	0
getClass	0
View	0
stream	0
values	0
HttpServletRequest	0
concurrent	0
getId	0
valueOf	0
SQLException	0
UnsupportedOperationException	0
Arrays	0
Optional	0
input	0
JSONObject	0
Response	0
StringUtils	0
args	0
key	0
description	0
Lwjgl3ApplicationConfiguration	0
Criteria	0
info	0
InputStream	0
list	0
widget	0
Class	0
currentTimeMillis	0
thenReturn	0
create	0
IllegalStateException	0
BigDecimal	0
Double	0
error	0
NullPointerException	0
close	0
hashCode	0
equalsIgnoreCase	0
Serializable	0
TextView	0
factory	0
params	0
start	0
properties	0
configuration	0
setOnClickListener	0
query	0
exception	0
file	0
HttpServletResponse	0
Intent	0
other	0
substring	0
target	0
support	0
serialVersionUID	0
getLogger	0
repository	0
deploymentEntityManager0	0
debug	0
github	0
parent	0
player	0
security	0
extensionRegistry	0
log	0
node	0
item	0
instance	0
Date	0
InvalidProtocolBufferException	0
status	0
ResponseEntity	0
session	0
map	0
connection	0
user	0
server	0
listener	0
source	0
commons	0
servlet	0
addComponent	0
iterator	0
text	0
getProperty	0
state	0
path	0
Constants	0
Color	0
domain	0
Objects	0
element	0
string	0
elasticsearch	0
OnClickListener	0
count	0
layout	0
GeneratedMessageV3	0
SubLObject	0
next	0
eclipse	0
Configuration	0
execute	0
buffer	0
BufferedReader	0
Collectors	0
badlogic	0
Assertions	0
remove	0
getText	0
Bundle	0
write	0
setVisibility	0
addCriterion	0
containsKey	0
getType	0
entry	0
test	0
controller	0
field	0
SimpleDateFormat	0
collect	0
filter	0
Set	0
internal	0
isEqualTo	0
Math	0
lombok	0
HashSet	0
PREFERRED_SIZE	0
fasterxml	0
Iterator	0
utils	0
graphics	0
Properties	0
parameters	0
ByteArrayOutputStream	0
object	0
intent	0
addActionListener	0
height	0
GridBagConstraints	0
Connection	0
options	0
http	0
expected	0
method	0
address	0
ActionEvent	0
LayoutInflater	0
handler	0
Calendar	0
command	0
FuncionesSwing	0
stereotype	0
parseInt	0
example	0
container	0
hikariConfig1	0
asList	0
AppCompatActivity	0
jupiter	0
output	0
offset	0
bind	0
location	0
Mockito	0
obj	0
web	0
set	0
resource	0
R	0
FileNotFoundException	0
component	0
Thread	0
LinkedList	0
getContext	0
jackson	0
ItemStack	0
createParallelGroup	0
services	0
password	0
project	0
onCreate	0
username	0
world	0
parser	0
width	0
hikariConfig0	0
ByteBuffer	0
awt	0
runtime	0
slf4j	0
HttpConnection	0
framework	0
when	0
engine	0
writer	0
main	0
startsWith	0
action	0
ByteString	0
impl	0
logging	0
ExtensionRegistryLite	0
activity	0
mockito	0
protocol	0
getApplicationContext	0
FileInputStream	0
User	0
json	0
Log	0
drawable	0
bitField0_	0
InputStreamReader	0
intellij	0
function	0
LocalDateTime	0
sql	0
androidx	0
reader	0
Constantes	0
Element	0
getKey	0
Node	0
FileOutputStream	0
update	0
beans	0
StringBuffer	0
url	0
hasNext	0
getDefaultInstance	0
requireNonNull	0
getResources	0
sb	0
Test	0
app	0
table	0
Runnable	0
setName	0
Autowired	0
channel	0
ViewGroup	0
Component	0
current	0
newInstance	0
verify	0
TimeUnit	0
clear	0
fileName	0
T	0
database	0
LOGGER	0
callback	0
title	0
javafx	0
RecyclerView	0
time	0
Message	0
getSimpleName	0
setVisible	0
transaction	0
newBuilder	0
BigInteger	0
Button	0
MAX_VALUE	0
ParseException	0
property	0
version	0
ImmutableList	0
PreparedStatement	0
HttpStatus	0
line	0
base	0
toLowerCase	0
setValue	0
getAbsolutePath	0
JLabel	0
ImageView	0
ActionListener	0
parse	0
application	0
msg	0
replace	0
nestedInnerQueryParseSupport1	0
metadata	0
array	0
addAll	0
getDescription	0
CompletableFuture	0
createSequentialGroup	0
provider	0
token	0
Pattern	0
models	0
delete	0
ObjectMapper	0
getActivity	0
userId	0
startActivity	0
root	0
ClassNotFoundException	0
Type	0
validation	0
Function	0
setEnabled	0
ByteArrayInputStream	0
actionPerformed	0
results	0
jetbrains	0
helper	0
attributes	0
assertArrayEquals	0
unknownFields	0
x	0
setProperty	0
expression	0
split	0
print	0
Entry	0
color	0
ctx	0
getBytes	0
UnsupportedEncodingException	0
code	0
Document	0
lwjgl3WindowConfiguration0	0
Dimension	0
document	0
JOptionPane	0
settings	0
adapter	0
getAttribute	0
parseFrom	0
simpleIndexQueryParserTests0	0
forEach	0
Toast	0
mapper	0
exceptions	0
compareTo	0
setContentView	0
matcher	0
right	0
record	0
of	0
getParameter	0
JsonObject	0
fail	0
Path	0
register	0
manager	0
IllegalAccessException	0
getHeight	0
DialogInterface	0
ServletException	0
indexOf	0
HikariConfig	0
hash	0
JButton	0
cursor	0
LocalDate	0
onChanged	0
statement	0
res	0
plugin	0
onClick	0
group	0
StandardCharsets	0
ex	0
first	0
setAttribute	0
backends	0
SharedPreferences	0
getStatus	0
Preconditions	0
LayoutParams	0
Activity	0
headers	0
holder	0
registry	0
column	0
INSTANCE	0
UUID	0
run	0
Scanner	0
nextInt	0
str	0
body	0
OutputStream	0
s	0
LinkedHashMap	0
response1	0
sendMessage	0
setTitle	0
hadoop	0
block	0
minecraftforge	0
Descriptors	0
clazz	0
j	0
getInt	0
ResultSet	0
ConcurrentHashMap	0
resources	0
row	0
Alignment	0
className	0
JSONArray	0
header	0
CharSequence	0
pos	0
entrySet	0
cloud	0
getResource	0
getWidth	0
Result	0
contentType	0
condition	0
JPanel	0
Locale	0
reflect	0
cache	0
left	0
InvocationTargetException	0
MainActivity	0
mContext	0
image	0
DEFAULT_SIZE	0
prepareStatement	0
xml	0
from	0
success	0
init	0
entities	0
schema	0
c	0
template	0
charAt	0
commands	0
getConnection	0
collection	0
exists	0
addAttribute	0
JSONException	0
Method	0
Level	0
BufferedImage	0
transform	0
child	0
jsoup	0
lucene	0
Resource	0
bytes	0
jsonObject	0
NumberFormatException	0
accept	0
stack	0
addGroup	0
constraints	0
Expression	0
Random	0
Character	0
random	0
slimTableFactoryTest0	0
val	0
process	0
modules	0
read	0
JTextField	0
serializedObjectSupporter0	0
getData	0
date	0
replaceAll	0
getChildren	0
param	0
driver	0
getDescriptor	0
Comparator	0
in	0
defaultValue	0
components	0
thrift	0
apply	0
Player	0
LinearLayout	0
MediaType	0
filename	0
PrintWriter	0
tableName	0
RecognitionException	0
getPath	0
Field	0
singletonList	0
toArray	0
fragment	0
trim	0
namespace	0
inputStream	0
task	0
items	0
network	0
actual	0
matches	0
toIndentedString	0
Service	0
arguments	0
show	0
search	0
y	0
Entity	0
FieldAccessorTable	0
timestamp	0
cloudslang	0
label	0
fields	0
editor	0
attribute	0
setId	0
elements	0
NoSuchAlgorithmException	0
dialog	0
gdx	0
prefix	0
mock	0
Observable	0
events	0
save	0
interfaces	0
rs	0
Request	0
_jspx_page_context	0
compiler	0
scene	0
children	0
AtomicInteger	0
LOG	0
Status	0
email	0
authentication	0
temp	0
extension	0
bukkit	0
DEFAULT_INSTANCE	0
isPresent	0
TAG	0
page	0
delegate	0
getTime	0
ExecutorService	0
a	0
fieldName	0
is	0
pattern	0
ViewHolder	0
LENGTH_SHORT	0
b	0
Nullable	0
platform	0
types	0
graph	0
setBackground	0
storage	0
ExecutionException	0
ResourceLocation	0
number	0
Utils	0
module	0
Application	0
level	0
generator	0
initialize	0
lwjgl3	0
assertThrows	0
mergeFrom	0
edu	0
descriptor	0
showMessageDialog	0
equalTo	0
Location	0
setString	0
MalformedURLException	0
executor	0
intValue	0
validate	0
hamcrest	0
BorderLayout	0
executeQuery	0
conn	0
toList	0
isDebugEnabled	0
isInitialized	0
checkNotNull	0
startTime	0
keySet	0
setDescription	0
game	0
Timestamp	0
Config	0
ImmutableMap	0
Point	0
environment	0
getBoolean	0
emptyList	0
max	0
currentThread	0
control	0
nio	0
EditText	0
operation	0
RemoteException	0
HttpURLConnection	0
var	0
MouseEvent	0
makeText	0
Environment	0
URISyntaxException	0
andExpect	0
system	0
putExtra	0
messages	0
throwable	0
Vector	0
Float	0
methodName	0
buf	0
getParent	0
bean	0
slangImpl0	0
KeyEvent	0
spongepowered	0
AlertDialog	0
LinearLayoutManager	0
openapi	0
account	0
store	0
PARSER	0
resultSet	0
p	0
end	0
Duration	0
maybeForceBuilderInitialization	0
category	0
thread	0
call	0
ComponentPlacement	0
Predicate	0
microsoft	0
setLayout	0
setMessage	0
getResourceAsStream	0
getInputStream	0
Item	0
Iterable	0
gson	0
separator	0
order	0
criteria	0
ui	0
hibernate	0
tag	0
props	0
Files	0
readLine	0
port	0
gridBagConstraints	0
invoke	0
inflater	0
TextUtils	0
that	0
score	0
inventory	0
parameter	0
flush	0
converter	0
inject	0
statusCode	0
permission	0
Model	0
Consumer	0
Handler	0
nodes	0
amount	0
RequestMapping	0
identifier	0
Constantes2	0
parametroGeneralUsuario	0
os	0
uri	0
isAssignableFrom	0
setColor	0
dao	0
toUpperCase	0
assertSame	0
filePath	0
databind	0
onOptionsItemSelected	0
sleep	0
convertView	0
frame	0
t	0
consumer	0
ret	0
Statement	0
charset	0
newArrayList	0
handle	0
getLocation	0
newValue	0
AttributeSet	0
setStatus	0
product	0
de	0
CountDownLatch	0
bundle	0
evt	0
Property	0
Block	0
Bitmap	0
SimpleIndexQueryParserTests	0
BlockPos	0
Transaction	0
CodedInputStream	0
dto	0
insert	0
inflate	0
Direction	0
ref	0
Session	0
v	0
NoSuchElementException	0
runner	0
Pair	0
plugins	0
Void	0
userService	0
Label	0
mybatisplus	0
ModelAndView	0
setPreferredSize	0
Fragment	0
autoconfigure	0
itemView	0
swagger	0
tools	0
errorMessage	0
getStatusCode	0
subject	0
getProperties	0
URL	0
Material	0
parseDouble	0
getColor	0
duration	0
verifyException	0
payload	0
notifyDataSetChanged	0
propertyName	0
State	0
validator	0
counter	0
endsWith	0
getValorProporcion	0
compile	0
getSystemService	0
setState	0
resourceGroupName	0
CollectionUtils	0
JsonProcessingException	0
executeUpdate	0
getContent	0
clone	0
addPreferredGap	0
mapping	0
builderForValue	0
UNPROVIDED	0
ApiException	0
SpringApplication	0
getState	0
canvas	0
TreeNode	0
Stream	0
response0	0
packageName	0
dataSource	0
getCode	0
InetSocketAddress	0
BufferedWriter	0
commit	0
queue	0
destination	0
processor	0
VISIBLE	0
Value	0
MenuItem	0
requestCode	0
min	0
language	0
direction	0
PackageManager	0
DataSource	0
setType	0
Event	0
amazonaws	0
Attribute	0
n	0
HttpResponse	0
getClassLoader	0
userName	0
conf	0
getTitle	0
getSession	0
DateTimeFormatter	0
getContentPane	0
getConfiguration	0
seedu	0
findById	0
math	0
alibaba	0
sender	0
o	0
compare	0
convert	0
ISUSAEJBLOGICLAYER	0
notification	0
addContainerGap	0
hikari	0
boot	0
resolve	0
zaxxer	0
Person	0
Controller	0
getVersion	0
getUsername	0
animation	0
Matchers	0
calendar	0
match	0
getJSONObject	0
Settings	0
objectMapper	0
AtomicBoolean	0
tree	0
visitor	0
cluster	0
toByteArray	0
memoizedIsInitialized	0
proto	0
Command	0
MotionEvent	0
predicate	0
columns	0
setFont	0
empty	0
Rectangle	0
stringBuilder	0
Project	0
applicationContext	0
limit	0
outputStream	0
connect	0
db	0
getMethod	0
var1	0
getSupportFragmentManager	0
AllArgsConstructor	0
Short	0
Blocks	0
getPosition	0
objects	0
req	0
getSource	0
timeout	0
UnknownFieldSet	0
Token	0
select	0
CodedOutputStream	0
load	0
FileUtils	0
randomUUID	0
facebook	0
Number	0
testsystems	0
StringUtil	0
queryWhereSelectParameters	0
Annotation	0
getObject	0
netty	0
rest	0
Query	0
findElement	0
directory	0
Action	0
isNotEmpty	0
createStatement	0
attrs	0
getCount	0
binding	0
constants	0
warn	0
getItem	0
ServiceException	0
ImmutableSet	0
StringReader	0
HttpHeaders	0
r	0
cause	0
Table	0
distance	0
integration	0
renderer	0
getX	0
Matcher	0
errors	0
len	0
matrix	0
Instant	0
collections	0
setBounds	0
copy	0
lastIndexOf	0
setToolTipText	0
selenium	0
operator	0
APPLICATION_JSON	0
getDefault	0
exchange	0
Supplier	0
endpoint	0
getLength	0
RelativeLayout	0
getY	0
ChannelHandlerContext	0
host	0
findAll	0
actions	0
recyclerView	0
reference	0
NoSuchMethodException	0
addListener	0
files	0
setAdapter	0
setInitialBackgroundColor	0
menu	0
getAttributes	0
preparedStatement	0
Font	0
metrics	0
doubleValue	0
Messages	0
scanner	0
render	0
Notification	0
StringWriter	0
value1	0
Repository	0
netbeans	0
InstantiationException	0
d	0
ApplicationContext	0
NonNull	0
transport	0
isSelected	0
beginTransaction	0
getAddress	0
analysis	0
tokens	0
serializer	0
comment	0
getParameters	0
value2	0
setForeground	0
squareup	0
JsonNode	0
src	0
Identifier	0
management	0
Data	0
JScrollPane	0
owner	0
times	0
IndexOutOfBoundsException	0
InetAddress	0
JpaRepository	0
FileWriter	0
parseWithIOException	0
post	0
entries	0
parsedMessage	0
doc	0
EntityManager	0
getSelectedItem	0
SQLiteDatabase	0
LEADING	0
reset	0
setImageResource	0
monitor	0
any	0
visit	0
ChatColor	0
getColumnIndex	0
getSize	0
sort	0
Before	0
find	0
getDisplayName	0
DateTime	0
pageSize	0
keys	0
Future	0
AtomicReference	0
AdapterView	0
NoArgsConstructor	0
socket	0
definition	0
err	0
Descriptor	0
WindowManager	0
STIPO_TAMANIO_GENERAL	0
isDirectory	0
setParameter	0
scale	0
HttpMethod	0
getResult	0
QName	0
trace	0
button	0
putString	0
_localctx	0
identity	0
entityManager	0
check	0
WebElement	0
struct	0
it	0
Cursor	0
setDefaultCloseOperation	0
AssertionError	0
device	0
FileReader	0
baomidou	0
Operation	0
RestController	0
stmt	0
assertNotEquals	0
getConfig	0
OkHttpClient	0
progress	0
finish	0
userRepository	0
stringValue	0
checkArgument	0
Client	0
StringTokenizer	0
Column	0
listeners	0
columnIndex	0
arr	0
getAnnotation	0
regex	0
writeString	0
m	0
admin	0
JMenuItem	0
Category	0
javaCharStream0	0
enabled	0
pipeline	0
toCharArray	0
member	0
gov	0
ensureFieldAccessorsInitialized	0
unmodifiableList	0
profile	0
getSharedPreferences	0
cell	0
arraycopy	0
signature	0
auth	0
activiti	0
report	0
viewHolder	0
writeValueAsString	0
logic	0
Enumeration	0
Build	0
setUp	0
tables	0
internalGetFieldAccessorTable	0
now	0
LinkedHashSet	0
lastComparison	0
dispose	0
addProperty	0
Address	0
ImageIcon	0
testng	0
MILLISECONDS	0
LayoutStyle	0
configure	0
fromString	0
permissions	0
getOutputStream	0
ObjectOutputStream	0
Position	0
URI	0
stringArray0	0
style	0
LogManager	0
business	0
Comparable	0
packet	0
getPassword	0
stop	0
robot	0
connexion	0
ZonedDateTime	0
Product	0
nextToken	0
ContentValues	0
range	0
resultCode	0
spring	0
BufferedInputStream	0
declareFunction	0
NotFoundException	0
Parameter	0
f	0
Callback	0
FieldDescriptor	0
serialize	0
extensions	0
PrintStream	0
createQuery	0
methods	0
dest	0
getIdentifier	0
ClassLoader	0
firstName	0
setBorder	0
JsonProperty	0
nums	0
scheduler	0
setSelected	0
lock	0
ObjectInputStream	0
feature	0
ofNullable	0
executorService	0
connector	0
Account	0
retrofit	0
shape	0
functions	0
SAXException	0
jPanel1Layout	0
log4j	0
subscribe	0
isValid	0
getUser	0
Image	0
getPlayer	0
future	0
encode	0
Util	0
shared	0
second	0
Symbol	0
ListNode	0
getEntity	0
serialization	0
Lists	0
generated	0
loader	0
sdk	0
OutputStreamWriter	0
rules	0
board	0
total	0
BluetoothGattCharacteristic	0
grpc	0
classes	0
NotNull	0
selection	0
formatter	0
World	0
Transactional	0
perform	0
setBackgroundColor	0
SECONDS	0
Schema	0
person	0
flags	0
locale	0
getBody	0
env	0
MIN_VALUE	0
form	0
getUserId	0
fitnesse	0
UserService	0
head	0
k	0
region	0
TestCase	0
scope	0
butterknife	0
isEnabled	0
columnName	0
cn	0
evaluate	0
original	0
getDefaultInstanceForType	0
mode	0
point	0
join	0
longValue	0
isNotBlank	0
num	0
Graphics	0
Paths	0
vaadin	0
serviceName	0
names	0
Page	0
jboss	0
ArgumentCaptor	0
RequiredArgsConstructor	0
expect	0
window	0
responseObserver	0
flag	0
accessToken	0
BorderFactory	0
RunWith	0
ParserConfigurationException	0
wrapper	0
ContextCompat	0
NBTTagCompound	0
cancel	0
preferences	0
BitmapFactory	0
display	0
getLong	0
firebase	0
capacity	0
anyString	0
stage	0
isNull	0
material	0
lang3	0
col	0
getDefaultState	0
ArgumentMatchers	0
setPosition	0
shutdown	0
getModel	0
Text	0
v1	0
bitmap	0
nextLine	0
getResponse	0
onSuccess	0
sample	0
isNotNull	0
getSupportActionBar	0
constant	0
library	0
ResourceBundle	0
EntityPlayer	0
proxy	0
schedule	0
DecimalFormat	0
ArrayAdapter	0
ISWING_ANCHO_CONTROL	0
ConfigurationException	0
buildPartial	0
DataType	0
option	0
DocumentBuilderFactory	0
deserialize	0
HttpRequest	0
translate	0
var2	0
lines	0
GlStateManager	0
JAXBElement	0
panel	0
Task	0
SpringBootApplication	0
lastName	0
Executors	0
Constant	0
ButtonActionListener	0
gui	0
setAccessible	0
startActivityForResult	0
meta	0
vertx	0
Resources	0
points	0
readString	0
onDestroy	0
setBlock	0
v1beta1	0
setTextColor	0
elementAt	0
tmp	0
variables	0
kafka	0
price	0
getField	0
UnknownHostException	0
OnItemClickListener	0
TextField	0
getStringExtra	0
DeploymentEntityManager	0
resp	0
assertj	0
desc	0
unit	0
CENTER	0
orElse	0
ResponseBody	0
setHorizontalAlignment	0
getPackageName	0
parseDelimitedFrom	0
crypto	0
getHeader	0
rule	0
customer	0
ListView	0
NIL	0
getIndex	0
manageException	0
decode	0
ArrayIndexOutOfBoundsException	0
X509Certificate	0
isBlank	0
LogFactory	0
forName	0
ISWING_ANCHO_CONTROL_LABEL	0
getDouble	0
getArguments	0
execution	0
notNull	0
iter	0
PreferenceManager	0
DataOutputStream	0
displayName	0
BlockState	0
strategy	0
getIntent	0
br	0
azure	0
getElement	0
lib	0
credentials	0
setContentType	0
DefaultMutableTreeNode	0
onCreateOptionsMenu	0
idx	0
getEsGuardarRelacionado	0
printf	0
dir	0
send	0
sum	0
Container	0
algorithm	0
rows	0
parseDelimitedWithIOException	0
startDate	0
getComponent	0
LENGTH_LONG	0
BroadcastReceiver	0
var0	0
Customer	0
RepositoryException	0
release	0
TimeoutException	0
resolver	0
getContentResolver	0
homeEnvironment0	0
classLoader	0
fromJson	0
onError	0
backend	0
progressRequestListener	0
tags	0
reactivex	0
telemetry	0
getCanonicalName	0
uuid	0
ScheduledExecutorService	0
sharedPreferences	0
parseLong	0
endTime	0
VERSION	0
setData	0
getLocalizedMessage	0
records	0
addGap	0
ISWING_ALTO_CONTROL	0
createTime	0
Hashtable	0
getTimestamp	0
encoding	0
TestUtils	0
PendingIntent	0
ValidationException	0
TreeMap	0
getEmail	0
classWriter0	0
job	0
HttpSession	0
Charset	0
groupId	0
tasks	0
selected	0
open	0
getAction	0
Main	0
TypeReference	0
Drawable	0
arg	0
EventHandler	0
errorCode	0
handlers	0
Authentication	0
prime	0
Employee	0
PsiElement	0
opengamma	0
presenter	0
Callable	0
GregorianCalendar	0
sequence	0
Inject	0
onActivityResult	0
toBuilder	0
users	0
kubernetes	0
apiClient	0
mergeUnknownFields	0
Uri	0
JFrame	0
filters	0
radius	0
login	0
getDefaultSharedPreferences	0
features	0
GeneralPath	0
topic	0
SUCCESS	0
addElement	0
containsString	0
javaParserTokenManager0	0
Parser	0
software	0
writeInt	0
getMetadata	0
argument	0
parts	0
imageView	0
ClassWriter	0
ObservableList	0
sessionId	0
localVarHeaderParams	0
isNullOrEmpty	0
ws	0
MockMvcRequestBuilders	0
JComboBox	0
subBuilder	0
MethodDescriptor	0
getTransaction	0
done	0
controllers	0
preference	0
projectId	0
widgets	0
typeName	0
SingleFieldBuilderV3	0
l	0
role	0
program	0
presentation	0
retrofit2	0
readInt	0
Manifest	0
httpClient	0
invocation	0
SecurityException	0
Types	0
variable	0
getItemId	0
Listener	0
me	0
MessageDigest	0
Subscription	0
Modifier	0
toJson	0
setPower	0
onResume	0
getView	0
DataInputStream	0
TException	0
getService	0
appendChild	0
Strings	0
Graphics2D	0
openqa	0
onCreateView	0
readValue	0
RequestBody	0
getItems	0
assertNotSame	0
makeSymbol	0
verifyNoMoreInteractions	0
top	0
transformer	0
NONE	0
priority	0
Lwjgl3WindowListener	0
isTrue	0
attr	0
PostingsEnum	0
GONE	0
returnValue	0
mage	0
STRING	0
DateFormat	0
restTemplate	0
comparator	0
script	0
toolbar	0
getColumn	0
enums	0
JsonElement	0
okhttp3	0
interval	0
dataset	0
ApiResponse	0
extern	0
publisher	0
FragmentManager	0
Solution	0
setHorizontalGroup	0
hasMoreElements	0
grammarAccess	0
flink	0
constructor	0
Condition	0
getProject	0
getSelectionModel	0
MockMvcResultMatchers	0
DriverManager	0
getToken	0
weight	0
ch	0
getClassName	0
addParameter	0
incrementAndGet	0
MatcherAssert	0
Paint	0
Variable	0
setBackgroundResource	0
arg0	0
setResizable	0
var3	0
cdolist_list_var	0
Order	0
EventBus	0
demo	0
orElseThrow	0
setMinimumSize	0
progressListener	0
setUnfinishedMessage	0
CoreMatchers	0
receiver	0
push	0
OffsetDateTime	0
codec	0
Option	0
contents	0
Options	0
selector	0
spec	0
Parameters	0
getFile	0
memoizedHashCode	0
firstinspires	0
cmd	0
setLocation	0
BufferedOutputStream	0
repositories	0
onFailure	0
mongodb	0
stats	0
examples	0
intSelectedRow	0
DEFAULT	0
naiveBayesMultinomialText0	0
expr	0
g	0
VERSION_CODES	0
getItemCount	0
_Fields	0
before	0
setCellValue	0
SEVERE	0
UTF_8	0
getSerializedSize	0
setPositiveButton	0
ConnectivityManager	0
java_cup	0
Group	0
HttpServlet	0
nextDouble	0
answer	0
grid	0
word	0
jsonPath	0
errorPage0	0
Channel	0
robotcore	0
mutable_bitField0_	0
bouncycastle	0
AuthenticationException	0
geometry	0
setSize	0
character	0
getDeclaredField	0
tuple	0
structure	0
SwingConstants	0
ButterKnife	0
setup	0
Filter	0
GridBagLayout	0
GridConstraints	0
paint	0
hazelcast	0
Call	0
subscription	0
with	0
uk	0
netflix	0
operations	0
ordinal	0
quantity	0
Version	0
XMLStreamException	0
link	0
swigCPtr	0
setPassword	0
getUrl	0
IndexReader	0
bounds	0
getChannel	0
where	0
Gson	0
IOUtils	0
getCause	0
getRequest	0
getDrawable	0
batch	0
longitude	0
AtomicLong	0
Reference	0
generate	0
Registry	0
WeakReference	0
lineSeparator	0
Permission	0
Student	0
clientId	0
ParserRuleContext	0
getLabel	0
setOnItemClickListener	0
delta	0
producer	0
startIndex	0
getApplication	0
JsonArray	0
getWindow	0
FileDescriptor	0
contact	0
mAdapter	0
setWindowPosition	0
clients	0
addChild	0
styleable	0
dom	0
amazon	0
getGlobalValue	0
properties0	0
lookup	0
setIcon	0
Vector3f	0
getAttributeValue	0
exit	0
singleton	0
getDate	0
eventType	0
oracle	0
details	0
okhttp	0
kuromojiAnalysisTests0	0
setLayoutManager	0
recyclerview	0
RequestMethod	0
interceptor	0
TypeToken	0
INTERNAL_SERVER_ERROR	0
Matrix	0
to	0
Record	0
ModelRenderer	0
multiply	0
andReturn	0
dataType	0
setMaximumSize	0
ClassCastException	0
FileUtil	0
getFileName	0
JComponent	0
ProgressDialog	0
findFirst	0
EMPTY	0
HdpiMode	0
messaging	0
cards	0
setWindowedMode	0
chromium	0
principal	0
SlimTableFactory	0
initComponents	0
authorization	0
BitSet	0
Arguments	0
symbol	0
click	0
alias	0
setHeader	0
ExpectedException	0
returnType	0
strings	0
tearDown	0
setVerticalGroup	0
SecurityContextHolder	0
Insets	0
eventBus	0
partition	0
addMouseListener	0
media	0
z	0
setBlockState	0
MessageFormat	0
removeAll	0
utilities	0
Point2D	0
Composite	0
FloatingActionButton	0
GeneratedMessage	0
categories	0
folder	0
sourceforge	0
setContent	0
concat	0
abs	0
ISWING_ALTO_CONTROL_LABEL	0
PropertyDescriptor	0
executionContext	0
NotificationManager	0
__methodResult__	0
eq	0
orientation	0
getTarget	0
newBuilderForType	0
PERMISSION_GRANTED	0
step	0
Getter	0
con	0
html	0
icon	0
DateUtils	0
getNode	0
SpringBootTest	0
found	0
ImageButton	0
getBean	0
ERROR	0
setInt	0
Factory	0
fill	0
TreeSet	0
newUninitializedMessageException	0
UserRepository	0
Constructor	0
stringReader0	0
_errHandler	0
latitude	0
getImage	0
conditions	0
textView	0
V	0
previous	0
booleanValue	0
openConnection	0
getPort	0
workflow	0
TableColumn	0
country	0
appcompat	0
ResourceNotFoundException	0
Byte	0
observer	0
getOrDefault	0
begin	0
author	0
BaseActivity	0
ExecutionContext	0
agent	0
spi	0
dismiss	0
policy	0
DefaultTableModel	0
ids	0
hasSize	0
BAD_REQUEST	0
listFiles	0
onCreateViewHolder	0
httpResponse	0
atomic	0
nanoTime	0
constraint	0
resourceName	0
year	0
xmlbeans	0
Reader	0
setField	0
resourcemanager	0
chain	0
isChecked	0
ParameterizedType	0
SerializedObjectSupporter	0
EntityType	0
origin	0
vertices	0
datosCliente	0
doReturn	0
Canvas	0
Mono	0
MockitoAnnotations	0
groups	0
access	0
featureID	0
GeneralSecurityException	0
DcMotor	0
complete	0
jSONObject0	0
getReference	0
onBackPressed	0
ServiceResponse	0
timer	0
channels	0
testing	0
getInteger	0
Database	0
MultipartFile	0
getBlock	0
dateFormat	0
QueryOuterClass	0
freq	0
section	0
GeneratedValue	0
setWindowListener	0
solution	0
getHeaders	0
infinispan	0
getValues	0
check_orphaned	0
isInitializationFailFast	0
Animation	0
Range	0
dispatcher	0
getAsString	0
getNumber	0
ClassPathXmlApplicationContext	0
prop	0
accountId	0
addItem	0
flow	0
ApiModelProperty	0
collector	0
Description	0
samples	0
Base64	0
contentLength	0
hardware	0
statusMessage	0
attributeName	0
destroy	0
schemas	0
CommandException	0
catalog	0
toJSONString	0
getParentFile	0
SerializedName	0
endDate	0
CloneNotSupportedException	0
ErrorCode	0
HttpEntity	0
bottom	0
workbench	0
Operator	0
Parcel	0
Module	0
vector	0
JCheckBox	0
oldValue	0
Parcelable	0
reason	0
toHexString	0
infrastructure	0
PropertyChangeListener	0
HttpClient	0
Tag	0
setHdpiMode	0
isConnected	0
Common	0
progressDialog	0
round	0
setFullscreenMode	0
getClient	0
JavaParserTokenManager	0
onBindViewHolder	0
FrameLayout	0
Socket	0
last	0
cookie	0
flatMap	0
AsyncTask	0
alpha	0
SwingUtilities	0
Vertex	0
lwjgl3ApplicationConfiguration1	0
createCell	0
getUniqueId	0
dstore	0
AnnotationConfigApplicationContext	0
SWT	0
localVarQueryParams	0
assertThatThrownBy	0
ifPresent	0
ignite	0
setChecked	0
redisTemplate	0
MojoExecutionException	0
activity_main	0
RestTemplate	0
enterprise	0
gameserver	0
requestId	0
getElementsByTagName	0
IBlockState	0
rootView	0
subscriber	0
generalEntityParameterGeneral	0
ISWING_ANCHO_CONTROL_BOTONICONO	0
FormAttachment	0
ObjectNode	0
Provider	0
writeObject	0
refresh	0
containsExactly	0
SlangCompiler	0
currentTime	0
Menu	0
implementation	0
abilities	0
Attributes	0
FileType	0
setLayoutParams	0
getRuntime	0
EnumFacing	0
snapshot	0
simpleIndexQueryParserTests1	0
sessionFactory	0
ByteBuf	0
segment	0
dimension	0
lifecycle	0
NAME	0
ISUSAEJBREMOTE	0
isInstanceOf	0
nextElement	0
sequenceiq	0
FileSystem	0
defStyleAttr	0
jdbcTemplate	0
Toolbar	0
var4	0
JavaCharStream	0
runnable	0
getCurrentUser	0
string0	0
parsePartialFrom	0
PageContext	0
GetMapping	0
hbase	0
Slf4j	0
depth	0
setLayoutData	0
getUnknownFields	0
getContentType	0
disconnect	0
month	0
tableColumn	0
BluetoothDevice	0
Stack	0
progressBar	0
invalidate	0
Platform	0
UsernamePasswordAuthenticationToken	0
ISWING_ALTO_CONTROL_BOTONICONO	0
exec	0
queryParams	0
candidate	0
ProgressBar	0
taskId	0
ActivityCompat	0
getAsJsonObject	0
FragmentTransaction	0
VirtualFile	0
currentUser	0
Adapter	0
html_macros	0
analytics	0
JFileChooser	0
readObject	0
xpath	0
Role	0
sagebionetworks	0
remaining	0
statistics	0
CommandResult	0
awsRequestMetrics	0
reportError	0
datasource	0
isActive	0
httpRequest	0
CoreException	0
Validator	0
currentBinding	0
ast	0
UIManager	0
Window	0
DEBUG	0
ThreadPoolExecutor	0
Instance	0
Coordinate	0
parameterName	0
console	0
phone	0
getResultList	0
documentation	0
tests	0
AbsoluteConstraints	0
queryString	0
expressions	0
tenantId	0
E	0
Header	0
eINSTANCE	0
question	0
dependencies	0
isVisible	0
result1	0
Key	0
getTableName	0
artifact	0
BaseController	0
Feature	0
Stage	0
indices	0
words	0
xPathLexer0	0
peek	0
InputMethodManager	0
QueryWhereSelectParameters	0
getDocument	0
indent	0
rand	0
MetaAdapterFactory	0
LinkedBlockingQueue	0
TYPE	0
Server	0
EventType	0
w	0
ProgressResponseBody	0
addObject	0
mRecyclerView	0
arg1	0
maven	0
setPreferencesConfig	0
getStackTrace	0
SDK_INT	0
getCurrentPosition	0
onSaveInstanceState	0
GridLayout	0
active	0
getJSONArray	0
edit	0
rowIndex	0
mActivity	0
prototype	0
browser	0
ListenableFuture	0
createElement	0
runOnUiThread	0
Pageable	0
submit	0
allocate	0
groupName	0
JsonParser	0
EqualsAndHashCode	0
getLog	0
openide	0
players	0
WebDriver	0
Converter	0
BadRequestException	0
Metadata	0
Pointer	0
retval	0
localVarReturnType	0
MathHelper	0
notNullValue	0
gateway	0
computeIfAbsent	0
fastjson	0
failureAndSuccessEvents	0
Minecraft	0
alert	0
getUserName	0
pair	0
capabilities	0
jdbc	0
EasyMock	0
NoSuchFieldException	0
BeforeClass	0
views	0
ps	0
NestedInnerQueryParseSupport	0
getRoot	0
labels	0
Cell	0
setNegativeButton	0
ibatis	0
requests	0
TABLE_NAME	0
putAll	0
fragments	0
RELATED	0
ContentType	0
wicket	0
CommandSender	0
v4	0
setDuration	0
wrap	0
phoneNumber	0
resourceId	0
PlayerEntity	0
I_CELLSPACING	0
spark	0
Error	0
devtools	0
PathVariable	0
BusinessException	0
speed	0
created	0
currency	0
after	0
asyncHandler	0
setSelectedIndex	0
getDataSource	0
DataAccessException	0
setUsername	0
getWriter	0
Name	0
background	0
addView	0
redis	0
JSON	0
setEditable	0
repo	0
putInt	0
resultList	0
qualcomm	0
ToStringBuilder	0
getEStructuralFeatures	0
elemField	0
interpreter	0
MODE_PRIVATE	0
remote	0
tool	0
gradle	0
camera	0
getDeclaredMethod	0
op	0
HORIZONTAL	0
StreamObserver	0
TimeZone	0
sun	0
self	0
pagination	0
pojo	0
isAnnotationPresent	0
student	0
getBlockState	0
getAmount	0
IntentFilter	0
IntStream	0
alwaysUseFieldBuilders	0
sheet	0
available	0
EnumSet	0
setDisplayHomeAsUpEnabled	0
onosproject	0
datastore	0
addMessage	0
ComponentName	0
isSuccess	0
bootstrap	0
getChild	0
visitChildren	0
Queue	0
willReturn	0
setRequestProperty	0
getChildCount	0
play	0
tracker	0
RandomAccessFile	0
currentState	0
parseBoolean	0
slot	0
lastModified	0
getMessageTypes	0
instances	0
TestUtil	0
setParent	0
fhir	0
expectedResult	0
change	0
requestBody	0
st	0
setBackBufferConfig	0
company	0
LuceneTestCase	0
ChangeListener	0
getServletContext	0
rotation	0
draw	0
getFirst	0
vertex	0
blocks	0
experimental	0
onComplete	0
WebApplicationException	0
gridy	0
jpa	0
organization	0
bindings	0
getDynamicValue	0
codehaus	0
oprot	0
pageable	0
JsonIgnoreProperties	0
ParseTreeListener	0
layer	0
keyword	0
persist	0
angle	0
getParameterTypes	0
edge	0
ERROR_MESSAGE	0
employee	0
NodeList	0
MediaStore	0
InvalidKeyException	0
setSupportActionBar	0
inputs	0
setResult	0
center	0
getModifiers	0
v7	0
history	0
parameterIndex	0
Timer	0
getFirstName	0
gridx	0
modifiers	0
dependency	0
gwt	0
checkSelfPermission	0
getNamespace	0
seconds	0
getSelectedIndex	0
NotificationCompat	0
texture	0
compute	0
insets	0
tokenizer	0
Utilities	0
increment	0
getServer	0
calibrator	0
instructions	0
projectName	0
instruction	0
itemStack	0
card	0
jsonArray	0
contract	0
stackSize	0
doInBackground	0
jPanel2Layout	0
LocalTime	0
getContextClassLoader	0
Writer	0
workspace	0
QueryWrapper	0
Executor	0
copyOf	0
BeforeEach	0
route	0
currentNode	0
listView	0
bluetoothGattCharacteristic	0
getTag	0
mListener	0
SubLSymbol	0
setTime	0
bufferedReader	0
helpers	0
drawString	0
pool	0
mockMvc	0
ServletContext	0
suffix	0
runners	0
getPackageManager	0
summary	0
ConnectionFactory	0
supplier	0
getDescriptorForType	0
Tuple	0
sTipo	0
getDataSourceProperties	0
addHeader	0
assignment	0
CommandTestUtil	0
injection	0
outputFile	0
worldIn	0
AffineTransform	0
ISUSAEJBHOME	0
chars	0
Opcodes	0
merge	0
CheckBox	0
URLEncoder	0
getHeaderCaseInsensitive	0
Region	0
getExpression	0
diff	0
members	0
httpServletRequest	0
kind	0
DatabaseReference	0
activities	0
expectedMessage	0
slim	0
asString	0
MediaPlayer	0
primaryStage	0
ProgressRequestListener	0
GL11	0
ignored	0
createdAt	0
productId	0
RequestParam	0
copyFromUtf8	0
CopyOnWriteArrayList	0
addColumn	0
AndroidSchedulers	0
getStringValue	0
getExternalStorageDirectory	0
Game	0
EAttribute	0
locator	0
baseUrl	0
ConfigurationProperties	0
InvalidParameterException	0
getLanguage	0
CrudRepository	0
rect	0
MessagingException	0
writeTo	0
Array	0
bucket	0
cassandra	0
ValidationResult	0
BuilderParent	0
unlock	0
hasPermission	0
addData	0
chart	0
Assignment	0
warning	0
SecureRandom	0
setLocationRelativeTo	0
deviceId	0
getWorld	0
getReturnType	0
GridData	0
MouseAdapter	0
Language	0
paths	0
userInfo	0
checkState	0
font	0
addRepeatedField	0
toStringUtf8	0
TRUE	0
mobile	0
given	0
failed	0
registration	0
mHandler	0
ru	0
mixin	0
get_store	0
getSubject	0
updateByPrimaryKeySelective	0
CertificateException	0
K	0
iprot	0
SwipeRefreshLayout	0
usuarioActual	0
makeString	0
setRepeatedField	0
getHost	0
dictionary	0
getTable	0
getWritableDatabase	0
byteBuffer	0
getInventory	0
numbers	0
threshold	0
contentPane	0
onPostExecute	0
MessageType	0
processors	0
attachment	0
getDisplayMetrics	0
getMethodName	0
mkdirs	0
SimpleStringProperty	0
BaseMapper	0
normalize	0
jasperreports	0
getOffset	0
XmlAccessorType	0
digest	0
getFields	0
Items	0
await	0
GenerationType	0
cls	0
putBoolean	0
encoder	0
gms	0
SmartDashboard	0
reverse	0
setWidth	0
Runtime	0
a0	0
parsers	0
coordinates	0
getResponseCode	0
codegen	0
getMenuInflater	0
yandex	0
dev	0
setSelection	0
getLongitude	0
onRequestPermissionsResult	0
mybatis	0
Bukkit	0
anchor	0
customers	0
sXmlStringFile	0
responseCode	0
hardwareMap	0
databinding	0
WHITE	0
changed	0
INVISIBLE	0
NOT_FOUND	0
getSettings	0
getID	0
ok	0
getOptions	0
onPause	0
WebSecurityConfigurerAdapter	0
recipe	0
cs	0
city	0
getLevel	0
usermodel	0
cardcrawl	0
EReference	0
getLayoutParams	0
prev	0
realm	0
detail	0
JRadioButton	0
getCategory	0
Vector3	0
getList	0
ServerSocket	0
ID	0
metaData	0
parameterTypes	0
addOption	0
statements	0
simple	0
FirebaseDatabase	0
WindowEvent	0
axis	0
Criterion	0
Buffer	0
Comment	0
ENotificationImpl	0
BasicNameValuePair	0
ThreadLocal	0
getRequestDispatcher	0
RenderingHints	0
setStyle	0
transition	0
updateTime	0
Vector2	0
CloseableHttpClient	0
callbackContext	0
required	0
By	0
screen	0
part	0
boolean2	0
hostname	0
handleException	0
roles	0
setTransactionIsolation	0
rollback	0
jsp	0
newLine	0
fieldType	0
jedis	0
instanceId	0
setAction	0
isRunning	0
onItemClick	0
KuromojiAnalysisTests	0
navigation	0
onResponse	0
RequestBuilder	0
comp	0
responses	0
var5	0
countDown	0
targets	0
subtract	0
CommandLine	0
JsonParseException	0
setVersion	0
reactor	0
prefs	0
kernel	0
book	0
layoutParams	0
setUnknownFields	0
v2	0
getComponentId	0
marker	0
promise	0
projection	0
Frame	0
DisplayMode	0
getErrorCode	0
synonymsAnalysisTest0	0
providers	0
ReflectionUtils	0
parentId	0
from_bitField0_	0
orderId	0
deleteById	0
tagext	0
scan	0
isFalse	0
grantResults	0
thoughtworks	0
applicationId	0
sc	0
ResourceType	0
connectionFactory	0
Dialog	0
parseFloat	0
delay	0
em	0
Fields	0
getColumnName	0
createNewFile	0
LivingEntity	0
openxmlformats	0
h	0
SocketChannel	0
privateKey	0
invokeLater	0
MESSAGE_INVALID_COMMAND_FORMAT	0
getTimeInMillis	0
co	0
move	0
writeByte	0
responseBody	0
comments	0
ensureAllSearchContextsReleased	0
datamodel	0
getDimensionPixelSize	0
addField	0
jooq	0
DocumentBuilder	0
getColumns	0
Lwjgl3WindowConfiguration	0
capture	0
XMLGregorianCalendar	0
ObjectUtils	0
ext	0
StackTraceElement	0
createTempFile	0
FirebaseAuth	0
nullValue	0
DateUtil	0
getLatitude	0
selectByPrimaryKey	0
hmcts	0
setActionCommand	0
deployment	0
visible	0
tile	0
sources	0
MeasureSpec	0
getAllEventTypes	0
WARNING	0
requestContext	0
EventListener	0
MATCH_PARENT	0
isTraceEnabled	0
jLabel1	0
publicKey	0
pageContext	0
transactions	0
ProgressListener	0
attributeValue	0
Gravity	0
term	0
SQLFeatureNotSupportedException	0
EntityLivingBase	0
setDecorated	0
bucketName	0
sKeyStrokeName	0
to_bitField0_	0
scheme	0
AudioManager	0
FALSE	0
invokingState	0
singletonMap	0
relation	0
EntityNotFoundException	0
FileObject	0
getAll	0
TypedValue	0
DisplayMetrics	0
Rule	0
candidates	0
re	0
Bytes	0
LOG_TAG	0
GsonBuilder	0
forward	0
unmodifiableMap	0
credential	0
setOnCheckedChangeListener	0
processing	0
TerminalNode	0
setModel	0
communication	0
getStart	0
getTransactionIsolation	0
FieldMetaData	0
Member	0
ProgressRequestBody	0
newHashSet	0
isSuccessful	0
setCode	0
emptyMap	0
schemeField	0
colors	0
Instruction	0
viewType	0
handleMessage	0
failure	0
cal	0
getById	0
setCellValueFactory	0
overrideTestDefaultQueryCache	0
getUuid	0
getLastName	0
standard	0
UsernameNotFoundException	0
responseEntity	0
PropertyChangeEvent	0
adapters	0
room	0
NumberFormat	0
cloudbreak	0
bridge	0
swt	0
interrupt	0
FlowLayout	0
ViewPager	0
messageId	0
workbook	0
toBytes	0
getOwner	0
midpoint	0
ConcurrentLinkedQueue	0
retVal	0
actor	0
_ctx	0
dimensions	0
Book	0
getRowCount	0
getColumnCount	0
PowerMockito	0
TokenType	0
CLASSNAME	0
localName	0
ArrayUtils	0
JsonInclude	0
resultMatrixSignificance0	0
Schedulers	0
Process	0
ConcurrentMap	0
getFieldName	0
orientechnologies	0
getLeft	0
WRAP_CONTENT	0
addPropertyChangeListener	0
getRuleContext	0
newFixedThreadPool	0
convertRowIndexToModel	0
Tuple2	0
evolveum	0
expectedException	0
GridLayoutManager	0
design	0
toFile	0
Preferences	0
memory	0
mouseClicked	0
eNotificationRequired	0
localVarCollectionQueryParams	0
moduloActual	0
bydan	0
exp	0
vo	0
parseObject	0
makeExtensionsImmutable	0
setLength	0
BlockingQueue	0
local	0
antlr	0
course	0
entityClass	0
ThreadLocalRandom	0
locations	0
MessageOrBuilder	0
arrayList	0
layoutManager	0
entityType	0
asm	0
FXCollections	0
getDuration	0
optional	0
onStart	0
jScrollPane1	0
getSchema	0
destructuring_bind_must_consp	0
wso2	0
PriorityQueue	0
BiFunction	0
addr	0
chunk	0
GrantedAuthority	0
Source	0
ObjectAnimator	0
UNKNOWN	0
setConnectionTestQuery	0
period	0
Scene	0
replacement	0
localVarAccept	0
getOptionValue	0
getRight	0
maps	0
ReentrantLock	0
getChildAt	0
withName	0
visited	0
jPanel1	0
ZERO	0
sync	0
getPrice	0
googleads	0
DAY_OF_MONTH	0
testScheduler0	0
lineNumber	0
UserInfo	0
getParentForChildren	0
repaint	0
originalCharacteristicInstanceId	0
localVarContentTypes	0
systemwideinterfaces	0
getStartTime	0
Snackbar	0
requestFocus	0
getErrorMessage	0
currentPage	0
setInitializationFailFast	0
mail	0
opcionActual	0
notify	0
additionalProperties	0
XmlAccessType	0
inner	0
computeMessageSize	0
setRotationPoint	0
payment	0
processInstanceId	0
shell	0
trigger	0
getTextContent	0
pop	0
Serializer	0
uid	0
CompletionStage	0
PageRequest	0
addImagenButtonGeneral	0
setConnectionCustomizerClassName	0
specification	0
A	0
datosDeep	0
Organization	0
async	0
Observer	0
metric	0
TRAILING	0
FacesContext	0
runelite	0
stringBuffer	0
Row	0
ValueAnimator	0
Template	0
stub	0
FLAG_ACTIVITY_NEW_TASK	0
balance	0
PostMapping	0
literal	0
columnNames	0
errorMsg	0
border	0
setEmail	0
img	0
discovery	0
states	0
builders	0
itemId	0
getMessageOrBuilder	0
camel	0
CloseableHttpResponse	0
carbon	0
POSITIVE_INFINITY	0
BaseEntity	0
getColumnModel	0
JTextArea	0
Setter	0
INFO	0
atlassian	0
mimeType	0
decoder	0
getPayload	0
EXIT_ON_CLOSE	0
utility	0
oauth2	0
Profile	0
setImageDrawable	0
setUserId	0
getPropertyValue	0
streams	0
clusterName	0
dataSnapshot	0
Usuario	0
tensorflow	0
worker	0
MockitoJUnitRunner	0
currentIndex	0
getEscapedColumnName	0
ISWING_ANCHO_COLUMNA	0
heightMeasureSpec	0
then	0
power	0
products	0
NotificationChain	0
RequestContext	0
defaultInstance	0
getConnectionCustomizerClassName	0
widthMeasureSpec	0
setInitialVisible	0
fragmentManager	0
getPreferredSize	0
Nonnull	0
external	0
usuario	0
getBuilder	0
Index	0
FXMLLoader	0
threads	0
valid	0
AbstractDungeon	0
BCryptPasswordEncoder	0
setting	0
getDimension	0
newState	0
Singleton	0
master	0
NotImplementedException	0
Edge	0
positions	0
reply	0
CUP$parser$stack	0
responseHandler	0
serverName	0
modelAndView	0
setMode	0
postDelayed	0
localVarContentType	0
sakaiproject	0
mapreduce	0
AbstractAction	0
getScheme	0
nome	0
eval	0
testutil	0
XmlElement	0
observable	0
isJdbc4ConnectionTest	0
getRow	0
enable	0
psi	0
loc	0
ObjectId	0
BuildConfig	0
connections	0
ImageIO	0
newHashMap	0
DataSnapshot	0
BiConsumer	0
assertPositionsSkippingEquals	0
TileEntity	0
ConfigurableApplicationContext	0
nodeId	0
methodWriter0	0
initView	0
ObjectFactory	0
fr	0
NamingException	0
getFloat	0
bufferSize	0
MockHttpServletRequest	0
BASELINE	0
Principal	0
Bean	0
gen	0
paramString	0
and	0
plan	0
Cipher	0
targetClass	0
appId	0
megacrit	0
images	0
actionExpression0	0
getQualifiedName	0
byteArray0	0
ServletRequest	0
UserDetails	0
databaseName	0
getSelectedRow	0
dateTime	0
deepLoadType	0
transactionId	0
NameValuePair	0
QueryBuilder	0
wpilibj	0
Scope	0
getEntityManager	0
FieldType	0
keyCode	0
running	0
article	0
customerId	0
getStatusLine	0
drawLine	0
Iterables	0
fs	0
TypeElement	0
ovirt	0
projects	0
precision	0
getMetaData	0
createTitledBorder	0
ContextConfiguration	0
composite	0
BindingResult	0
requestPermissions	0
Editor	0
Validate	0
jsonString	0
springboot	0
problem	0
streaming	0
queryBuilder	0
getParams	0
getDeclaredFields	0
parseColor	0
BLACK	0
getDeclaringClass	0
enqueue	0
cfg	0
getNodeName	0
defaultJSONParser0	0
RadioButton	0
bytesRead	0
router	0
valueType	0
getDefaultToolkit	0
instrumentation	0
CompilationUnit	0
ExceptionHandler	0
setOnAction	0
consume	0
extractor	0
portal	0
eu	0
RestAdapter	0
LogLevel	0
itemstack	0
dashboard	0
pstmt	0
effect	0
POGOProtos	0
analyzer	0
localVarFormParams	0
getPropertyName	0
authority	0
currentPosition	0
meta_data	0
delimiter	0
orderBy	0
velocity	0
p1	0
cssSelector	0
ac	0
writeBytes	0
floatValue	0
CompoundButton	0
LoginActivity	0
entityManagerFactory	0
containers	0
Score	0
linkedin	0
elem	0
talend	0
html_utilities	0
BaseAdapter	0
setDataSource	0
Interval	0
day	0
basePath	0
Display	0
getDataType	0
reform	0
setTimestamp	0
integer	0
Interpreter	0
boolean0	0
dataSourceProperties	0
getCurrent	0
accounts	0
drawImage	0
getConstructor	0
servletContext	0
contentValues	0
Rectangle2D	0
localVarApiClient	0
commandLine	0
cookies	0
getVisibility	0
age	0
cipher	0
html_markup	0
reporter	0
gender	0
paramMap	0
enumeration	0
cur	0
targetType	0
DefaultJSONParser	0
tileentity	0
BaseMessages	0
SlimTableFactoryTest	0
creator	0
DefaultComboBoxModel	0
aliyuncs	0
setFocusable	0
deadline0	0
binder	0
UnsupportedLookAndFeelException	0
var6	0
marshaller	0
transformation	0
CommonUtils	0
addSelectionListener	0
injector	0
setProgress	0
resourceType	0
Contact	0
resultMap	0
ContentResolver	0
hudson	0
IllegalValueException	0
segments	0
setCreateTime	0
fullName	0
$is_thread_performing_cleanupP$	0
objectweb	0
MutableLiveData	0
Ingredient	0
expectedModel	0
testName	0
redirectAttributes	0
notifications	0
RESULT	0
pointer	0
tagName	0
getAnnotations	0
representation	0
GLES20	0
JdbcTemplate	0
configs	0
indexName	0
passwordEncoder	0
registerAllExtensions	0
translation	0
volume	0
StringValue	0
TemporaryFolder	0
msgs	0
Currency	0
LogUtil	0
TransformerException	0
Rect	0
resourcePath	0
ValueType	0
Artifact	0
DatabaseException	0
onActivityCreated	0
getKeyMensaje	0
userdetails	0
getTypeName	0
INTEGER	0
Scheduler	0
functionName	0
getFragmentManager	0
make	0
configFile	0
getUnfinishedMessage	0
leetcode	0
SessionFactory	0
httpclient	0
googlecode	0
prepare	0
steps	0
Graph	0
ApplicationManager	0
Texture	0
setTextSize	0
memoizedSize	0
setError	0
recover	0
sTipoArchivoReporte	0
instanceOf	0
JSONPath	0
JMSException	0
BeanUtils	0
assertion	0
nextFloat	0
space	0
shardingsphere	0
PostConstruct	0
StringHelper	0
ListIterator	0
mediaPlayer	0
MockDirectoryWrapper	0
onViewCreated	0
applicationName	0
templates	0
getCurrentSession	0
inputFile	0
getGroup	0
area	0
JsonReader	0
sf	0
home	0
environmentalSensingService	0
basic	0
onNext	0
datatype	0
setTag	0
getResults	0
anyMatch	0
slimTableFactory	0
firePropertyChange	0
setDisplayName	0
concurrency	0
instrument	0
HandlerContextKey	0
pages	0
SpringJUnit4ClassRunner	0
Reporte	0
HashCodeBuilder	0
tx	0
thrown	0
fileOutputStream	0
ruoyi	0
Preference	0
setArguments	0
RESULT_OK	0
addHandlerContext	0
getLocalName	0
processInstance	0
getSignature	0
ButtonAbstractAction	0
ExecutionEntity	0
websocket	0
ServletResponse	0
distribution	0
updated	0
PropertyValueFactory	0
setHeight	0
putIfAbsent	0
ASTNode	0
fieldValue	0
entityId	0
Interceptor	0
isClosed	0
authenticate	0
getRepository	0
obtainStyledAttributes	0
cast	0
setDataSourceProperties	0
annotationType	0
pow	0
Interpreter_intStackSize	0
poll	0
ArrayDeque	0
COMMAND_WORD	0
newName	0
Closeable	0
LatLng	0
appName	0
Mapper	0
ServerResponse	0
EntityManagerFactory	0
opengl	0
backgroundColor	0
addresses	0
CardType	0
containsAll	0
Protocol	0
all	0
getCommand	0
queryParseContext0	0
sqrt	0
KeyStroke	0
propertyValue	0
createCriteria	0
sorted	0
withId	0
getConnectionInitSql	0
Subject	0
graphql	0
converters	0
multipart	0
actionBar	0
findByName	0
ip	0
PersistenceException	0
ValueEventListener	0
sAccionBusqueda	0
mask	0
extras	0
Style	0
getAcquireRetryDelay	0
Disposable	0
schemaName	0
CONTENT_TYPE	0
FragmentActivity	0
ClassPathResource	0
EObject	0
Transformer	0
configurations	0
rootNode	0
Input	0
Cache	0
nodeName	0
jdesktop	0
getEntry	0
equal	0
nombre	0
Processor	0
semanticweb	0
setAddress	0
OK	0
addValue	0
TelephonyManager	0
testBranchCoverageLight	0
MethodWriter	0
queries	0
Typeface	0
JsonUtils	0
transfer	0
i2	0
getExtension	0
nonNull	0
jackrabbit	0
calcite	0
Restrictions	0
addEdge	0
IElementType	0
_isGeneratedId	0
BOOLEAN	0
LocationManager	0
getCollection	0
AxisAlignedBB	0
getValueAt	0
setCancelable	0
ServiceImpl	0
getBounds	0
InternalEObject	0
publish	0
XmlRootElement	0
stat	0
getPluginManager	0
erp	0
listIterator	0
jLabel2	0
Maps	0
RIGHT	0
enterOuterAlt	0
getEndpoint	0
JAXBException	0
Card	0
scheduling	0
seed	0
getAuthentication	0
AjaxResult	0
keyStrokeControl	0
metamodel	0
localVarAuthNames	0
ErrorPage	0
logError	0
getEntries	0
javascript	0
Utility	0
runTest	0
getSelection	0
moduleName	0
paramName	0
aliyun	0
EClass	0
ActivityManager	0
generic	0
jivesoftware	0
Question	0
jSONArray0	0
getDefaultValue	0
skip	0
checker	0
getConnectionTimeout	0
subList	0
Funciones	0
w3c	0
getLeakDetectionThreshold	0
middleware	0
definitions	0
Promise	0
queryWrapper	0
currentValue	0
underTest	0
BoxLayout	0
sendKeys	0
toRadians	0
getZ	0
totalCount	0
boolean9	0
tencent	0
SecretKeySpec	0
str2	0
observableArrayList	0
getAccessToken	0
distinct	0
JsonGenerator	0
ResourceManager	0
mid	0
diagnostics	0
Content	0
getException	0
lexer	0
SecurityUtils	0
compareAndSet	0
translator	0
bluetoothGattService	0
DeserializationFeature	0
IntegerValue	0
e1	0
getMap	0
getFieldValue	0
addAction	0
userAgent	0
setObject	0
moveToFirst	0
findOne	0
which	0
OnCheckedChangeListener	0
SearchResult	0
cost	0
classification	0
optString	0
Funciones2	0
getPrincipal	0
JsonCreator	0
has	0
keywords	0
operators	0
batchSize	0
curr	0
getDatabase	0
latch	0
keycloak	0
getPriority	0
bumptech	0
closeQuietly	0
fileChooser	0
localVarPostBody	0
RuleChain	0
characters	0
getKeyStroke	0
RequestOptions	0
getVariable	0
broadinstitute	0
jobId	0
objectName	0
makeKeyword	0
InvalidArgumentException	0
Article	0
custom	0
getIcon	0
capability	0
def	0
UserDetailsService	0
transactionManager	0
getTimeZone	0
forClass	0
UncheckedIOException	0
outState	0
StandardOpenOption	0
TransformerFactory	0
SelectionEvent	0
endIndex	0
Param	0
Pagination	0
GET	0
mc	0
ExpectedConditions	0
Relationship	0
pushFollow	0
camunda	0
patterns	0
isReadOnly	0
pageNumber	0
toMap	0
mediaType	0
parcel	0
VisibleForTesting	0
addLast	0
AuthenticationManager	0
Subscriber	0
NonRootModelElement	0
algorithms	0
Unit	0
subscriptionId	0
setProperties	0
NameNotFoundException	0
urlConnection	0
compound	0
VERTICAL	0
getError	0
getSuperclass	0
q	0
createFromParcel	0
modifier	0
copyProperties	0
DatagramPacket	0
foundation	0
getCreateTime	0
setAutoCommit	0
Expr	0
ByteOrder	0
getCell	0
componentName	0
BaseFragment	0
setDisable	0
queryParam	0
CommandContext	0
ServerPlayerEntity	0
LEFT	0
$jacocoInit	0
getNextToken	0
commonGramsTokenFilterFactoryTests0	0
Keyword	0
getController	0
timeStamp	0
SocketException	0
span	0
CommonGramsTokenFilterFactoryTests	0
ClientException	0
getMessages	0
sub	0
accessor	0
relationship	0
elementType	0
setWindowSizeLimits	0
note	0
SuppressLint	0
WebView	0
cols	0
topology	0
placeholder	0
DrawerLayout	0
lineTo	0
pack	0
DialogFragment	0
setConnectionInitSql	0
menuItem	0
fieldId	0
webservices	0
setRequestMethod	0
team	0
setSelectedItem	0
Device	0
broker	0
BasicDBObject	0
getQuantity	0
Sequence	0
getTokenType	0
Alert	0
dataList	0
Camera	0
mappings	0
selectionArgs	0
Exceptions	0
getParserForType	0
testStatementCoverageLight	0
getFirstChild	0
global	0
getStyle	0
RedirectAttributes	0
toPath	0
setImage	0
SlangImpl	0
edges	0
Signature	0
Publisher	0
disableAudio	0
newNode	0
addTextChangedListener	0
verbose	0
robolectric	0
collectionName	0
jj_consume_token	0
chat	0
textField	0
smartregister	0
boolean6	0
floor	0
junit4	0
addStatement	0
ConstraintViolation	0
experiment	0
Dependency	0
createInstance	0
Mode	0
TestConstants	0
getQuery	0
After	0
overridePendingTransition	0
WindowConstants	0
viewModel	0
setImageBitmap	0
changes	0
ownerId	0
reactive	0
CUP$ASTPHP5Parser$stack	0
setLabel	0
serviceId	0
behavior	0
newArray	0
cli	0
localVarAccepts	0
BluetoothAdapter	0
solver	0
offer	0
InvalidAlgorithmParameterException	0
notificationManager	0
Const	0
_builder	0
department	0
Country	0
requestBuilder	0
PROPERTY_QNAME	0
download	0
compress	0
replaceFirst	0
ConstraintViolationException	0
TProtocol	0
setViewportView	0
Marker	0
sentence	0
getMendixObject	0
__result__	0
cos	0
setCharacterEncoding	0
tab	0
NetworkInterface	0
buttons	0
wallet	0
RoundingMode	0
checkByteStringIsUtf8	0
NoViableAltException	0
getChildNodes	0
emptySet	0
setAudioConfig	0
ContactsContract	0
SortedSet	0
EntityUtils	0
getBackground	0
XmlPullParserException	0
BeansException	0
writeToParcel	0
HibernateException	0
evaluator	0
KeyValue	0
eContents	0
Global	0
isInstance	0
Sets	0
writeMessage	0
javaLanguage0	0
calculate	0
HttpResponseStatus	0
initialized	0
Transition	0
getElements	0
sign	0
openSession	0
boolean3	0
branch	0
getColumnIndexOrThrow	0
rpc	0
dst	0
JTable	0
getPrefix	0
setRegisterMbeans	0
getFullName	0
writeAttribute	0
export	0
expectMessage	0
namespaces	0
AsyncHandler	0
Inventory	0
boolean10	0
shiro	0
AuthenticationManagerBuilder	0
MethodHandles	0
initialValue	0
mView	0
emf	0
Json	0
ErrorResponse	0
declaration	0
frequency	0
INFORMATION_MESSAGE	0
padding	0
VerticalLayout	0
ignore	0
conCargarMinimo	0
getEnvironment	0
createEmptyBorder	0
isCancelled	0
effects	0
readStringRequireUtf8	0
createDate	0
LogUtils	0
Internal	0
recycle	0
setDirection	0
testMCDCLightComplete	0
qName	0
setParameters	0
Namespace	0
ProcessBuilder	0
ca	0
editorCell	0
TimerTask	0
clock	0
memoizedSerializedSize	0
ibm	0
__resultList__	0
IBinder	0
Plugin	0
getLineNumber	0
componentType	0
certificate	0
getAndIncrement	0
Cluster	0
XmlPullParser	0
restoreIndexWriterMaxDocs	0
bufferedWriter	0
getPackage	0
visibility	0
links	0
procedures	0
var7	0
mt_relevance_macros	0
isLoggable	0
DeserializationContext	0
Time	0
yahoo	0
Geometry	0
Endpoint	0
Animator	0
getProtocol	0
_context	0
__argsBatch__	0
SecurityContext	0
alertDialog	0
variant	0
ObjectName	0
getCanonicalPath	0
Target	0
readUnsignedShort	0
getKeyNameControl	0
readByte	0
createResource	0
appContext	0
ipAddress	0
withDescription	0
getAdapter	0
OperationResult	0
byteArrayOutputStream	0
typeHandler	0
SystemException	0
ObjectNotFoundException	0
artifactId	0
createTable	0
MockHttpServletResponse	0
clearField	0
predicates	0
site	0
toMillis	0
getExtras	0
getInfo	0
BadLocationException	0
BluetoothGattService	0
deleteByPrimaryKey	0
Classe	0
aggregate	0
health	0
secretKey	0
IRubyObject	0
mouseX	0
showToast	0
readBytes	0
jInternalFrameParent	0
ResponseStatusException	0
existing	0
FileSystemHandling	0
newDocumentBuilder	0
esControlTabla	0
execSQL	0
osgi	0
categoryId	0
elementName	0
getBundle	0
FilterChain	0
DOUBLE	0
apiVersion	0
drools	0
Department	0
box	0
ActionBar	0
AsyncResult	0
textNode2	0
s1	0
completedFuture	0
subsystems	0
curveTo	0
partitions	0
viewer	0
setDate	0
testCase	0
setItems	0
joining	0
getRequestURI	0
terminate	0
getAdapterPosition	0
getDistance	0
binary	0
converted	0
SynonymsAnalysisTest	0
setFirstName	0
getKind	0
relativePath	0
accountName	0
assertParseFailure	0
maxSize	0
getAuthor	0
backtracking	0
HttpGet	0
p2	0
arg2	0
testContext	0
Shape	0
addVertex	0
thinkgem	0
HorizontalLayout	0
JsonIgnore	0
fragmentTransaction	0
Dataset	0
getScore	0
JsonMappingException	0
ads	0
intersection	0
inOrder	0
TableField	0
mouseY	0
DELETE	0
sink	0
WRITE_EXTERNAL_STORAGE	0
UserEntity	0
Link	0
URLConnection	0
dispatch	0
EqualsBuilder	0
fabricmc	0
);	-0
▁{	-1
▁}	-2
▁=	-3
()	-4
▁(	-5
();	-6
("	-7
▁"	-8
▁+	-9
",	-10
).	-11
().	-12
");	-13
));	-14
▁0	-15
());	-16
00	-17
▁==	-18
▁1	-19
▁!	-20
))	-21
▁S	-22
▁!=	-23
(),	-24
▁-	-25
[]	-26
IN	-27
▁C	-28
())	-29
ON	-30
";	-31
▁:	-32
▁&	-33
▁<	-34
),	-35
▁P	-36
▁M	-37
▁&&	-38
▁I	-39
▁D	-40
▁0;	-41
▁2	-42
▁_	-43
Su	-44
▁B	-45
(1	-46
▁|	-47
"));	-48
▁>	-49
▁(!	-50
++	-51
(0	-52
CO	-53
>();	-54
ION	-55
▁F	-56
").	-57
\"	-58
▁*	-59
--	-60
▁((	-61
()).	-62
▁?	-63
▁G	-64
)).	-65
▁u	-66
▁'	-67
▁||	-68
▁->	-69
01	-70
▁H	-71
▁N	-72
▁L	-73
Ou	-74
>>	-75
((	-76
▁0)	-77
2.	-78
▁W	-79
IS	-80
▁3	-81
++)	-82
▁U	-83
▁J	-84
];	-85
OU	-86
IC	-87
SS	-88
▁});	-89
▁O	-90
▁/	-91
CH	-92
.0	-93
IL	-94
"),	-95
Nu	-96
<>();	-97
LO	-98
"))	-99
1.	-100
US	-101
..	-102
<?	-103
IM	-104
(2	-105
()));	-106
1,	-107
▁0,	-108
▁4	-109
OP	-110
OD	-111
▁+=	-112
Bu	-113
0000	-114
IG	-115
ND	-116
Qu	-117
▁",	-118
.*	-119
//	-120
▁5	-121
Cu	-122
▁1;	-123
LL	-124
[0	-125
__	-126
ING	-127
000	-128
UM	-129
==	-130
▁};	-131
PO	-132
.*;	-133
")	-134
CON	-135
BL	-136
>(	-137
▁-1	-138
COL	-139
Pu	-140
UN	-141
Mu	-142
NO	-143
▁%	-144
ML	-145
.");	-146
99	-147
0,	-148
▁1,	-149
2,	-150
(0,	-151
[0]	-152
▁1);	-153
▁0);	-154
OM	-155
PL	-156
()))	-157
::	-158
CL	-159
SI	-160
▁>=	-161
")).	-162
▁{}	-163
**	-164
FI	-165
="	-166
[1	-167
▁6	-168
3.	-169
SH	-170
',	-171
3,	-172
_1	-173
▁X	-174
02	-175
OL	-176
▁\"	-177
(0);	-178
SC	-179
IP	-180
<?>	-181
(1,	-182
FF	-183
].	-184
)));	-185
QL	-186
uM	-187
11	-188
▁8	-189
SP	-190
5,	-191
2);	-192
▁1)	-193
DI	-194
----	-195
],	-196
NG	-197
NS	-198
Fu	-199
0;	-200
".	-201
QU	-202
://	-203
DB	-204
▁<=	-205
0.	-206
("\	-207
0);	-208
++;	-209
1",	-210
▁},	-211
▁[	-212
4,	-213
<>(	-214
▁"\	-215
BU	-216
("/	-217
12	-218
]);	-219
0100	-220
FO	-221
▁"/	-222
('	-223
▁IN	-224
LU	-225
32	-226
▁0.	-227
▁"";	-228
▁7	-229
1);	-230
▁("	-231
NC	-232
2;	-233
MO	-234
LOC	-235
▁2,	-236
(3	-237
PI	-238
▁__	-239
LI	-240
Du	-241
MS	-242
OC	-243
UP	-244
08	-245
MP	-246
DD	-247
====	-248
...	-249
SIZ	-250
(4	-251
("<	-252
FIL	-253
(1);	-254
4.	-255
CU	-256
▁0.0	-257
MOD	-258
\\	-259
>()	-260
1\	-261
{}	-262
▁");	-263
(5	-264
##	-265
\":	-266
PU	-267
OS	-268
1;	-269
16	-270
SQL	-271
OW	-272
25	-273
IND	-274
OB	-275
ULL	-276
()),	-277
▁Z	-278
▁100	-279
(_	-280
(0).	-281
MM	-282
▁".	-283
04	-284
UI	-285
Gu	-286
>)	-287
005	-288
▁-1;	-289
2",	-290
NUM	-291
▁2;	-292
WO	-293
9,	-294
_2	-295
COUN	-296
▁//	-297
[][]	-298
GL	-299
IF	-300
8,	-301
6,	-302
SU	-303
▁Mu	-304
▁"<	-305
0\	-306
55	-307
COD	-308
INS	-309
YS	-310
OF	-311
':	-312
▁{}",	-313
LD	-314
FIX	-315
INJ	-316
:"	-317
2)	-318
03	-319
SOU	-320
▁1.0	-321
][	-322
>");	-323
UL	-324
IO	-325
00,	-326
▁9	-327
!");	-328
PP	-329
XML	-330
5.	-331
23	-332
▁Y	-333
---	-334
10	-335
');	-336
")));	-337
7,	-338
001	-339
=\"	-340
.",	-341
****	-342
FIG	-343
1");	-344
(2,	-345
4;	-346
▁-1)	-347
PC	-348
(",	-349
CC	-350
())).	-351
▁IS	-352
▁1000	-353
(()	-354
8.	-355
▁Su	-356
LIN	-357
7.	-358
_0	-359
')	-360
INI	-361
---+	-362
3;	-363
])	-364
--------	-365
_.	-366
3);	-367
DS	-368
▁10	-369
00);	-370
▁++	-371
64	-372
9.	-373
BY	-374
▁"'	-375
78	-376
▁").	-377
18	-378
CONFIG	-379
LIS	-380
BO	-381
▁"_	-382
▁4,	-383
▁2);	-384
14	-385
3",	-386
▁<<	-387
FL	-388
_005	-389
56	-390
▁Cu	-391
WI	-392
▁Pu	-393
5;	-394
IONS	-395
GU	-396
[2	-397
5);	-398
▁"");	-399
UC	-400
▁2)	-401
.<	-402
▁16	-403
▁3,	-404
":	-405
---+---+	-406
MIN	-407
[1]	-408
(-	-409
MB	-410
)");	-411
</	-412
LS	-413
\",	-414
='	-415
▁"-	-416
IGN	-417
IGH	-418
[0];	-419
1)	-420
DIS	-421
MY	-422
>\	-423
▁NO	-424
6.	-425
ONG	-426
OUP	-427
("");	-428
13	-429
201	-430
▁"",	-431
▁"--	-432
>,	-433
)))	-434
19	-435
UMN	-436
▁CON	-437
HOD	-438
(((	-439
OFF	-440
)",	-441
▁(_	-442
05	-443
LF	-444
MQ	-445
2");	-446
2\	-447
▁"]	-448
▁US	-449
("[	-450
>",	-451
4);	-452
OBJ	-453
▁";	-454
8;	-455
SW	-456
)),	-457
FS	-458
9999	-459
LOB	-460
(0));	-461
(2);	-462
"))).	-463
BLOC	-464
002	-465
34	-466
========	-467
CS	-468
▁3;	-469
▁":	-470
▁(!(	-471
MPL	-472
▁'"	-473
▁5,	-474
▁10;	-475
09	-476
ISION	-477
_3	-478
_;	-479
("%	-480
LOW	-481
OO	-482
(1).	-483
▁12	-484
▁}).	-485
MSG	-486
▁IC	-487
0)	-488
▁""	-489
))).	-490
SY	-491
BC	-492
WS	-493
._	-494
IBU	-495
▁()	-496
DO	-497
▁\	-498
8);	-499
HO	-500
▁'\	-501
(1)).	-502
2(	-503
37	-504
USH	-505
CISION	-506
06	-507
SB	-508
("-	-509
[]>	-510
07	-511
GB	-512
POIN	-513
15	-514
<>	-515
▁{\	-516
NULL	-517
▁@	-518
SSWO	-519
[0]);	-520
OWN	-521
38	-522
IMI	-523
▁>>	-524
COMP	-525
CCOUN	-526
\1\	-527
COLUMN	-528
5",	-529
IB	-530
XP	-531
▁NULL	-532
(3,	-533
IGIN	-534
SCH	-535
6;	-536
NOD	-537
ONS	-538
▁4;	-539
▁255	-540
24	-541
####	-542
/"	-543
(6	-544
DF	-545
ISO	-546
000);	-547
OLD	-548
▁Ou	-549
▁$	-550
(1));	-551
CM	-552
[3	-553
CI	-554
("#	-555
▁"\"	-556
SL	-557
0101	-558
LY	-559
]",	-560
4",	-561
▁;	-562
UPD	-563
▁)	-564
SUB	-565
>>>>	-566
[0],	-567
▁ISO	-568
28	-569
OFFS	-570
7;	-571
YP	-572
POS	-573
-8	-574
_,	-575
[0].	-576
▁0));	-577
▁1]	-578
▁")	-579
▁-=	-580
<?>>	-581
▁1));	-582
22	-583
SPONS	-584
9;	-585
BB	-586
(".	-587
LIZ	-588
36	-589
0001	-590
>"	-591
[])	-592
▁18	-593
004	-594
▁Bu	-595
▁"[	-596
(7	-597
NN	-598
▁"3	-599
NUMB	-600
********	-601
▁DB	-602
FINI	-603
YB	-604
▁Q	-605
▁6,	-606
SING	-607
▁10,	-608
Hu	-609
.0,	-610
SYS	-611
MI	-612
▁15	-613
("",	-614
]+	-615
17	-616
003	-617
\0\	-618
▁Fu	-619
▁Qu	-620
POSI	-621
CLI	-622
00000000	-623
COMM	-624
Lu	-625
▁0.5	-626
.5	-627
20	-628
DU	-629
▁^	-630
200	-631
▁WH	-632
GO	-633
////	-634
▁5;	-635
....	-636
IZ	-637
▁"}	-638
▁IP	-639
SIGN	-640
XC	-641
DUM	-642
▁JB	-643
▁24	-644
HOS	-645
▁"%	-646
▁"{	-647
MIS	-648
IFIC	-649
MD	-650
DOWN	-651
OUND	-652
'",	-653
0));	-654
(4,	-655
?",	-656
59	-657
FIN	-658
ILD	-659
▁UI	-660
33	-661
▁SH	-662
▁|=	-663
DUMMY	-664
256	-665
:");	-666
())));	-667
CD	-668
▁25	-669
';	-670
MUL	-671
▁3);	-672
29	-673
2_	-674
<?,	-675
CP	-676
SM	-677
CONS	-678
__.	-679
")),	-680
▁"/"	-681
6);	-682
88	-683
▁.	-684
("1	-685
▁--	-686
3");	-687
PLIC	-688
▁102	-689
\",\	-690
...");	-691
(5,	-692
_0_	-693
}",	-694
")))	-695
CONN	-696
▁2.0	-697
▁"1	-698
▁CO	-699
PH	-700
▁["	-701
("\"	-702
▁}));	-703
-1	-704
[4	-705
▁11	-706
▁?>	-707
UD	-708
▁(((	-709
014	-710
XIS	-711
0000000	-712
---+---+---+---+	-713
SSL	-714
▁1).	-715
----------------	-716
='"	-717
DOM	-718
1").	-719
(!	-720
BS	-721
JP	-722
MON	-723
▁"0	-724
LONG	-725
▁8,	-726
_);	-727
35	-728
LIC	-729
▁Nu	-730
0800	-731
GG	-732
▁CH	-733
▁SQL	-734
(100);	-735
84	-736
NI	-737
▁Du	-738
(",");	-739
--;	-740
\02	-741
▁(1	-742
BLIC	-743
]");	-744
NU	-745
[1];	-746
▁XML	-747
21	-748
32(	-749
(10,	-750
▁'{}	-751
▁-1);	-752
00;	-753
("\\	-754
76	-755
=%	-756
++]	-757
▁BY	-758
▁1];	-759
''	-760
NB	-761
▁"#	-762
(3);	-763
[1]);	-764
2));	-765
PS	-766
(0.	-767
16.	-768
2()	-769
:00	-770
3)	-771
_4	-772
.";	-773
(4);	-774
[^	-775
[2]	-776
26	-777
()];	-778
}");	-779
▁"."	-780
BI	-781
JS	-782
NCOD	-783
JB	-784
▁FO	-785
▁MOD	-786
.\	-787
1(	-788
JC	-789
("</	-790
GLOB	-791
▁0),	-792
!",	-793
(0),	-794
COND	-795
▁COL	-796
▁100;	-797
(8	-798
PN	-799
▁5);	-800
("$	-801
(";	-802
>>)	-803
▁-1,	-804
▁COM	-805
失败	-806
YOU	-807
(1),	-808
SBML	-809
(""))	-810
OJ	-811
CUL	-812
))));	-813
85	-814
(\"	-815
30	-816
>>>	-817
USD	-818
()[	-819
SUP	-820
("201	-821
▁2));	-822
><	-823
DC	-824
XY	-825
(0)	-826
9);	-827
DBC	-828
66	-829
UNI	-830
▁14	-831
[1],	-832
▁1000;	-833
CIM	-834
("__	-835
77	-836
▁~	-837
▁FIL	-838
▁10);	-839
SHO	-840
SON	-841
\03	-842
LLOW	-843
▁("_	-844
(2));	-845
ZC	-846
-01	-847
0.0	-848
HOU	-849
NNO	-850
▁8)	-851
▁IND	-852
MIL	-853
FULL	-854
\":\"	-855
II	-856
PD	-857
NSI	-858
("//	-859
1_	-860
▁LOC	-861
1"));	-862
BUILD	-863
CUS	-864
IFY	-865
▁6;	-866
CLUS	-867
0_	-868
96	-869
SD	-870
NCH	-871
▁3)	-872
▁[%	-873
▁[{}	-874
NDL	-875
44	-876
("{	-877
>";	-878
▁ON	-879
▁NUM	-880
__");	-881
.2	-882
ILI	-883
GUYB	-884
HB	-885
0),	-886
7);	-887
LOS	-888
▁"$	-889
▁60	-890
{}",	-891
▁31,	-892
PUBLIC	-893
▁10000	-894
75	-895
__).	-896
7816.	-897
COMPL	-898
GM	-899
IFI	-900
LCUL	-901
▁0))	-902
>>();	-903
ISH	-904
UNC	-905
▁"&	-906
▁NS	-907
1));	-908
▁\""	-909
(100,	-910
▁'\''	-911
NY	-912
OLL	-913
\"\	-914
▁99	-915
>>()	-916
▁"</	-917
▁4);	-918
▁{},	-919
:\	-920
FLO	-921
▁IM	-922
(1.0	-923
DMIN	-924
(0)).	-925
SO	-926
234	-927
GIN	-928
▁IO	-929
▁SSL	-930
================	-931
86	-932
00)	-933
;",	-934
></	-935
SUF	-936
▁7;	-937
▁OP	-938
2").	-939
BUFF	-940
."));	-941
▁BIGIN	-942
39	-943
[5	-944
YWO	-945
[^/	-946
▁1),	-947
HI	-948
0",	-949
DOC	-950
[^/]+	-951
UND	-952
▁8;	-953
▁7,	-954
(10);	-955
▁1000);	-956
▁'%	-957
(2).	-958
SYNC	-959
."	-960
1:	-961
4)	-962
▁19	-963
▁20	-964
LICY	-965
▁","	-966
/[^/]+	-967
POLICY	-968
SUFFIX	-969
_5	-970
▁GLOB	-971
▁LONG	-972
1).	-973
14.	-974
>("	-975
▁!(	-976
▁SU	-977
ICON	-978
MISS	-979
1[	-980
2[	-981
FX	-982
GP	-983
{"	-984
)];	-985
--)	-986
/",	-987
-9	-988
LG	-989
QF	-990
BIN	-991
▁OU	-992
000,	-993
<?>)	-994
()");	-995
BP	-996
1()	-997
SSF	-998
▁1:	-999
▁MQ	-1000
(5);	-1001
0\1\	-1002
2:	-1003
87	-1004
:%	-1005
006	-1006
FFFF	-1007
LIMI	-1008
89	-1009
HS	-1010
JO	-1011
("0	-1012
JOB	-1013
▁-9,	-1014
DISPL	-1015
▁100,	-1016
########	-1017
++);	-1018
INDING	-1019
NDPOIN	-1020
WH	-1021
▁}\	-1022
OPIC	-1023
▁{"));	-1024
$$	-1025
3_	-1026
<<	-1027
>());	-1028
▁MCOMP	-1029
QN	-1030
)";	-1031
GUI	-1032
COLO	-1033
DP	-1034
OG	-1035
XPI	-1036
▁JS	-1037
▁OB	-1038
4");	-1039
[],	-1040
▁IF	-1041
'");	-1042
IMPL	-1043
▁20;	-1044
(200,	-1045
(\	-1046
;\	-1047
uu	-1048
DON	-1049
IGI	-1050
▁1.	-1051
▁13	-1052
("_	-1053
▁SB	-1054
DL	-1055
SN	-1056
29.	-1057
=");	-1058
LIGH	-1059
2"));	-1060
53	-1061
▁#	-1062
INPU	-1063
▁11,	-1064
3/	-1065
6_	-1066
74	-1067
▁(-	-1068
("--	-1069
CLOS	-1070
(1000);	-1071
DY	-1072
GC	-1073
["	-1074
▁CL	-1075
(-1,	-1076
////////	-1077
6-	-1078
JD	-1079
(201	-1080
MODUL	-1081
000000	-1082
31	-1083
("*	-1084
NON	-1085
▁'}	-1086
NING	-1087
▁200	-1088
SSION	-1089
\030\	-1090
54	-1091
GIS	-1092
OBS	-1093
SIS	-1094
▁PO	-1095
IMUM	-1096
▁COLUMN	-1097
FP	-1098
007	-1099
808	-1100
:",	-1101
POW	-1102
DH	-1103
▁2:	-1104
1234	-1105
▁COD	-1106
▁"]";	-1107
2).	-1108
[3]	-1109
▁(2	-1110
(9	-1111
},	-1112
▁0:	-1113
▁36	-1114
▁BU	-1115
000;	-1116
5");	-1117
JDBC	-1118
MINU	-1119
[1].	-1120
▁SBML	-1121
▁\001	-1122
▁")");	-1123
****************	-1124
-0	-1125
3(	-1126
CN	-1127
CBC	-1128
INC	-1129
-8");	-1130
.1	-1131
27	-1132
GS	-1133
[6	-1134
▁,	-1135
('\	-1136
(15	-1137
OUN	-1138
.0.0	-1139
▁":"	-1140
▁MIN	-1141
>>>>>>>>	-1142
0:	-1143
XX	-1144
(//	-1145
BUI	-1146
▁'{}'	-1147
▁0.0;	-1148
BINDING	-1149
CY	-1150
("@	-1151
FOO	-1152
OUS	-1153
("11	-1154
DING	-1155
\022\	-1156
▁100);	-1157
▁\001(\	-1158
Ju	-1159
BLU	-1160
BUC	-1161
SSO	-1162
▁17	-1163
▁31	-1164
▁4)	-1165
1\1\	-1166
ODUC	-1167
UNCH	-1168
▁1))	-1169
▁>>>	-1170
PPLIC	-1171
2]	-1172
(":	-1173
789	-1174
XPO	-1175
]));	-1176
INDOW	-1177
1/	-1178
CF	-1179
(6,	-1180
6",	-1181
]))	-1182
▁256	-1183
▁1024	-1184
LP	-1185
(1)	-1186
(__	-1187
MQP	-1188
ODY	-1189
PLI	-1190
▁QU	-1191
▁SP	-1192
▁2).	-1193
▁DOM	-1194
NSION	-1195
▁"1",	-1196
▁'}';	-1197
-"	-1198
3:	-1199
PB	-1200
(25	-1201
HIS	-1202
(21)	-1203
DIGI	-1204
ONLY	-1205
▁"'");	-1206
?,	-1207
LC	-1208
25.	-1209
[].	-1210
(500	-1211
*");	-1212
[(	-1213
("(	-1214
999	-1215
FQN	-1216
▁(;	-1217
▁NB	-1218
$");	-1219
("1.	-1220
(0.0	-1221
SHOW	-1222
▁INS	-1223
SINGL	-1224
SSIGN	-1225
▁""));	-1226
MISSION	-1227
_)	-1228
MOB	-1229
▁DI	-1230
▁IG	-1231
(100	-1232
/");	-1233
1"),	-1234
SQLS	-1235
▁DIS	-1236
▁5));	-1237
48	-1238
DM	-1239
(10	-1240
]],	-1241
▁"5	-1242
PUSH	-1243
▁OBJ	-1244
202	-1245
}";	-1246
▁"4	-1247
▁WI	-1248
(2),	-1249
CION	-1250
▁"]");	-1251
........	-1252
3[	-1253
8)	-1254
:/	-1255
CB	-1256
YM	-1257
[:	-1258
}"	-1259
(7,	-1260
▁HH	-1261
▁201	-1262
(3));	-1263
0(	-1264
HD	-1265
_9	-1266
COM	-1267
▁*=	-1268
▁10)	-1269
▁16)	-1270
(-1);	-1271
XIMUM	-1272
50	-1273
[8	-1274
]\	-1275
509	-1276
CSS	-1277
▁9,	-1278
FILL	-1279
▁"',	-1280
▁"12	-1281
▁OSQLS	-1282
XB	-1283
():	-1284
INGS	-1285
▁(__	-1286
▁},\	-1287
<>());	-1288
']	-1289
/%	-1290
/{	-1291
79	-1292
QS	-1293
_"	-1294
008	-1295
3()	-1296
LIF	-1297
NCY	-1298
▁"@	-1299
▁Lu	-1300
▁[[:	-1301
())))	-1302
010101	-1303
▁CONFIG	-1304
1]	-1305
成功	-1306
2.0	-1307
SCO	-1308
▁3:	-1309
▁JP	-1310
SHIP	-1311
▁"'"	-1312
▁"%");	-1313
51	-1314
异常	-1315
2),	-1316
SOL	-1317
▁"(	-1318
▁UN	-1319
FOLD	-1320
[2];	-1321
▁"-"	-1322
00002,	-1323
40	-1324
65	-1325
JM	-1326
OI	-1327
("^	-1328
7",	-1329
>[]	-1330
INF	-1331
▁29	-1332
▁</	-1333
▁PU	-1334
▁SW	-1335
▁}.	-1336
BODY	-1337
▁?>>	-1338
▁{",	-1339
("100	-1340
8(	-1341
▁HB	-1342
COLL	-1343
▁"["	-1344
3\	-1345
XW	-1346
[7	-1347
01,	-1348
▁"+	-1349
▁|\	-1350
01000	-1351
NDING	-1352
/13	-1353
LIB	-1354
MIX	-1355
▁CU	-1356
▁FI	-1357
▁IB	-1358
("12	-1359
▁"{:	-1360
▁SUB	-1361
56789	-1362
INFINI	-1363
▁'{}'",	-1364
1-	-1365
2>	-1366
1),	-1367
ZON	-1368
▁'/	-1369
▁'0	-1370
▁12,	-1371
▁20,	-1372
▁FLO	-1373
▁20);	-1374
WINDOW	-1375
00000001	-1376
;"	-1377
HM	-1378
YL	-1379
删除	-1380
').	-1381
1";	-1382
LOY	-1383
FUNC	-1384
OCOL	-1385
▁31;	-1386
IMSON	-1387
▁"}";	-1388
▁COUN	-1389
▁SHIF	-1390
XI	-1391
(200	-1392
▁"\\	-1393
▁(++	-1394
▁}",	-1395
01009	-1396
▁255,	-1397
MODIFY	-1398
/[^/]+/	-1399
MU	-1400
('.	-1401
/";	-1402
COS	-1403
MIC	-1404
SUM	-1405
UDI	-1406
__,	-1407
▁&=	-1408
▁CS	-1409
▁II	-1410
▁SC	-1411
[2],	-1412
__);	-1413
SHOLD	-1414
_1_0_	-1415
MISSING	-1416
++,	-1417
ILL	-1418
[4]	-1419
▁"^	-1420
(8);	-1421
2.16	-1422
GION	-1423
PING	-1424
01001	-1425
01003	-1426
46	-1427
=?	-1428
FC	-1429
NM	-1430
###	-1431
009	-1432
032	-1433
JNI	-1434
PIN	-1435
▁"2	-1436
HIGH	-1437
_000	-1438
▁"%"	-1439
0000;	-1440
COMMI	-1441
__++)	-1442
("}");	-1443
5)	-1444
10-	-1445
INH	-1446
MIM	-1447
NOW	-1448
OOM	-1449
▁?,	-1450
▁~0	-1451
("{}	-1452
▁8);	-1453
)"));	-1454
SUPPO	-1455
▁")";	-1456
▁COMM	-1457
▁[{}]	-1458
IW	-1459
信息	-1460
東京	-1461
BUL	-1462
QFN	-1463
.0);	-1464
▁2),	-1465
CONDI	-1466
/2	-1467
4\	-1468
58	-1469
HH	-1470
]]	-1471
11.	-1472
BOX	-1473
▁(%	-1474
▁FS	-1475
▁SO	-1476
FLOW	-1477
▁"("	-1478
▁"-+	-1479
("1",	-1480
01004	-1481
01006	-1482
01008	-1483
3"));	-1484
BIGIN	-1485
BOUND	-1486
▁HSSF	-1487
80	-1488
=[	-1489
DN	-1490
行っ	-1491
ONY	-1492
SIG	-1493
UNS	-1494
_1_	-1495
▁9;	-1496
OFIL	-1497
SHIF	-1498
93	-1499
("'	-1500
('/	-1501
(8,	-1502
-02	-1503
00.	-1504
▁"?	-1505
▁'.	-1506
▁GI	-1507
PSHO	-1508
▁"].	-1509
▁16;	-1510
▁HOS	-1511
(20);	-1512
01007	-1513
UNIQU	-1514
▁10));	-1515
3]	-1516
49	-1517
▁`	-1518
01.	-1519
2))	-1520
512	-1521
PIC	-1522
SWI	-1523
▁ZZ	-1524
▁{0	-1525
0");	-1526
SBMP	-1527
▁UNS	-1528
▁UPD	-1529
*[	-1530
45	-1531
CW	-1532
()]	-1533
012	-1534
32;	-1535
OUD	-1536
PDU	-1537
SCL	-1538
ULO	-1539
\\.	-1540
▁:=	-1541
▁GB	-1542
▁SM	-1543
;");	-1544
=").	-1545
CLUD	-1546
▁12;	-1547
01005	-1548
▁"\1\	-1549
)."));	-1550
▁0.0);	-1551
2/	-1552
4(	-1553
47	-1554
MN	-1555
uS	-1556
CHM	-1557
SSW	-1558
(7);	-1559
2();	-1560
8");	-1561
>").	-1562
CLIC	-1563
▁24)	-1564
▁6);	-1565
<?>[]	-1566
▁COLO	-1567
SBMLQu	-1568
1}	-1569
2}	-1570
67	-1571
98	-1572
<@	-1573
LW	-1574
YY	-1575
[9	-1576
_7	-1577
01_	-1578
HOM	-1579
NGL	-1580
▁5)	-1581
▁JM	-1582
("**	-1583
3));	-1584
IGNO	-1585
CLOUD	-1586
▁"201	-1587
("1");	-1588
(500);	-1589
MODIFI	-1590
!!	-1591
-2	-1592
5_	-1593
69	-1594
FU	-1595
("?	-1596
2";	-1597
={}	-1598
DIN	-1599
ILU	-1600
_0(	-1601
▁97	-1602
▁Gu	-1603
▁IL	-1604
("==	-1605
CMDB	-1606
\">\	-1607
▁1");	-1608
\""));	-1609
▁255.0	-1610
*)	-1611
(45	-1612
.__	-1613
01;	-1614
100	-1615
304	-1616
500	-1617
8",	-1618
DIX	-1619
SYN	-1620
?");	-1621
INCO	-1622
MILY	-1623
SUBJ	-1624
▁50;	-1625
())),	-1626
7.0.0	-1627
▁16);	-1628
MILLIS	-1629
[][][]	-1630
("&	-1631
("2	-1632
BIG	-1633
IBM	-1634
]";	-1635
_1.	-1636
▁PN	-1637
東京都	-1638
=\""	-1639
OOGL	-1640
▁"")	-1641
▁1][	-1642
▁OFF	-1643
▁SIZ	-1644
6-10-	-1645
▁"3",	-1646
▁}");	-1647
UNNING	-1648
/[^/]+$");	-1649
(14	-1650
-03	-1651
123	-1652
(0.5	-1653
3").	-1654
HING	-1655
▁18,	-1656
▁60;	-1657
▁UIS	-1658
()]);	-1659
0000,	-1660
FOCUS	-1661
[2]);	-1662
▁0.0,	-1663
(""));	-1664
▁200);	-1665
("2016-10-	-1666
/*	-1667
0/	-1668
'),	-1669
06.	-1670
1')	-1671
GUM	-1672
ICS	-1673
[10	-1674
▁"*	-1675
▁98	-1676
▁MO	-1677
11",	-1678
29);	-1679
POOL	-1680
▁3).	-1681
▁SCH	-1682
01002	-1683
▁"").	-1684
▁CONS	-1685
2.168.	-1686
($	-1687
PF	-1688
[_	-1689
10.	-1690
1_1	-1691
70,	-1692
IPL	-1693
NSO	-1694
[5]	-1695
_2_	-1696
▁(0	-1697
▁2]	-1698
▁BL	-1699
▁LI	-1700
▁OS	-1701
("${	-1702
(3).	-1703
001/	-1704
:///	-1705
NSFO	-1706
_128	-1707
▁');	-1708
▁14,	-1709
▁304	-1710
00000	-1711
BUNDL	-1712
▁3));	-1713
▁MODUL	-1714
(?	-1715
0"	-1716
1<	-1717
43	-1718
OX	-1719
UG	-1720
(""	-1721
163	-1722
3).	-1723
CHI	-1724
CIP	-1725
DNN	-1726
_78	-1727
{\"	-1728
▁DL	-1729
()='	-1730
(3),	-1731
<<<<	-1732
▁0).	-1733
▁30,	-1734
▁CLI	-1735
▁POS	-1736
.2");	-1737
_128_	-1738
▁{}.",	-1739
4:	-1740
6)	-1741
数据	-1742
财务	-1743
("4	-1744
0()	-1745
024	-1746
055	-1747
WSO	-1748
▁22	-1749
(6);	-1750
5\1\	-1751
NOMB	-1752
▁11:	-1753
▁123	-1754
▁30;	-1755
(5));	-1756
PPING	-1757
▁1.0,	-1758
("1.2.	-1759
()))).	-1760
(10));	-1761
=\"");	-1762
NCODING	-1763
23456789	-1764
################	-1765
68	-1766
={	-1767
FN	-1768
IJ	-1769
16,	-1770
32.	-1771
9",	-1772
CDH	-1773
FML	-1774
FOL	-1775
SHU	-1776
ZIP	-1777
▁4:	-1778
▁LO	-1779
[0])	-1780
▁"0"	-1781
▁SHO	-1782
(255,	-1783
▁200,	-1784
"))));	-1785
////////////////	-1786
时间	-1787
设置	-1788
(':	-1789
11,	-1790
125	-1791
BUS	-1792
DFS	-1793
LLB	-1794
▁'9	-1795
▁23	-1796
▁35	-1797
▁GL	-1798
6");	-1799
[0-9	-1800
].",	-1801
_123	-1802
▁"_"	-1803
>"));	-1804
DDING	-1805
▁"\",	-1806
-8"));	-1807
[0]));	-1808
▁"1");	-1809
0000000000000000	-1810
,"	-1811
.%	-1812
91	-1813
'))	-1814
384	-1815
CHO	-1816
INY	-1817
LPH	-1818
_3.	-1819
▁('	-1820
))),	-1821
10",	-1822
7");	-1823
▁"//	-1824
▁3),	-1825
▁355	-1826
▁7);	-1827
SIMPL	-1828
▁0.01	-1829
CONFIGU	-1830
${	-1831
60	-1832
7_	-1833
BG	-1834
UB	-1835
用户	-1836
11\	-1837
12;	-1838
{2}	-1839
▁37	-1840
▁UD	-1841
に行っ	-1842
CONF	-1843
ISSU	-1844
UDIO	-1845
▁0.1	-1846
▁GLU	-1847
に行った	-1848
(50);	-1849
)))).	-1850
0001,	-1851
32();	-1852
:{}",	-1853
CHILD	-1854
▁"));	-1855
▁"2",	-1856
▁12);	-1857
▁",");	-1858
▁3042);	-1859
):	-1860
4_	-1861
PM	-1862
[@	-1863
!";	-1864
('"	-1865
(')	-1866
(16	-1867
010	-1868
:{}	-1869
_3_	-1870
▁CD	-1871
▁JO	-1872
▁MS	-1873
01",	-1874
?,?,	-1875
CIFI	-1876
LLIN	-1877
PHON	-1878
[3];	-1879
_002	-1880
▁LIS	-1881
▁SYS	-1882
GOOGL	-1883
INDIC	-1884
▁"4",	-1885
▁BUFF	-1886
▁[{}]",	-1887
2.168.1.	-1888
->	-1889
5(	-1890
62	-1891
LM	-1892
_8	-1893
(',	-1894
(12	-1895
-1.	-1896
-12	-1897
DUC	-1898
IPP	-1899
NIC	-1900
SQS	-1901
];"	-1902
▁LN	-1903
▁WS	-1904
("")	-1905
(123	-1906
(4),	-1907
<?>,	-1908
BILI	-1909
ILIN	-1910
SCOP	-1911
▁;";	-1912
')");	-1913
(16);	-1914
BLISH	-1915
DOCUM	-1916
INYIN	-1917
MPLOY	-1918
▁11);	-1919
▁255)	-1920
▁30);	-1921
▁COLL	-1922
0000);	-1923
010100	-1924
▁1024;	-1925
-3	-1926
5\	-1927
92	-1928
GH	-1929
XO	-1930
XS	-1931
当前	-1932
0.5	-1933
:\\	-1934
PLY	-1935
_12	-1936
{1}	-1937
▁"|	-1938
▁2.	-1939
▁:"	-1940
▁Hu	-1941
▁XS	-1942
(20,	-1943
DINJ	-1944
HOUS	-1945
YPSH	-1946
[2].	-1947
▁11;	-1948
▁13,	-1949
={}",	-1950
IMONY	-1951
▁CONF	-1952
▁INPU	-1953
▁NUMB	-1954
▁1000,	-1955
,\	-1956
-4	-1957
2<	-1958
90	-1959
:4	-1960
MF	-1961
]{	-1962
uF	-1963
(11	-1964
011	-1965
11;	-1966
21.	-1967
;";	-1968
DIC	-1969
ISD	-1970
POL	-1971
▁')	-1972
▁'-	-1973
▁CM	-1974
++],	-1975
2010	-1976
CILI	-1977
JOIN	-1978
OUCH	-1979
SCII	-1980
[4];	-1981
▁91.	-1982
("200	-1983
\"");	-1984
\",\"	-1985
▁"{\"	-1986
▁LIMI	-1987
(0)));	-1988
LOPING	-1989
\":\""	-1990
▁".");	-1991
▁20));	-1992
東京都に行った	-1993
83	-1994
MC	-1995
OY	-1996
[%	-1997
══	-1998
错误	-1999
("9	-2000
03,	-2001
08.	-2002
197	-2003
598	-2004
BOS	-2005
CPU	-2006
NIO	-2007
NLG	-2008
UPP	-2009
[6]	-2010
▁''	-2011
▁'_	-2012
▁CF	-2013
▁JD	-2014
▁PB	-2015
▁[]	-2016
))))	-2017
CYCL	-2018
LISH	-2019
WOOD	-2020
[3],	-2021
_1_,	-2022
▁1",	-2023
▁15,	-2024
▁15;	-2025
▁18;	-2026
▁32,	-2027
.2"),	-2028
22"),	-2029
▁HIGH	-2030
99995,	-2031
NGLISH	-2032
▁PUBLIC	-2033
000000"));	-2034
'"	-2035
2=	-2036
JW	-2037
['	-2038
}\	-2039
存在	-2040
(*)	-2041
(-1	-2042
(2)	-2043
.//	-2044
013	-2045
2];	-2046
8.7	-2047
>20	-2048
IOD	-2049
MOS	-2050
OPP	-2051
OXY	-2052
[++	-2053
▁!"	-2054
▁6)	-2055
▁BO	-2056
("./	-2057
://"	-2058
FIND	-2059
WSDL	-2060
}").	-2061
▁"##	-2062
▁"{}	-2063
▁-3,	-2064
▁1])	-2065
▁FIN	-2066
▁MOC	-2067
848);	-2068
MIXIN	-2069
▁""),	-2070
(200);	-2071
FULLSC	-2072
(5000);	-2073
PUBLISH	-2074
▁3553);	-2075
▁SBMLQu	-2076
\030\001	-2077
("#000000"));	-2078
)\	-2079
2"	-2080
4/	-2081
97	-2082
CX	-2083
为空	-2084
获取	-2085
','	-2086
../	-2087
12.	-2088
19.	-2089
BOL	-2090
DSL	-2091
UPS	-2092
YLO	-2093
_15	-2094
▁(*	-2095
'));	-2096
("$.	-2097
(50,	-2098
++];	-2099
0808	-2100
2"),	-2101
IMPO	-2102
YING	-2103
[]>>	-2104
▁((!	-2105
▁...	-2106
▁655	-2107
▁MON	-2108
-001/	-2109
64();	-2110
6_005	-2111
[0]))	-2112
▁"305	-2113
▁0)).	-2114
▁255;	-2115
▁8));	-2116
▁_005	-2117
99998,	-2118
:00:00	-2119
DOWNLO	-2120
CONFIGS	-2121
_0026_005	-2122
1"	-2123
42	-2124
8:	-2125
DG	-2126
GY	-2127
HG	-2128
IX	-2129
PW	-2130
WW	-2131
/**	-2132
0-9	-2133
116	-2134
BDI	-2135
PLU	-2136
QUI	-2137
SIL	-2138
]).	-2139
▁/=	-2140
▁3.	-2141
▁3]	-2142
▁PL	-2143
LING	-2144
NDOM	-2145
SPLI	-2146
▁0.9	-2147
▁1].	-2148
▁3.0	-2149
▁HOU	-2150
("{\"	-2151
XCLUS	-2152
▁"'",	-2153
▁")",	-2154
▁0");	-2155
▁50);	-2156
")))).	-2157
▁"0");	-2158
▁"}").	-2159
▁1)));	-2160
▁18));	-2161
8_	-2162
FB	-2163
FM	-2164
MW	-2165
NJ	-2166
XN	-2167
不能	-2168
016	-2169
NIZ	-2170
ODO	-2171
OPH	-2172
[7]	-2173
▁"~	-2174
▁'1	-2175
▁27	-2176
▁HO	-2177
▁[{	-2178
0\2\	-2179
256_	-2180
\032	-2181
]++;	-2182
▁"11	-2183
▁"14	-2184
▁-4,	-2185
▁0,"	-2186
▁0.8	-2187
▁1.5	-2188
▁40,	-2189
▁5).	-2190
▁INC	-2191
▁INI	-2192
▁LIN	-2193
▁NOD	-2194
(2)).	-2195
01");	-2196
2006.	-2197
IMXML	-2198
▁"0";	-2199
()[0];	-2200
▁255),	-2201
▁{}));	-2202
▁2929);	-2203
1>	-2204
BN	-2205
YN	-2206
uH	-2207
更新	-2208
线程	-2209
8).	-2210
80_	-2211
:59	-2212
CDS	-2213
DUL	-2214
MPO	-2215
PBH	-2216
PDF	-2217
YMP	-2218
▁21	-2219
▁JC	-2220
▁MP	-2221
')",	-2222
("00	-2223
(2.0	-2224
4").	-2225
>().	-2226
CONC	-2227
HODS	-2228
UPLO	-2229
▁"))	-2230
▁0.2	-2231
▁16,	-2232
▁GMS	-2233
("<==	-2234
(30);	-2235
,"));	-2236
1")).	-2237
4"));	-2238
▁"\0\	-2239
("/");	-2240
INCLUD	-2241
NSIONS	-2242
▁100.0	-2243
▁_2010	-2244
(2000);	-2245
▁10000;	-2246
3<	-2247
57	-2248
FD	-2249
GF	-2250
uC	-2251
360	-2252
6()	-2253
BIP	-2254
DSS	-2255
FFL	-2256
NGU	-2257
OPO	-2258
OPS	-2259
OWS	-2260
SCM	-2261
SOF	-2262
▁$$	-2263
▁YI	-2264
("19	-2265
(15,	-2266
BBBB	-2267
NCHO	-2268
UMNS	-2269
WLIN	-2270
▁-8,	-2271
▁0.6	-2272
▁50)	-2273
▁?";	-2274
▁LUC	-2275
▁PBH	-2276
▁SUP	-2277
▁UNI	-2278
("-->	-2279
10000	-2280
[0]).	-2281
_1598	-2282
▁"\""	-2283
▁1.0;	-2284
▁100)	-2285
▁24);	-2286
▁256)	-2287
PLUGIN	-2288
[]>();	-2289
HW	-2290
IQ	-2291
LB	-2292
MH	-2293
ZZ	-2294
uI	-2295
'])	-2296
(">	-2297
(++	-2298
(32	-2299
({}	-2300
);\	-2301
GCM	-2302
ICI	-2303
IMU	-2304
LPC	-2305
OND	-2306
SPL	-2307
UMP	-2308
USP	-2309
▁-2	-2310
▁77	-2311
▁SL	-2312
-1",	-2313
_16_	-2314
▁"".	-2315
▁"="	-2316
▁'\\	-2317
▁(!"	-2318
▁0.4	-2319
▁{};	-2320
("==>	-2321
(0.0,	-2322
(400,	-2323
00));	-2324
SSING	-2325
SUBSC	-2326
▁13);	-2327
▁1]);	-2328
▁4));	-2329
("/").	-2330
(1000,	-2331
0001);	-2332
[1]));	-2333
))."));	-2334
\022\02	-2335
▁1000));	-2336
GI	-2337
LN	-2338
QI	-2339
修改	-2340
参数	-2341
批量	-2342
登录	-2343
(20	-2344
017	-2345
4()	-2346
5).	-2347
>30	-2348
BCD	-2349
JCu	-2350
[8]	-2351
▁50	-2352
▁5:	-2353
▁IU	-2354
▁MY	-2355
(0))	-2356
5));	-2357
GOLD	-2358
LLIP	-2359
_1);	-2360
_148	-2361
▁'0'	-2362
▁((0	-2363
▁101	-2364
▁2.5	-2365
▁23,	-2366
▁}),	-2367
0001;	-2368
69999	-2369
▁CONN	-2370
▁IGNO	-2371
(".");	-2372
(45.0,	-2373
COMPON	-2374
FINISH	-2375
OPCION	-2376
▁1.0);	-2377
▁24));	-2378
▁COMPL	-2379
▁})));	-2380
WINDOWS	-2381
▁1024);	-2382
ISBINDING	-2383
/:	-2384
5:	-2385
分类	-2386
查询	-2387
(1.	-2388
(9,	-2389
1.0	-2390
17.	-2391
3";	-2392
85.	-2393
ILS	-2394
NPC	-2395
OLS	-2396
OLU	-2397
QUO	-2398
[];	-2399
__(	-2400
|\\	-2401
▁',	-2402
▁']	-2403
▁JN	-2404
▁LD	-2405
(1))	-2406
00",	-2407
2007	-2408
5").	-2409
9");	-2410
:808	-2411
OUPS	-2412
WHIL	-2413
[4],	-2414
\">"	-2415
▁"~"	-2416
▁//\	-2417
▁24;	-2418
▁88.	-2419
▁9);	-2420
▁=",	-2421
▁CML	-2422
▁SOU	-2423
(".")	-2424
000",	-2425
FLUSH	-2426
USING	-2427
_256_	-2428
▁973.	-2429
▁JDBC	-2430
(2000,	-2431
▁"1411	-2432
▁{0}",	-2433
▁"\"");	-2434
(">>>>>>>>	-2435
!\	-2436
)"	-2437
2-	-2438
GD	-2439
OH	-2440
SF	-2441
UF	-2442
WB	-2443
ZN	-2444
]"	-2445
内容	-2446
添加	-2447
("+	-2448
('#	-2449
5.6	-2450
>10	-2451
CCL	-2452
DNS	-2453
FSM	-2454
NDI	-2455
NDS	-2456
_19	-2457
▁CC	-2458
▁FN	-2459
▁XW	-2460
0485	-2461
1-04	-2462
2017	-2463
BLOB	-2464
CING	-2465
GING	-2466
ICIP	-2467
_2_,	-2468
▁%.2	-2469
▁20)	-2470
▁<",	-2471
▁>",	-2472
▁?>)	-2473
▁ICO	-2474
(1000	-2475
(15);	-2476
(4));	-2477
...",	-2478
05000	-2479
5"));	-2480
SNOMB	-2481
▁2014	-2482
▁23);	-2483
▁<=",	-2484
▁<>",	-2485
▁>=",	-2486
▁MINU	-2487
(')');	-2488
-01-01	-2489
99994,	-2490
▁256);	-2491
(","));	-2492
▁11:22"),	-2493
................	-2494
(%	-2495
(.	-2496
6:	-2497
94	-2498
QO	-2499
YI	-2500
'',	-2501
'],	-2502
21,	-2503
99,	-2504
COP	-2505
LIM	-2506
WSC	-2507
\">	-2508
_";	-2509
_1,	-2510
▁)"	-2511
▁00	-2512
▁[\	-2513
▁^=	-2514
▁})	-2515
("["	-2516
().<	-2517
(18,	-2518
1"))	-2519
1();	-2520
3\1\	-2521
4\1\	-2522
8));	-2523
8000	-2524
<>()	-2525
>30]	-2526
COIJ	-2527
GGGP	-2528
NGIN	-2529
SYSS	-2530
[5],	-2531
][0]	-2532
▁"5"	-2533
▁(37	-2534
▁(53	-2535
▁10.	-2536
▁10:	-2537
▁4.0	-2538
▁60,	-2539
▁75.	-2540
▁FDB	-2541
▁{0}	-2542
("/**	-2543
(12);	-2544
02000	-2545
11\1\	-2546
<>(),	-2547
SHIPM	-2548
[3]);	-2549
▁$("#	-2550
▁(!((	-2551
▁15);	-2552
▁1611	-2553
▁JOIN	-2554
00001,	-2555
\">");	-2556
("/"));	-2557
▁2848);	-2558
'\	-2559
(@	-2560
-%	-2561
41	-2562
71	-2563
9)	-2564
NP	-2565
XL	-2566
ZO	-2567
]*	-2568
}/	-2569
(13	-2570
10,	-2571
199	-2572
1__	-2573
255	-2574
5.0	-2575
FHI	-2576
HIN	-2577
INN	-2578
LGO	-2579
NIM	-2580
SIC	-2581
[15	-2582
▁'*	-2583
▁'2	-2584
▁32	-2585
▁6:	-2586
▁9)	-2587
▁ML	-2588
▁OC	-2589
▁{"	-2590
(11,	-2591
(16,	-2592
SINJ	-2593
▁"1.	-2594
▁0.7	-2595
▁25,	-2596
▁26,	-2597
▁28,	-2598
▁32;	-2599
▁CMM	-2600
▁MIS	-2601
▁SOF	-2602
02002	-2603
02003	-2604
08000	-2605
10");	-2606
>>>()	-2607
FOLIO	-2608
▁2");	-2609
(200).	-2610
2007_0	-2611
OUPING	-2612
▁255).	-2613
UNSUPPO	-2614
00000001)	-2615
)[	-2616
4]	-2617
。"	-2618
开始	-2619
文件	-2620
服务	-2621
%",	-2622
("3	-2623
(("	-2624
(24	-2625
(\\	-2626
-08	-2627
0))	-2628
10;	-2629
11:	-2630
2")	-2631
5()	-2632
80,	-2633
:30	-2634
BDN	-2635
MUC	-2636
MUS	-2637
NSW	-2638
PNS	-2639
▁"6	-2640
▁OL	-2641
▁SQ	-2642
▁WO	-2643
(5),	-2644
2().	-2645
2)).	-2646
HDFS	-2647
OUGH	-2648
UNSP	-2649
▁%.1	-2650
▁19,	-2651
▁2))	-2652
▁64;	-2653
▁78.	-2654
▁GUI	-2655
("2",	-2656
<?>>>	-2657
MOBIL	-2658
▁25);	-2659
▁?");	-2660
▁FUNC	-2661
("0"))	-2662
<>(1);	-2663
======	-2664
▁1000)	-2665
7.0.0.1	-2666
({	-2667
0}	-2668
7)	-2669
=*	-2670
=0	-2671
_6	-2672
ве	-2673
客户	-2674
文庫	-2675
,\"	-2676
-06	-2677
/1.	-2678
204	-2679
223	-2680
306	-2681
502	-2682
6];	-2683
>>(	-2684
ICH	-2685
LYZ	-2686
OCI	-2687
OOB	-2688
\\\	-2689
▁':	-2690
▁40	-2691
▁=>	-2692
▁DC	-2693
▁MD	-2694
(9);	-2695
1000	-2696
2\0\	-2697
2\1\	-2698
8601	-2699
MONG	-2700
NINH	-2701
SUCC	-2702
WING	-2703
[11]	-2704
[12]	-2705
][1]	-2706
▁"**	-2707
▁"{\	-2708
▁-0.	-2709
▁204	-2710
▁22,	-2711
▁404	-2712
'])",	-2713
(500,	-2714
..");	-2715
02001	-2716
INCIP	-2717
_7808	-2718
▁0.0)	-2719
▁40);	-2720
▁50),	-2721
▁500;	-2722
▁UNUS	-2723
("0000	-2724
(',');	-2725
******	-2726
++)));	-2727
▁"/");	-2728
▁16));	-2729
▁...");	-2730
0123456789	-2731
#>	-2732
95	-2733
^2	-2734
输入	-2735
20,	-2736
25;	-2737
3];	-2738
567	-2739
DBS	-2740
DYN	-2741
HSH	-2742
IOS	-2743
LLS	-2744
NFS	-2745
OMO	-2746
SLO	-2747
SPI	-2748
SSH	-2749
SSI	-2750
XSD	-2751
_2.	-2752
▁.5	-2753
▁30	-2754
▁39	-2755
▁7)	-2756
▁<"	-2757
▁WC	-2758
▁]\	-2759
%");	-2760
("("	-2761
(4).	-2762
0104	-2763
2.0,	-2764
256.	-2765
<>((	-2766
LIGN	-2767
PLOY	-2768
SSLH	-2769
\022	-2770
▁-2;	-2771
▁13;	-2772
▁21,	-2773
▁CUS	-2774
▁GBM	-2775
▁NPC	-2776
('.')	-2777
(403,	-2778
:00",	-2779
_1525	-2780
▁"/";	-2781
▁"0",	-2782
▁"1.0	-2783
▁("".	-2784
▁0.5)	-2785
("0");	-2786
("2015	-2787
(":");	-2788
("{");	-2789
('/');	-2790
01406.	-2791
7.0.0.	-2792
_10485	-2793
▁0)));	-2794
▁CONDI	-2795
COLUMNS	-2796
\030\002	-2797
▁2014");	-2798
$.	-2799
3}	-2800
BM	-2801
PX	-2802
WF	-2803
YF	-2804
增加	-2805
状态	-2806
结果	-2807
$$$	-2808
/1/	-2809
/\"	-2810
02;	-2811
12,	-2812
20.	-2813
301	-2814
374	-2815
64.	-2816
828	-2817
=",	-2818
BOU	-2819
CLS	-2820
DDI	-2821
DFB	-2822
DIM	-2823
DOW	-2824
GLO	-2825
IGG	-2826
LFW	-2827
MPP	-2828
NSF	-2829
OWL	-2830
UGC	-2831
YNG	-2832
\"}	-2833
\00	-2834
_18	-2835
_5_	-2836
(404	-2837
(42,	-2838
.").	-2839
0\0\	-2840
250.	-2841
MOUN	-2842
SWIG	-2843
[6];	-2844
▁"13	-2845
▁0.3	-2846
▁12\	-2847
▁2",	-2848
▁2,"	-2849
▁24,	-2850
▁32)	-2851
▁33,	-2852
▁{}.	-2853
"))),	-2854
("-",	-2855
(1234	-2856
-1"),	-2857
NOWFL	-2858
▁".";	-2859
▁"/",	-2860
▁"1";	-2861
▁((((	-2862
▁128,	-2863
▁18).	-2864
▁200;	-2865
▁4)).	-2866
▁GLFW	-2867
▁OFFS	-2868
(")");	-2869
("/"))	-2870
(':');	-2871
▁255);	-2872
▁?")).	-2873
▁DISPL	-2874
▁UNIQU	-2875
(3000);	-2876
▁100));	-2877
99999999	-2878
00000002)	-2879
▁HIGHLIGH	-2880
$|	-2881
6\	-2882
7:	-2883
?)	-2884
BD	-2885
DQ	-2886
MX	-2887
WN	-2888
YH	-2889
uU	-2890
(3)	-2891
/{+	-2892
03;	-2893
25,	-2894
32_	-2895
339	-2896
404	-2897
64,	-2898
64;	-2899
DBP	-2900
DIF	-2901
FUS	-2902
GGP	-2903
MLI	-2904
NOM	-2905
NSP	-2906
ODD	-2907
XXM	-2908
[\\	-2909
\")	-2910
_88	-2911
_9_	-2912
▁**	-2913
▁9:	-2914
▁MB	-2915
(1.5	-2916
(204	-2917
+");	-2918
2020	-2919
25);	-2920
3014	-2921
310.	-2922
:"))	-2923
DIUM	-2924
[10]	-2925
[13]	-2926
[14]	-2927
[3].	-2928
[5];	-2929
[8];	-2930
][];	-2931
_2).	-2932
_2);	-2933
____	-2934
▁'/'	-2935
▁(!_	-2936
▁12)	-2937
▁37,	-2938
▁4),	-2939
▁4).	-2940
▁50,	-2941
▁BUC	-2942
▁CSS	-2943
▁MUL	-2944
▁SIN	-2945
▁}";	-2946
批量删除	-2947
(//*[	-2948
(10),	-2949
-1");	-2950
02004	-2951
04000	-2952
CCION	-2953
CONFI	-2954
IWXXM	-2955
MONGO	-2956
▁0.00	-2957
▁0.5;	-2958
▁3)).	-2959
▁300;	-2960
▁6));	-2961
▁XSSF	-2962
']"));	-2963
("\"",	-2964
2\0\1\	-2965
SUPPLI	-2966
▁"}");	-2967
▁500);	-2968
()))));	-2969
600002,	-2970
0000000;	-2971
FFFFFFFF	-2972
▁\001(\005	-2973
%3	-2974
.@	-2975
/_	-2976
3|	-2977
;&	-2978
DW	-2979
_%	-2980
した	-2981
匹配	-2982
(")	-2983
("|	-2984
(18	-2985
._2	-2986
0).	-2987
08,	-2988
149	-2989
16:	-2990
16;	-2991
192	-2992
2("	-2993
2.5	-2994
23;	-2995
258	-2996
CML	-2997
FON	-2998
IOP	-2999
LLY	-3000
MOC	-3001
PIP	-3002
SOC	-3003
_01	-3004
▁'3	-3005
▁64	-3006
▁7:	-3007
▁BG	-3008
▁BI	-3009
▁FL	-3010
▁JW	-3011
▁ND	-3012
▁OM	-3013
▁UP	-3014
',",	-3015
(8),	-3016
-01.	-3017
-1.0	-3018
06",	-3019
1)).	-3020
64);	-3021
6666	-3022
<>("	-3023
DIFF	-3024
ICUL	-3025
OLUM	-3026
WHOL	-3027
\"},	-3028
\004	-3029
▁")"	-3030
▁"19	-3031
▁39,	-3032
▁40;	-3033
▁65,	-3034
▁80,	-3035
▁99,	-3036
▁MOB	-3037
▁MQB	-3038
(1.0,	-3039
(6));	-3040
00");	-3041
0000)	-3042
SSOCI	-3043
[0]),	-3044
▁"'";	-3045
▁",";	-3046
▁1").	-3047
▁3.14	-3048
▁6)).	-3049
▁CLUS	-3050
("]");	-3051
(10000	-3052
9995);	-3053
SUBSYS	-3054
XCLUSI	-3055
(1100);	-3056
COMPOSI	-3057
00000001);	-3058
------------	-3059
52	-3060
=1	-3061
Dó	-3062
FJ	-3063
HL	-3064
IH	-3065
IU	-3066
NH	-3067
XF	-3068
uB	-3069
、"	-3070
する	-3071
提交	-3072
是否	-3073
菜单	-3074
连接	-3075
.")	-3076
.2.	-3077
06_	-3078
1))	-3079
295	-3080
=2,	-3081
BOO	-3082
IGO	-3083
LON	-3084
OOL	-3085
XYZ	-3086
]+)	-3087
_5.	-3088
▁">	-3089
▁'5	-3090
▁'6	-3091
▁';	-3092
▁-3	-3093
▁59	-3094
▁::	-3095
▁<%	-3096
▁IW	-3097
▁MM	-3098
▁SY	-3099
("##	-3100
("13	-3101
("[%	-3102
()",	-3103
(102	-3104
(12,	-3105
-02.	-3106
/").	-3107
001:	-3108
0132	-3109
2000	-3110
3116	-3111
4));	-3112
CLIP	-3113
COMB	-3114
GINS	-3115
GLOM	-3116
INHL	-3117
INJP	-3118
ISGU	-3119
SLOW	-3120
[]::	-3121
\006	-3122
_0()	-3123
▁"${	-3124
▁"10	-3125
▁12:	-3126
▁21:	-3127
▁23:	-3128
▁27.	-3129
▁5),	-3130
▁60.	-3131
▁CBS	-3132
▁FSM	-3133
▁LDP	-3134
▁NLG	-3135
▁SMG	-3136
("").	-3137
("/",	-3138
('#',	-3139
(300,	-3140
(42);	-3141
(5000	-3142
CHINS	-3143
FOUND	-3144
IMPLN	-3145
[1024	-3146
▁-1),	-3147
▁10.0	-3148
▁12),	-3149
▁COMP	-3150
▁DIGI	-3151
▁{});	-3152
('"');	-3153
(0.3);	-3154
306\0\	-3155
<?>...	-3156
ISWING	-3157
▁180.0	-3158
▁25));	-3159
▁GMSQu	-3160
▁IMXML	-3161
▁MYSQL	-3162
8083014	-3163
CONGLOM	-3164
▁"30104	-3165
▁255));	-3166
▁FINISH	-3167
▁SNOWFL	-3168
<<<<<<<<	-3169
HIGHLIGH	-3170
3=	-3171
6(	-3172
63	-3173
73	-3174
7\	-3175
=<	-3176
BF	-3177
HC	-3178
HP	-3179
QB	-3180
SQ	-3181
密码	-3182
方法	-3183
蓝牙	-3184
(23	-3185
-88	-3186
104	-3187
10:	-3188
11_	-3189
1].	-3190
37_	-3191
432	-3192
6.2	-3193
>(_	-3194
CHH	-3195
DHU	-3196
FFM	-3197
ICO	-3198
LML	-3199
NIF	-3200
OSD	-3201
UIS	-3202
UNN	-3203
\"/	-3204
_1(	-3205
_13	-3206
_4_	-3207
▁"7	-3208
▁#{	-3209
▁.1	-3210
▁42	-3211
▁45	-3212
▁8.	-3213
▁8:	-3214
▁@@	-3215
▁DS	-3216
▁FX	-3217
▁GO	-3218
▁GW	-3219
▁LC	-3220
▁[1	-3221
('('	-3222
(13,	-3223
(25,	-3224
(30,	-3225
(32,	-3226
).//	-3227
-");	-3228
-2",	-3229
.{1}	-3230
101_	-3231
2.3,	-3232
23",	-3233
3)).	-3234
512.	-3235
={},	-3236
>20]	-3237
DSSM	-3238
HIJO	-3239
INUM	-3240
OBOL	-3241
OLLB	-3242
PNPu	-3243
PULL	-3244
[0][	-3245
[1])	-3246
_100	-3247
▁'.'	-3248
▁18:	-3249
▁1],	-3250
▁51,	-3251
▁60)	-3252
▁70,	-3253
▁?",	-3254
▁JDB	-3255
▁OLD	-3256
▁SSH	-3257
(501,	-3258
/"));	-3259
01010	-3260
25519	-3261
80000	-3262
COMPU	-3263
MUCOS	-3264
PLING	-3265
XCLUD	-3266
[][]>	-3267
_9_3.	-3268
▁"#";	-3269
▁0.5,	-3270
▁14);	-3271
▁15),	-3272
▁40),	-3273
▁60);	-3274
▁800,	-3275
▁SIGN	-3276
!!!");	-3277
("1111	-3278
("1234	-3279
31169,	-3280
CONSUM	-3281
UNSIGN	-3282
▁-1));	-3283
▁14));	-3284
▁COBOL	-3285
▁SBMLC	-3286
▁WINDOW	-3287
(10000);	-3288
▁{0}.{1}	-3289
%%	-3290
.$	-3291
/#	-3292
/.	-3293
4-	-3294
81	-3295
FQ	-3296
SG	-3297
Yu	-3298
ри	-3299
没有	-3300
系统	-3301
返回	-3302
('-	-3303
('=	-3304
018	-3305
02/	-3306
022	-3307
101	-3308
196	-3309
2.3	-3310
22,	-3311
33.	-3312
35.	-3313
37:	-3314
52.	-3315
6).	-3316
BOM	-3317
CLO	-3318
HON	-3319
INU	-3320
ISU	-3321
JSO	-3322
MDC	-3323
MLL	-3324
MOO	-3325
SIN	-3326
[9]	-3327
[{}	-3328
_",	-3329
▁'8	-3330
▁-8	-3331
▁26	-3332
▁28	-3333
▁34	-3334
▁BP	-3335
▁_3	-3336
(202	-3337
(80,	-3338
/1.1	-3339
014\	-3340
0200	-3341
5"),	-3342
5678	-3343
=\"0	-3344
CMDM	-3345
COFF	-3346
DISC	-3347
FXML	-3348
MBOL	-3349
MINO	-3350
NGCu	-3351
OULD	-3352
POCH	-3353
QUIN	-3354
SOPH	-3355
SUMM	-3356
SYSu	-3357
[1]/	-3358
_196	-3359
_1_.	-3360
▁(60	-3361
▁14;	-3362
▁25;	-3363
▁2];	-3364
▁409	-3365
▁42,	-3366
▁5.0	-3367
▁87.	-3368
▁BNO	-3369
▁FIX	-3370
▁SOL	-3371
▁\"%	-3372
▁{}\	-3373
增加财务	-3374
!"));	-3375
'],",	-3376
(11);	-3377
(13);	-3378
(40);	-3379
-15);	-3380
<?>>(	-3381
>10],	-3382
>20],	-3383
CHOIC	-3384
INFUS	-3385
SOUND	-3386
▁!");	-3387
▁"306	-3388
▁"]",	-3389
▁10).	-3390
▁200)	-3391
▁BLOB	-3392
。"));	-3393
(1)));	-3394
({})",	-3395
FOLLOW	-3396
SIGNIN	-3397
▁0.001	-3398
▁771);	-3399
▁}"));	-3400
\"},{\"	-3401
▁1.0));	-3402
▁200));	-3403
▁100000000	-3404
)?	-3405
)]	-3406
4[	-3407
70	-3408
>$	-3409
>&	-3410
FG	-3411
FW	-3412
YC	-3413
uL	-3414
uP	-3415
ен	-3416
出错	-3417
调用	-3418
$",	-3419
('[	-3420
(?<	-3421
/;"	-3422
02_	-3423
124	-3424
156	-3425
20;	-3426
362	-3427
5.7	-3428
=1,	-3429
COG	-3430
COu	-3431
CQL	-3432
DDL	-3433
FUL	-3434
IMG	-3435
LFO	-3436
MUI	-3437
OMP	-3438
OSS	-3439
PCS	-3440
SPC	-3441
_14	-3442
_1;	-3443
▁"`	-3444
▁'&	-3445
▁'4	-3446
▁DO	-3447
▁NU	-3448
(".*	-3449
("/"	-3450
("01	-3451
(5).	-3452
,###	-3453
-01-	-3454
-03.	-3455
-04.	-3456
."),	-3457
/02/	-3458
01);	-3459
010.	-3460
12);	-3461
3();	-3462
55);	-3463
:").	-3464
FLIC	-3465
LISM	-3466
PINS	-3467
PPLY	-3468
SMOO	-3469
\"",	-3470
\").	-3471
\\\\	-3472
_3_,	-3473
▁"#"	-3474
▁";"	-3475
▁0",	-3476
▁17;	-3477
▁27,	-3478
▁3",	-3479
▁48)	-3480
▁55,	-3481
▁56,	-3482
▁59,	-3483
▁6),	-3484
▁MIL	-3485
▁NIC	-3486
▁PIN	-3487
("###	-3488
("[1,	-3489
(0)))	-3490
(128,	-3491
(25);	-3492
-8859	-3493
0"));	-3494
02007	-3495
2006_	-3496
32339	-3497
9.163	-3498
SQLDB	-3499
UNION	-3500
XPOSU	-3501
[][])	-3502
_000;	-3503
_0_0.	-3504
_0_8.	-3505
▁!"".	-3506
▁-1.0	-3507
▁-24,	-3508
▁360;	-3509
▁DIFF	-3510
▁DOMH	-3511
▁GZIP	-3512
▁HBMS	-3513
▁SHIP	-3514
("====	-3515
('.');	-3516
(72.0,	-3517
:8080/	-3518
CODIGO	-3519
FFFFFF	-3520
SYMBOL	-3521
\":{\"	-3522
▁"1234	-3523
▁"2018	-3524
▁5000;	-3525
("\"");	-3526
99995);	-3527
CONFLIC	-3528
[1024];	-3529
▁MSPOIN	-3530
("\\.");	-3531
_000_000	-3532
("100%");	-3533
00000002;	-3534
CONFIGFIL	-3535
\022\014\	-3536
("192.168.1.	-3537
/1	-3538
/\	-3539
3"	-3540
3-	-3541
5"	-3542
>%	-3543
JI	-3544
WM	-3545
YO	-3546
uG	-3547
}{	-3548
中断	-3549
任务	-3550
保存	-3551
账号	-3552
$";	-3553
(']	-3554
('_	-3555
(36	-3556
052	-3557
102	-3558
13.	-3559
159	-3560
1];	-3561
2])	-3562
2].	-3563
303	-3564
365	-3565
37;	-3566
5";	-3567
5),	-3568
535	-3569
60,	-3570
64_	-3571
:01	-3572
=1;	-3573
BSO	-3574
CMD	-3575
GQO	-3576
IMO	-3577
NCI	-3578
NOP	-3579
NSL	-3580
PUB	-3581
UIN	-3582
WSP	-3583
XLS	-3584
\\-	-3585
_10	-3586
▁"8	-3587
▁$(	-3588
▁'+	-3589
▁([	-3590
▁IZ	-3591
("2.	-3592
(22,	-3593
(60,	-3594
(7),	-3595
-8",	-3596
/201	-3597
04",	-3598
04()	-3599
0706	-3600
1.1.	-3601
110.	-3602
3333	-3603
4\0\	-3604
>(),	-3605
BOND	-3606
BSCu	-3607
OOMS	-3608
SUSP	-3609
[7];	-3610
\003	-3611
_1",	-3612
_16.	-3613
_3);	-3614
▁"):	-3615
▁"0.	-3616
▁"|"	-3617
▁("-	-3618
▁(--	-3619
▁15)	-3620
▁202	-3621
▁29,	-3622
▁34,	-3623
▁35,	-3624
▁64,	-3625
▁85.	-3626
▁==>	-3627
▁BUG	-3628
▁ICC	-3629
▁MIM	-3630
▁MSG	-3631
▁[19	-3632
(""),	-3633
("---	-3634
08001	-3635
:"));	-3636
COLON	-3637
DOUGH	-3638
PHLIN	-3639
SBMLS	-3640
]"));	-3641
_2295	-3642
▁28.7	-3643
▁32);	-3644
▁770,	-3645
(",").	-3646
-02-02	-3647
<>()).	-3648
<>(2);	-3649
DUPLIC	-3650
▁0.8);	-3651
▁300);	-3652
▁400);	-3653
LLIPSIS	-3654
\032\03	-3655
▁1000.0	-3656
([	-3657
-\	-3658
.{	-3659
/?	-3660
5-	-3661
7(	-3662
9:	-3663
PJ	-3664
ZW	-3665
[*	-3666
║"	-3667
名称	-3668
超时	-3669
默认	-3670
'][	-3671
("=	-3672
("`	-3673
('0	-3674
(19	-3675
04;	-3676
1])	-3677
224	-3678
2:"	-3679
2_2	-3680
300	-3681
4).	-3682
8),	-3683
>40	-3684
CHN	-3685
COO	-3686
COU	-3687
DIP	-3688
FLY	-3689
GPI	-3690
GPX	-3691
ISM	-3692
MQD	-3693
NDO	-3694
PIG	-3695
SOM	-3696
SSS	-3697
WSS	-3698
[--	-3699
]),	-3700
_00	-3701
__0	-3702
▁"!	-3703
▁"9	-3704
▁'#	-3705
▁'@	-3706
▁'{	-3707
▁-(	-3708
▁-5	-3709
▁33	-3710
▁4]	-3711
▁5.	-3712
▁NG	-3713
▁NI	-3714
▁SD	-3715
▁ZN	-3716
▁_8	-3717
▁uu	-3718
不存在	-3719
!"),	-3720
(");	-3721
(-0.	-3722
(213	-3723
(300	-3724
(40,	-3725
(6),	-3726
);",	-3727
//*[	-3728
0111	-3729
1().	-3730
10.0	-3731
21,9	-3732
6-11	-3733
8979	-3734
990.	-3735
=\"#	-3736
CHIN	-3737
DISP	-3738
FING	-3739
IOUS	-3740
LOOP	-3741
NDSH	-3742
PINJ	-3743
QUIC	-3744
SION	-3745
SQLP	-3746
XSSF	-3747
ZOOM	-3748
[*].	-3749
[3][	-3750
[9];	-3751
\");	-3752
\"><	-3753
_199	-3754
_1_)	-3755
════	-3756
▁({}	-3757
▁17,	-3758
▁176	-3759
▁22;	-3760
▁30)	-3761
▁38,	-3762
▁53,	-3763
▁80;	-3764
▁BIG	-3765
▁FHI	-3766
▁SPC	-3767
("*",	-3768
(".",	-3769
(1024	-3770
02005	-3771
02006	-3772
07004	-3773
08004	-3774
08005	-3775
08008	-3776
65\1\	-3777
BUSIN	-3778
FFICI	-3779
IBILI	-3780
MILYS	-3781
PHONY	-3782
UNINI	-3783
[4]);	-3784
▁"...	-3785
▁"304	-3786
▁'.')	-3787
▁0.05	-3788
▁0.75	-3789
▁1234	-3790
▁128;	-3791
▁256;	-3792
▁400,	-3793
▁400;	-3794
▁500)	-3795
▁982.	-3796
▁DOWN	-3797
▁SSLH	-3798
('(');	-3799
(1.0).	-3800
)))));	-3801
---");	-3802
014828	-3803
201704	-3804
:00");	-3805
=\"0\"	-3806
IGSYSu	-3807
SHUFFL	-3808
[2]));	-3809
▁"10",	-3810
▁"\"",	-3811
▁"\"";	-3812
▁']');	-3813
("10011	-3814
(100));	-3815
0101012	-3816
11:21,9	-3817
6-11-03	-3818
CLOSING	-3819
▁1024),	-3820
▁JDBCOu	-3821
("$.[*].	-3822
,###,###	-3823
0100310.	-3824
MISSIONS	-3825
▁'201704	-3826
00000001;	-3827
("========	-3828
▁2016-11-03	-3829
▁21:11:21,9	-3830
▁[192.168.1.	-3831
0100310.014828	-3832
1$	-3833
:0	-3834
NL	-3835
WL	-3836
YD	-3837
ZH	-3838
^/	-3839
}&	-3840
ある	-3841
して	-3842
上传	-3843
使用	-3844
单体	-3845
定时	-3846
属性	-3847
操作	-3848
正在	-3849
%02	-3850
("]	-3851
('}	-3852
((-	-3853
(4)	-3854
+",	-3855
-";	-3856
-16	-3857
-1@	-3858
.1.	-3859
07/	-3860
08;	-3861
1.3	-3862
132	-3863
155	-3864
169	-3865
2__	-3866
32)	-3867
32,	-3868
56.	-3869
653	-3870
7).	-3871
76,	-3872
777	-3873
78;	-3874
837	-3875
99;	-3876
;</	-3877
=*/	-3878
BBL	-3879
BOB	-3880
BSS	-3881
FLU	-3882
GLU	-3883
IMM	-3884
LDS	-3885
MMI	-3886
NSD	-3887
OSC	-3888
PIS	-3889
PUL	-3890
UGI	-3891
WIN	-3892
_16	-3893
При	-3894
вет	-3895
▁'7	-3896
▁CI	-3897
▁HC	-3898
▁IH	-3899
▁JF	-3900
▁JG	-3901
▁LF	-3902
▁PC	-3903
请输入	-3904
'');	-3905
('\\	-3906
(14,	-3907
))";	-3908
-08-	-3909
/100	-3910
0003	-3911
01()	-3912
02);	-3913
020_	-3914
03).	-3915
0801	-3916
12",	-3917
1305	-3918
1_11	-3919
56",	-3920
7\1\	-3921
9));	-3922
=?";	-3923
DIUS	-3924
DOCS	-3925
GUND	-3926
GZIP	-3927
INFL	-3928
JOBS	-3929
MOBS	-3930
MONI	-3931
NDFD	-3932
NIMI	-3933
XMPP	-3934
YHOL	-3935
[15]	-3936
[1][	-3937
▁"<!	-3938
▁13.	-3939
▁18)	-3940
▁3))	-3941
▁41.	-3942
▁48;	-3943
▁500	-3944
▁6).	-3945
▁7))	-3946
▁BLU	-3947
▁INN	-3948
▁ODS	-3949
▁PDB	-3950
▁PDP	-3951
▁{\"	-3952
信息异常	-3953
添加失败	-3954
']");	-3955
(10).	-3956
(15),	-3957
(7));	-3958
(770,	-3959
)[0];	-3960
0.0);	-3961
0002;	-3962
08006	-3963
08007	-3964
08009	-3965
19999	-3966
2019.	-3967
32");	-3968
9999,	-3969
CHOOS	-3970
_123"	-3971
▁"\2\	-3972
▁"|^/	-3973
▁'/')	-3974
▁1]],	-3975
▁300)	-3976
▁LILI	-3977
▁SPLI	-3978
")[0];	-3979
("*"))	-3980
("=");	-3981
()"));	-3982
()]));	-3983
(1.0);	-3984
(150);	-3985
(500).	-3986
00"));	-3987
000");	-3988
196304	-3989
999999	-3990
CONSOL	-3991
_123--	-3992
Привет	-3993
▁''{2}	-3994
▁UNINI	-3995
▁[{}],	-3996
("\\.")	-3997
()[0]);	-3998
(1024);	-3999
(200));	-4000
(40000,	-4001
100002,	-4002
ISMIXIN	-4003
▁120));	-4004
/2011-04	-4005
00:00:00	-4006
XCLUSION	-4007
▁10000);	-4008
("1.2.3",	-4009
("2011-04	-4010
127.0.0.1	-4011
▁00:00:00	-4012
("127.0.0.	-4013
000000000000	-4014
-6	-4015
6<	-4016
82	-4017
;)	-4018
=>	-4019
CQ	-4020
WP	-4021
}]	-4022
те	-4023
▁]	-4024
▁đ	-4025
った	-4026
今天	-4027
地址	-4028
点击	-4029
类型	-4030
("!	-4031
(17	-4032
*",	-4033
--"	-4034
.$$	-4035
0";	-4036
07;	-4037
18.	-4038
214	-4039
3("	-4040
3.6	-4041
312	-4042
34,	-4043
3:"	-4044
4),	-4045
40_	-4046
505	-4047
8()	-4048
812	-4049
=2;	-4050
BBP	-4051
BDD	-4052
BNO	-4053
BQI	-4054
DBM	-4055
GDP	-4056
HIJ	-4057
IQN	-4058
JDB	-4059
JSP	-4060
JUN	-4061
ONM	-4062
OSP	-4063
PLO	-4064
PNF	-4065
PWD	-4066
QSu	-4067
UNM	-4068
UNW	-4069
WWW	-4070
Zuu	-4071
_23	-4072
_24	-4073
{1,	-4074
▁'[	-4075
▁43	-4076
▁5]	-4077
▁CB	-4078
▁Ju	-4079
▁PD	-4080
▁XP	-4081
▁_2	-4082
!").	-4083
("'"	-4084
("(?	-4085
((((	-4086
-3",	-4087
-8";	-4088
/"),	-4089
1(),	-4090
11);	-4091
1972	-4092
1\",	-4093
2(),	-4094
22",	-4095
256(	-4096
26);	-4097
5656	-4098
6-02	-4099
BINJ	-4100
BOLD	-4101
BOOL	-4102
CHUN	-4103
CINJ	-4104
CINS	-4105
CLOC	-4106
FUND	-4107
HINJ	-4108
HINS	-4109
HOLD	-4110
ISBN	-4111
NINJ	-4112
OBOX	-4113
OCCO	-4114
SUGG	-4115
]{1,	-4116
_16,	-4117
_4);	-4118
{");	-4119
▁"),	-4120
▁"+"	-4121
▁"2.	-4122
▁"23	-4123
▁"],	-4124
▁"{"	-4125
▁((_	-4126
▁21;	-4127
▁41;	-4128
▁435	-4129
▁45,	-4130
▁84.	-4131
▁90,	-4132
▁90;	-4133
▁<<=	-4134
▁IMX	-4135
▁IPU	-4136
▁LOW	-4137
▁MIX	-4138
匹配内容	-4139
("0.0	-4140
("011	-4141
("1.0	-4142
("[3,	-4143
('.',	-4144
(12),	-4145
(204,	-4146
(60);	-4147
(8));	-4148
);");	-4149
-01",	-4150
/**",	-4151
0004;	-4152
04002	-4153
05002	-4154
05003	-4155
07002	-4156
07003	-4157
08002	-4158
08003	-4159
08012	-4160
11");	-4161
15926	-4162
23:59	-4163
37418	-4164
64())	-4165
6537.	-4166
70000	-4167
89793	-4168
>[][]	-4169
CHINJ	-4170
FMLOu	-4171
MNINJ	-4172
MYSQL	-4173
SYNCH	-4174
UMINJ	-4175
[12];	-4176
[1]).	-4177
\"/>\	-4178
\"}";	-4179
\001\	-4180
_7884	-4181
▁"}}\	-4182
▁'9')	-4183
▁0]],	-4184
▁1)).	-4185
▁1.0\	-4186
▁15.6	-4187
▁2.0\	-4188
▁21);	-4189
▁22);	-4190
▁2]],	-4191
▁7));	-4192
▁BODY	-4193
▁ICON	-4194
('}');	-4195
(10)).	-4196
(16));	-4197
++]));	-4198
00000;	-4199
16());	-4200
37:19.	-4201
MSOUND	-4202
NIOFIL	-4203
NOMOUS	-4204
_19627	-4205
▁"!");	-4206
▁"2");	-4207
▁":");	-4208
▁">");	-4209
▁"\",\	-4210
▁0.0).	-4211
▁00:00	-4212
▁2000;	-4213
▁SUBSC	-4214
('\'');	-4215
699997,	-4216
MODIFIC	-4217
SIGNING	-4218
_1_0_0.	-4219
_2_0_0.	-4220
▁"123",	-4221
▁MILLIS	-4222
15926535	-4223
2007_05.	-4224
23:59:59	-4225
?,?,?,?,	-4226
DBCSQLDB	-4227
_123--";	-4228
("2006-02	-4229
******");	-4230
00000004)	-4231
▁"2018-03	-4232
00000002);	-4233
▁\001(\0132	-4234
("2016-10-12	-4235
1592653589793	-4236
&*	-4237
)|	-4238
+)	-4239
2|	-4240
9_	-4241
:[	-4242
GW	-4243
_(	-4244
_:	-4245
}|	-4246
ÃO	-4247
ая	-4248
ки	-4249
▁з	-4250
下载	-4251
启动	-4252
字段	-4253
实体	-4254
接收	-4255
支付	-4256
检查	-4257
渠道	-4258
病例	-4259
贼嗨	-4260
进入	-4261
选择	-4262
重新	-4263
(42	-4264
,",	-4265
/")	-4266
/*/	-4267
105	-4268
12:	-4269
15,	-4270
172	-4271
203	-4272
21_	-4273
24_	-4274
32:	-4275
4";	-4276
50,	-4277
514	-4278
528	-4279
62,	-4280
63,	-4281
784	-4282
994	-4283
:";	-4284
=?,	-4285
BUF	-4286
CIS	-4287
FSu	-4288
GBM	-4289
GUL	-4290
JWS	-4291
LLI	-4292
LMN	-4293
MMM	-4294
NLS	-4295
OFL	-4296
OIC	-4297
OSI	-4298
POD	-4299
SIM	-4300
YSP	-4301
\2\	-4302
}</	-4303
аяв	-4304
▁!_	-4305
▁'<	-4306
▁'=	-4307
▁'?	-4308
▁-6	-4309
▁.3	-4310
▁BC	-4311
▁GF	-4312
▁HM	-4313
▁IJ	-4314
▁YY	-4315
▁['	-4316
▁\\	-4317
();\	-4318
(11)	-4319
(254	-4320
(42.	-4321
-12-	-4322
.*",	-4323
0").	-4324
0.0,	-4325
0305	-4326
0329	-4327
13",	-4328
2.2.	-4329
2.5,	-4330
2546	-4331
2}",	-4332
3"),	-4333
3306	-4334
384.	-4335
56);	-4336
64()	-4337
6\0\	-4338
:{},	-4339
="))	-4340
BILL	-4341
BIND	-4342
FQDN	-4343
GLFW	-4344
HSSF	-4345
IMIZ	-4346
JMXP	-4347
MION	-4348
MOND	-4349
NDON	-4350
OCCU	-4351
SIBL	-4352
SOLU	-4353
SQLC	-4354
XWPF	-4355
[6],	-4356
_01.	-4357
__("	-4358
▁"1"	-4359
▁"1,	-4360
▁$$$	-4361
▁').	-4362
▁'-'	-4363
▁'1'	-4364
▁.5;	-4365
▁103	-4366
▁11)	-4367
▁13:	-4368
▁199	-4369
▁1]"	-4370
▁213	-4371
▁23.	-4372
▁325	-4373
▁36,	-4374
▁3])	-4375
▁40)	-4376
▁44.	-4377
▁54,	-4378
▁57,	-4379
▁58,	-4380
▁89,	-4381
▁96,	-4382
▁BIN	-4383
▁COO	-4384
▁DSL	-4385
▁GPI	-4386
▁JWS	-4387
▁LYC	-4388
▁MUS	-4389
▁PNS	-4390
▁XPD	-4391
▁___	-4392
▁{}:	-4393
今天贼嗨	-4394
定时任务	-4395
'][1]	-4396
("%.2	-4397
("/")	-4398
("001	-4399
('/',	-4400
(1)),	-4401
(16),	-4402
(201,	-4403
(4)).	-4404
/*");	-4405
0003;	-4406
0005;	-4407
03001	-4408
04001	-4409
05001	-4410
07001	-4411
2)");	-4412
20");	-4413
8());	-4414
:1234	-4415
=*");	-4416
CIFIC	-4417
ILING	-4418
INLIN	-4419
SYNON	-4420
_1474	-4421
_1806	-4422
_2_0.	-4423
▁(0.5	-4424
▁-0.5	-4425
▁0.1;	-4426
▁0.25	-4427
▁0.8;	-4428
▁1.0)	-4429
▁1.5,	-4430
▁18);	-4431
▁2.0"	-4432
▁2000	-4433
▁3.0\	-4434
▁4");	-4435
▁500,	-4436
▁5]",	-4437
▁64);	-4438
▁:");	-4439
▁GOLD	-4440
▁LIGH	-4441
▁SQLS	-4442
▁SUBJ	-4443
▁})).	-4444
("*");	-4445
("----	-4446
("2");	-4447
(";");	-4448
('=');	-4449
(2019,	-4450
010102	-4451
4")));	-4452
[0-9]+	-4453
▁"/{2}	-4454
▁65535	-4455
01406",	-4456
1972())	-4457
899998,	-4458
900002,	-4459
INBOUND	-4460
▁"30329	-4461
▁1000),	-4462
▁1000).	-4463
("123");	-4464
0\2\1\1\	-4465
SIBLINGS	-4466
▁WINDOWS	-4467
16:37:19.	-4468
SYSCONGLOM	-4469
▁\001(\003	-4470
--------");	-4471
>>>>>>>>>>>	-4472
("127.0.0.1",	-4473
(">>>>>>>>>>>>	-4474
▁"2018-03-01",	-4475
&#	-4476
,%	-4477
,'	-4478
0-	-4479
5}	-4480
:.	-4481
BQ	-4482
DJ	-4483
HU	-4484
MZ	-4485
QC	-4486
ZF	-4487
[-	-4488
uO	-4489
}:	-4490
ди	-4491
от	-4492
▁в	-4493
▁н	-4494
▁п	-4495
って	-4496
ない	-4497
もの	-4498
不符	-4499
列表	-4500
取消	-4501
图片	-4502
岩波	-4503
所有	-4504
执行	-4505
报警	-4506
数组	-4507
维修	-4508
路径	-4509
项目	-4510
('{	-4511
015	-4512
04,	-4513
06;	-4514
1")	-4515
13,	-4516
191	-4517
19;	-4518
1="	-4519
208	-4520
299	-4521
33,	-4522
39:	-4523
559	-4524
61,	-4525
64)	-4526
80)	-4527
876	-4528
=\\	-4529
BBC	-4530
BON	-4531
CFG	-4532
CPF	-4533
FSC	-4534
HSL	-4535
III	-4536
JQL	-4537
LFF	-4538
LYS	-4539
MSN	-4540
NOS	-4541
NSH	-4542
ODL	-4543
UDO	-4544
[0,	-4545
],\	-4546
_2,	-4547
_2;	-4548
_32	-4549
ÇÃO	-4550
▁#"	-4551
▁$%	-4552
▁(3	-4553
▁1"	-4554
▁4.	-4555
▁48	-4556
▁="	-4557
▁DP	-4558
▁GU	-4559
▁HW	-4560
▁PM	-4561
▁UM	-4562
▁_7	-4563
▁`%	-4564
客户端	-4565
#");	-4566
''",	-4567
')";	-4568
'.",	-4569
("/?	-4570
()][	-4571
(23,	-4572
(24,	-4573
(26,	-4574
(34.	-4575
(35.	-4576
(41.	-4577
(46.	-4578
(48,	-4579
(64,	-4580
(7).	-4581
(90,	-4582
(99,	-4583
)").	-4584
-435	-4585
/"))	-4586
0013	-4587
1056	-4588
1418	-4589
16\"	-4590
2"))	-4591
2049	-4592
24);	-4593
3(),	-4594
32()	-4595
587.	-4596
6]);	-4597
CONJ	-4598
COPY	-4599
DNNO	-4600
LLOC	-4601
LOPM	-4602
MXML	-4603
NOWL	-4604
NSPO	-4605
PINP	-4606
SUBL	-4607
ULIP	-4608
YYYY	-4609
[100	-4610
[]>(	-4611
\000	-4612
_0_.	-4613
_3()	-4614
__0_	-4615
|');	-4616
▁",\	-4617
▁"/?	-4618
▁"__	-4619
▁1,"	-4620
▁14:	-4621
▁19;	-4622
▁300	-4623
▁36.	-4624
▁43,	-4625
▁56.	-4626
▁62,	-4627
▁63,	-4628
▁72.	-4629
▁86.	-4630
▁BDD	-4631
▁CHO	-4632
▁COS	-4633
▁CPU	-4634
▁DIM	-4635
▁GOu	-4636
▁MDC	-4637
▁OSC	-4638
▁POL	-4639
▁POW	-4640
▁SMS	-4641
▁UDP	-4642
▁UPP	-4643
▁XSS	-4644
▁\"*	-4645
岩波文庫	-4646
!!");	-4647
("#00	-4648
(",")	-4649
("6",	-4650
("===	-4651
(22);	-4652
(3)).	-4653
)).//	-4654
0/07/	-4655
0123.	-4656
08011	-4657
1")),	-4658
14");	-4659
3306/	-4660
43235	-4661
6250.	-4662
8"));	-4663
>(3);	-4664
LFFIL	-4665
LIMIN	-4666
NCHIS	-4667
SUBMI	-4668
SUBOP	-4669
UDOCL	-4670
[10];	-4671
[16];	-4672
[]>>.	-4673
\"></	-4674
\0\1\	-4675
▁"!",	-4676
▁"200	-4677
▁"5",	-4678
▁"\"\	-4679
▁'1')	-4680
▁'163	-4681
▁(1.0	-4682
▁-12.	-4683
▁120,	-4684
▁192,	-4685
▁2)).	-4686
▁32).	-4687
▁32.0	-4688
▁42);	-4689
▁5");	-4690
▁771,	-4691
▁998.	-4692
▁BLOC	-4693
▁FULL	-4694
▁ISBN	-4695
("-");	-4696
("8");	-4697
('[');	-4698
(-2)).	-4699
(0.5);	-4700
(123),	-4701
(2014,	-4702
(2016,	-4703
(2017,	-4704
(4)));	-4705
-1.0-2	-4706
-43532	-4707
1404()	-4708
2.3,4.	-4709
2546()	-4710
COMMON	-4711
COMPIL	-4712
SSIGNM	-4713
\")");	-4714
▁"*");	-4715
▁'.');	-4716
▁'/');	-4717
▁1009.	-4718
▁2.0);	-4719
▁30));	-4720
▁COMPU	-4721
▁ICONS	-4722
▁SUPPO	-4723
▁XSSFW	-4724
▁{})",	-4725
批量删除财务	-4726
("10111	-4727
("123",	-4728
("200",	-4729
(1403).	-4730
(2545).	-4731
000"));	-4732
199997,	-4733
3741824	-4734
69995);	-4735
899994,	-4736
<?>>();	-4737
=\"16\"	-4738
ISIBILI	-4739
UNBOUND	-4740
\022\03	-4741
_199234	-4742
_230013	-4743
▁","));	-4744
▁"1.0.0	-4745
▁180.0)	-4746
▁2000);	-4747
▁3000);	-4748
08080808	-4749
19630409	-4750
COMBOBOX	-4751
\")."));	-4752
_1048576	-4753
▁"30/07/	-4754
▁MINIMUM	-4755
▁MISSING	-4756
'][1]//*[	-4757
▁1611))).	-4758
[][][][][]	-4759
▁2018083014	-4760
("2015-02-02	-4761
("2016-10-15	-4762
16:37:19.192	-4763
▁"30/07/2020	-4764
%5	-4765
4"	-4766
5<	-4767
6'	-4768
8\	-4769
:9	-4770
=$	-4771
??	-4772
@!	-4773
LH	-4774
NW	-4775
UX	-4776
XH	-4777
XJ	-4778
_/	-4779
こと	-4780
され	-4781
ます	-4782
发送	-4783
支持	-4784
无法	-4785
记录	-4786
身份	-4787
%20	-4788
("}	-4789
('>	-4790
('?	-4791
('@	-4792
()\	-4793
(.*	-4794
([^	-4795
),\	-4796
-05	-4797
//@	-4798
0.1	-4799
00_	-4800
05,	-4801
051	-4802
06,	-4803
107	-4804
12)	-4805
128	-4806
14,	-4807
144	-4808
15.	-4809
150	-4810
16(	-4811
17,	-4812
22;	-4813
23.	-4814
24.	-4815
24:	-4816
2="	-4817
2>\	-4818
3),	-4819
340	-4820
355	-4821
378	-4822
386	-4823
388	-4824
389	-4825
391	-4826
3])	-4827
420	-4828
597	-4829
68,	-4830
961	-4831
:11	-4832
:17	-4833
=")	-4834
=[%	-4835
BLP	-4836
CMP	-4837
DFP	-4838
DOS	-4839
FUN	-4840
GIC	-4841
IFF	-4842
IMX	-4843
IPH	-4844
IQL	-4845
ISI	-4846
MFS	-4847
MIG	-4848
OCU	-4849
PDP	-4850
PFP	-4851
UDF	-4852
XXX	-4853
\""	-4854
]\\	-4855
]];	-4856
_04	-4857
_4.	-4858
`",	-4859
{3}	-4860
▁6]	-4861
▁7.	-4862
▁CP	-4863
▁CY	-4864
▁GP	-4865
▁SS	-4866
▁XY	-4867
▁[-	-4868
▁{&	-4869
である	-4870
的中断	-4871
");\	-4872
("..	-4873
(29.	-4874
(37.	-4875
(45,	-4876
(\""	-4877
))",	-4878
--->	-4879
-05.	-4880
-256	-4881
.0";	-4882
03",	-4883
14",	-4884
154,	-4885
20",	-4886
21);	-4887
256;	-4888
3.9,	-4889
4();	-4890
6").	-4891
>"),	-4892
CLOB	-4893
DUMP	-4894
LOCI	-4895
LSOU	-4896
MING	-4897
MUIS	-4898
NDSC	-4899
ONIZ	-4900
POLY	-4901
POND	-4902
WIND	-4903
[409	-4904
[5].	-4905
\013	-4906
\014	-4907
\016	-4908
\017	-4909
_");	-4910
_0);	-4911
_0_8	-4912
_188	-4913
_1_1	-4914
_225	-4915
_4_,	-4916
_5()	-4917
_888	-4918
|");	-4919
}"),	-4920
})",	-4921
▁"30	-4922
▁"[]	-4923
▁%.0	-4924
▁***	-4925
▁---	-4926
▁12.	-4927
▁124	-4928
▁17.	-4929
▁21)	-4930
▁30.	-4931
▁326	-4932
▁44,	-4933
▁47,	-4934
▁48,	-4935
▁52,	-4936
▁53;	-4937
▁78,	-4938
▁79.	-4939
▁82.	-4940
▁90.	-4941
▁==:	-4942
▁>>=	-4943
▁BOX	-4944
▁BQI	-4945
▁JOB	-4946
▁MUC	-4947
▁OBD	-4948
▁OCL	-4949
▁OMO	-4950
▁{}/	-4951
不能为空	-4952
报警设置	-4953
("#")	-4954
("%02	-4955
(4000	-4956
(\"/_	-4957
-0000	-4958
.3");	-4959
._2_0	-4960
//@*[	-4961
02");	-4962
1());	-4963
1)");	-4964
10").	-4965
20000	-4966
47\1\	-4967
60000	-4968
:30",	-4969
:4567	-4970
=?;";	-4971
CHING	-4972
FGHIJ	-4973
ICONS	-4974
INING	-4975
LLING	-4976
MBIOS	-4977
NONIC	-4978
SBMLC	-4979
[1]),	-4980
][0];	-4981
▁".",	-4982
▁"_00	-4983
▁0.85	-4984
▁1)))	-4985
▁10))	-4986
▁128)	-4987
▁6553	-4988
▁8");	-4989
▁GPIO	-4990
▁JBBP	-4991
▁QMUI	-4992
▁XWPF	-4993
的中断状态	-4994
(']');	-4995
('|');	-4996
(1.5).	-4997
(100),	-4998
(2.0).	-4999
(300);	-5000
/2001/	-5001
10"));	-5002
3\1\1\	-5003
4_128_	-5004
DISPOS	-5005
OFFLIN	-5006
[100];	-5007
_000);	-5008
▁"")).	-5009
▁"-");	-5010
▁"3055	-5011
▁'\\')	-5012
▁0.5);	-5013
▁360.0	-5014
▁CHOOS	-5015
▁{}:{}	-5016
("-1"))	-5017
()[1]);	-5018
(213169	-5019
(300000	-5020
2._2_0.	-5021
2007_05	-5022
299995,	-5023
800003,	-5024
99994);	-5025
9999999	-5026
DISCONN	-5027
FUSIONS	-5028
▁25)));	-5029
▁5000);	-5030
▁65535)	-5031
▁SHOULD	-5032
\030\003	-5033
▁[{}].",	-5034
00000004);	-5035
("2016-10-13	-5036
!"	-5037
$"	-5038
)+	-5039
)/	-5040
+-	-5041
1=	-5042
>{	-5043
JF	-5044
MG	-5045
NF	-5046
ZI	-5047
ZY	-5048
]:	-5049
]<	-5050
|\	-5051
ка	-5052
ра	-5053
ру	-5054
▁и	-5055
▁с	-5056
その	-5057
なる	-5058
ージ	-5059
価値	-5060
入参	-5061
刷新	-5062
发生	-5063
古典	-5064
导出	-5065
开启	-5066
搜索	-5067
正确	-5068
结束	-5069
联系	-5070
页面	-5071
!--	-5072
'";	-5073
(!@	-5074
),"	-5075
).\	-5076
*";	-5077
-09	-5078
-1:	-5079
-2.	-5080
.</	-5081
1".	-5082
1("	-5083
11"	-5084
120	-5085
145	-5086
14:	-5087
184	-5088
1_9	-5089
20_	-5090
24,	-5091
26,	-5092
264	-5093
2<@	-5094
32>	-5095
42.	-5096
486	-5097
56;	-5098
648	-5099
678	-5100
688	-5101
81,	-5102
818	-5103
83.	-5104
95.	-5105
96,	-5106
:")	-5107
:</	-5108
:\"	-5109
>>,	-5110
?\\	-5111
BML	-5112
CDI	-5113
DIG	-5114
FSO	-5115
GCP	-5116
ILY	-5117
INZ	-5118
IPO	-5119
JPY	-5120
MBL	-5121
MSC	-5122
MUD	-5123
OMY	-5124
OPQ	-5125
PPS	-5126
QXX	-5127
SSP	-5128
USB	-5129
XMI	-5130
[3,	-5131
[64	-5132
\32	-5133
^2|	-5134
^3|	-5135
_02	-5136
_05	-5137
_64	-5138
{0}	-5139
}],	-5140
▁"=	-5141
▁$"	-5142
▁%=	-5143
▁."	-5144
▁44	-5145
▁6.	-5146
▁GH	-5147
▁GM	-5148
▁HS	-5149
▁MC	-5150
▁SN	-5151
▁XL	-5152
▁[2	-5153
未登录	-5154
的価値	-5155
线程数	-5156
("#{	-5157
()):	-5158
(12.	-5159
(17,	-5160
(203	-5161
(54.	-5162
(76,	-5163
(808	-5164
(9),	-5165
**",	-5166
.0).	-5167
0();	-5168
02",	-5169
02()	-5170
0302	-5171
0416	-5172
08",	-5173
0948	-5174
1474	-5175
1586	-5176
16()	-5177
1755	-5178
180;	-5179
1\2\	-5180
2213	-5181
256,	-5182
32);	-5183
360.	-5184
59_1	-5185
8\0\	-5186
9000	-5187
=\"2	-5188
>10]	-5189
BUIL	-5190
BYUS	-5191
FMLP	-5192
ILON	-5193
LHIS	-5194
LHOS	-5195
LYMP	-5196
MNIO	-5197
NDIS	-5198
NOWN	-5199
NUMP	-5200
OPDS	-5201
PLUS	-5202
WSCD	-5203
WXYZ	-5204
[2][	-5205
])).	-5206
_02,	-5207
_1()	-5208
_176	-5209
_201	-5210
_212	-5211
_7()	-5212
__()	-5213
}}";	-5214
▁"*"	-5215
▁".*	-5216
▁"2,	-5217
▁"25	-5218
▁"3,	-5219
▁":\	-5220
▁"]"	-5221
▁"}\	-5222
▁"║"	-5223
▁':'	-5224
▁'\'	-5225
▁'_'	-5226
▁(19	-5227
▁(29	-5228
▁++_	-5229
▁-5,	-5230
▁/>\	-5231
▁20.	-5232
▁23;	-5233
▁324	-5234
▁34.	-5235
▁34:	-5236
▁4",	-5237
▁4))	-5238
▁40.	-5239
▁42.	-5240
▁46,	-5241
▁49,	-5242
▁59;	-5243
▁70;	-5244
▁76.	-5245
▁768	-5246
▁80.	-5247
▁81,	-5248
▁83.	-5249
▁CMP	-5250
▁DOC	-5251
▁DON	-5252
▁GCM	-5253
▁GSY	-5254
▁IIL	-5255
▁JQL	-5256
▁LMS	-5257
▁NDC	-5258
▁NHS	-5259
▁QNM	-5260
▁SQS	-5261
▁SUM	-5262
▁UIW	-5263
▁[1,	-5264
▁[\"	-5265
入参实体	-5266
更新失败	-5267
查询失败	-5268
("'",	-5269
(",",	-5270
(">>>	-5271
("_",	-5272
()[0]	-5273
(0)),	-5274
(10.0	-5275
(13),	-5276
(14),	-5277
(145,	-5278
(36.2	-5279
(77);	-5280
0000:	-5281
0006;	-5282
0007;	-5283
01").	-5284
105",	-5285
1056/	-5286
125\"	-5287
2")),	-5288
2());	-5289
20004	-5290
2016-	-5291
3)));	-5292
44");	-5293
896);	-5294
='").	-5295
BUSQU	-5296
CLIPS	-5297
COBOL	-5298
DHUWI	-5299
DINGS	-5300
JDBCM	-5301
LYSIS	-5302
NDLIN	-5303
SPLIN	-5304
]<---	-5305
][1];	-5306
_0_8;	-5307
_10()	-5308
_16()	-5309
_1_1,	-5310
}"));	-5311
▁""))	-5312
▁"100	-5313
▁">";	-5314
▁$%.2	-5315
▁'-')	-5316
▁'0',	-5317
▁'1',	-5318
▁'6',	-5319
▁'8',	-5320
▁'9',	-5321
▁(100	-5322
▁*/",	-5323
▁101,	-5324
▁101;	-5325
▁102,	-5326
▁150;	-5327
▁2.0)	-5328
▁2005	-5329
▁3276	-5330
▁3]],	-5331
▁55.7	-5332
▁59);	-5333
▁600,	-5334
▁70);	-5335
▁80);	-5336
▁995.	-5337
▁9]",	-5338
▁CCGB	-5339
▁CLOS	-5340
▁IOSS	-5341
▁MXML	-5342
▁OPDS	-5343
▁PDON	-5344
▁POIN	-5345
▁SCOP	-5346
▁SHOO	-5347
▁заяв	-5348
")).//	-5349
("")))	-5350
("#"))	-5351
("****	-5352
("."))	-5353
("0800	-5354
("1"))	-5355
("2009	-5356
("2017	-5357
("3");	-5358
('-');	-5359
(2015,	-5360
(3000,	-5361
(5000,	-5362
147483	-5363
160706	-5364
9999);	-5365
:3306/	-5366
=\"").	-5367
INSIGH	-5368
LFCOUN	-5369
LLIPOP	-5370
PSILON	-5371
PULMON	-5372
][1]);	-5373
_2020_	-5374
_5_3()	-5375
▁";");	-5376
▁"_004	-5377
▁(!"".	-5378
▁(((((	-5379
▁1")).	-5380
▁100),	-5381
▁100).	-5382
▁1017.	-5383
▁2)));	-5384
▁20)),	-5385
▁3000;	-5386
▁COMMI	-5387
▁GOOGL	-5388
▁IUINJ	-5389
▁SWISH	-5390
▁{2}",	-5391
▁{}");	-5392
当前入参实体	-5393
####");	-5394
("1"));	-5395
("11101	-5396
("911",	-5397
(2848);	-5398
0000");	-5399
1000036	-5400
19995);	-5401
DSSMINI	-5402
SUFFICI	-5403
_176502	-5404
_225597	-5405
▁"100",	-5406
▁-10000	-5407
▁973.4,	-5408
(",")));	-5409
(1000000	-5410
(1_000);	-5411
=\"125\"	-5412
LOLLIPOP	-5413
\030\004	-5414
▁"1.0");	-5415
▁"123");	-5416
▁"141118	-5417
▁1000)).	-5418
▁2131755	-5419
160706812	-5420
("2006-02-	-5421
(123456789	-5422
_1048576()	-5423
▁1_000_000	-5424
306\0\306\0\	-5425
▁21:11:21,959	-5426
!=	-5427
(;	-5428
+.	-5429
1+	-5430
4<	-5431
4>	-5432
5/	-5433
72	-5434
8/	-5435
9\	-5436
@#	-5437
JU	-5438
WC	-5439
{4	-5440
ло	-5441
ши	-5442
回写	-5443
处理	-5444
已经	-5445
找到	-5446
插入	-5447
新增	-5448
权限	-5449
格式	-5450
消息	-5451
窗口	-5452
编号	-5453
节点	-5454
解析	-5455
认证	-5456
读取	-5457
配置	-5458
에러	-5459
']/	-5460
('%	-5461
('&	-5462
('*	-5463
(';	-5464
(2.	-5465
(29	-5466
(78	-5467
)._	-5468
-07	-5469
-1$	-5470
-10	-5471
.3.	-5472
/.*	-5473
019	-5474
02,	-5475
02.	-5476
033	-5477
07_	-5478
1->	-5479
10)	-5480
108	-5481
129	-5482
12_	-5483
139	-5484
167	-5485
1;&	-5486
1],	-5487
217	-5488
21;	-5489
22:	-5490
23,	-5491
236	-5492
252	-5493
266	-5494
28;	-5495
2:8	-5496
2;&	-5497
30.	-5498
329	-5499
383	-5500
3;&	-5501
400	-5502
4;&	-5503
50.	-5504
5;&	-5505
625	-5506
64:	-5507
65,	-5508
685	-5509
7.0	-5510
800	-5511
80;	-5512
843	-5513
899	-5514
8::	-5515
9";	-5516
919	-5517
98,	-5518
99.	-5519
={"	-5520
?";	-5521
BBO	-5522
CHY	-5523
CPP	-5524
FOU	-5525
GON	-5526
GSI	-5527
ICC	-5528
JMX	-5529
JOU	-5530
LOL	-5531
LUM	-5532
ODS	-5533
PCM	-5534
PNG	-5535
POP	-5536
PPL	-5537
WIS	-5538
XCH	-5539
XSS	-5540
_0,	-5541
_27	-5542
_6_	-5543
_74	-5544
uSu	-5545
{}]	-5546
▁'$	-5547
▁'>	-5548
▁-7	-5549
▁.4	-5550
▁7]	-5551
▁9.	-5552
▁BQ	-5553
▁DU	-5554
▁HI	-5555
▁PF	-5556
▁PH	-5557
▁PW	-5558
▁WB	-5559
▁XO	-5560
▁Yu	-5561
▁[3	-5562
▁_4	-5563
▁`"	-5564
("*.	-5565
("::	-5566
("[]	-5567
()";	-5568
()},	-5569
(107	-5570
(19,	-5571
(199	-5572
(38,	-5573
(400	-5574
(;;)	-5575
({},	-5576
).",	-5577
*\"\	-5578
/*",	-5579
000-	-5580
001;	-5581
0050	-5582
01";	-5583
03);	-5584
0500	-5585
07",	-5586
10);	-5587
112.	-5588
14);	-5589
172.	-5590
24",	-5591
256)	-5592
344\	-5593
384)	-5594
384;	-5595
5.6)	-5596
7)).	-5597
8)).	-5598
:%02	-5599
;1.0	-5600
?)\\	-5601
BSON	-5602
COLS	-5603
FSCP	-5604
FUSC	-5605
HUND	-5606
ILDC	-5607
IPFS	-5608
JUMP	-5609
LBUM	-5610
MISC	-5611
MLSu	-5612
NIGH	-5613
NMSC	-5614
OMIC	-5615
OPBI	-5616
OZON	-5617
SDBu	-5618
SFLY	-5619
UPMS	-5620
WIFI	-5621
XMLI	-5622
[7],	-5623
[8],	-5624
[8].	-5625
[9],	-5626
\002	-5627
\020	-5628
_0_)	-5629
_10,	-5630
_40_	-5631
_704	-5632
__")	-5633
},''	-5634
▁!((	-5635
▁"$"	-5636
▁"':	-5637
▁"./	-5638
▁#{%	-5639
▁'('	-5640
▁(",	-5641
▁(-1	-5642
▁(//	-5643
▁-1:	-5644
▁-7.	-5645
▁1.2	-5646
▁115	-5647
▁125	-5648
▁155	-5649
▁16:	-5650
▁17)	-5651
▁19:	-5652
▁21.	-5653
▁24.	-5654
▁2}"	-5655
▁305	-5656
▁35;	-5657
▁45.	-5658
▁59.	-5659
▁6",	-5660
▁7.0	-5661
▁71,	-5662
▁86,	-5663
▁92,	-5664
▁CIM	-5665
▁DBP	-5666
▁DDL	-5667
▁DFS	-5668
▁DNS	-5669
▁JON	-5670
▁LIB	-5671
▁MMM	-5672
▁OWN	-5673
▁PDF	-5674
▁PHO	-5675
▁PLC	-5676
▁UIN	-5677
▁\"-	-5678
删除失败	-5679
结果异常	-5680
超时时间	-5681
("/?{	-5682
("0",	-5683
("5",	-5684
('/')	-5685
().//	-5686
(11),	-5687
(3000	-5688
(33).	-5689
-1.0-	-5690
-1.2.	-5691
-2"),	-5692
-3"),	-5693
-8"),	-5694
/1/13	-5695
0.365	-5696
0008;	-5697
0020;	-5698
1)));	-5699
14191	-5700
23");	-5701
23149	-5702
5")).	-5703
5.5);	-5704
66362	-5705
8601(	-5706
86502	-5707
==");	-5708
CLUSI	-5709
COGNI	-5710
DUBBO	-5711
ISINJ	-5712
MUSIC	-5713
PLICI	-5714
SCINJ	-5715
SWISH	-5716
UNLOC	-5717
WILDC	-5718
[15];	-5719
\"}",	-5720
\\.\\	-5721
]+?",	-5722
}}");	-5723
▁"7",	-5724
▁";";	-5725
▁'").	-5726
▁'2',	-5727
▁'3',	-5728
▁'4',	-5729
▁'5',	-5730
▁'7',	-5731
▁'=')	-5732
▁(").	-5733
▁-5.0	-5734
▁0)),	-5735
▁0.02	-5736
▁103,	-5737
▁11}"	-5738
▁120;	-5739
▁123,	-5740
▁153,	-5741
▁15}"	-5742
▁16),	-5743
▁176,	-5744
▁18.7	-5745
▁20).	-5746
▁20}"	-5747
▁2]",	-5748
▁35.0	-5749
▁3600	-5750
▁600;	-5751
▁FOLD	-5752
▁HDFS	-5753
▁MISS	-5754
▁MOUS	-5755
▁NCDS	-5756
▁PHON	-5757
▁PUSH	-5758
▁[");	-5759
▁{");	-5760
▁}}";	-5761
("/**/	-5762
("=\""	-5763
("@"))	-5764
("{}",	-5765
('#');	-5766
('{');	-5767
()[0],	-5768
()[0].	-5769
../../	-5770
.000",	-5771
/**").	-5772
/02/01	-5773
/1.0.0	-5774
000").	-5775
000));	-5776
01"));	-5777
02_));	-5778
164\1\	-5779
202\32	-5780
2_224_	-5781
59.163	-5782
64());	-5783
:4567/	-5784
COGNIZ	-5785
DMINIS	-5786
LINCOM	-5787
LMNOPQ	-5788
OBFUSC	-5789
OPPING	-5790
OUNDUP	-5791
])"));	-5792
{1}'',	-5793
▁","),	-5794
▁"2020	-5795
▁'_');	-5796
▁0.05;	-5797
▁7")).	-5798
▁SOUND	-5799
(10000,	-5800
(404));	-5801
))))));	-5802
0-01-01	-5803
000000;	-5804
0050];"	-5805
0101009	-5806
0416391	-5807
172.16.	-5808
1\1\11\	-5809
2016-03	-5810
229.163	-5811
344\223	-5812
799995,	-5813
9000961	-5814
CONSUMP	-5815
INCLUSI	-5816
\0\1\1\	-5817
\1\0\1\	-5818
_180633	-5819
_188514	-5820
_190948	-5821
▁"...";	-5822
▁"1337_	-5823
▁"30621	-5824
▁-7.125	-5825
▁0.0));	-5826
▁0.0000	-5827
▁0.0001	-5828
▁27.7);	-5829
▁404");	-5830
▁MODIFI	-5831
("...");	-5832
("000100	-5833
("000101	-5834
()]//@*[	-5835
/1/1337_	-5836
23149022	-5837
66362784	-5838
699999);	-5839
86502505	-5840
SIGNIFIC	-5841
▁"141117	-5842
▁####");	-5843
▁1000000	-5844
▁COLUMNS	-5845
▁COMPOSI	-5846
("08003",	-5847
00000008)	-5848
='2016-03	-5849
0000000000	-5850
00000008);	-5851
(1073741824	-5852
▁1000000000	-5853
("2015/02/01	-5854
("2018083014	-5855
▁27.699999);	-5856
("------------	-5857
▁\001(\0132\03	-5858
'-	-5859
*$	-5860
+"	-5861
+/	-5862
-5	-5863
/9	-5864
:$	-5865
:2	-5866
=&	-5867
=(	-5868
=+	-5869
@"	-5870
HZ	-5871
QQ	-5872
ZP	-5873
`"	-5874
во	-5875
да	-5876
ст	-5877
ẩu	-5878
▁小	-5879
この	-5880
すべ	-5881
とも	-5882
には	-5883
ると	-5884
アマ	-5885
ゾン	-5886
关闭	-5887
创建	-5888
名单	-5889
启用	-5890
態度	-5891
手机	-5892
报错	-5893
按钮	-5894
收款	-5895
日期	-5896
暂无	-5897
板块	-5898
私は	-5899
第一	-5900
編入	-5901
送信	-5902
##\	-5903
$.3	-5904
'>"	-5905
'>\	-5906
("7	-5907
(.+	-5908
(..	-5909
-8"	-5910
._0	-5911
07,	-5912
09,	-5913
148	-5914
15;	-5915
194	-5916
1_0	-5917
20:	-5918
212	-5919
254	-5920
30,	-5921
31"	-5922
31,	-5923
31;	-5924
34.	-5925
36.	-5926
3[]	-5927
4))	-5928
4];	-5929
55,	-5930
6),	-5931
644	-5932
7()	-5933
7),	-5934
778	-5935
785	-5936
8";	-5937
8.4	-5938
847	-5939
897	-5940
9),	-5941
90;	-5942
94,	-5943
:80	-5944
::"	-5945
='#	-5946
BBI	-5947
BIL	-5948
CCU	-5949
CMY	-5950
DCG	-5951
DCu	-5952
DUP	-5953
FSL	-5954
FXF	-5955
GBP	-5956
HMS	-5957
HUM	-5958
HYP	-5959
IBL	-5960
ICU	-5961
JMS	-5962
LCI	-5963
LIL	-5964
LLO	-5965
MCI	-5966
MFu	-5967
NUP	-5968
OBL	-5969
OFS	-5970
OON	-5971
PGM	-5972
PIX	-5973
PNH	-5974
PON	-5975
QFM	-5976
SCI	-5977
UNO	-5978
UNP	-5979
YMD	-5980
YMS	-5981
\"`	-5982
_3,	-5983
_47	-5984
_5,	-5985
_7,	-5986
_7.	-5987
}".	-5988
ыло	-5989
▁#%	-5990
▁($	-5991
▁(4	-5992
▁-4	-5993
▁.2	-5994
▁38	-5995
▁65	-5996
▁76	-5997
▁PI	-5998
▁QB	-5999
▁_0	-6000
▁uD	-6001
すべき	-6002
已存在	-6003
未找到	-6004
用户名	-6005
白名单	-6006
请重新	-6007
默认为	-6008
')))	-6009
("#>	-6010
("%1	-6011
("%9	-6012
("(<	-6013
("??	-6014
($1)	-6015
((-1	-6016
()].	-6017
(14.	-6018
(17.	-6019
(18.	-6020
(2))	-6021
(21,	-6022
(4))	-6023
(55,	-6024
)]);	-6025
-06.	-6026
.*},	-6027
.000	-6028
.1",	-6029
0019	-6030
022\	-6031
0400	-6032
05",	-6033
0825	-6034
0=\"	-6035
100%	-6036
1010	-6037
1212	-6038
135.	-6039
15);	-6040
155,	-6041
164\	-6042
17",	-6043
18",	-6044
1887	-6045
1];"	-6046
2008	-6047
2016	-6048
2222	-6049
256"	-6050
28];	-6051
29",	-6052
34",	-6053
3419	-6054
4"),	-6055
4)).	-6056
4\3\	-6057
5.25	-6058
50);	-6059
512)	-6060
8888	-6061
9)).	-6062
919,	-6063
9200	-6064
://%	-6065
<>(_	-6066
=\"1	-6067
>40]	-6068
>{{"	-6069
CHIS	-6070
DOMI	-6071
DZON	-6072
GLSu	-6073
ILOM	-6074
INUS	-6075
IPLY	-6076
LFPI	-6077
LLIC	-6078
MONO	-6079
MOSS	-6080
MUSH	-6081
NISM	-6082
NSHO	-6083
OCUL	-6084
ONIC	-6085
OOCH	-6086
OPOS	-6087
PLUG	-6088
POLL	-6089
SHBO	-6090
SICO	-6091
SQLD	-6092
SUBS	-6093
SUND	-6094
XMLC	-6095
XPON	-6096
[256	-6097
[4].	-6098
[6].	-6099
[7].	-6100
[{}]	-6101
\"";	-6102
_0_,	-6103
_10.	-6104
_13_	-6105
_2_)	-6106
▁"15	-6107
▁"2"	-6108
▁"?"	-6109
▁"]\	-6110
▁'@'	-6111
▁(("	-6112
▁(?,	-6113
▁107	-6114
▁128	-6115
▁15.	-6116
▁15:	-6117
▁17:	-6118
▁234	-6119
▁24:	-6120
▁28;	-6121
▁32:	-6122
▁3}"	-6123
▁43.	-6124
▁67,	-6125
▁77.	-6126
▁819	-6127
▁89.	-6128
▁8}"	-6129
▁9.0	-6130
▁97,	-6131
▁CMD	-6132
▁CUD	-6133
▁DUM	-6134
▁DYN	-6135
▁FOO	-6136
▁IOS	-6137
▁JMX	-6138
▁MMS	-6139
▁NON	-6140
▁PLU	-6141
▁PMD	-6142
▁QPP	-6143
▁SOM	-6144
▁SPI	-6145
▁UNN	-6146
▁XYS	-6147
▁\"@	-6148
▁\\\	-6149
アマゾン	-6150
信息失败	-6151
密码错误	-6152
当前插入	-6153
项目分类	-6154
'')",	-6155
("(1.	-6156
("(2,	-6157
("0")	-6158
("3",	-6159
("999	-6160
("\">	-6161
()]),	-6162
(0.00	-6163
(32);	-6164
(401,	-6165
)'");	-6166
0009;	-6167
0040;	-6168
01015	-6169
01408	-6170
08.23	-6171
1))),	-6172
1000,	-6173
30\1\	-6174
37\1\	-6175
8<>((	-6176
9.8);	-6177
>(2);	-6178
>40]"	-6179
?"));	-6180
BOUGU	-6181
GOING	-6182
MINUS	-6183
OFFIC	-6184
SSIBL	-6185
SYSCH	-6186
[10],	-6187
[]>>>	-6188
\"],\	-6189
\003\	-6190
_5_3,	-6191
}")).	-6192
▁"--"	-6193
▁'"',	-6194
▁'*',	-6195
▁(");	-6196
▁)");	-6197
▁-0.0	-6198
▁-1))	-6199
▁0.9;	-6200
▁10),	-6201
▁108,	-6202
▁111,	-6203
▁116,	-6204
▁12.0	-6205
▁140,	-6206
▁190,	-6207
▁1]))	-6208
▁2.0;	-6209
▁250,	-6210
▁3.0,	-6211
▁48).	-6212
▁48);	-6213
▁55);	-6214
▁988.	-6215
▁996.	-6216
▁CLIC	-6217
▁POSI	-6218
▁UNCH	-6219
▁XMPP	-6220
▁\003	-6221
▁},",	-6222
("$").	-6223
(","))	-6224
("-"))	-6225
("1101	-6226
("5");	-6227
("=").	-6228
(">");	-6229
("@");	-6230
("[").	-6231
("[");	-6232
('/').	-6233
('0');	-6234
('>');	-6235
('\\',	-6236
('_');	-6237
()))))	-6238
().");	-6239
(100).	-6240
(20));	-6241
(2020,	-6242
(255);	-6243
(5)));	-6244
-06-06	-6245
/**");	-6246
/13002	-6247
/13004	-6248
/13005	-6249
/13006	-6250
/13007	-6251
/13008	-6252
/13009	-6253
3")));	-6254
32());	-6255
800000	-6256
99996,	-6257
===");	-6258
BBBBBB	-6259
OPPOSI	-6260
SQLXML	-6261
SSIONS	-6262
[128];	-6263
[256];	-6264
\"}");	-6265
_123",	-6266
▁"\\\\	-6267
▁"]"))	-6268
▁"_000	-6269
▁"_002	-6270
▁"_005	-6271
▁"}}</	-6272
▁11));	-6273
▁:{}",	-6274
▁XMLOu	-6275
▁____.	-6276
当前插入数据	-6277
("%1$.3	-6278
("112",	-6279
('.'));	-6280
(204));	-6281
.2.1");	-6282
001"));	-6283
2"))));	-6284
300001,	-6285
399994,	-6286
800001,	-6287
MICOLON	-6288
MINIMUM	-6289
WINDING	-6290
YPOLICY	-6291
[1]"));	-6292
[4096];	-6293
\":\"__	-6294
_05_02,	-6295
_212843	-6296
▁"'.");	-6297
▁"/{2}/	-6298
▁"30422	-6299
▁"30466	-6300
▁0.5));	-6301
▁200");	-6302
▁700));	-6303
▁заявки	-6304
("0.0");	-6305
("111010	-6306
("???");	-6307
("\\|");	-6308
(1000));	-6309
+229.163	-6310
0000000)	-6311
1")))));	-6312
14748364	-6313
1\1\0\1\	-6314
202\323\	-6315
299995);	-6316
BUILDING	-6317
PULLDOWN	-6318
SYNONYMS	-6319
________	-6320
▁"141119	-6321
▁1611));	-6322
▁975.5);	-6323
▁989.8);	-6324
▁998.7);	-6325
▁FUNCION	-6326
▁{}/{}",	-6327
("2009-02	-6328
08.230825	-6329
123456789	-6330
20004001:	-6331
:00.000",	-6332
======");	-6333
INSUFFICI	-6334
_1048576,	-6335
▁"\1\0\1\	-6336
▁10.1056/	-6337
("--------	-6338
-43532"));	-6339
-8859-1"),	-6340
2.3,4.5.6)	-6341
:127.0.0.1	-6342
BBBBBBBBBB	-6343
▁'20170413	-6344
▁00:00")))	-6345
("127.0.0.1	-6346
-01/2011-04	-6347
("2016-10-11	-6348
("2017-06-06	-6349
▁"192.168.1.	-6350
:127.0.0.1];"	-6351
00000000000000	-6352
0100308.230825	-6353
202\323\344\223	-6354
567890123456789	-6355
("192.168.1.1");	-6356
0100310.014828",	-6357
>>>>>>>>>>>>>>>>	-6358
▁[192.168.1.1];"	-6359
$%	-6360
+2	-6361
-7	-6362
/>	-6363
0]	-6364
6}	-6365
:*	-6366
<=	-6367
=2	-6368
=3	-6369
@%	-6370
JJ	-6371
PG	-6372
PY	-6373
QP	-6374
YU	-6375
ZU	-6376
}-	-6377
ко	-6378
ла	-6379
ダメ	-6380
供应	-6381
加载	-6382
可以	-6383
复制	-6384
已被	-6385
扫描	-6386
提示	-6387
收到	-6388
攻撃	-6389
未知	-6390
条件	-6391
模式	-6392
目录	-6393
等级	-6394
管理	-6395
編集	-6396
订单	-6397
访问	-6398
请求	-6399
邮箱	-6400
配对	-6401
"):	-6402
#",	-6403
')"	-6404
'-'	-6405
("5	-6406
(--	-6407
(3.	-6408
(5)	-6409
(50	-6410
(99	-6411
(?:	-6412
+\\	-6413
-",	-6414
-04	-6415
-2-	-6416
._1	-6417
020	-6418
03.	-6419
037	-6420
03_	-6421
045	-6422
05;	-6423
089	-6424
0];	-6425
109	-6426
114	-6427
126	-6428
138	-6429
13;	-6430
166	-6431
190	-6432
1_2	-6433
207	-6434
213	-6435
232	-6436
284	-6437
29,	-6438
3.4	-6439
314	-6440
318	-6441
37.	-6442
376	-6443
379	-6444
4.5	-6445
45.	-6446
484	-6447
55;	-6448
566	-6449
59,	-6450
66,	-6451
7";	-6452
71,	-6453
744	-6454
77.	-6455
9).	-6456
;")	-6457
=${	-6458
=50	-6459
===	-6460
={3	-6461
>.@	-6462
>\\	-6463
?,?	-6464
BCC	-6465
CCW	-6466
CDC	-6467
CHF	-6468
CSP	-6469
DBG	-6470
DMI	-6471
DOO	-6472
FDB	-6473
FPS	-6474
FSF	-6475
GBS	-6476
GPQ	-6477
GSY	-6478
HGB	-6479
HOL	-6480
HQL	-6481
ILO	-6482
IOH	-6483
JIS	-6484
LSC	-6485
MCP	-6486
MLG	-6487
MOL	-6488
NGS	-6489
OBO	-6490
OLF	-6491
ONZ	-6492
OWM	-6493
PBI	-6494
PFX	-6495
PGD	-6496
PHO	-6497
QLI	-6498
SHL	-6499
SOG	-6500
SPB	-6501
SQU	-6502
SSD	-6503
SUN	-6504
UCM	-6505
UOD	-6506
WOD	-6507
YCS	-6508
\";	-6509
\\{	-6510
_0.	-6511
_22	-6512
_25	-6513
_34	-6514
}]}	-6515
▁"°	-6516
▁);	-6517
▁..	-6518
▁0"	-6519
▁56	-6520
▁57	-6521
▁63	-6522
▁96	-6523
▁DN	-6524
▁IQ	-6525
▁JI	-6526
▁JL	-6527
▁LP	-6528
▁MX	-6529
▁OI	-6530
▁PG	-6531
▁],	-6532
▁_1	-6533
▁异常	-6534
供应商	-6535
接收的	-6536
的数据	-6537
请检查	-6538
("".	-6539
("%4	-6540
("16	-6541
("^[	-6542
("}\	-6543
()::	-6544
(...	-6545
(0.6	-6546
(0.8	-6547
(19.	-6548
(20.	-6549
(304	-6550
(36.	-6551
(39,	-6552
(40.	-6553
(53.	-6554
(60.	-6555
(77,	-6556
);";	-6557
+)\\	-6558
..."	-6559
.0",	-6560
._43	-6561
/1",	-6562
/202	-6563
0)).	-6564
0005	-6565
001\	-6566
002\	-6567
0700	-6568
1.1,	-6569
1.1:	-6570
10";	-6571
11,"	-6572
13);	-6573
19",	-6574
197]	-6575
20);	-6576
200.	-6577
21",	-6578
252.	-6579
3,12	-6580
32",	-6581
365.	-6582
4.0,	-6583
5555	-6584
7804	-6585
7856	-6586
:/";	-6587
:}",	-6588
;").	-6589
<");	-6590
=*@!	-6591
=201	-6592
BFGS	-6593
BUSH	-6594
CHSI	-6595
COPI	-6596
CUND	-6597
DINS	-6598
FLOO	-6599
GILS	-6600
HSUP	-6601
INDI	-6602
INGU	-6603
IPPL	-6604
ISON	-6605
JINJ	-6606
LINJ	-6607
LINS	-6608
LLUS	-6609
MBOO	-6610
MCIB	-6611
MINS	-6612
MIUM	-6613
MLFL	-6614
MOPO	-6615
MOUS	-6616
MPOO	-6617
MSCC	-6618
MUCO	-6619
NDOS	-6620
OMIZ	-6621
OUDM	-6622
OXIM	-6623
PDIF	-6624
QMUI	-6625
SINH	-6626
SINS	-6627
SNMP	-6628
SUCH	-6629
SUCU	-6630
UNCO	-6631
WILL	-6632
WSDD	-6633
WSPD	-6634
XMLF	-6635
YCOD	-6636
\001	-6637
\007	-6638
]"))	-6639
]}",	-6640
_2",	-6641
_3",	-6642
веди	-6643
мыло	-6644
▁"&"	-6645
▁"&#	-6646
▁"*.	-6647
▁".\	-6648
▁"1|	-6649
▁"20	-6650
▁"2|	-6651
▁"3|	-6652
▁"4|	-6653
▁"5|	-6654
▁"6|	-6655
▁"7|	-6656
▁"8|	-6657
▁"<"	-6658
▁"==	-6659
▁"[{	-6660
▁"}"	-6661
▁'${	-6662
▁'['	-6663
▁'\"	-6664
▁'\0	-6665
▁(1)	-6666
▁(1.	-6667
▁(2,	-6668
▁*/\	-6669
▁-3;	-6670
▁.25	-6671
▁//$	-6672
▁077	-6673
▁180	-6674
▁19)	-6675
▁196	-6676
▁25.	-6677
▁26;	-6678
▁27;	-6679
▁2],	-6680
▁2][	-6681
▁31)	-6682
▁327	-6683
▁4.5	-6684
▁400	-6685
▁41,	-6686
▁45)	-6687
▁4}"	-6688
▁56)	-6689
▁64)	-6690
▁66,	-6691
▁7).	-6692
▁72,	-6693
▁75;	-6694
▁76,	-6695
▁8.5	-6696
▁808	-6697
▁85,	-6698
▁96;	-6699
▁?>,	-6700
▁BUL	-6701
▁DBW	-6702
▁FML	-6703
▁GIS	-6704
▁IOU	-6705
▁MPC	-6706
▁PCH	-6707
▁SDD	-6708
▁SII	-6709
▁SIL	-6710
▁SPU	-6711
▁UCS	-6712
▁UDF	-6713
▁USD	-6714
▁[':	-6715
▁\"/	-6716
▁{}"	-6717
ダメージ	-6718
系统异常	-6719
&#(!@	-6720
("***	-6721
("116	-6722
("4",	-6723
("=",	-6724
("[0,	-6725
("[\\	-6726
("\"\	-6727
('0',	-6728
('_',	-6729
(-1),	-6730
(-1).	-6731
(14);	-6732
(22),	-6733
(42).	-6734
(50.0	-6735
(600,	-6736
(9));	-6737
(90);	-6738
)(50,	-6739
))");	-6740
).");	-6741
-01";	-6742
-10",	-6743
-1000	-6744
-2");	-6745
.0));	-6746
/90",	-6747
0010;	-6748
0043;	-6749
00805	-6750
01604	-6751
01:01	-6752
08010	-6753
1.0\"	-6754
13");	-6755
1_0(0	-6756
1_10.	-6757
2")).	-6758
2").<	-6759
2)));	-6760
34");	-6761
5.0);	-6762
8.0);	-6763
86_64	-6764
911",	-6765
:197]	-6766
<>]+)	-6767
>(0);	-6768
BDINJ	-6769
DOUCH	-6770
FULLY	-6771
GINSI	-6772
ININJ	-6773
ININS	-6774
INJSP	-6775
ISINS	-6776
JUNGL	-6777
LONGI	-6778
LUMIN	-6779
MISOS	-6780
MISSI	-6781
NDINJ	-6782
NGING	-6783
OBJLN	-6784
OLINJ	-6785
ONINJ	-6786
OSMOS	-6787
OUNDS	-6788
PDINS	-6789
PIINJ	-6790
SIGIL	-6791
SIGNS	-6792
SINHL	-6793
SOLDI	-6794
SPUSH	-6795
UBINJ	-6796
UDINJ	-6797
WHICH	-6798
XIMIZ	-6799
XXXXX	-6800
YNINJ	-6801
\002\	-6802
]--->	-6803
][2];	-6804
_0();	-6805
_0_);	-6806
▁"2";	-6807
▁"202	-6808
▁"_";	-6809
▁'"')	-6810
▁'*')	-6811
▁'+',	-6812
▁'../	-6813
▁'0')	-6814
▁'0';	-6815
▁'1':	-6816
▁'2':	-6817
▁'3':	-6818
▁'4':	-6819
▁'5':	-6820
▁'6':	-6821
▁(1),	-6822
▁(11,	-6823
▁(12,	-6824
▁(2))	-6825
▁*");	-6826
▁-10,	-6827
▁-2);	-6828
▁0.";	-6829
▁0.2;	-6830
▁0.9,	-6831
▁10}"	-6832
▁11.0	-6833
▁110,	-6834
▁130,	-6835
▁145,	-6836
▁16.0	-6837
▁180;	-6838
▁19);	-6839
▁1]).	-6840
▁2.0,	-6841
▁20))	-6842
▁2017	-6843
▁204,	-6844
▁220,	-6845
▁240,	-6846
▁25),	-6847
▁250;	-6848
▁254,	-6849
▁255.	-6850
▁44.7	-6851
▁512;	-6852
▁58.7	-6853
▁60.0	-6854
▁6]",	-6855
▁===>	-6856
▁BLIN	-6857
▁CHUN	-6858
▁DISC	-6859
▁GBMS	-6860
▁MONI	-6861
▁SUSP	-6862
▁XMLF	-6863
▁XPDL	-6864
▁[{0}	-6865
▁异常发生	-6866
接收的参数	-6867
路径白名单	-6868
("#");	-6869
("&");	-6870
("0100	-6871
("100"	-6872
(":").	-6873
("<!--	-6874
("\\",	-6875
("\\\\	-6876
("]").	-6877
(':').	-6878
('?');	-6879
(256);	-6880
(404).	-6881
(404);	-6882
(45000	-6883
(\"/\"	-6884
);"));	-6885
-8000-	-6886
00")).	-6887
01208.	-6888
01_));	-6889
030502	-6890
1()));	-6891
11,11,	-6892
184172	-6893
1\",\"	-6894
1\0\1\	-6895
234567	-6896
383419	-6897
4()));	-6898
528");	-6899
666666	-6900
99999,	-6901
://10.	-6902
<>(0);	-6903
<>(3);	-6904
<>(4);	-6905
={3}";	-6906
={}]",	-6907
>()));	-6908
BINMOD	-6909
BOUNDS	-6910
COMBIN	-6911
DINJSP	-6912
DISSOL	-6913
DULINJ	-6914
IFINHL	-6915
INCOMP	-6916
INJBOL	-6917
ISCINJ	-6918
MODIFF	-6919
MUCINJ	-6920
NSLING	-6921
ONINJP	-6922
PINJSP	-6923
SHOULD	-6924
SIGNUP	-6925
SINHLC	-6926
UMPINJ	-6927
UODINS	-6928
XPLICI	-6929
YMPINJ	-6930
YMPINS	-6931
YNGINS	-6932
[0][0]	-6933
_14814	-6934
_17804	-6935
_78837	-6936
ведите	-6937
▁"&");	-6938
▁"','"	-6939
▁")").	-6940
▁"1.0-	-6941
▁"\","	-6942
▁"\">"	-6943
▁'\'')	-6944
▁'{}',	-6945
▁0.01;	-6946
▁10.0,	-6947
▁10.0;	-6948
▁120);	-6949
▁128);	-6950
▁150);	-6951
▁2")).	-6952
▁3)));	-6953
▁31));	-6954
▁32));	-6955
▁360);	-6956
▁4919,	-6957
▁51));	-6958
▁56.86	-6959
▁70));	-6960
▁BUILD	-6961
▁COLON	-6962
▁DUMMY	-6963
▁HSSFW	-6964
▁MOBIL	-6965
▁PGDSL	-6966
▁QMUIS	-6967
▁XWPFP	-6968
▁~((-1	-6969
&#(!@&*	-6970
("(2,1,	-6971
("**");	-6972
("*****	-6973
("100",	-6974
("\""))	-6975
()])));	-6976
(0.0));	-6977
(3))));	-6978
600006,	-6979
699999,	-6980
://1.1.	-6981
:01")),	-6982
FINDING	-6983
GINNING	-6984
INCOMPL	-6985
ONCHINS	-6986
SCINFUS	-6987
SOPHINS	-6988
SUBCONJ	-6989
[0]"));	-6990
\"`"));	-6991
_152584	-6992
_196271	-6993
_8888);	-6994
▁"';");	-6995
▁"30005	-6996
▁"30531	-6997
▁10000)	-6998
▁128));	-6999
▁1611,"	-7000
▁180.0;	-7001
▁4352);	-7002
▁4354);	-7003
▁72.2);	-7004
▁75.6);	-7005
▁91.5);	-7006
(2.0)));	-7007
;1.0"));	-7008
=\"1.0\"	-7009
[0-9]{1,	-7010
\003\340	-7011
\030\006	-7012
_147411_	-7013
▁100000;	-7014
▁1611]",	-7015
当前插入数据字段	-7016
00000004;	-7017
NDOSININJ	-7018
\022\024\	-7019
\022\025\	-7020
▁\001(\01	-7021
**********	-7022
----------	-7023
-0000-1000	-7024
//////////	-7025
0706528");	-7026
1000036"))	-7027
1841720019	-7028
▁"127.0.0.	-7029
▁123456789	-7030
-8000-00805	-7031
://1.1.1.1:	-7032
=*@!&#(!@&*	-7033
\":\"1\",\"	-7034
▁SUBMISSION	-7035
("2009-02-03	-7036
............	-7037
01:01:01")),	-7038
://127.0.0.1	-7039
▁"1.0.0")));	-7040
("20180830144	-7041
▁'20170413'),	-7042
<<<<<<<<<<<<<<<<	-7043
#"	-7044
$;	-7045
%.	-7046
&&	-7047
)*	-7048
)-	-7049
,-	-7050
,:	-7051
/[	-7052
0<	-7053
0[	-7054
1'	-7055
2$	-7056
4=	-7057
7-	-7058
8"	-7059
:#	-7060
:'	-7061
:7	-7062
HY	-7063
JG	-7064
JL	-7065
JX	-7066
QD	-7067
WX	-7068
XG	-7069
XM	-7070
_|	-7071
{1	-7072
}[	-7073
}}	-7074
ер	-7075
ет	-7076
ли	-7077
но	-7078
об	-7079
ть	-7080
▁大	-7081
、?	-7082
いた	-7083
いて	-7084
これ	-7085
なし	-7086
まで	-7087
よう	-7088
れて	-7089
一般	-7090
中国	-7091
事件	-7092
从未	-7093
仕事	-7094
会话	-7095
停车	-7096
允许	-7097
元素	-7098
出版	-7099
初始	-7100
动画	-7101
区块	-7102
句柄	-7103
号码	-7104
地点	-7105
备注	-7106
大小	-7107
完成	-7108
定义	-7109
布局	-7110
张三	-7111
必ず	-7112
意义	-7113
接口	-7114
支出	-7115
敵軍	-7116
显示	-7117
查找	-7118
确认	-7119
立即	-7120
自軍	-7121
购买	-7122
转换	-7123
返佣	-7124
重复	-7125
需要	-7126
#\\	-7127
$%^	-7128
%%\	-7129
%08	-7130
(-(	-7131
+02	-7132
-11	-7133
-20	-7134
-28	-7135
-30	-7136
-32	-7137
-6;	-7138
-9.	-7139
.).	-7140
.*)	-7141
.0.	-7142
.0;	-7143
.1=	-7144
01)	-7145
03)	-7146
044	-7147
057	-7148
074	-7149
084	-7150
08_	-7151
097	-7152
09;	-7153
0},	-7154
10(	-7155
10/	-7156
103	-7157
10_	-7158
117	-7159
146	-7160
147	-7161
14_	-7162
15)	-7163
175	-7164
17:	-7165
18,	-7166
18;	-7167
19,	-7168
1>>	-7169
20)	-7170
21:	-7171
237	-7172
247	-7173
249	-7174
257	-7175
269	-7176
27,	-7177
29:	-7178
2<?	-7179
2{}	-7180
3))	-7181
3._	-7182
313	-7183
333	-7184
33:	-7185
33;	-7186
349	-7187
354	-7188
375	-7189
380	-7190
387	-7191
4")	-7192
42,	-7193
48,	-7194
48.	-7195
5.4	-7196
51,	-7197
51.	-7198
52,	-7199
577	-7200
6";	-7201
60;	-7202
687	-7203
733	-7204
774	-7205
80.	-7206
807	-7207
870	-7208
87_	-7209
927	-7210
992	-7211
:./	-7212
:44	-7213
:[2	-7214
='+	-7215
=0,	-7216
=2"	-7217
=3;	-7218
=4;	-7219
>".	-7220
BXO	-7221
CDW	-7222
CUD	-7223
DBD	-7224
DBI	-7225
DBY	-7226
DFC	-7227
FFF	-7228
GDX	-7229
GLC	-7230
HPO	-7231
HSB	-7232
IGU	-7233
IMS	-7234
IOM	-7235
IPS	-7236
LCP	-7237
LIY	-7238
LLU	-7239
LUG	-7240
MDG	-7241
MDH	-7242
MFU	-7243
MIO	-7244
MLP	-7245
MMO	-7246
MSB	-7247
MSX	-7248
NHS	-7249
NQu	-7250
NSU	-7251
NUX	-7252
OMS	-7253
OPI	-7254
OPN	-7255
PCH	-7256
PPM	-7257
PSU	-7258
QLS	-7259
SDD	-7260
SHI	-7261
SIP	-7262
SMB	-7263
SMS	-7264
SOS	-7265
UCP	-7266
UDP	-7267
UDS	-7268
UFO	-7269
UGH	-7270
ULS	-7271
UPL	-7272
USC	-7273
WIL	-7274
WIP	-7275
WNM	-7276
ZHI	-7277
[((	-7278
\\$	-7279
])"	-7280
]][	-7281
_).	-7282
_2[	-7283
_6.	-7284
_9.	-7285
▁(5	-7286
▁(:	-7287
▁(\	-7288
▁-9	-7289
▁.0	-7290
▁47	-7291
▁54	-7292
▁<-	-7293
▁DH	-7294
▁FB	-7295
▁FM	-7296
▁HP	-7297
▁LS	-7298
▁MI	-7299
▁OD	-7300
▁OG	-7301
▁UG	-7302
▁UU	-7303
▁XC	-7304
▁[:	-7305
▁[<	-7306
▁{[	-7307
▁}"	-7308
▁по	-7309
▁║"	-7310
▁是否	-7311
あった	-7312
ことに	-7313
るもの	-7314
不支持	-7315
值检查	-7316
场动画	-7317
无意义	-7318
服务器	-7319
次执行	-7320
者模式	-7321
该用户	-7322
$$$(	-7323
',['	-7324
("',	-7325
("(%	-7326
("/*	-7327
("0.	-7328
("10	-7329
("15	-7330
("22	-7331
(";\	-7332
("[^	-7333
("],	-7334
(0)[	-7335
(0.9	-7336
(198	-7337
(23.	-7338
(3))	-7339
(30.	-7340
(31,	-7341
(36,	-7342
(4.5	-7343
(49,	-7344
(51,	-7345
(54,	-7346
(57.	-7347
(70,	-7348
(\"#	-7349
)(1,	-7350
):",	-7351
-1";	-7352
-5);	-7353
.0\\	-7354
0-9-	-7355
0-9_	-7356
00";	-7357
000)	-7358
00:4	-7359
11";	-7360
11()	-7361
1101	-7362
1187	-7363
1193	-7364
12()	-7365
1213	-7366
13()	-7367
14()	-7368
141;	-7369
15%3	-7370
1623	-7371
163:	-7372
1999	-7373
1:1:	-7374
1>>>	-7375
2-04	-7376
2005	-7377
200;	-7378
230;	-7379
26",	-7380
2[1]	-7381
32];	-7382
36),	-7383
36);	-7384
3753	-7385
3999	-7386
4.34	-7387
48",	-7388
4_2.	-7389
54%3	-7390
5432	-7391
56";	-7392
6)).	-7393
64",	-7394
8"),	-7395
80);	-7396
9.7,	-7397
96",	-7398
99",	-7399
:"),	-7400
:00:	-7401
:818	-7402
=3",	-7403
=?",	-7404
>.";	-7405
CCGB	-7406
COSN	-7407
CQUI	-7408
DDSU	-7409
DLIS	-7410
DLOC	-7411
FMLI	-7412
GCYM	-7413
GHOS	-7414
INCH	-7415
IPLI	-7416
JDOM	-7417
JMXC	-7418
LGUN	-7419
LOBL	-7420
LOSS	-7421
MCPY	-7422
PHYS	-7423
PLDI	-7424
SHOO	-7425
SLUG	-7426
SMDG	-7427
SNOW	-7428
SONG	-7429
SPIN	-7430
SQLI	-7431
SSIS	-7432
SUPP	-7433
UNSC	-7434
USGS	-7435
YCSQ	-7436
[101	-7437
\005	-7438
\010	-7439
\024	-7440
])",	-7441
]);\	-7442
]}";	-7443
_15_	-7444
_17.	-7445
_189	-7446
_1_;	-7447
_28.	-7448
_296	-7449
_3).	-7450
_30.	-7451
_3_)	-7452
_600	-7453
_8()	-7454
___2	-7455
▁"$$	-7456
▁"44	-7457
▁"``	-7458
▁%1$	-7459
▁%10	-7460
▁','	-7461
▁("\	-7462
▁((1	-7463
▁((2	-7464
▁(1,	-7465
▁(\"	-7466
▁-1.	-7467
▁/**	-7468
▁02,	-7469
▁104	-7470
▁10]	-7471
▁110	-7472
▁134	-7473
▁14.	-7474
▁188	-7475
▁26:	-7476
▁29;	-7477
▁2])	-7478
▁3.5	-7479
▁35)	-7480
▁36)	-7481
▁3},	-7482
▁42;	-7483
▁45;	-7484
▁46;	-7485
▁5",	-7486
▁5.5	-7487
▁52;	-7488
▁54.	-7489
▁61,	-7490
▁637	-7491
▁708	-7492
▁73,	-7493
▁79,	-7494
▁8),	-7495
▁8).	-7496
▁81.	-7497
▁83,	-7498
▁87,	-7499
▁91,	-7500
▁93,	-7501
▁CPP	-7502
▁DBD	-7503
▁DBH	-7504
▁DIC	-7505
▁GPS	-7506
▁GPU	-7507
▁HUG	-7508
▁ICu	-7509
▁INF	-7510
▁IPu	-7511
▁LOL	-7512
▁LUD	-7513
▁LZW	-7514
▁MIO	-7515
▁NFS	-7516
▁NIO	-7517
▁NLS	-7518
▁ODD	-7519
▁PFN	-7520
▁PIP	-7521
▁SYN	-7522
▁UND	-7523
▁XSD	-7524
▁YOU	-7525
▁ZIP	-7526
▁[${	-7527
▁[{\	-7528
▁\"<	-7529
▁``"	-7530
▁|-\	-7531
。");	-7532
修改失败	-7533
地点分类	-7534
复制属性	-7535
开始时间	-7536
开始调用	-7537
操作失败	-7538
更新财务	-7539
窗口句柄	-7540
身份认证	-7541
错误信息	-7542
").__	-7543
##");	-7544
("%")	-7545
("%09	-7546
("(\\	-7547
("000	-7548
("<--	-7549
("[1.	-7550
("[4,	-7551
("[5,	-7552
("\\.	-7553
("\\\	-7554
(')',	-7555
(1.3,	-7556
(150,	-7557
(153,	-7558
(19);	-7559
(250,	-7560
(256,	-7561
(30),	-7562
(3267	-7563
(3276	-7564
(50),	-7565
++]);	-7566
-02",	-7567
-19",	-7568
._01_	-7569
0)));	-7570
00003	-7571
0003'	-7572
0011;	-7573
0012;	-7574
0015;	-7575
0016;	-7576
0021;	-7577
0022;	-7578
0023;	-7579
0024;	-7580
0025;	-7581
0026;	-7582
0027;	-7583
0030;	-7584
0031;	-7585
0033;	-7586
0038;	-7587
0040.	-7588
0041;	-7589
0042;	-7590
0044;	-7591
0049;	-7592
03000	-7593
07000	-7594
08013	-7595
1.3],	-7596
10'),	-7597
10\1\	-7598
11").	-7599
111",	-7600
123",	-7601
1305_	-7602
15870	-7603
16();	-7604
18");	-7605
2005,	-7606
21");	-7607
29");	-7608
3")),	-7609
30137	-7610
4());	-7611
4.17.	-7612
401",	-7613
404()	-7614
50");	-7615
59:59	-7616
6")),	-7617
672);	-7618
67\1\	-7619
75");	-7620
8.201	-7621
8080/	-7622
8583.	-7623
88");	-7624
919);	-7625
:[2:$	-7626
;1.1,	-7627
=2010	-7628
BUBBL	-7629
COMBO	-7630
DOMIN	-7631
DONLY	-7632
FUNDS	-7633
ICIPL	-7634
IGNOF	-7635
INOUS	-7636
LILLI	-7637
LIYUN	-7638
MBIGU	-7639
NSHIF	-7640
ONOUS	-7641
PCION	-7642
WIBBL	-7643
[0-9]	-7644
[0])]	-7645
[1000	-7646
[11],	-7647
[]...	-7648
\0224	-7649
])));	-7650
][1].	-7651
_000,	-7652
_1_);	-7653
_8559	-7654
},");	-7655
▁"###	-7656
▁"$",	-7657
▁"',"	-7658
▁".+/	-7659
▁"8",	-7660
▁":",	-7661
▁":";	-7662
▁"[{:	-7663
▁"]==	-7664
▁"}",	-7665
▁'(')	-7666
▁')')	-7667
▁'-',	-7668
▁']',	-7669
▁']';	-7670
▁(10,	-7671
▁+300	-7672
▁-");	-7673
▁0.1)	-7674
▁0.1,	-7675
▁0.18	-7676
▁0.4;	-7677
▁0.65	-7678
▁0.95	-7679
▁117,	-7680
▁125,	-7681
▁127,	-7682
▁134,	-7683
▁141,	-7684
▁144,	-7685
▁147,	-7686
▁150,	-7687
▁160,	-7688
▁180,	-7689
▁182,	-7690
▁1]",	-7691
▁2.1,	-7692
▁2.5,	-7693
▁20),	-7694
▁21),	-7695
▁251,	-7696
▁256,	-7697
▁29);	-7698
▁300,	-7699
▁3616	-7700
▁393,	-7701
▁3]",	-7702
▁403)	-7703
▁42).	-7704
▁55.6	-7705
▁90);	-7706
▁981.	-7707
▁99);	-7708
▁99.2	-7709
▁?)";	-7710
▁CLIM	-7711
▁DOMI	-7712
▁ICPP	-7713
▁LSPB	-7714
▁MHOM	-7715
▁NMOD	-7716
▁POOL	-7717
▁SDBu	-7718
▁SLOW	-7719
▁SUMM	-7720
▁UNSP	-7721
▁UPLO	-7722
▁XMLC	-7723
▁ZOOM	-7724
▁[{2,	-7725
▁\"\\	-7726
▁{").	-7727
▁});\	-7728
访问者模式	-7729
'\");\	-7730
("####	-7731
("%"))	-7732
("(");	-7733
("10.0	-7734
(":"))	-7735
("[{}]	-7736
("_");	-7737
("{1.0	-7738
("|"))	-7739
('&');	-7740
('*');	-7741
()[2].	-7742
(-1));	-7743
(11));	-7744
(123);	-7745
(150),	-7746
(18.2,	-7747
(2018,	-7748
(30));	-7749
(360),	-7750
(400);	-7751
(50));	-7752
(\0132	-7753
._03._	-7754
/13016	-7755
/13017	-7756
0000',	-7757
0000).	-7758
0004);	-7759
001").	-7760
022\02	-7761
08.897	-7762
1")));	-7763
165\1\	-7764
2()));	-7765
3()));	-7766
3,120)	-7767
5()));	-7768
://");	-7769
:30:17	-7770
CLIPBO	-7771
IMINGS	-7772
LIGNOF	-7773
NDINGS	-7774
PUBSUB	-7775
[1][1]	-7776
\");",	-7777
]')");	-7778
_78085	-7779
_78087	-7780
_78088	-7781
}")));	-7782
▁"'").	-7783
▁"0").	-7784
▁"10.1	-7785
▁"4");	-7786
▁"6");	-7787
▁"].";	-7788
▁"_");	-7789
▁"_001	-7790
▁"{\""	-7791
▁'0');	-7792
▁'163:	-7793
▁'9'))	-7794
▁'9');	-7795
▁(1000	-7796
▁0.05)	-7797
▁12));	-7798
▁13.37	-7799
▁2"));	-7800
▁200",	-7801
▁2000)	-7802
▁50));	-7803
▁5000,	-7804
▁80));	-7805
▁FLUSH	-7806
▁GLOBL	-7807
▁SBMLS	-7808
▁XPDLC	-7809
▁{[{1,	-7810
▁}}");	-7811
▁的中断状态	-7812
复制属性失败	-7813
批量删除失败	-7814
维修地点分类	-7815
"))))))	-7816
")[0]);	-7817
("."));	-7818
("2011-	-7819
("211",	-7820
("=====	-7821
("\"").	-7822
(1))));	-7823
(10)));	-7824
(100)).	-7825
(1500);	-7826
(2929);	-7827
(3042);	-7828
-08-31"	-7829
....");	-7830
.3.3");	-7831
000002,	-7832
00:42:8	-7833
0101000	-7834
022019.	-7835
1000,4,	-7836
2-04-16	-7837
3:0.365	-7838
59.163'	-7839
6.20000	-7840
700005,	-7841
<>()));	-7842
BILLION	-7843
CHILDOP	-7844
NINGUNO	-7845
POSSIBL	-7846
UNSUBSC	-7847
[0][0];	-7848
_148124	-7849
_189876	-7850
_230137	-7851
Введите	-7852
▁"10");	-7853
▁"2001:	-7854
▁"30534	-7855
▁"]"));	-7856
▁"}]}";	-7857
▁0.8));	-7858
▁100.0,	-7859
▁100.0;	-7860
▁100000	-7861
▁153));	-7862
▁20)));	-7863
▁20000;	-7864
▁2005);	-7865
▁2896);	-7866
▁4919);	-7867
▁53)));	-7868
▁60000;	-7869
▁99.0);	-7870
▁999999	-7871
▁PLUGIN	-7872
("1000",	-7873
("2014",	-7874
("2015",	-7875
(-0.01);	-7876
(1024));	-7877
-12-01";	-7878
0160408.	-7879
12345678	-7880
899994);	-7881
=\"\"></	-7882
[11][12]	-7883
[13][14]	-7884
_152587_	-7885
▁"126");	-7886
▁"\":\""	-7887
▁+300%",	-7888
▁-12.125	-7889
▁0.85));	-7890
▁1024));	-7891
▁973.4);	-7892
▁CONFIGU	-7893
▁{}:{}",	-7894
当前入参实体为空	-7895
("111")).	-7896
(10000));	-7897
(21316902	-7898
000000000	-7899
8.2014");	-7900
80000000)	-7901
999999977	-7902
UDIOFOCUS	-7903
\0\306\0\	-7904
_000_000;	-7905
▁"\2\0\1\	-7906
▁1000000;	-7907
▁15:30:17	-7908
▁23:59:59	-7909
0000:0000:	-7910
1970-01-01	-7911
_78837_0_.	-7912
▁"10.12.16	-7913
▁''{2}''",	-7914
▁213175524	-7915
("1.2.3"));	-7916
(36.299995,	-7917
(42.699997,	-7918
(53.199997,	-7919
=2012-04-16	-7920
///////////\	-7921
080808080808	-7922
=2010-08-31"	-7923
▁"0123456789	-7924
▁91.299995);	-7925
▁99.299995);	-7926
[13][14][15];	-7927
▁'20170410'),	-7928
("127.0.0.1"),	-7929
=*@!&#(!@&*()\	-7930
▁"2020-12-01";	-7931
("10.08.2014");	-7932
,###,###,###,###	-7933
FFFFFFFFFFFFFFFF	-7934
!%	-7935
%'	-7936
&"	-7937
'.	-7938
)(	-7939
*.	-7940
+4	-7941
+?	-7942
.3	-7943
/3	-7944
/<	-7945
0'	-7946
2?	-7947
61	-7948
9]	-7949
;:	-7950
<%	-7951
=4	-7952
=:	-7953
>.	-7954
>]	-7955
>|	-7956
CG	-7957
DX	-7958
OZ	-7959
QM	-7960
QW	-7961
QX	-7962
UU	-7963
YW	-7964
ZS	-7965
`)	-7966
uD	-7967
uá	-7968
{2	-7969
{3	-7970
}'	-7971
})	-7972
çã	-7973
Ми	-7974
ем	-7975
ие	-7976
ис	-7977
мя	-7978
ок	-7979
▁출	-7980
を発	-7981
ース	-7982
不到	-7983
与预	-7984
全部	-7985
公钥	-7986
去除	-7987
合计	-7988
圆角	-7989
实际	-7990
对象	-7991
山大	-7992
工种	-7993
情報	-7994
情页	-7995
我的	-7996
指定	-7997
收入	-7998
改变	-7999
最大	-8000
注册	-8001
电话	-8002
矩形	-8003
网络	-8004
考勤	-8005
触发	-8006
设备	-8007
请稍	-8008
超过	-8009
通知	-8010
部位	-8011
问题	-8012
降级	-8013
验证	-8014
발생	-8015
삭제	-8016
!!!	-8017
!")	-8018
!@#	-8019
$2,	-8020
%.5	-8021
%\"	-8022
'><	-8023
("6	-8024
("║	-8025
('!	-8026
('+	-8027
((1	-8028
()}	-8029
(-.	-8030
(.{	-8031
(43	-8032
(64	-8033
(8.	-8034
(9.	-8035
);"	-8036
***	-8037
*\\	-8038
-13	-8039
-24	-8040
-4.	-8041
-\\	-8042
.*}	-8043
/${	-8044
/\\	-8045
/{}	-8046
0.2	-8047
029	-8048
046	-8049
048	-8050
05.	-8051
067	-8052
08:	-8053
1',	-8054
1.4	-8055
106	-8056
11)	-8057
127	-8058
13:	-8059
14;	-8060
153	-8061
158	-8062
16)	-8063
179	-8064
2".	-8065
210	-8066
216	-8067
218	-8068
22_	-8069
23_	-8070
241	-8071
277	-8072
28,	-8073
298	-8074
3".	-8075
3.0	-8076
316	-8077
324	-8078
345	-8079
34;	-8080
35,	-8081
35:	-8082
35;	-8083
366	-8084
392	-8085
395	-8086
397	-8087
39;	-8088
40,	-8089
405	-8090
409	-8091
40;	-8092
439	-8093
44,	-8094
464	-8095
477	-8096
55.	-8097
555	-8098
56,	-8099
63;	-8100
64(	-8101
655	-8102
664	-8103
67,	-8104
769	-8105
77:	-8106
783	-8107
786	-8108
8('	-8109
8))	-8110
8.0	-8111
874	-8112
888	-8113
894	-8114
9()	-8115
94.	-8116
96)	-8117
97,	-8118
98.	-8119
:".	-8120
:[^	-8121
:]+	-8122
='%	-8123
>(2	-8124
?]{	-8125
BBD	-8126
BOI	-8127
BYM	-8128
CBI	-8129
CCC	-8130
CFM	-8131
CIC	-8132
CLB	-8133
CPD	-8134
CSD	-8135
CWD	-8136
DPC	-8137
DWO	-8138
FBW	-8139
FFC	-8140
GIF	-8141
GIL	-8142
GOS	-8143
GPS	-8144
GPU	-8145
HUB	-8146
ICL	-8147
IFS	-8148
ILP	-8149
IMP	-8150
IPD	-8151
ISS	-8152
ISY	-8153
JIP	-8154
JPD	-8155
LLM	-8156
LLP	-8157
LQU	-8158
MGB	-8159
MOU	-8160
MQN	-8161
NDM	-8162
NDW	-8163
NHO	-8164
NJI	-8165
NOu	-8166
NSC	-8167
OFD	-8168
OMH	-8169
OMU	-8170
OOS	-8171
PCN	-8172
PIU	-8173
PIW	-8174
PNM	-8175
POI	-8176
POM	-8177
PPB	-8178
PWM	-8179
QBC	-8180
QFS	-8181
QMU	-8182
QPu	-8183
SMG	-8184
SNS	-8185
SSY	-8186
SUI	-8187
SUS	-8188
UBS	-8189
UCL	-8190
UMO	-8191
UPG	-8192
USM	-8193
YBL	-8194
[7,	-8195
\".	-8196
\"@	-8197
][(	-8198
_07	-8199
_1)	-8200
_1:	-8201
_20	-8202
_29	-8203
_3;	-8204
_45	-8205
_56	-8206
_8.	-8207
{5}	-8208
Мир	-8209
дин	-8210
мен	-8211
рав	-8212
▁${	-8213
▁%,	-8214
▁(7	-8215
▁.7	-8216
▁4"	-8217
▁74	-8218
▁85	-8219
▁8\	-8220
▁90	-8221
▁BW	-8222
▁GJ	-8223
▁GS	-8224
▁JJ	-8225
▁JX	-8226
▁NN	-8227
▁PP	-8228
▁QD	-8229
▁XI	-8230
▁_5	-8231
▁_6	-8232
▁не	-8233
▁에러	-8234
▁출력	-8235
不符或	-8236
不能为	-8237
与预期	-8238
初始化	-8239
找不到	-8240
病例详	-8241
管理员	-8242
")];	-8243
');\	-8244
("([	-8245
("."	-8246
("88	-8247
("99	-8248
("@"	-8249
("{"	-8250
(..)	-8251
(10)	-8252
(128	-8253
(28,	-8254
(33,	-8255
(34,	-8256
(37,	-8257
(4.0	-8258
(44,	-8259
(5.0	-8260
(56,	-8261
(62,	-8262
(655	-8263
(72,	-8264
(8).	-8265
(89,	-8266
(\\.	-8267
-07.	-8268
-7);	-8269
.$$$	-8270
...\	-8271
.1";	-8272
.105	-8273
.58.	-8274
._3_	-8275
0,1}	-8276
000/	-8277
016\	-8278
017\	-8279
03()	-8280
0306	-8281
0368	-8282
056.	-8283
097,	-8284
0:0:	-8285
0\3\	-8286
0}",	-8287
1++)	-8288
1.2.	-8289
10()	-8290
1047	-8291
1167	-8292
1202	-8293
123.	-8294
1232	-8295
152;	-8296
1980	-8297
2)))	-8298
2.2:	-8299
208.	-8300
212.	-8301
23),	-8302
23);	-8303
2403	-8304
250/	-8305
2582	-8306
2[0]	-8307
2_0(	-8308
3478	-8309
3588	-8310
360(	-8311
3765	-8312
50",	-8313
500.	-8314
51("	-8315
511.	-8316
512,	-8317
512;	-8318
5808	-8319
6'><	-8320
647.	-8321
65",	-8322
7").	-8323
76",	-8324
7801	-8325
79",	-8326
8.7,	-8327
808.	-8328
808_	-8329
88",	-8330
8938	-8331
:07.	-8332
=1",	-8333
=\"/	-8334
>[])	-8335
BPMN	-8336
BSOC	-8337
BUCC	-8338
BULB	-8339
BYSI	-8340
CHNO	-8341
CHOP	-8342
CLIJ	-8343
CMIS	-8344
CNPJ	-8345
DHOC	-8346
DHWI	-8347
DIOX	-8348
DOOP	-8349
DULL	-8350
DUOD	-8351
HUMB	-8352
JBUI	-8353
LCOM	-8354
LMIC	-8355
MBCL	-8356
MLIS	-8357
NDOC	-8358
NNOU	-8359
NOUS	-8360
NOWS	-8361
NSPL	-8362
NYWH	-8363
OBIN	-8364
OCSP	-8365
OOLB	-8366
OOLS	-8367
OPHO	-8368
OPSW	-8369
OUNS	-8370
OUSH	-8371
PCIS	-8372
PDFB	-8373
PDFP	-8374
PHIC	-8375
PICN	-8376
PUSC	-8377
SCUL	-8378
SICL	-8379
SMSC	-8380
SPLP	-8381
SYNO	-8382
UBSC	-8383
UBUL	-8384
UDFB	-8385
UMOU	-8386
UNLO	-8387
[");	-8388
[1.0	-8389
[]{}	-8390
[^\\	-8391
\":2	-8392
\"}\	-8393
\023	-8394
\025	-8395
\037	-8396
]*",	-8397
]{2,	-8398
_"))	-8399
_015	-8400
_01_	-8401
_05_	-8402
_06_	-8403
_11.	-8404
_12.	-8405
_13.	-8406
_14.	-8407
_15.	-8408
_18.	-8409
_19.	-8410
_193	-8411
_2()	-8412
_20.	-8413
_21.	-8414
_22.	-8415
_23.	-8416
_24.	-8417
_25.	-8418
_26.	-8419
_27.	-8420
_29.	-8421
_31.	-8422
_32.	-8423
_4",	-8424
_4_)	-8425
_5_,	-8426
_6_,	-8427
_800	-8428
_900	-8429
_90_	-8430
}&({	-8431
}\")	-8432
║");	-8433
▁"/_	-8434
▁"4"	-8435
▁"46	-8436
▁"<?	-8437
▁"@"	-8438
▁'"'	-8439
▁'='	-8440
▁(*.	-8441
▁(0.	-8442
▁(10	-8443
▁(3,	-8444
▁-->	-8445
▁-2)	-8446
▁-4;	-8447
▁-5;	-8448
▁05,	-8449
▁06,	-8450
▁0;\	-8451
▁1.3	-8452
▁13)	-8453
▁136	-8454
▁152	-8455
▁186	-8456
▁2.2	-8457
▁20:	-8458
▁22:	-8459
▁238	-8460
▁25:	-8461
▁27)	-8462
▁275	-8463
▁33.	-8464
▁35:	-8465
▁360	-8466
▁36;	-8467
▁37.	-8468
▁37;	-8469
▁3];	-8470
▁43;	-8471
▁4],	-8472
▁4];	-8473
▁56;	-8474
▁6.0	-8475
▁61;	-8476
▁65;	-8477
▁66;	-8478
▁68,	-8479
▁7),	-8480
▁70)	-8481
▁737	-8482
▁74,	-8483
▁75,	-8484
▁84,	-8485
▁88,	-8486
▁9),	-8487
▁90)	-8488
▁94,	-8489
▁95,	-8490
▁95;	-8491
▁98,	-8492
▁='"	-8493
▁=="	-8494
▁BIL	-8495
▁BUS	-8496
▁CFG	-8497
▁FLG	-8498
▁FLY	-8499
▁FON	-8500
▁FSC	-8501
▁GCY	-8502
▁GIN	-8503
▁IBU	-8504
▁III	-8505
▁IMD	-8506
▁IMZ	-8507
▁IOI	-8508
▁ION	-8509
▁IPC	-8510
▁IPL	-8511
▁JCu	-8512
▁JMS	-8513
▁JUL	-8514
▁JUN	-8515
▁MDD	-8516
▁OBS	-8517
▁OCD	-8518
▁OJJ	-8519
▁OSM	-8520
▁PCD	-8521
▁PCM	-8522
▁PCS	-8523
▁PGD	-8524
▁PIC	-8525
▁PIX	-8526
▁POI	-8527
▁QUO	-8528
▁SCM	-8529
▁SHL	-8530
▁SIM	-8531
▁SUC	-8532
▁USH	-8533
▁XXX	-8534
▁XYL	-8535
▁Zuu	-8536
▁[--	-8537
▁\"$	-8538
▁\"\	-8539
▁]";	-8540
▁^",	-8541
▁|$$	-8542
▁~(1	-8543
保存出错	-8544
修改成功	-8545
元素改变	-8546
删除成功	-8547
删除财务	-8548
去除圆角	-8549
工种分类	-8550
提交失败	-8551
提交成功	-8552
操作成功	-8553
支付成功	-8554
格式异常	-8555
结束时间	-8556
结果不符	-8557
维修部位	-8558
问题分类	-8559
!\",\	-8560
"))))	-8561
$$$()	-8562
$%^&*	-8563
'")).	-8564
'',''	-8565
')").	-8566
("*")	-8567
("...	-8568
("../	-8569
("002	-8570
("400	-8571
(">",	-8572
("[2,	-8573
("\\{	-8574
("{}:	-8575
('-',	-8576
()'>\	-8577
(-13,	-8578
(-2.5	-8579
(0.36	-8580
(0.5,	-8581
(1,2,	-8582
(120,	-8583
(1402	-8584
(17);	-8585
(184,	-8586
(203,	-8587
(23),	-8588
(24);	-8589
(26);	-8590
(3,1)	-8591
(32),	-8592
(4)),	-8593
(45),	-8594
(5.0,	-8595
(516,	-8596
(70);	-8597
(800,	-8598
(9)),	-8599
)|(\\	-8600
**");	-8601
++));	-8602
--");	-8603
-->",	-8604
.")).	-8605
.*");	-8606
...";	-8607
/.*";	-8608
/1999	-8609
/2004	-8610
0.1",	-8611
0.2",	-8612
00.0,	-8613
001",	-8614
0013;	-8615
0014;	-8616
0017;	-8617
0018;	-8618
0019;	-8619
0028;	-8620
0029;	-8621
0032;	-8622
0034;	-8623
0035;	-8624
0036;	-8625
0037;	-8626
0039;	-8627
0045;	-8628
0046;	-8629
0047;	-8630
0048;	-8631
005",	-8632
0080;	-8633
0095-	-8634
0101;	-8635
01708	-8636
03");	-8637
040);	-8638
10-20	-8639
100);	-8640
1000;	-8641
11\2\	-8642
12");	-8643
14182	-8644
15");	-8645
1_9_3	-8646
2))).	-8647
2001.	-8648
2016,	-8649
2047.	-8650
22");	-8651
24");	-8652
25:17	-8653
25\1\	-8654
2[0],	-8655
2\",\	-8656
2_2")	-8657
329",	-8658
34685	-8659
40");	-8660
5")),	-8661
6301.	-8662
7"));	-8663
://")	-8664
=1").	-8665
=1");	-8666
=\"30	-8667
BULIZ	-8668
CIWSP	-8669
CPFBP	-8670
DIFFI	-8671
DISCO	-8672
DOWNS	-8673
GCHIS	-8674
GINGI	-8675
GPIOD	-8676
ICFLU	-8677
IODON	-8678
IPHON	-8679
ISING	-8680
JUNUM	-8681
LINGU	-8682
LLIPS	-8683
LPUNC	-8684
LYMPH	-8685
MLSSO	-8686
MOSIS	-8687
NNING	-8688
NOSUM	-8689
OBULB	-8690
OFFIN	-8691
ONCHI	-8692
OXIMI	-8693
PINCH	-8694
PULLS	-8695
SIGUI	-8696
SIMIL	-8697
SINUS	-8698
SUBCU	-8699
USION	-8700
UXILI	-8701
XDIGI	-8702
XMLNS	-8703
XMLOu	-8704
XSSFW	-8705
YPING	-8706
[0][(	-8707
[11].	-8708
[13];	-8709
[5]);	-8710
[{}],	-8711
\"").	-8712
\\-]+	-8713
]")).	-8714
]+");	-8715
][0],	-8716
_0(2,	-8717
_0000	-8718
_1389	-8719
_2");	-8720
_3");	-8721
_90);	-8722
__();	-8723
}))",	-8724
▁"%",	-8725
▁"%";	-8726
▁"*",	-8727
▁"*";	-8728
▁"+";	-8729
▁"-";	-8730
▁"../	-8731
▁"/")	-8732
▁"000	-8733
▁"37.	-8734
▁"?";	-8735
▁"[",	-8736
▁"\":	-8737
▁"\03	-8738
▁%.09	-8739
▁'#')	-8740
▁'#';	-8741
▁'&')	-8742
▁'0':	-8743
▁'201	-8744
▁'7':	-8745
▁'{\"	-8746
▁((!(	-8747
▁)").	-8748
▁+9",	-8749
▁-2.0	-8750
▁0.04	-8751
▁0.15	-8752
▁00),	-8753
▁1)];	-8754
▁1.5;	-8755
▁105:	-8756
▁11),	-8757
▁110:	-8758
▁112,	-8759
▁115,	-8760
▁124,	-8761
▁138,	-8762
▁150)	-8763
▁154,	-8764
▁161,	-8765
▁165,	-8766
▁166,	-8767
▁175,	-8768
▁20.0	-8769
▁2016	-8770
▁203,	-8771
▁224,	-8772
▁270,	-8773
▁28);	-8774
▁3)),	-8775
▁30.0	-8776
▁35);	-8777
▁380,	-8778
▁42.3	-8779
▁4]",	-8780
▁5.0,	-8781
▁6)),	-8782
▁800;	-8783
▁9));	-8784
▁999.	-8785
▁?>>>	-8786
▁?>[]	-8787
▁CLOB	-8788
▁CONC	-8789
▁FLOO	-8790
▁GING	-8791
▁HUND	-8792
▁ICIS	-8793
▁ILUM	-8794
▁IMPO	-8795
▁IOSU	-8796
▁IPPB	-8797
▁JBUI	-8798
▁JOYS	-8799
▁MINI	-8800
▁ONLY	-8801
▁PULS	-8802
▁SGDP	-8803
▁SINO	-8804
▁SQSU	-8805
▁WOOD	-8806
▁XMLH	-8807
回写客户端	-8808
用户未登录	-8809
病例详情页	-8810
页面不符或	-8811
("("))	-8812
("(").	-8813
("(50,	-8814
("-2",	-8815
("2012	-8816
("4");	-8817
("9999	-8818
(";"))	-8819
("?"))	-8820
("\">\	-8821
("}").	-8822
(',').	-8823
()[1];	-8824
(0))).	-8825
(0.0);	-8826
(13));	-8827
(15));	-8828
(2)));	-8829
(20.0,	-8830
(2012,	-8831
(29.8,	-8832
(34.0,	-8833
(42));	-8834
(512);	-8835
-----\	-8836
-1"));	-8837
......	-8838
.1"));	-8839
.10586	-8840
0000",	-8841
00000,	-8842
1000);	-8843
172.16	-8844
2"))).	-8845
2\",\"	-8846
40001,	-8847
5.0");	-8848
5.43",	-8849
500");	-8850
8")));	-8851
9200",	-8852
:1234/	-8853
:443";	-8854
BDOMIN	-8855
BODYSU	-8856
CODING	-8857
FUCHSI	-8858
GINOUS	-8859
LMUCOS	-8860
LSINUS	-8861
MUSCUL	-8862
NNOUNC	-8863
OMUCOS	-8864
SBMLSB	-8865
SYSSCH	-8866
UNICOD	-8867
[0][1]	-8868
[16]);	-8869
[{}]",	-8870
\":");	-8871
\":\"%	-8872
\0224\	-8873
\\10.0	-8874
]+"));	-8875
_002);	-8876
_1"));	-8877
_10_22	-8878
▁");";	-8879
▁"-1";	-8880
▁".1";	-8881
▁"1").	-8882
▁"1109	-8883
▁"2000	-8884
▁"3");	-8885
▁"5");	-8886
▁"_003	-8887
▁''{3}	-8888
▁')');	-8889
▁'\\',	-8890
▁("1".	-8891
▁-1)).	-8892
▁0.005	-8893
▁1)").	-8894
▁100))	-8895
▁1024)	-8896
▁1024,	-8897
▁16777	-8898
▁2.5).	-8899
▁22));	-8900
▁28));	-8901
▁3"));	-8902
▁3.0);	-8903
▁40));	-8904
▁4000;	-8905
▁4096;	-8906
▁456",	-8907
▁5)));	-8908
▁512);	-8909
▁60)),	-8910
▁60.4,	-8911
▁88.3,	-8912
▁90));	-8913
▁CONFI	-8914
▁DOCUM	-8915
▁DOUCH	-8916
▁GBINJ	-8917
▁ILYMP	-8918
▁INSUF	-8919
▁IOINJ	-8920
▁IOINS	-8921
▁IOSSC	-8922
▁IPINJ	-8923
▁ISINJ	-8924
▁IUINS	-8925
▁LPINS	-8926
▁PNINJ	-8927
▁SCINJ	-8928
▁SIMPL	-8929
▁SMUCM	-8930
▁SUBMI	-8931
▁YYINI	-8932
▁\"/\"	-8933
▁{};",	-8934
单体查询失败	-8935
增加财务信息	-8936
报警设置信息	-8937
矩形去除圆角	-8938
维修部位分类	-8939
")))));	-8940
("$[0].	-8941
("/**",	-8942
("2014-	-8943
('\\');	-8944
()[2]);	-8945
()[3]);	-8946
(3000).	-8947
(4.5));	-8948
(500));	-8949
)[0]));	-8950
-256");	-8951
-8")));	-8952
010003,	-8953
030219.	-8954
0_000);	-8955
1.2.3",	-8956
100001,	-8957
100006,	-8958
11\1\0\	-8959
25519);	-8960
3468599	-8961
5000");	-8962
6482582	-8963
678\",\	-8964
://2.2.	-8965
?,?,?,?	-8966
?]{0,1}	-8967
DISCOUN	-8968
MUCOUSM	-8969
NDINOUS	-8970
NONNULL	-8971
NSMUCOS	-8972
PLUGINS	-8973
SUPPOSI	-8974
SYNONYM	-8975
_104857	-8976
_148120	-8977
_152583	-8978
_193383	-8979
_193588	-8980
_78845_	-8981
_78847_	-8982
_8859_1	-8983
▁"")));	-8984
▁"-1");	-8985
▁"1.2",	-8986
▁"10").	-8987
▁"30368	-8988
▁"30620	-8989
▁"30622	-8990
▁"\")";	-8991
▁"\1\1\	-8992
▁---");	-8993
▁-1)));	-8994
▁0.001,	-8995
▁0.01);	-8996
▁0.05);	-8997
▁10000,	-8998
▁1611",	-8999
▁2.0));	-9000
▁20.0);	-9001
▁30000;	-9002
▁65535,	-9003
▁<<<");	-9004
▁BILINJ	-9005
▁COFFIN	-9006
▁COMPON	-9007
▁DISSOL	-9008
▁IPINHL	-9009
▁IUINJC	-9010
▁MODIFY	-9011
▁PDPINJ	-9012
▁PDPINS	-9013
▁PNSINJ	-9014
▁PNSINS	-9015
▁POLICI	-9016
▁SININS	-9017
与预期结果不符	-9018
!@#$%^&*	-9019
"))))));	-9020
("0026",	-9021
("1.0");	-9022
("100");	-9023
("?"))).	-9024
("[0-9]+	-9025
("\">");	-9026
("\\\\",	-9027
((((((((	-9028
()...");	-9029
(10000).	-9030
(30000);	-9031
-12-23",	-9032
.....");	-9033
.099998,	-9034
0\2\5\1\	-9035
1234\",\	-9036
393,120)	-9037
404040);	-9038
5.255.25	-9039
700005);	-9040
:8080");	-9041
=======%	-9042
INFUSION	-9043
ISIONING	-9044
MBIGUOUS	-9045
OOSMOSIS	-9046
OUSHUMOU	-9047
SUBLINGU	-9048
SUBMUCOS	-9049
SYMBOLIC	-9050
\030\005	-9051
\032\034	-9052
_152584_	-9053
_196271_	-9054
_8559_1.	-9055
▁"###").	-9056
▁"...");	-9057
▁''{2}''	-9058
▁'{}'.",	-9059
▁65536),	-9060
▁====");	-9061
▁CHOLINJ	-9062
▁GINGINJ	-9063
▁ILUMINJ	-9064
▁IOSSINJ	-9065
▁ISININS	-9066
▁ISYNINJ	-9067
▁SQIMPLN	-9068
▁SQINFUS	-9069
▁SUBCONJ	-9070
▁SWISHSW	-9071
▁UNSUBSC	-9072
("\\\\");	-9073
(32672)).	-9074
(50.0)));	-9075
/1.0.0").	-9076
/2004/02/	-9077
03050000)	-9078
045383419	-9079
2.399994,	-9080
DIFFUSION	-9081
SINUSUNSP	-9082
\022\016\	-9083
\022\017\	-9084
\022\021\	-9085
\022\022\	-9086
\032\036.	-9087
▁"172.16.	-9088
▁"\\\"");	-9089
▁10000000	-9090
▁IPUMPINJ	-9091
▁SWISHSPI	-9092
回写客户端结果异常	-9093
页面不符或元素改变	-9094
.10586.0\\	-9095
00000002))	-9096
172.16.58.	-9097
=======");	-9098
SUBCONJUNC	-9099
SUBMISSION	-9100
▁"30104-04	-9101
▁0.00001);	-9102
▁ILYMPJINJ	-9103
▁SUBMUCINJ	-9104
▁\001(\010	-9105
("000010").	-9106
("1.2.2"));	-9107
("1.2.4"));	-9108
("111101").	-9109
("\\.")[1],	-9110
://2.2.2.2:	-9111
\":\"2\",\"	-9112
_1389_10_22	-9113
▁-123456789	-9114
▁SYSCONGLOM	-9115
▁\001(\010\	-9116
("000010"));	-9117
("111101"));	-9118
("2014-10-20	-9119
("2016-10-14	-9120
11\1\1\1\11\	-9121
208000000000	-9122
2.3,4.5.6)").	-9123
▁"2000-12-23",	-9124
999999999999999	-9125
9999999776482582	-9126
\\10.0.10586.0\\	-9127
▁"10.12.165.43",	-9128
▁\001(\0132\032.	-9129
!:	-9130
![	-9131
%8	-9132
&.	-9133
'>	-9134
(/	-9135
(^	-9136
*,	-9137
*;	-9138
+(	-9139
+5	-9140
+]	-9141
,<	-9142
-<	-9143
.`	-9144
/@	-9145
/|	-9146
3+	-9147
3>	-9148
7"	-9149
:-	-9150
:1	-9151
:6	-9152
;}	-9153
>0	-9154
>=	-9155
?"	-9156
?[	-9157
?\	-9158
BW	-9159
BZ	-9160
Mậ	-9161
SX	-9162
SZ	-9163
WD	-9164
XU	-9165
]}	-9166
^(	-9167
{%	-9168
|"	-9169
|;	-9170
Су	-9171
ай	-9172
ан	-9173
ап	-9174
ны	-9175
ол	-9176
ре	-9177
با	-9178
▁д	-9179
▁у	-9180
▁本	-9181
▁立	-9182
。。	-9183
かく	-9184
かに	-9185
から	-9186
き受	-9187
ため	-9188
とい	-9189
なか	-9190
など	-9191
にお	-9192
に対	-9193
の水	-9194
の絶	-9195
めて	-9196
よい	-9197
より	-9198
るに	-9199
る事	-9200
をも	-9201
を得	-9202
を見	-9203
クラ	-9204
下标	-9205
不可	-9206
举报	-9207
事業	-9208
互转	-9209
亚历	-9210
众号	-9211
会员	-9212
停止	-9213
典籍	-9214
出现	-9215
分钟	-9216
切换	-9217
刊行	-9218
别行	-9219
包含	-9220
単行	-9221
印件	-9222
厳選	-9223
发布	-9224
合同	-9225
名字	-9226
商品	-9227
商家	-9228
回调	-9229
场活	-9230
填写	-9231
大于	-9232
如果	-9233
嬴政	-9234
完毕	-9235
实现	-9236
导入	-9237
尊重	-9238
工程	-9239
従来	-9240
必须	-9241
或者	-9242
戦後	-9243
政区	-9244
教师	-9245
方块	-9246
方針	-9247
普及	-9248
来源	-9249
模块	-9250
模拟	-9251
每次	-9252
测试	-9253
準を	-9254
生成	-9255
申请	-9256
白露	-9257
目标	-9258
相关	-9259
确定	-9260
禁用	-9261
秦王	-9262
移除	-9263
等待	-9264
経済	-9265
芒种	-9266
视图	-9267
运算	-9268
运行	-9269
预约	-9270
高亮	-9271
농산	-9272
오류	-9273
"、?	-9274
$0,	-9275
%.4	-9276
'='	-9277
(!(	-9278
(''	-9279
('<	-9280
()"	-9281
(**	-9282
(5.	-9283
(6)	-9284
(60	-9285
(65	-9286
(76	-9287
)".	-9288
)][	-9289
+)?	-9290
-2,	-9291
-3.	-9292
-4,	-9293
.*"	-9294
.*?	-9295
.0/	-9296
//\	-9297
/0.	-9298
/04	-9299
/09	-9300
/2,	-9301
/>"	-9302
01/	-9303
021	-9304
026	-9305
027	-9306
03+	-9307
034	-9308
036	-9309
05/	-9310
06"	-9311
082	-9312
086	-9313
09.	-9314
095	-9315
1']	-9316
1.5	-9317
10\	-9318
122	-9319
13)	-9320
141	-9321
154	-9322
162	-9323
16_	-9324
18)	-9325
183	-9326
187	-9327
19:	-9328
1;\	-9329
1\"	-9330
2.\	-9331
206	-9332
215	-9333
22-	-9334
22.	-9335
238	-9336
274	-9337
287	-9338
288	-9339
294	-9340
2],	-9341
30)	-9342
309	-9343
30:	-9344
30;	-9345
31.	-9346
334	-9347
336	-9348
36,	-9349
38,	-9350
382	-9351
39'	-9352
39)	-9353
39,	-9354
4("	-9355
407	-9356
40}	-9357
43,	-9358
449	-9359
45,	-9360
46.	-9361
466	-9362
46;	-9363
49,	-9364
495	-9365
49:	-9366
5.1	-9367
50;	-9368
53(	-9369
53,	-9370
532	-9371
533	-9372
54;	-9373
57,	-9374
575	-9375
58,	-9376
584	-9377
59.	-9378
5];	-9379
6.0	-9380
649	-9381
657	-9382
65;	-9383
708	-9384
725	-9385
735	-9386
738	-9387
740	-9388
750	-9389
763	-9390
78,	-9391
788	-9392
79,	-9393
806	-9394
819	-9395
82,	-9396
83,	-9397
833	-9398
85,	-9399
85;	-9400
87,	-9401
883	-9402
8])	-9403
8];	-9404
9.0	-9405
910	-9406
92;	-9407
965	-9408
998	-9409
9];	-9410
:27	-9411
<",	-9412
=".	-9413
=";	-9414
=''	-9415
=20	-9416
=4,	-9417
==1	-9418
=['	-9419
={4	-9420
>")	-9421
>.*	-9422
>{}	-9423
?>\	-9424
BFS	-9425
BHC	-9426
BWM	-9427
CNC	-9428
DBB	-9429
DBW	-9430
DFF	-9431
DHI	-9432
DOB	-9433
DOu	-9434
DSC	-9435
DYS	-9436
FND	-9437
FSD	-9438
FSU	-9439
FXC	-9440
GLL	-9441
HLY	-9442
ICY	-9443
ICu	-9444
IIL	-9445
IIN	-9446
IMC	-9447
IOU	-9448
IPC	-9449
IPF	-9450
ISu	-9451
JBL	-9452
JFS	-9453
JOS	-9454
LCC	-9455
LIP	-9456
LMS	-9457
LUC	-9458
MDM	-9459
MGM	-9460
MIB	-9461
MUP	-9462
NDC	-9463
NGC	-9464
NIS	-9465
NLL	-9466
NNI	-9467
OIS	-9468
OMB	-9469
PCD	-9470
PCP	-9471
PHY	-9472
PII	-9473
PPD	-9474
QFH	-9475
QIU	-9476
QUD	-9477
SFO	-9478
SMM	-9479
SPX	-9480
SWC	-9481
UFF	-9482
UII	-9483
WFS	-9484
WIG	-9485
WSB	-9486
WSG	-9487
XBI	-9488
XON	-9489
XSL	-9490
YBO	-9491
YUP	-9492
ZOL	-9493
ZYX	-9494
[%,	-9495
[(1	-9496
[1,	-9497
[4,	-9498
\"]	-9499
\24	-9500
\25	-9501
\\_	-9502
\\|	-9503
\\}	-9504
]])	-9505
]]]	-9506
^',	-9507
^-2	-9508
^2+	-9509
_//	-9510
_03	-9511
_0;	-9512
_2(	-9513
_2:	-9514
_3(	-9515
_46	-9516
_50	-9517
_5;	-9518
_85	-9519
_8_	-9520
uuC	-9521
{4}	-9522
{}"	-9523
}/{	-9524
}|{	-9525
Суп	-9526
бка	-9527
ден	-9528
ово	-9529
ота	-9530
═══	-9531
▁"→	-9532
▁(6	-9533
▁(<	-9534
▁0\	-9535
▁3-	-9536
▁4\	-9537
▁58	-9538
▁67	-9539
▁83	-9540
▁92	-9541
▁><	-9542
▁@"	-9543
▁BB	-9544
▁BS	-9545
▁FF	-9546
▁GD	-9547
▁NH	-9548
▁NP	-9549
▁OF	-9550
▁QN	-9551
▁QS	-9552
▁SI	-9553
▁UH	-9554
▁UL	-9555
▁Wu	-9556
▁XB	-9557
▁XF	-9558
▁]"	-9559
▁])	-9560
▁{1	-9561
▁đã	-9562
▁вы	-9563
▁ко	-9564
▁小寒	-9565
▁设置	-9566
▁발생	-9567
▁삭제	-9568
いては	-9569
がある	-9570
き受け	-9571
くとも	-9572
しよう	-9573
ために	-9574
ともに	-9575
には引	-9576
ました	-9577
ものは	-9578
れても	-9579
をした	-9580
クラム	-9581
不正确	-9582
仕事だ	-9583
公众号	-9584
典籍の	-9585
出版に	-9586
単行本	-9587
古典の	-9588
场活动	-9589
处理的	-9590
复印件	-9591
字段名	-9592
已删除	-9593
支付宝	-9594
数据库	-9595
文庫の	-9596
文庫を	-9597
步通知	-9598
特别行	-9599
編入し	-9600
节点非	-9601
蓝牙已	-9602
该区块	-9603
请选择	-9604
转换器	-9605
驚いた	-9606
验证码	-9607
농산품	-9608
'").	-9609
''],	-9610
';";	-9611
("#?	-9612
("({	-9613
(").	-9614
(",\	-9615
("03	-9616
("07	-9617
("4.	-9618
("79	-9619
("<=	-9620
("<?	-9621
(">"	-9622
("['	-9623
("[1	-9624
("[\	-9625
("[{	-9626
((("	-9627
((-9	-9628
()[7	-9629
()],	-9630
(-5,	-9631
(.*)	-9632
(10.	-9633
(110	-9634
(116	-9635
(175	-9636
(301	-9637
(31.	-9638
(355	-9639
(44.	-9640
(50.	-9641
(53,	-9642
(59,	-9643
(6))	-9644
(66,	-9645
(809	-9646
(876	-9647
(:\\	-9648
*)\\	-9649
++).	-9650
,");	-9651
-"))	-9652
-08.	-9653
-123	-9654
-6",	-9655
-9",	-9656
.###	-9657
/>";	-9658
0)",	-9659
00))	-9660
0015	-9661
002.	-9662
0085	-9663
0123	-9664
0332	-9665
0418	-9666
04:0	-9667
05()	-9668
06()	-9669
07()	-9670
08()	-9671
0859	-9672
09()	-9673
096,	-9674
1++;	-9675
1053	-9676
1100	-9677
1111	-9678
1131	-9679
1146	-9680
114:	-9681
1154	-9682
1156	-9683
125,	-9684
125.	-9685
135_	-9686
1442	-9687
15",	-9688
15()	-9689
153;	-9690
156\	-9691
16",	-9692
163.	-9693
17()	-9694
18()	-9695
19()	-9696
1948	-9697
1998	-9698
1[0]	-9699
1[1]	-9700
1\":	-9701
1_9.	-9702
2)",	-9703
2++;	-9704
22);	-9705
25",	-9706
250,	-9707
2526	-9708
2618	-9709
2685	-9710
28);	-9711
280.	-9712
2>",	-9713
2\":	-9714
2\2\	-9715
3)))	-9716
30);	-9717
31);	-9718
3288	-9719
33);	-9720
384,	-9721
3844	-9722
3924	-9723
3\0\	-9724
3_2_	-9725
4-03	-9726
4-09	-9727
4.29	-9728
4975	-9729
4_1(	-9730
5();	-9731
5)).	-9732
5.32	-9733
509(	-9734
509.	-9735
516.	-9736
55",	-9737
559.	-9738
6();	-9739
6197	-9740
64).	-9741
6441	-9742
6\1\	-9743
7));	-9744
7511	-9745
7855	-9746
7994	-9747
8").	-9748
8.7.	-9749
800"	-9750
85);	-9751
86);	-9752
8701	-9753
9.5,	-9754
9.8,	-9755
905;	-9756
960/	-9757
982.	-9758
:116	-9759
:43:	-9760
<>(4	-9761
=0",	-9762
=100	-9763
=150	-9764
=2",	-9765
=\"3	-9766
>'",	-9767
>("-	-9768
>([^	-9769
>...	-9770
>>>,	-9771
>\"@	-9772
?").	-9773
?://	-9774
BBPB	-9775
BLIN	-9776
BUSC	-9777
BUSY	-9778
CIPP	-9779
CIWS	-9780
COBI	-9781
DJUS	-9782
FBDD	-9783
FOOD	-9784
GPIB	-9785
GPIO	-9786
HOOD	-9787
HOOF	-9788
HUSB	-9789
HYPH	-9790
ICPP	-9791
IGNI	-9792
IMSS	-9793
INGL	-9794
INSP	-9795
IOPS	-9796
IOSS	-9797
ISIG	-9798
ISOL	-9799
LIFI	-9800
LIUM	-9801
LLIG	-9802
LLMM	-9803
MBQu	-9804
MISO	-9805
MLIN	-9806
MODI	-9807
NGZH	-9808
NJIS	-9809
NNOu	-9810
NSIX	-9811
OBUF	-9812
ODBC	-9813
ODOS	-9814
OSCS	-9815
OSGI	-9816
OSHU	-9817
OWMM	-9818
PCSu	-9819
PDON	-9820
PDOO	-9821
PILL	-9822
POJO	-9823
PSSO	-9824
SBOL	-9825
SCBC	-9826
SCSI	-9827
SFIN	-9828
SSFS	-9829
SSIP	-9830
SSSZ	-9831
XIMO	-9832
XMLD	-9833
XMLW	-9834
XPDL	-9835
YHYN	-9836
[819	-9837
[9].	-9838
[\\]	-9839
[]>,	-9840
\"))	-9841
\021	-9842
\\\"	-9843
]+",	-9844
]]);	-9845
_12,	-9846
_162	-9847
_200	-9848
_2_.	-9849
_300	-9850
_454	-9851
_5);	-9852
_|__	-9853
}'",	-9854
}-${	-9855
}]";	-9856
}}",	-9857
прав	-9858
▁"%2	-9859
▁"'.	-9860
▁"0,	-9861
▁"3"	-9862
▁"3.	-9863
▁"5,	-9864
▁"85	-9865
▁"::	-9866
▁"\5	-9867
▁"][	-9868
▁"{&	-9869
▁#",	-9870
▁###	-9871
▁#{$	-9872
▁')'	-9873
▁'*'	-9874
▁'--	-9875
▁'?'	-9876
▁'{'	-9877
▁('"	-9878
▁(8,	-9879
▁*:\	-9880
▁-2,	-9881
▁-3.	-9882
▁-66	-9883
▁-7;	-9884
▁.5,	-9885
▁03:	-9886
▁1.1	-9887
▁112	-9888
▁132	-9889
▁138	-9890
▁14)	-9891
▁1;}	-9892
▁1]]	-9893
▁2.4	-9894
▁22)	-9895
▁22.	-9896
▁23\	-9897
▁27:	-9898
▁28)	-9899
▁302	-9900
▁306	-9901
▁31:	-9902
▁32.	-9903
▁354	-9904
▁38:	-9905
▁38;	-9906
▁39.	-9907
▁392	-9908
▁39;	-9909
▁427	-9910
▁44;	-9911
▁456	-9912
▁45:	-9913
▁47.	-9914
▁4])	-9915
▁512	-9916
▁51;	-9917
▁53.	-9918
▁54;	-9919
▁55;	-9920
▁57;	-9921
▁58)	-9922
▁58.	-9923
▁5])	-9924
▁62:	-9925
▁62;	-9926
▁65)	-9927
▁654	-9928
▁7",	-9929
▁71.	-9930
▁75)	-9931
▁77,	-9932
▁8.0	-9933
▁80)	-9934
▁82,	-9935
▁88;	-9936
▁91;	-9937
▁93;	-9938
▁999	-9939
▁99;	-9940
▁=?,	-9941
▁BBD	-9942
▁BBM	-9943
▁BFS	-9944
▁CBC	-9945
▁CDC	-9946
▁CSP	-9947
▁DNB	-9948
▁DPC	-9949
▁DUP	-9950
▁DWP	-9951
▁DWW	-9952
▁FFI	-9953
▁FLU	-9954
▁GDP	-9955
▁GLW	-9956
▁HIS	-9957
▁HQL	-9958
▁IGL	-9959
▁IMG	-9960
▁ING	-9961
▁JNZ	-9962
▁JOU	-9963
▁JUG	-9964
▁LOS	-9965
▁MDI	-9966
▁MFD	-9967
▁NOM	-9968
▁NOP	-9969
▁NSD	-9970
▁PCF	-9971
▁PHS	-9972
▁POP	-9973
▁SHU	-9974
▁SLO	-9975
▁SQU	-9976
▁SWC	-9977
▁SWI	-9978
▁ULD	-9979
▁USB	-9980
▁WPI	-9981
▁WXP	-9982
▁XMI	-9983
▁['-	-9984
▁],\	-9985
▁_09	-9986
▁{1}	-9987
▁{5}	-9988
▁{}]	-9989
かくまで	-9990
しようと	-9991
なかった	-9992
なる態度	-9993
に対する	-9994
のである	-9995
の水準を	-9996
ますます	-9997
をもって	-9998
レクラム	-9999
上传失败	-10000
不能超过	-10001
亚历山大	-10002
保存失败	-10003
修改财务	-10004
列表失败	-10005
参数异常	-10006
回写查询	-10007
已经存在	-10008
市场活动	-10009
手机号码	-10010
查询成功	-10011
查询结果	-10012
状态失败	-10013
用户名或	-10014
秦王嬴政	-10015
系统错误	-10016
获取所有	-10017
菜单成功	-10018
解析购买	-10019
退场动画	-10020
高亮布局	-10021
$$$$$	-10022
&#7",	-10023
'.");	-10024
'][2]	-10025
("$",	-10026
("'")	-10027
("');	-10028
("(0,	-10029
(");\	-10030
("**\	-10031
("*:*	-10032
("476	-10033
("987	-10034
(":")	-10035
(":",	-10036
("</"	-10037
("\"/	-10038
("^[-	-10039
("^\\	-10040
("_")	-10041
('");	-10042
(',')	-10043
('=')	-10044
();",	-10045
(-123	-10046
(0.13	-10047
(0.42	-10048
(100)	-10049
(102,	-10050
(130,	-10051
(192,	-10052
(20).	-10053
(240,	-10054
(254,	-10055
(3)),	-10056
(37.0	-10057
(4)])	-10058
(45);	-10059
(55),	-10060
(61).	-10061
(64);	-10062
(65);	-10063
(66).	-10064
(8)),	-10065
([^\\	-10066
({0},	-10067
)")).	-10068
)$");	-10069
));";	-10070
):");	-10071
+"));	-10072
-----	-10073
-01')	-10074
-09",	-10075
-3");	-10076
-6));	-10077
.0000	-10078
/*").	-10079
/.");	-10080
/0003	-10081
/1301	-10082
0-9_%	-10083
0.7);	-10084
001";	-10085
0050;	-10086
0051;	-10087
0052;	-10088
0053;	-10089
0054;	-10090
0055;	-10091
0056;	-10092
0057;	-10093
0058;	-10094
0059;	-10095
010",	-10096
0120;	-10097
04");	-10098
04));	-10099
05");	-10100
09");	-10101
09:00	-10102
0_000	-10103
1))).	-10104
1.8);	-10105
1000.	-10106
11223	-10107
1234-	-10108
1236.	-10109
128",	-10110
14));	-10111
14180	-10112
15868	-10113
1678.	-10114
17");	-10115
17\1\	-10116
1\",\	-10117
1\11\	-10118
1_1_)	-10119
1_1_,	-10120
1}");	-10121
2()).	-10122
20));	-10123
2000_	-10124
2021.	-10125
20783	-10126
21\1\	-10127
256";	-10128
26\1\	-10129
2999,	-10130
2[1],	-10131
2][];	-10132
3());	-10133
3.616	-10134
300);	-10135
30000	-10136
31");	-10137
3608.	-10138
3636.	-10139
37203	-10140
4.8);	-10141
44));	-10142
47758	-10143
48423	-10144
49");	-10145
4\1\3	-10146
4_40_	-10147
5());	-10148
5.432	-10149
50)",	-10150
512",	-10151
55");	-10152
56");	-10153
56));	-10154
58086	-10155
6"));	-10156
7.5);	-10157
78");	-10158
8.416	-10159
8/05/	-10160
9"));	-10161
9.46.	-10162
999",	-10163
9996,	-10164
://",	-10165
:///"	-10166
://19	-10167
:7001	-10168
:8888	-10169
:\001	-10170
="));	-10171
=%5.1	-10172
=1}",	-10173
=2");	-10174
=4");	-10175
=[").	-10176
=\"";	-10177
>()).	-10178
>(1),	-10179
>)");	-10180
>]");	-10181
BHDFS	-10182
BILIN	-10183
CONCU	-10184
DFXML	-10185
IMPLI	-10186
INFIL	-10187
INSIC	-10188
IUINJ	-10189
LINQU	-10190
LLOON	-10191
LONGS	-10192
NFLOW	-10193
NONLY	-10194
NULLS	-10195
OLLOU	-10196
PUNCH	-10197
PUSHB	-10198
QMUIS	-10199
QUOIS	-10200
SBMLI	-10201
SHIPS	-10202
SMODI	-10203
SOSDO	-10204
SSIFY	-10205
USHUI	-10206
XWPFP	-10207
[10].	-10208
[14];	-10209
[1]",	-10210
[1]))	-10211
[32];	-10212
\")",	-10213
\",",	-10214
\";",	-10215
\\-/*	-10216
_',",	-10217
_0(0,	-10218
_1"),	-10219
_100_	-10220
_1301	-10221
_1_1_	-10222
_20);	-10223
_200_	-10224
_2018	-10225
_2_0_	-10226
_2_4_	-10227
_2_5_	-10228
_8859	-10229
})");	-10230
Супер	-10231
шибка	-10232
▁"${"	-10233
▁"&",	-10234
▁"'>"	-10235
▁");\	-10236
▁")</	-10237
▁",")	-10238
▁",",	-10239
▁",'"	-10240
▁"-//	-10241
▁"/**	-10242
▁"//:	-10243
▁"0".	-10244
▁"11"	-10245
▁"2":	-10246
▁"3":	-10247
▁"3";	-10248
▁"5":	-10249
▁"808	-10250
▁">",	-10251
▁"?",	-10252
▁"\">	-10253
▁"\\"	-10254
▁"]@"	-10255
▁"^\\	-10256
▁"_",	-10257
▁"__"	-10258
▁'"':	-10259
▁')';	-10260
▁',':	-10261
▁'.',	-10262
▁'/',	-10263
▁'/':	-10264
▁'1';	-10265
▁'8':	-10266
▁'8';	-10267
▁'9':	-10268
▁';':	-10269
▁'<',	-10270
▁'?')	-10271
▁'@',	-10272
▁'[':	-10273
▁'_')	-10274
▁'_':	-10275
▁'_';	-10276
▁(13,	-10277
▁(14,	-10278
▁(2.0	-10279
▁({})	-10280
▁**",	-10281
▁-3.0	-10282
▁.");	-10283
▁.15,	-10284
▁.25,	-10285
▁//,"	-10286
▁0.12	-10287
▁0.2,	-10288
▁0.24	-10289
▁1.2,	-10290
▁1.75	-10291
▁1.85	-10292
▁10",	-10293
▁102;	-10294
▁103;	-10295
▁104;	-10296
▁105;	-10297
▁106;	-10298
▁108;	-10299
▁113,	-10300
▁119,	-10301
▁120)	-10302
▁123:	-10303
▁126,	-10304
▁127)	-10305
▁129)	-10306
▁129,	-10307
▁131,	-10308
▁136,	-10309
▁137,	-10310
▁139,	-10311
▁152,	-10312
▁157,	-10313
▁16).	-10314
▁163,	-10315
▁168,	-10316
▁17);	-10317
▁170,	-10318
▁171,	-10319
▁178,	-10320
▁191,	-10321
▁193,	-10322
▁1];"	-10323
▁2)))	-10324
▁207,	-10325
▁21",	-10326
▁211,	-10327
▁216,	-10328
▁227,	-10329
▁233,	-10330
▁243,	-10331
▁25.0	-10332
▁254;	-10333
▁26);	-10334
▁27);	-10335
▁3");	-10336
▁3.4,	-10337
▁30),	-10338
▁3055	-10339
▁36);	-10340
▁360)	-10341
▁370,	-10342
▁38.7	-10343
▁44);	-10344
▁45).	-10345
▁45);	-10346
▁4}],	-10347
▁5)),	-10348
▁512)	-10349
▁512,	-10350
▁53);	-10351
▁56);	-10352
▁580,	-10353
▁72);	-10354
▁77);	-10355
▁8}]}	-10356
▁90.0	-10357
▁994.	-10358
▁9999	-10359
▁?;";	-10360
▁CBCD	-10361
▁CSSP	-10362
▁DPIC	-10363
▁DUMP	-10364
▁GBMG	-10365
▁GCYM	-10366
▁GGGP	-10367
▁GHGS	-10368
▁GSON	-10369
▁HQPu	-10370
▁ICMP	-10371
▁IMPL	-10372
▁INCO	-10373
▁JMXC	-10374
▁JQLD	-10375
▁MDSC	-10376
▁NIGH	-10377
▁NOON	-10378
▁PNPu	-10379
▁PULL	-10380
▁SOLO	-10381
▁SQLD	-10382
▁SSHC	-10383
▁SWIG	-10384
▁SYNC	-10385
▁SYSS	-10386
▁ULIM	-10387
▁[{1}	-10388
▁\"",	-10389
▁]");	-10390
▁{}";	-10391
▁ново	-10392
▁是否开启	-10393
るとともに	-10394
古典的価値	-10395
岩波文庫は	-10396
无法处理的	-10397
次执行时间	-10398
特别行政区	-10399
窗口句柄值	-10400
経済的価値	-10401
');");	-10402
'])");	-10403
("!/")	-10404
("#").	-10405
("##",	-10406
("'"))	-10407
(")"))	-10408
(")").	-10409
(".").	-10410
("1").	-10411
("1.0-	-10412
("13",	-10413
("2.3.	-10414
("<");	-10415
("\033	-10416
("\\")	-10417
("\\{"	-10418
("|");	-10419
(''{0}	-10420
('(').	-10421
('+');	-10422
(';');	-10423
('@');	-10424
((-577	-10425
()[1].	-10426
()])),	-10427
(-23),	-10428
(1))))	-10429
(10.0,	-10430
(100.0	-10431
(1234,	-10432
(12345	-10433
(128);	-10434
(129);	-10435
(1980,	-10436
(30.0,	-10437
(3154,	-10438
(3155,	-10439
(36.0,	-10440
(57.6,	-10441
(600);	-10442
(78234	-10443
(800);	-10444
(80000	-10445
(\"").	-10446
)(1,1)	-10447
),"));	-10448
)[0]);	-10449
-05-07	-10450
-08-22	-10451
-8")).	-10452
.**");	-10453
.0"));	-10454
.2"));	-10455
.3"));	-10456
.\");\	-10457
._0001	-10458
0-9-]+	-10459
0.0");	-10460
00)));	-10461
00006,	-10462
▁	-10463
.	-10464
(	-10465
)	-10466
;	-10467
u	-10468
,	-10469
"	-10470
=	-10471
{	-10472
}	-10473
S	-10474
_	-10475
I	-10476
C	-10477
P	-10478
0	-10479
D	-10480
O	-10481
M	-10482
L	-10483
N	-10484
>	-10485
<	-10486
1	-10487
F	-10488
+	-10489
B	-10490
U	-10491
2	-10492
H	-10493
:	-10494
G	-10495
-	-10496
[	-10497
]	-10498
W	-10499
!	-10500
3	-10501
/	-10502
\	-10503
&	-10504
4	-10505
5	-10506
J	-10507
Y	-10508
'	-10509
X	-10510
7	-10511
|	-10512
8	-10513
6	-10514
*	-10515
9	-10516
?	-10517
Q	-10518
Z	-10519
%	-10520
#	-10521
$	-10522
@	-10523
^	-10524
~	-10525
`	-10526
失	-10527
败	-10528
に	-10529
的	-10530
数	-10531
た	-10532
の	-10533
е	-10534
不	-10535
用	-10536
и	-10537
о	-10538
为	-10539
行	-10540
务	-10541
。	-10542
成	-10543
入	-10544
时	-10545
っ	-10546
ó	-10547
а	-10548
信	-10549
除	-10550
常	-10551
、	-10552
る	-10553
异	-10554
功	-10555
в	-10556
し	-10557
息	-10558
户	-10559
新	-10560
请	-10561
т	-10562
р	-10563
删	-10564
を	-10565
加	-10566
在	-10567
京	-10568
東	-10569
错	-10570
都	-10571
取	-10572
í	-10573
单	-10574
文	-10575
置	-10576
と	-10577
存	-10578
н	-10579
は	-10580
据	-10581
な	-10582
出	-10583
查	-10584
件	-10585
分	-10586
类	-10587
设	-10588
も	-10589
录	-10590
间	-10591
号	-10592
名	-10593
い	-10594
す	-10595
财	-10596
已	-10597
程	-10598
к	-10599
能	-10600
前	-10601
开	-10602
空	-10603
て	-10604
中	-10605
é	-10606
═	-10607
修	-10608
接	-10609
未	-10610
参	-10611
当	-10612
ñ	-10613
ú	-10614
收	-10615
误	-10616
配	-10617
д	-10618
是	-10619
法	-10620
á	-10621
л	-10622
更	-10623
有	-10624
定	-10625
获	-10626
с	-10627
量	-10628
で	-10629
回	-10630
大	-10631
改	-10632
无	-10633
点	-10634
线	-10635
码	-10636
结	-10637
内	-10638
发	-10639
始	-10640
м	-10641
が	-10642
れ	-10643
值	-10644
到	-10645
方	-10646
登	-10647
п	-10648
一	-10649
增	-10650
批	-10651
у	-10652
动	-10653
启	-10654
容	-10655
果	-10656
系	-10657
重	-10658
体	-10659
支	-10660
正	-10661
认	-10662
询	-10663
ま	-10664
或	-10665
提	-10666
服	-10667
添	-10668
こ	-10669
ー	-10670
下	-10671
了	-10672
返	-10673
║	-10674
人	-10675
输	-10676
上	-10677
客	-10678
小	-10679
か	-10680
字	-10681
实	-10682
庫	-10683
调	-10684
з	-10685
я	-10686
地	-10687
报	-10688
本	-10689
状	-10690
理	-10691
目	-10692
块	-10693
态	-10694
日	-10695
次	-10696
ы	-10697
交	-10698
今	-10699
付	-10700
任	-10701
天	-10702
标	-10703
页	-10704
П	-10705
ン	-10706
事	-10707
匹	-10708
合	-10709
否	-10710
复	-10711
あ	-10712
后	-10713
密	-10714
年	-10715
度	-10716
消	-10717
统	-10718
菜	-10719
蓝	-10720
表	-10721
证	-10722
超	-10723
连	-10724
ら	-10725
例	-10726
器	-10727
图	-10728
属	-10729
找	-10730
断	-10731
模	-10732
注	-10733
牙	-10734
确	-10735
者	-10736
载	-10737
ã	-10738
个	-10739
使	-10740
列	-10741
口	-10742
导	-10743
式	-10744
期	-10745
没	-10746
生	-10747
自	-10748
被	-10749
账	-10750
送	-10751
作	-10752
保	-10753
应	-10754
性	-10755
所	-10756
称	-10757
立	-10758
选	-10759
à	-10760
き	-10761
く	-10762
停	-10763
关	-10764
写	-10765
可	-10766
最	-10767
示	-10768
端	-10769
等	-10770
级	-10771
组	-10772
该	-10773
进	-10774
道	-10775
部	-10776
よ	-10777
会	-10778
传	-10779
典	-10780
型	-10781
子	-10782
月	-10783
知	-10784
私	-10785
第	-10786
默	-10787
Ç	-10788
б	-10789
ậ	-10790
さ	-10791
り	-10792
击	-10793
商	-10794
场	-10795
对	-10796
持	-10797
操	-10798
片	-10799
索	-10800
編	-10801
计	-10802
记	-10803
面	-10804
项	-10805
đ	-10806
й	-10807
ず	-10808
ス	-10809
你	-10810
公	-10811
制	-10812
化	-10813
址	-10814
我	-10815
敵	-10816
暂	-10817
现	-10818
符	-10819
Ã	-10820
ạ	-10821
う	-10822
そ	-10823
だ	-10824
以	-10825
位	-10826
嗨	-10827
备	-10828
工	-10829
建	-10830
执	-10831
择	-10832
检	-10833
段	-10834
渠	-10835
病	-10836
维	-10837
编	-10838
艦	-10839
贼	-10840
路	-10841
转	-10842
集	-10843
高	-10844
ь	-10845
め	-10846
义	-10847
份	-10848
初	-10849
区	-10850
古	-10851
处	-10852
完	-10853
寒	-10854
岩	-10855
径	-10856
意	-10857
波	-10858
白	-10859
经	-10860
解	-10861
警	-10862
话	-10863
軍	-10864
车	-10865
通	-10866
问	-10867
ç	-10868
ш	-10869
ア	-10870
マ	-10871
ラ	-10872
レ	-10873
与	-10874
受	-10875
必	-10876
换	-10877
撃	-10878
机	-10879
条	-10880
来	-10881
款	-10882
联	-10883
至	-10884
身	-10885
限	-10886
에	-10887
В	-10888
С	-10889
ん	-10890
ジ	-10891
価	-10892
値	-10893
刷	-10894
包	-10895
布	-10896
引	-10897
情	-10898
手	-10899
描	-10900
搜	-10901
权	-10902
束	-10903
板	-10904
此	-10905
版	-10906
电	-10907
种	-10908
节	-10909
订	-10910
过	-10911
降	-10912
预	-10913
题	-10914
ư	-10915
ẩ	-10916
ゾ	-10917
于	-10918
从	-10919
别	-10920
句	-10921
员	-10922
局	-10923
戦	-10924
按	-10925
插	-10926
攻	-10927
析	-10928
格	-10929
画	-10930
移	-10931
窗	-10932
色	-10933
要	-10934
读	-10935
需	-10936
러	-10937
°	-10938
ê	-10939
ا	-10940
د	-10941
ả	-10942
【	-10943
】	-10944
け	-10945
つ	-10946
べ	-10947
ッ	-10948
ド	-10949
メ	-10950
三	-10951
创	-10952
即	-10953
同	-10954
和	-10955
対	-10956
市	-10957
後	-10958
得	-10959
態	-10960
打	-10961
政	-10962
效	-10963
時	-10964
水	-10965
求	-10966
特	-10967
秋	-10968
签	-10969
算	-10970
装	-10971
试	-10972
运	-10973
钥	-10974
钮	-10975
门	-10976
闭	-10977
验	-10978
글	-10979
력	-10980
제	-10981
Á	-10982
É	-10983
ä	-10984
ö	-10985
г	-10986
ầ	-10987
“	-10988
”	-10989
お	-10990
わ	-10991
イ	-10992
ク	-10993
ダ	-10994
主	-10995
二	-10996
供	-10997
元	-10998
印	-10999
及	-11000
只	-11001
品	-11002
张	-11003
心	-11004
您	-11005
扫	-11006
指	-11007
暑	-11008
源	-11009
準	-11010
王	-11011
申	-11012
相	-11013
管	-11014
箱	-11015
网	-11016
考	-11017
角	-11018
触	-11019
访	-11020
购	-11021
邮	-11022
雪	-11023
非	-11024
생	-11025
정	-11026
ô	-11027
ü	-11028
Đ	-11029
ı	-11030
М	-11031
О	-11032
ه	-11033
ی	-11034
「	-11035
」	-11036
ど	-11037
书	-11038
买	-11039
产	-11040
仕	-11041
佣	-11042
允	-11043
全	-11044
切	-11045
刊	-11046
历	-11047
压	-11048
厳	-11049
去	-11050
反	-11051
变	-11052
国	-11053
報	-11054
填	-11055
家	-11056
尊	-11057
序	-11058
形	-11059
愛	-11060
播	-11061
放	-11062
教	-11063
整	-11064
明	-11065
春	-11066
显	-11067
柄	-11068
止	-11069
活	-11070
発	-11071
素	-11072
絶	-11073
终	-11074
续	-11075
聊	-11076
般	-11077
议	-11078
许	-11079
这	-11080
露	-11081
¥	-11082
ý	-11083
З	-11084
Н	-11085
ч	-11086
щ	-11087
ب	-11088
ش	-11089
و	-11090
ề	-11091
‚	-11092
→	-11093
コ	-11094
テ	-11095
ト	-11096
何	-11097
假	-11098
先	-11099
共	-11100
册	-11101
冬	-11102
力	-11103
勤	-11104
原	-11105
吃	-11106
圆	-11107
夏	-11108
多	-11109
如	-11110
山	-11111
师	-11112
库	-11113
待	-11114
总	-11115
敬	-11116
普	-11117
書	-11118
機	-11119
步	-11120
每	-11121
矩	-11122
禁	-11123
秒	-11124
稍	-11125
経	-11126
约	-11127
络	-11128
详	-11129
象	-11130
退	-11131
钟	-11132
际	-11133
雷	-11134
발	-11135
삭	-11136
성	-11137
요	-11138
을	-11139
일	-11140
출	-11141
Ó	-11142
ø	-11143
ă	-11144
ć	-11145
ł	-11146
ś	-11147
И	-11148
ж	-11149
ב	-11150
י	-11151
م	-11152
ن	-11153
ớ	-11154
ụ	-11155
ủ	-11156
ử	-11157
—	-11158
€	-11159
♖	-11160
♗	-11161
♘	-11162
♜	-11163
♝	-11164
♞	-11165
え	-11166
ち	-11167
ぬ	-11168
ば	-11169
み	-11170
む	-11171
や	-11172
ろ	-11173
エ	-11174
タ	-11175
パ	-11176
ム	-11177
ル	-11178
且	-11179
业	-11180
举	-11181
互	-11182
亚	-11183
亮	-11184
代	-11185
众	-11186
医	-11187
単	-11188
却	-11189
台	-11190
向	-11191
含	-11192
外	-11193
女	-11194
嬴	-11195
宝	-11196
実	-11197
影	-11198
往	-11199
従	-11200
思	-11201
感	-11202
托	-11203
拟	-11204
排	-11205
昼	-11206
根	-11207
業	-11208
毕	-11209
流	-11210
测	-11211
清	-11212
済	-11213
激	-11214
照	-11215
爱	-11216
班	-11217
男	-11218
療	-11219
秦	-11220
税	-11221
籍	-11222
继	-11223
脚	-11224
臨	-11225
芒	-11226
补	-11227
見	-11228
视	-11229
誠	-11230
請	-11231
评	-11232
费	-11233
込	-11234
速	-11235
達	-11236
選	-11237
針	-11238
链	-11239
锅	-11240
隊	-11241
雨	-11242
须	-11243
饭	-11244
驚	-11245
농	-11246
는	-11247
다	-11248
류	-11249
리	-11250
번	-11251
산	-11252
서	-11253
오	-11254
주	-11255
품	-11256
️	-11257
£	-11258
§	-11259
Í	-11260
Ö	-11261
Ø	-11262
è	-11263
ą	-11264
č	-11265
μ	-11266
σ	-11267
Д	-11268
х	-11269
ح	-11270
ر	-11271
ص	-11272
ل	-11273
ở	-11274
ợ	-11275
–	-11276
‘	-11277
’	-11278
》	-11279
せ	-11280
ィ	-11281
セ	-11282
フ	-11283
プ	-11284
ベ	-11285
企	-11286
低	-11287
備	-11288
其	-11289
剪	-11290
卡	-11291
命	-11292
响	-11293
四	-11294
土	-11295
域	-11296
場	-11297
夜	-11298
季	-11299
少	-11300
层	-11301
帖	-11302
恢	-11303
旧	-11304
易	-11305
李	-11306
架	-11307
样	-11308
標	-11309
権	-11310
残	-11311
永	-11312
滑	-11313
满	-11314
灣	-11315
热	-11316
物	-11317
环	-11318
甲	-11319
略	-11320
百	-11321
直	-11322
看	-11323
短	-11324
稿	-11325
章	-11326
終	-11327
纳	-11328
缩	-11329
而	-11330
藏	-11331
裁	-11332
规	-11333
言	-11334
計	-11335
読	-11336
论	-11337
豆	-11338
赋	-11339
走	-11340
远	-11341
述	-11342
释	-11343
金	-11344
関	-11345
霜	-11346
音	-11347
额	-11348
首	-11349
가	-11350
고	-11351
과	-11352
내	-11353
세	-11354
스	-11355
입	-11356
잉	-11357
자	-11358
째	-11359
파	-11360
항	-11361
해	-11362
¢	-11363
·	-11364
¿	-11365
â	-11366
ò	-11367
Ś	-11368
ż	-11369
ƒ	-11370
̳	-11371
Г	-11372
К	-11373
ф	-11374
э	-11375
ю	-11376
ד	-11377
ה	-11378
ע	-11379
ק	-11380
ר	-11381
ת	-11382
گ	-11383
ế	-11384
ễ	-11385
ồ	-11386
ộ	-11387
•	-11388
╔	-11389
╗	-11390
╚	-11391
╝	-11392
♔	-11393
♕	-11394
♚	-11395
♛	-11396
✔	-11397
々	-11398
〈	-11399
〉	-11400
《	-11401
『	-11402
』	-11403
〔	-11404
〕	-11405
〖	-11406
〗	-11407
ひ	-11408
へ	-11409
ほ	-11410
ァ	-11411
ェ	-11412
カ	-11413
キ	-11414
シ	-11415
チ	-11416
デ	-11417
ニ	-11418
ポ	-11419
ミ	-11420
ュ	-11421
万	-11422
之	-11423
乏	-11424
五	-11425
令	-11426
价	-11427
伯	-11428
便	-11429
候	-11430
储	-11431
再	-11432
农	-11433
冲	-11434
准	-11435
划	-11436
刚	-11437
励	-11438
動	-11439
北	-11440
千	-11441
卓	-11442
占	-11443
吗	-11444
哦	-11445
哪	-11446
善	-11447
囲	-11448
坐	-11449
坛	-11450
基	-11451
夹	-11452
好	-11453
委	-11454
姬	-11455
威	-11456
学	-11457
安	-11458
宜	-11459
审	-11460
射	-11461
就	-11462
屋	-11463
屏	-11464
希	-11465
带	-11466
幀	-11467
干	-11468
平	-11469
广	-11470
強	-11471
弹	-11472
归	-11473
循	-11474
志	-11475
恥	-11476
惊	-11477
想	-11478
慰	-11479
懇	-11480
截	-11481
房	-11482
才	-11483
技	-11484
拉	-11485
拒	-11486
拦	-11487
拿	-11488
捕	-11489
授	-11490
控	-11491
推	-11492
揮	-11493
敗	-11494
斐	-11495
既	-11496
昭	-11497
景	-11498
望	-11499
末	-11500
校	-11501
核	-11502
框	-11503
歇	-11504
歓	-11505
气	-11506
浏	-11507
温	-11508
港	-11509
演	-11510
潜	-11511
澳	-11512
火	-11513
烟	-11514
煩	-11515
爆	-11516
牌	-11517
玩	-11518
現	-11519
番	-11520
異	-11521
疑	-11522
痛	-11523
盛	-11524
睡	-11525
砲	-11526
確	-11527
社	-11528
福	-11529
種	-11530
穂	-11531
突	-11532
策	-11533
範	-11534
粛	-11535
美	-11536
群	-11537
翻	-11538
耗	-11539
聚	-11540
背	-11541
致	-11542
航	-11543
花	-11544
苦	-11545
范	-11546
草	-11547
营	-11548
著	-11549
蔽	-11550
虔	-11551
蛰	-11552
西	-11553
規	-11554
览	-11555
訂	-11556
訳	-11557
謙	-11558
護	-11559
讃	-11560
识	-11561
语	-11562
课	-11563
谷	-11564
豊	-11565
責	-11566
貴	-11567
費	-11568
質	-11569
越	-11570
跨	-11571
跳	-11572
蹤	-11573
輸	-11574
辉	-11575
辑	-11576
迎	-11577
还	-11578
适	-11579
途	-11580
遊	-11581
遜	-11582
遠	-11583
適	-11584
酬	-11585
醒	-11586
里	-11587
錯	-11588
钉	-11589
锁	-11590
開	-11591
阅	-11592
队	-11593
隔	-11594
際	-11595
響	-11596
频	-11597
风	-11598
飞	-11599
養	-11600
香	-11601
鼠	-11602
계	-11603
군	-11604
기	-11605
니	-11606
드	-11607
들	-11608
디	-11609
렉	-11610
로	-11611
료	-11612
를	-11613
만	-11614
목	-11615
보	-11616
수	-11617
습	-11618
실	-11619
알	-11620
어	-11621
완	-11622
용	-11623
의	-11624
이	-11625
작	-11626
전	-11627
줄	-11628
즘	-11629
지	-11630
체	-11631
케	-11632
토	-11633
특	-11634
판	-11635
패	-11636
평	-11637
하	-11638
했	-11639
😜	-11640
¡	-11641
©	-11642
±	-11643
Ä	-11644
Æ	-11645
Ê	-11646
Õ	-11647
Ü	-11648
ß	-11649
å	-11650
æ	-11651
ï	-11652
ð	-11653
ù	-11654
ę	-11655
ğ	-11656
Ł	-11657
ń	-11658
Œ	-11659
œ	-11660
ř	-11661
ş	-11662
Š	-11663
š	-11664
Ÿ	-11665
ź	-11666
Ż	-11667
Ž	-11668
ž	-11669
Ə	-11670
ơ	-11671
ə	-11672
ˆ	-11673
́	-11674
̃	-11675
Ѐ	-11676
А	-11677
Б	-11678
Ж	-11679
Л	-11680
Р	-11681
Т	-11682
У	-11683
Ф	-11684
Х	-11685
Ч	-11686
Ш	-11687
ц	-11688
ё	-11689
آ	-11690
ج	-11691
خ	-11692
ظ	-11693
ع	-11694
پ	-11695
چ	-11696
ژ	-11697
ک	-11698
ẞ	-11699
ặ	-11700
ể	-11701
ệ	-11702
ị	-11703
ứ	-11704
ự	-11705
„	-11706
†	-11707
‡	-11708
‰	-11709
‹	-11710
›	-11711
※	-11712
₡	-11713
₲	-11714
₺	-11715
₿	-11716
↻	-11717
└	-11718
◀	-11719
♀	-11720
♂	-11721
✗	-11722
✘	-11723
❄	-11724
ズ	-11725
ナ	-11726
ネ	-11727
バ	-11728
ヒ	-11729
ボ	-11730
モ	-11731
ャ	-11732
ョ	-11733
リ	-11734
ロ	-11735
东	-11736
丢	-11737
丽	-11738
也	-11739
乡	-11740
些	-11741
享	-11742
仅	-11743
他	-11744
们	-11745
休	-11746
伝	-11747
余	-11748
個	-11749
健	-11750
像	-11751
優	-11752
充	-11753
光	-11754
免	-11755
六	-11756
具	-11757
养	-11758
军	-11759
况	-11760
冷	-11761
冻	-11762
刘	-11763
则	-11764
別	-11765
刻	-11766
削	-11767
剩	-11768
割	-11769
办	-11770
助	-11771
努	-11772
午	-11773
半	-11774
华	-11775
南	-11776
厕	-11777
县	-11778
叫	-11779
史	-11780
右	-11781
叶	-11782
听	-11783
告	-11784
周	-11785
呼	-11786
售	-11787
啊	-11788
因	-11789
围	-11790
均	-11791
城	-11792
培	-11793
境	-11794
声	-11795
够	-11796
太	-11797
头	-11798
姓	-11799
娘	-11800
孙	-11801
寅	-11802
寝	-11803
寸	-11804
将	-11805
導	-11806
尾	-11807
履	-11808
岭	-11809
峰	-11810
川	-11811
差	-11812
己	-11813
币	-11814
幕	-11815
并	-11816
店	-11817
康	-11818
延	-11819
弾	-11820
御	-11821
德	-11822
忘	-11823
忽	-11824
急	-11825
戌	-11826
承	-11827
投	-11828
折	-11829
护	-11830
括	-11831
捉	-11832
援	-11833
摄	-11834
擎	-11835
故	-11836
早	-11837
昌	-11838
映	-11839
昵	-11840
术	-11841
松	-11842
某	-11843
树	-11844
桁	-11845
椒	-11846
歌	-11847
比	-11848
毫	-11849
汇	-11850
池	-11851
泛	-11852
泽	-11853
潭	-11854
為	-11855
熊	-11856
爬	-11857
父	-11858
率	-11859
珊	-11860
珠	-11861
璩	-11862
监	-11863
盒	-11864
真	-11865
磁	-11866
租	-11867
积	-11868
笑	-11869
粮	-11870
粽	-11871
紧	-11872
結	-11873
緯	-11874
繼	-11875
續	-11876
红	-11877
纬	-11878
细	-11879
绘	-11880
给	-11881
绿	-11882
缀	-11883
缓	-11884
缴	-11885
罗	-11886
罪	-11887
翅	-11888
習	-11889
翔	-11890
老	-11891
脑	-11892
膀	-11893
良	-11894
艾	-11895
荐	-11896
虫	-11897
補	-11898
覧	-11899
见	-11900
觉	-11901
訊	-11902
設	-11903
診	-11904
誤	-11905
让	-11906
说	-11907
负	-11908
责	-11909
货	-11910
赁	-11911
起	-11912
足	-11913
載	-11914
轿	-11915
辆	-11916
辖	-11917
辣	-11918
辰	-11919
辽	-11920
迟	-11921
逮	-11922
運	-11923
遍	-11924
避	-11925
邀	-11926
那	-11927
録	-11928
针	-11929
钱	-11930
铺	-11931
销	-11932
键	-11933
闹	-11934
防	-11935
附	-11936
陆	-11937
陣	-11938
随	-11939
隐	-11940
頃	-11941
顯	-11942
颗	-11943
马	-11944
驳	-11945
驻	-11946
鸟	-11947
鸡	-11948
鸵	-11949
鹅	-11950
鹰	-11951
값	-11952
게	-11953
결	-11954
공	-11955
까	-11956
닫	-11957
댓	-11958
도	-11959
래	-11960
록	-11961
말	-11962
매	-11963
문	-11964
받	-11965
비	-11966
선	-11967
시	-11968
쓰	-11969
업	-11970
없	-11971
연	-11972
원	-11973
유	-11974
으	-11975
음	-11976
장	-11977
저	-11978
조	-11979
족	-11980
중	-11981
차	-11982
최	-11983
추	-11984
클	-11985
택	-11986
형	-11987
호	-11988
회	-11989
︎	-11990
～	-11991
🍺	-11992
🎵	-11993
📃	-11994
🥒	-11995
🧀	-11996
