<unk>	0
<s>	0
</s>	0
er	-0
on	-1
in	-2
et	-3
at	-4
or	-5
);	-6
st	-7
en	-8
al	-9
ic	-10
▁p	-11
ti	-12
▁{	-13
le	-14
▁}	-15
▁i	-16
▁=	-17
es	-18
an	-19
tr	-20
()	-21
mp	-22
get	-23
ing	-24
ar	-25
ro	-26
te	-27
ur	-28
▁c	-29
as	-30
ub	-31
th	-32
ort	-33
ac	-34
▁r	-35
▁n	-36
ec	-37
ent	-38
lic	-39
ate	-40
tion	-41
am	-42
Str	-43
▁imp	-44
▁import	-45
ublic	-46
▁public	-47
ew	-48
is	-49
▁(	-50
id	-51
▁f	-52
ce	-53
String	-54
el	-55
ion	-56
ul	-57
ap	-58
ag	-59
ri	-60
ad	-61
re	-62
ut	-63
ue	-64
In	-65
▁s	-66
ist	-67
();	-68
od	-69
se	-70
("	-71
om	-72
urn	-73
int	-74
▁"	-75
eturn	-76
▁v	-77
ass	-78
it	-79
▁return	-80
▁th	-81
ex	-82
ol	-83
lo	-84
Con	-85
un	-86
ab	-87
il	-88
Ex	-89
ed	-90
ation	-91
▁new	-92
ption	-93
ame	-94
▁if	-95
ch	-96
ess	-97
age	-98
▁st	-99
List	-100
▁m	-101
▁b	-102
ull	-103
▁String	-104
Re	-105
ect	-106
yp	-107
inal	-108
av	-109
ig	-110
ter	-111
▁+	-112
riv	-113
ay	-114
▁d	-115
oid	-116
ception	-117
ert	-118
um	-119
rivate	-120
▁void	-121
▁private	-122
▁j	-123
able	-124
ype	-125
set	-126
Exception	-127
Pro	-128
St	-129
▁final	-130
up	-131
▁or	-132
lass	-133
▁this	-134
oo	-135
",	-136
).	-137
ava	-138
ack	-139
▁org	-140
erv	-141
▁null	-142
and	-143
▁stat	-144
ile	-145
to	-146
til	-147
().	-148
Id	-149
ject	-150
▁static	-151
▁int	-152
alue	-153
▁get	-154
qu	-155
der	-156
Name	-157
ment	-158
ot	-159
ata	-160
Type	-161
▁java	-162
");	-163
Res	-164
oc	-165
em	-166
us	-167
▁S	-168
));	-169
im	-170
ode	-171
▁com	-172
iz	-173
add	-174
ult	-175
▁A	-176
row	-177
▁0	-178
En	-179
());	-180
end	-181
Ob	-182
ext	-183
xt	-184
ers	-185
▁C	-186
li	-187
text	-188
ase	-189
con	-190
ice	-191
oun	-192
Map	-193
put	-194
Object	-195
os	-196
our	-197
To	-198
rr	-199
out	-200
assert	-201
bu	-202
he	-203
▁l	-204
ted	-205
ir	-206
per	-207
ey	-208
ction	-209
iew	-210
▁e	-211
que	-212
▁throw	-213
▁in	-214
est	-215
ty	-216
ory	-217
act	-218
00	-219
util	-220
Par	-221
▁tr	-222
Serv	-223
fig	-224
▁T	-225
omp	-226
stan	-227
ER	-228
ef	-229
qual	-230
lean	-231
▁==	-232
ger	-233
pr	-234
orm	-235
ff	-236
Bu	-237
ow	-238
ore	-239
▁1	-240
Value	-241
File	-242
quest	-243
oolean	-244
▁!	-245
ource	-246
▁D	-247
og	-248
atch	-249
ind	-250
▁w	-251
▁M	-252
▁t	-253
ve	-254
▁con	-255
▁pro	-256
ain	-257
▁assert	-258
ct	-259
IN	-260
ath	-261
ON	-262
))	-263
▁res	-264
Ch	-265
vent	-266
eld	-267
quals	-268
ong	-269
ity	-270
ize	-271
ield	-272
ener	-273
new	-274
op	-275
ache	-276
Data	-277
View	-278
pon	-279
ator	-280
loc	-281
essage	-282
▁!=	-283
▁L	-284
ser	-285
rray	-286
▁set	-287
tem	-288
▁I	-289
ilder	-290
omm	-291
By	-292
(),	-293
Set	-294
▁-	-295
ponse	-296
ang	-297
ount	-298
ork	-299
tri	-300
reate	-301
ht	-302
test	-303
▁P	-304
art	-305
odel	-306
str	-307
▁class	-308
alse	-309
Tr	-310
Man	-311
Config	-312
lient	-313
pro	-314
ine	-315
At	-316
▁re	-317
[]	-318
fo	-319
ler	-320
Service	-321
ob	-322
▁el	-323
ann	-324
Col	-325
▁else	-326
Util	-327
tity	-328
▁throws	-329
pl	-330
ackage	-331
ure	-332
▁boolean	-333
▁B	-334
▁for	-335
ace	-336
())	-337
RE	-338
Tim	-339
ager	-340
Key	-341
Context	-342
ans	-343
all	-344
ia	-345
roup	-346
stance	-347
app	-348
Ac	-349
▁h	-350
res	-351
AT	-352
ild	-353
ast	-354
cess	-355
ith	-356
Field	-357
▁List	-358
lement	-359
ock	-360
son	-361
io	-362
Request	-363
ery	-364
log	-365
";	-366
ST	-367
▁:	-368
Param	-369
Builder	-370
Met	-371
▁package	-372
class	-373
Manager	-374
▁g	-375
ule	-376
eng	-377
ip	-378
Se	-379
▁ex	-380
Class	-381
An	-382
cri	-383
Event	-384
ial	-385
ord	-386
▁&	-387
▁false	-388
ss	-389
▁In	-390
Time	-391
▁<	-392
State	-393
urr	-394
Comp	-395
ost	-396
this	-397
),	-398
ader	-399
Th	-400
Un	-401
ud	-402
if	-403
dex	-404
ID	-405
ition	-406
Response	-407
cted	-408
AL	-409
par	-410
ME	-411
Test	-412
Text	-413
mpl	-414
Info	-415
yst	-416
ash	-417
sh	-418
User	-419
of	-420
lock	-421
Ad	-422
ystem	-423
tim	-424
ber	-425
tent	-426
▁is	-427
pt	-428
apache	-429
▁to	-430
ession	-431
Item	-432
eam	-433
▁&&	-434
ust	-435
Path	-436
form	-437
tp	-438
Equals	-439
▁F	-440
ver	-441
ence	-442
Array	-443
LE	-444
serv	-445
▁R	-446
inc	-447
urrent	-448
Prov	-449
ard	-450
Message	-451
OR	-452
Ap	-453
ail	-454
▁H	-455
ak	-456
Result	-457
tribu	-458
val	-459
tern	-460
▁result	-461
Al	-462
Group	-463
Stream	-464
ength	-465
▁_	-466
tribute	-467
read	-468
hod	-469
key	-470
gr	-471
▁J	-472
user	-473
▁ch	-474
▁0;	-475
ight	-476
lection	-477
rom	-478
date	-479
ep	-480
ask	-481
ax	-482
ument	-483
▁test	-484
actory	-485
Stat	-486
otation	-487
comm	-488
▁par	-489
Qu	-490
roid	-491
▁Object	-492
▁true	-493
teger	-494
Code	-495
▁2	-496
Log	-497
umn	-498
ection	-499
▁try	-500
▁and	-501
name	-502
eck	-503
ffer	-504
Entity	-505
port	-506
▁o	-507
Utils	-508
yn	-509
Node	-510
oub	-511
ouble	-512
▁V	-513
tain	-514
pert	-515
ra	-516
Hand	-517
▁ext	-518
api	-519
du	-520
try	-521
Def	-522
pec	-523
▁catch	-524
uration	-525
ayout	-526
action	-527
col	-528
▁G	-529
tif	-530
▁en	-531
ends	-532
lect	-533
oint	-534
Index	-535
tected	-536
▁value	-537
time	-538
TE	-539
Null	-540
▁a	-541
arch	-542
mple	-543
▁case	-544
▁protected	-545
ties	-546
Client	-547
perty	-548
ault	-549
escri	-550
ram	-551
equals	-552
mo	-553
ilter	-554
arg	-555
AR	-556
▁sup	-557
ign	-558
print	-559
pos	-560
ml	-561
red	-562
core	-563
Listener	-564
▁extends	-565
TI	-566
fer	-567
Action	-568
gle	-569
stant	-570
let	-571
Factory	-572
rror	-573
DE	-574
ev	-575
Not	-576
(1	-577
incia	-578
Instance	-579
eb	-580
Of	-581
Pl	-582
tiv	-583
ersion	-584
Form	-585
Ar	-586
On	-587
▁|	-588
He	-589
append	-590
Error	-591
Fr	-592
create	-593
ound	-594
Element	-595
Option	-596
Resource	-597
enc	-598
eter	-599
▁android	-600
Or	-601
▁assertEquals	-602
Rec	-603
rite	-604
err	-605
ken	-606
Out	-607
Size	-608
▁Array	-609
▁long	-610
ink	-611
value	-612
OException	-613
trol	-614
ib	-615
▁super	-616
ary	-617
"));	-618
Up	-619
uth	-620
oogle	-621
common	-622
riter	-623
Table	-624
SE	-625
▁>	-626
▁bu	-627
Property	-628
ange	-629
▁(!	-630
ings	-631
++	-632
length	-633
ton	-634
annotation	-635
(0	-636
UR	-637
Loc	-638
ute	-639
ework	-640
size	-641
>();	-642
google	-643
ramework	-644
AN	-645
Handler	-646
Count	-647
With	-648
Date	-649
pring	-650
sion	-651
App	-652
erial	-653
Constant	-654
ive	-655
ix	-656
gist	-657
Model	-658
").	-659
yte	-660
model	-661
Val	-662
RO	-663
count	-664
Comm	-665
Status	-666
CE	-667
▁javax	-668
▁System	-669
ge	-670
framework	-671
No	-672
Query	-673
▁on	-674
ress	-675
Layout	-676
Attribute	-677
▁log	-678
Num	-679
low	-680
\"	-681
file	-682
CO	-683
▁Exception	-684
ternal	-685
Sh	-686
ft	-687
mpty	-688
but	-689
map	-690
load	-691
und	-692
ql	-693
▁add	-694
sp	-695
arget	-696
ayer	-697
2.	-698
▁*	-699
AME	-700
▁id	-701
loat	-702
Trans	-703
ual	-704
--	-705
onent	-706
ach	-707
Be	-708
As	-709
▁((	-710
tivity	-711
Add	-712
min	-713
For	-714
final	-715
▁ArrayList	-716
▁E	-717
own	-718
spring	-719
Pan	-720
▁out	-721
ance	-722
putStream	-723
()).	-724
▁?	-725
ider	-726
▁at	-727
abel	-728
Sc	-729
SI	-730
Per	-731
back	-732
ssert	-733
ite	-734
Provincia	-735
elet	-736
rap	-737
▁sh	-738
sw	-739
tes	-740
1.	-741
current	-742
bo	-743
Produ	-744
nection	-745
All	-746
error	-747
)).	-748
ames	-749
Method	-750
Call	-751
▁create	-752
are	-753
▁user	-754
▁'	-755
ttp	-756
▁||	-757
▁name	-758
ues	-759
▁W	-760
utton	-761
▁data	-762
data	-763
unit	-764
toString	-765
ference	-766
NAME	-767
ry	-768
Parameter	-769
tribut	-770
Descri	-771
perties	-772
springframework	-773
Column	-774
ics	-775
▁wh	-776
Int	-777
▁->	-778
Buffer	-779
▁Map	-780
comp	-781
ill	-782
Configuration	-783
query	-784
reak	-785
work	-786
tributes	-787
▁instance	-788
unction	-789
use	-790
ook	-791
LO	-792
ln	-793
And	-794
01	-795
mage	-796
Block	-797
▁File	-798
>>	-799
lication	-800
TY	-801
Dir	-802
NT	-803
ee	-804
Gener	-805
ptor	-806
clo	-807
That	-808
Control	-809
((	-810
Exec	-811
Token	-812
From	-813
Source	-814
older	-815
Integer	-816
ocument	-817
one	-818
ateg	-819
ug	-820
AC	-821
ari	-822
println	-823
▁0)	-824
Dis	-825
▁io	-826
▁list	-827
sg	-828
update	-829
peration	-830
Impl	-831
uc	-832
▁break	-833
tings	-834
▁net	-835
annel	-836
ication	-837
elete	-838
UL	-839
Command	-840
enu	-841
▁3	-842
Entry	-843
az	-844
chem	-845
type	-846
ender	-847
▁param	-848
cl	-849
Pre	-850
Byte	-851
client	-852
Det	-853
face	-854
▁N	-855
▁Re	-856
posit	-857
idth	-858
tive	-859
contain	-860
Content	-861
Run	-862
++)	-863
▁context	-864
▁ob	-865
met	-866
▁col	-867
getName	-868
tial	-869
Stack	-870
Dec	-871
▁request	-872
stract	-873
efault	-874
adata	-875
iv	-876
True	-877
SS	-878
ly	-879
pository	-880
be	-881
ces	-882
Rule	-883
http	-884
junit	-885
build	-886
Empty	-887
ide	-888
Cache	-889
AG	-890
Button	-891
Frame	-892
];	-893
uct	-894
Hel	-895
ree	-896
ated	-897
uster	-898
Server	-899
▁x	-900
Inter	-901
aw	-902
▁double	-903
Po	-904
▁assertThat	-905
Component	-906
▁});	-907
▁file	-908
ING	-909
Filter	-910
▁key	-911
mplate	-912
▁ac	-913
Version	-914
Task	-915
▁se	-916
getC	-917
apter	-918
PE	-919
atab	-920
net	-921
context	-922
ync	-923
Pos	-924
Mod	-925
raw	-926
Long	-927
sed	-928
Number	-929
Arg	-930
▁/	-931
▁Log	-932
Format	-933
ector	-934
▁Integer	-935
▁type	-936
ffset	-937
ension	-938
ashMap	-939
irst	-940
Color	-941
Internal	-942
java	-943
valid	-944
Reference	-945
Session	-946
lang	-947
FI	-948
write	-949
__	-950
1,	-951
com	-952
ao	-953
list	-954
Te	-955
leg	-956
ream	-957
Bean	-958
lements	-959
Json	-960
Operation	-961
ifi	-962
▁Assert	-963
Sub	-964
Provider	-965
"),	-966
US	-967
Base	-968
ies	-969
view	-970
has	-971
ant	-972
▁val	-973
contains	-974
▁y	-975
ypes	-976
AD	-977
Lo	-978
lob	-979
Activity	-980
Process	-981
next	-982
true	-983
proto	-984
pected	-985
ATE	-986
.0	-987
▁instanceof	-988
ole	-989
entity	-990
itor	-991
Collection	-992
ave	-993
CH	-994
start	-995
Get	-996
▁byte	-997
▁IOException	-998
Spec	-999
atabase	-1000
Panel	-1001
Connection	-1002
TH	-1003
<>();	-1004
ution	-1005
Fields	-1006
ther	-1007
Update	-1008
ample	-1009
find	-1010
Names	-1011
ember	-1012
"))	-1013
Row	-1014
Point	-1015
▁Col	-1016
Sp	-1017
Tag	-1018
Vis	-1019
null	-1020
LI	-1021
erializ	-1022
TO	-1023
Helper	-1024
chema	-1025
index	-1026
▁str	-1027
Properties	-1028
ov	-1029
▁serv	-1030
▁met	-1031
imple	-1032
▁arg	-1033
▁response	-1034
SON	-1035
ell	-1036
mis	-1037
Logger	-1038
Bytes	-1039
Defin	-1040
luster	-1041
Start	-1042
open	-1043
ody	-1044
getString	-1045
orage	-1046
▁start	-1047
ner	-1048
Attributes	-1049
move	-1050
..	-1051
▁pl	-1052
Record	-1053
▁ro	-1054
ecur	-1055
md	-1056
Check	-1057
aint	-1058
Job	-1059
Bo	-1060
rim	-1061
fl	-1062
ustom	-1063
abled	-1064
<?	-1065
ark	-1066
Store	-1067
table	-1068
raph	-1069
UE	-1070
▁implements	-1071
Label	-1072
Mode	-1073
Address	-1074
po	-1075
CON	-1076
play	-1077
ale	-1078
idget	-1079
result	-1080
cod	-1081
Constants	-1082
Op	-1083
▁config	-1084
Default	-1085
TER	-1086
word	-1087
Ed	-1088
KE	-1089
emo	-1090
TR	-1091
config	-1092
rl	-1093
▁not	-1094
End	-1095
de	-1096
gion	-1097
▁comp	-1098
Image	-1099
Order	-1100
▁the	-1101
ialog	-1102
ond	-1103
Http	-1104
oot	-1105
IS	-1106
sc	-1107
(2	-1108
old	-1109
AB	-1110
()));	-1111
ecurity	-1112
ire	-1113
sub	-1114
ized	-1115
db	-1116
▁float	-1117
web	-1118
Host	-1119
Params	-1120
NotNull	-1121
rid	-1122
cion	-1123
ok	-1124
▁Test	-1125
agment	-1126
por	-1127
Settings	-1128
ersist	-1129
FA	-1130
mock	-1131
af	-1132
Options	-1133
Reader	-1134
▁0,	-1135
Url	-1136
Adapter	-1137
Auth	-1138
Repository	-1139
Line	-1140
server	-1141
ources	-1142
MA	-1143
ld	-1144
Create	-1145
eat	-1146
tainer	-1147
ariable	-1148
Us	-1149
▁be	-1150
amp	-1151
ility	-1152
iter	-1153
utable	-1154
ref	-1155
Que	-1156
VAL	-1157
▁Th	-1158
getS	-1159
bug	-1160
Proto	-1161
Input	-1162
▁var	-1163
IOException	-1164
Definition	-1165
utor	-1166
request	-1167
parse	-1168
lected	-1169
▁4	-1170
info	-1171
code	-1172
QL	-1173
run	-1174
string	-1175
Is	-1176
ATI	-1177
swing	-1178
EN	-1179
local	-1180
pression	-1181
inter	-1182
▁assertTrue	-1183
Page	-1184
Metadata	-1185
Function	-1186
point	-1187
TION	-1188
▁Con	-1189
event	-1190
▁k	-1191
Dep	-1192
lick	-1193
Api	-1194
ont	-1195
Unit	-1196
base	-1197
getValue	-1198
▁+=	-1199
attern	-1200
sup	-1201
ages	-1202
ys	-1203
ency	-1204
▁LO	-1205
xml	-1206
ify	-1207
Argument	-1208
▁message	-1209
0000	-1210
Menu	-1211
Thread	-1212
ugin	-1213
Regist	-1214
UN	-1215
arr	-1216
▁item	-1217
Location	-1218
ick	-1219
▁current	-1220
▁sb	-1221
▁map	-1222
uture	-1223
ices	-1224
isEmpty	-1225
▁max	-1226
getId	-1227
ULT	-1228
uid	-1229
Pr	-1230
oul	-1231
sum	-1232
Width	-1233
Match	-1234
UT	-1235
Search	-1236
InternalFrame	-1237
▁num	-1238
Access	-1239
ById	-1240
Child	-1241
▁update	-1242
terator	-1243
lector	-1244
NO	-1245
ui	-1246
air	-1247
bstract	-1248
format	-1249
ms	-1250
▁he	-1251
▁event	-1252
service	-1253
Descriptor	-1254
stream	-1255
Controller	-1256
▁ab	-1257
Return	-1258
▁",	-1259
exec	-1260
ito	-1261
VE	-1262
Project	-1263
icate	-1264
▁O	-1265
cle	-1266
raft	-1267
▁index	-1268
Work	-1269
.*	-1270
ush	-1271
//	-1272
▁5	-1273
Mapper	-1274
▁1;	-1275
ere	-1276
▁while	-1277
field	-1278
[0	-1279
loy	-1280
ould	-1281
message	-1282
COL	-1283
alle	-1284
ative	-1285
ear	-1286
line	-1287
▁find	-1288
Bl	-1289
econd	-1290
▁json	-1291
000	-1292
yle	-1293
json	-1294
andom	-1295
LA	-1296
undle	-1297
evel	-1298
ired	-1299
▁te	-1300
indow	-1301
mm	-1302
▁z	-1303
Holder	-1304
for	-1305
sor	-1306
omain	-1307
ie	-1308
▁LOG	-1309
tle	-1310
3.	-1311
ategory	-1312
System	-1313
▁view	-1314
Output	-1315
Enabled	-1316
Bar	-1317
path	-1318
ake	-1319
with	-1320
Valid	-1321
▁check	-1322
TYPE	-1323
ll	-1324
==	-1325
CT	-1326
▁};	-1327
Constr	-1328
Document	-1329
Case	-1330
Mo	-1331
byte	-1332
▁sc	-1333
url	-1334
▁logger	-1335
long	-1336
lip	-1337
sl	-1338
itial	-1339
Detail	-1340
ArrayList	-1341
Sw	-1342
ish	-1343
Types	-1344
Application	-1345
Local	-1346
.*;	-1347
nap	-1348
uccess	-1349
Template	-1350
Enum	-1351
Pack	-1352
Next	-1353
ched	-1354
ATION	-1355
▁table	-1356
false	-1357
InputStream	-1358
orld	-1359
")	-1360
▁query	-1361
cr	-1362
my	-1363
order	-1364
eed	-1365
URL	-1366
Box	-1367
item	-1368
Dao	-1369
UM	-1370
UID	-1371
▁inter	-1372
assertEquals	-1373
▁builder	-1374
Sup	-1375
Read	-1376
Ext	-1377
Pool	-1378
ical	-1379
De	-1380
legal	-1381
rig	-1382
ization	-1383
▁rec	-1384
▁default	-1385
enter	-1386
▁Long	-1387
remove	-1388
Height	-1389
Rel	-1390
ron	-1391
FAULT	-1392
Mock	-1393
evice	-1394
▁Set	-1395
2,	-1396
>(	-1397
▁group	-1398
Boolean	-1399
llegal	-1400
imal	-1401
Char	-1402
▁al	-1403
Header	-1404
Channel	-1405
MP	-1406
Transaction	-1407
RI	-1408
Trace	-1409
▁Data	-1410
shot	-1411
▁-1	-1412
ulti	-1413
round	-1414
eters	-1415
▁client	-1416
content	-1417
0,	-1418
ps	-1419
ombo	-1420
trans	-1421
▁User	-1422
irt	-1423
ier	-1424
▁error	-1425
nal	-1426
vert	-1427
tition	-1428
Variable	-1429
Click	-1430
napshot	-1431
ML	-1432
prov	-1433
Account	-1434
ping	-1435
pace	-1436
MO	-1437
▁target	-1438
▁my	-1439
param	-1440
vm	-1441
mb	-1442
getP	-1443
▁Class	-1444
▁field	-1445
Des	-1446
Parser	-1447
Target	-1448
opy	-1449
riteria	-1450
▁%	-1451
▁resource	-1452
oop	-1453
Tree	-1454
Queue	-1455
Dialog	-1456
EX	-1457
▁ret	-1458
Offset	-1459
ocket	-1460
▁model	-1461
ume	-1462
cept	-1463
search	-1464
AP	-1465
Writer	-1466
▁de	-1467
▁input	-1468
▁dis	-1469
assword	-1470
▁le	-1471
▁sub	-1472
itch	-1473
.");	-1474
dis	-1475
check	-1476
▁hand	-1477
cloud	-1478
Tool	-1479
Ag	-1480
ome	-1481
ower	-1482
Callback	-1483
ecraft	-1484
Future	-1485
gister	-1486
▁run	-1487
Visib	-1488
edia	-1489
▁un	-1490
Storage	-1491
Back	-1492
sess	-1493
notation	-1494
emory	-1495
▁node	-1496
Expression	-1497
ph	-1498
scri	-1499
99	-1500
pre	-1501
anged	-1502
Ref	-1503
▁ref	-1504
Optional	-1505
rec	-1506
mission	-1507
▁read	-1508
▁Collection	-1509
Selected	-1510
Async	-1511
close	-1512
Fragment	-1513
▁Comp	-1514
Change	-1515
KEY	-1516
▁Ch	-1517
Top	-1518
ZE	-1519
Web	-1520
ater	-1521
▁1,	-1522
rc	-1523
Min	-1524
dition	-1525
VER	-1526
pc	-1527
sql	-1528
▁Un	-1529
Range	-1530
Loader	-1531
rics	-1532
org	-1533
flow	-1534
anner	-1535
any	-1536
Level	-1537
qualTo	-1538
▁Boolean	-1539
lib	-1540
oin	-1541
▁At	-1542
Link	-1543
Fl	-1544
▁vm	-1545
▁View	-1546
▁source	-1547
eline	-1548
▁method	-1549
mod	-1550
ectory	-1551
buf	-1552
VI	-1553
ware	-1554
▁Http	-1555
(0,	-1556
▁HashMap	-1557
Container	-1558
Description	-1559
aph	-1560
Del	-1561
[0]	-1562
odes	-1563
mmutable	-1564
▁exec	-1565
Graph	-1566
irtual	-1567
ounter	-1568
Executor	-1569
▁Run	-1570
▁msg	-1571
pack	-1572
aster	-1573
▁from	-1574
DI	-1575
tract	-1576
▁entry	-1577
▁attribute	-1578
stat	-1579
▁Serv	-1580
sing	-1581
▁U	-1582
arn	-1583
Max	-1584
la	-1585
▁1);	-1586
ape	-1587
eas	-1588
store	-1589
SH	-1590
▁args	-1591
OutputStream	-1592
▁path	-1593
Position	-1594
Produc	-1595
Player	-1596
mote	-1597
▁end	-1598
▁0);	-1599
▁state	-1600
Tip	-1601
ashCode	-1602
ments	-1603
Encod	-1604
Servlet	-1605
()))	-1606
plit	-1607
itmap	-1608
▁Date	-1609
title	-1610
Ass	-1611
ank	-1612
▁do	-1613
▁row	-1614
▁Logger	-1615
reg	-1616
lobal	-1617
PER	-1618
man	-1619
Length	-1620
concurrent	-1621
Values	-1622
valueOf	-1623
Last	-1624
Dat	-1625
ta	-1626
array	-1627
::	-1628
tification	-1629
gress	-1630
▁pre	-1631
inding	-1632
builder	-1633
▁X	-1634
max	-1635
Double	-1636
bar	-1637
ient	-1638
uto	-1639
▁ed	-1640
Execution	-1641
PO	-1642
ric	-1643
Module	-1644
JSON	-1645
▁entity	-1646
gn	-1647
▁__	-1648
setText	-1649
Mat	-1650
▁pos	-1651
PRO	-1652
▁put	-1653
ario	-1654
IL	-1655
engine	-1656
node	-1657
HashMap	-1658
Body	-1659
▁expected	-1660
getInstance	-1661
▁Tr	-1662
Ro	-1663
itle	-1664
Cluster	-1665
debug	-1666
tifact	-1667
▁Message	-1668
▁with	-1669
▁>=	-1670
▁Illegal	-1671
▁text	-1672
AGE	-1673
")).	-1674
Statement	-1675
ait	-1676
ply	-1677
▁of	-1678
Role	-1679
▁{}	-1680
mt	-1681
Pane	-1682
ck	-1683
Profile	-1684
12	-1685
ignment	-1686
Clo	-1687
auth	-1688
StackTrace	-1689
cast	-1690
ported	-1691
Exp	-1692
ene	-1693
▁size	-1694
**	-1695
▁trans	-1696
Registry	-1697
ision	-1698
eature	-1699
▁app	-1700
place	-1701
ities	-1702
Ver	-1703
▁obj	-1704
Processor	-1705
▁remo	-1706
▁Ap	-1707
="	-1708
tx	-1709
Cap	-1710
Down	-1711
Style	-1712
▁count	-1713
minecraft	-1714
▁6	-1715
response	-1716
getMessage	-1717
Cal	-1718
iled	-1719
3,	-1720
widget	-1721
Constantes	-1722
erson	-1723
persist	-1724
▁column	-1725
Port	-1726
ABLE	-1727
',	-1728
Title	-1729
General	-1730
sert	-1731
▁time	-1732
duct	-1733
Annotation	-1734
efore	-1735
Swing	-1736
Head	-1737
group	-1738
from	-1739
iron	-1740
ude	-1741
11	-1742
lot	-1743
graph	-1744
Mapping	-1745
▁sw	-1746
▁Tim	-1747
Region	-1748
ytes	-1749
annotations	-1750
source	-1751
num	-1752
Parent	-1753
SIZE	-1754
Resol	-1755
▁service	-1756
Serializ	-1757
location	-1758
Decimal	-1759
Meta	-1760
Tab	-1761
Act	-1762
Env	-1763
dat	-1764
Compat	-1765
ential	-1766
igh	-1767
licy	-1768
▁last	-1769
▁action	-1770
SC	-1771
led	-1772
no	-1773
New	-1774
project	-1775
tal	-1776
adoop	-1777
estamp	-1778
▁next	-1779
ground	-1780
URI	-1781
02	-1782
▁\"	-1783
sumer	-1784
[1	-1785
commons	-1786
▁object	-1787
printStackTrace	-1788
Net	-1789
atcher	-1790
ailed	-1791
ategy	-1792
▁call	-1793
▁min	-1794
SION	-1795
EL	-1796
olume	-1797
(0);	-1798
▁old	-1799
protobuf	-1800
▁Event	-1801
acion	-1802
filter	-1803
ptions	-1804
version	-1805
logger	-1806
<?>	-1807
▁task	-1808
▁prov	-1809
then	-1810
ynch	-1811
▁Byte	-1812
▁abstract	-1813
Window	-1814
VO	-1815
illis	-1816
▁pr	-1817
essages	-1818
ipeline	-1819
Database	-1820
Var	-1821
Bundle	-1822
▁Ac	-1823
▁ver	-1824
▁Thread	-1825
GE	-1826
ciones	-1827
▁when	-1828
▁buffer	-1829
izer	-1830
▁init	-1831
ertif	-1832
Delete	-1833
(1,	-1834
ironment	-1835
eg	-1836
2);	-1837
getClass	-1838
FieldsClass	-1839
▁other	-1840
Details	-1841
Assert	-1842
Used	-1843
].	-1844
rix	-1845
getF	-1846
Build	-1847
Report	-1848
Iterator	-1849
Extension	-1850
si	-1851
Changed	-1852
▁session	-1853
)));	-1854
Package	-1855
Product	-1856
Producto	-1857
cript	-1858
utils	-1859
INT	-1860
internal	-1861
xy	-1862
ocation	-1863
river	-1864
Non	-1865
atform	-1866
PRE	-1867
awt	-1868
Items	-1869
quired	-1870
quence	-1871
▁form	-1872
▁output	-1873
If	-1874
UP	-1875
▁local	-1876
4.	-1877
FF	-1878
tag	-1879
book	-1880
osite	-1881
SER	-1882
Snapshot	-1883
Partition	-1884
execute	-1885
LOG	-1886
ging	-1887
other	-1888
rawable	-1889
Right	-1890
tach	-1891
tifier	-1892
last	-1893
▁parent	-1894
▁Text	-1895
Constraint	-1896
getType	-1897
ynchron	-1898
GER	-1899
▁8	-1900
ret	-1901
▁filter	-1902
ols	-1903
5,	-1904
Pay	-1905
iler	-1906
vok	-1907
Runtime	-1908
AS	-1909
Root	-1910
Conn	-1911
bind	-1912
Mano	-1913
android	-1914
Load	-1915
ope	-1916
Found	-1917
hadoop	-1918
▁server	-1919
resh	-1920
ertificate	-1921
▁has	-1922
Schema	-1923
Complet	-1924
df	-1925
▁Met	-1926
rest	-1927
1",	-1928
Resources	-1929
▁1)	-1930
IT	-1931
impl	-1932
Co	-1933
----	-1934
getM	-1935
0.	-1936
RES	-1937
top	-1938
ared	-1939
pli	-1940
VALUE	-1941
rowable	-1942
asic	-1943
▁Abstract	-1944
jInternalFrame	-1945
boolean	-1946
▁work	-1947
Cell	-1948
],	-1949
Criteria	-1950
▁op	-1951
DEFAULT	-1952
False	-1953
Struct	-1954
hand	-1955
Bus	-1956
Eng	-1957
block	-1958
Lock	-1959
Render	-1960
_1	-1961
dd	-1962
ProductoProdu	-1963
Post	-1964
Detalle	-1965
▁child	-1966
imit	-1967
anch	-1968
provincia	-1969
rup	-1970
args	-1971
0;	-1972
SQL	-1973
jsp	-1974
char	-1975
lipse	-1976
bl	-1977
verter	-1978
Directory	-1979
tra	-1980
uch	-1981
do	-1982
▁gener	-1983
Batch	-1984
ified	-1985
unk	-1986
▁cl	-1987
▁no	-1988
method	-1989
ren	-1990
▁interface	-1991
TypeFieldsClass	-1992
sol	-1993
▁comm	-1994
0);	-1995
DB	-1996
fter	-1997
ifier	-1998
Protocol	-1999
IC	-2000
gment	-2001
PA	-2002
▁root	-2003
Handle	-2004
addParameter	-2005
".	-2006
select	-2007
process	-2008
▁mock	-2009
ause	-2010
Hash	-2011
Millis	-2012
exception	-2013
▁as	-2014
endar	-2015
escription	-2016
://	-2017
collect	-2018
▁values	-2019
show	-2020
ade	-2021
Engine	-2022
actor	-2023
Custom	-2024
Strategy	-2025
▁StringBuilder	-2026
▁DE	-2027
Pres	-2028
bers	-2029
ures	-2030
Acl	-2031
oft	-2032
▁<=	-2033
column	-2034
Pattern	-2035
DO	-2036
chedule	-2037
dk	-2038
▁process	-2039
ymb	-2040
imension	-2041
Parameters	-2042
eft	-2043
struct	-2044
unciones	-2045
1);	-2046
uri	-2047
double	-2048
("\	-2049
Vm	-2050
its	-2051
ERR	-2052
Uri	-2053
input	-2054
actual	-2055
roll	-2056
inte	-2057
Socket	-2058
eclipse	-2059
istory	-2060
Category	-2061
Ind	-2062
▁fr	-2063
ux	-2064
Obj	-2065
float	-2066
▁content	-2067
4,	-2068
▁page	-2069
▁remove	-2070
▁JSON	-2071
ViewById	-2072
▁project	-2073
++;	-2074
omic	-2075
Ab	-2076
Generator	-2077
EqualTo	-2078
▁K	-2079
ancel	-2080
▁delete	-2081
▁},	-2082
plier	-2083
▁Sh	-2084
entifier	-2085
AM	-2086
▁url	-2087
Ret	-2088
ado	-2089
▁build	-2090
Transform	-2091
UTE	-2092
▁Se	-2093
▁Math	-2094
▁post	-2095
tin	-2096
Depend	-2097
USER	-2098
Security	-2099
Collector	-2100
Mon	-2101
Tipo	-2102
▁[	-2103
rimary	-2104
Dist	-2105
Left	-2106
<>(	-2107
Open	-2108
entry	-2109
▁Base	-2110
Usage	-2111
ations	-2112
Metrics	-2113
ursor	-2114
▁switch	-2115
Dto	-2116
Ids	-2117
Part	-2118
▁"\	-2119
easure	-2120
Write	-2121
security	-2122
▁Pl	-2123
2;	-2124
▁info	-2125
command	-2126
arsh	-2127
fix	-2128
hen	-2129
board	-2130
▁Response	-2131
domain	-2132
ONE	-2133
we	-2134
("/	-2135
ved	-2136
aces	-2137
▁Trans	-2138
Pair	-2139
layout	-2140
resource	-2141
Display	-2142
cs	-2143
TEST	-2144
aller	-2145
▁write	-2146
delete	-2147
ithub	-2148
▁Comm	-2149
▁Runtime	-2150
CK	-2151
gl	-2152
Files	-2153
ename	-2154
▁should	-2155
▁verify	-2156
hi	-2157
▁Mock	-2158
gram	-2159
▁St	-2160
▁Json	-2161
ceptor	-2162
▁Block	-2163
▁dir	-2164
▁IN	-2165
send	-2166
]);	-2167
erge	-2168
gener	-2169
FormProvincia	-2170
ise	-2171
0100	-2172
PAR	-2173
idd	-2174
state	-2175
ORD	-2176
cel	-2177
▁cmd	-2178
▁status	-2179
redential	-2180
ynchronized	-2181
ERROR	-2182
values	-2183
entication	-2184
▁jsonObject	-2185
IG	-2186
var	-2187
First	-2188
quire	-2189
object	-2190
Invalid	-2191
era	-2192
ags	-2193
▁params	-2194
msg	-2195
Intent	-2196
▁Optional	-2197
Icon	-2198
Big	-2199
tex	-2200
▁an	-2201
▁"/	-2202
getKey	-2203
andard	-2204
('	-2205
erm	-2206
▁char	-2207
ho	-2208
mploy	-2209
Member	-2210
iver	-2211
DA	-2212
Network	-2213
aged	-2214
icator	-2215
rary	-2216
dir	-2217
Device	-2218
down	-2219
player	-2220
Abstract	-2221
target	-2222
Sign	-2223
Track	-2224
page	-2225
support	-2226
jspx	-2227
▁valid	-2228
▁can	-2229
ences	-2230
ination	-2231
OL	-2232
▁sp	-2233
github	-2234
Aud	-2235
Notification	-2236
gin	-2237
co	-2238
Condition	-2239
ik	-2240
▁ad	-2241
▁Builder	-2242
Imp	-2243
gnore	-2244
(_	-2245
tn	-2246
Rep	-2247
Req	-2248
ymbol	-2249
▁main	-2250
JInternalFrame	-2251
Actual	-2252
▁parse	-2253
▁0.	-2254
▁exp	-2255
CI	-2256
▁base	-2257
voke	-2258
first	-2259
▁synchronized	-2260
▁"";	-2261
itive	-2262
ration	-2263
acter	-2264
ature	-2265
▁7	-2266
ists	-2267
task	-2268
Arrays	-2269
rupted	-2270
▁load	-2271
ingle	-2272
achine	-2273
▁mod	-2274
Environment	-2275
ba	-2276
Fail	-2277
Xml	-2278
lease	-2279
Bitmap	-2280
control	-2281
DateTime	-2282
ynam	-2283
▁Value	-2284
▁network	-2285
pa	-2286
Route	-2287
vel	-2288
child	-2289
Observ	-2290
fr	-2291
(3	-2292
uff	-2293
lish	-2294
mark	-2295
▁attributes	-2296
▁IllegalArgument	-2297
post	-2298
▁finally	-2299
▁("	-2300
omb	-2301
▁clo	-2302
vocation	-2303
host	-2304
tact	-2305
▁dest	-2306
status	-2307
STR	-2308
asList	-2309
Sum	-2310
TAG	-2311
slf	-2312
▁all	-2313
▁version	-2314
▁member	-2315
Interface	-2316
Anim	-2317
HT	-2318
UB	-2319
▁An	-2320
rapper	-2321
protocol	-2322
MAX	-2323
Simple	-2324
br	-2325
▁Type	-2326
servlet	-2327
▁player	-2328
thenReturn	-2329
Binding	-2330
iod	-2331
NotFound	-2332
azel	-2333
Policy	-2334
persistence	-2335
Gr	-2336
Vo	-2337
ipe	-2338
reen	-2339
annot	-2340
ombok	-2341
Author	-2342
Edit	-2343
da	-2344
ng	-2345
▁sql	-2346
queue	-2347
Progress	-2348
▁RE	-2349
ates	-2350
vo	-2351
▁2,	-2352
addAll	-2353
embers	-2354
dec	-2355
Over	-2356
cket	-2357
Bound	-2358
ED	-2359
Lib	-2360
▁SQL	-2361
Multi	-2362
empty	-2363
▁Ex	-2364
ting	-2365
▁Link	-2366
▁Service	-2367
ected	-2368
system	-2369
▁Resource	-2370
ANCE	-2371
Cre	-2372
1;	-2373
Java	-2374
cache	-2375
Namespace	-2376
jack	-2377
nown	-2378
Packet	-2379
32	-2380
perator	-2381
▁Entity	-2382
ATA	-2383
ns	-2384
One	-2385
UI	-2386
atal	-2387
Plugin	-2388
Av	-2389
Before	-2390
Media	-2391
Le	-2392
ts	-2393
cul	-2394
greg	-2395
Timeout	-2396
clear	-2397
ias	-2398
ideo	-2399
▁App	-2400
register	-2401
Em	-2402
▁Z	-2403
▁dep	-2404
▁Inter	-2405
UUID	-2406
ycle	-2407
Perun	-2408
arm	-2409
08	-2410
amera	-2411
GroupLayout	-2412
ws	-2413
▁tim	-2414
Stats	-2415
ublish	-2416
Sql	-2417
▁format	-2418
▁line	-2419
Prefer	-2420
rong	-2421
uple	-2422
▁writer	-2423
ruptedException	-2424
Combo	-2425
SET	-2426
way	-2427
Conf	-2428
Messages	-2429
Converter	-2430
▁per	-2431
Endpoint	-2432
nect	-2433
sWith	-2434
ClickListener	-2435
We	-2436
▁us	-2437
otal	-2438
▁connection	-2439
Are	-2440
left	-2441
▁top	-2442
ES	-2443
Select	-2444
▁Time	-2445
sertion	-2446
▁Result	-2447
StringUtils	-2448
====	-2449
▁first	-2450
Di	-2451
ORM	-2452
Parse	-2453
▁Double	-2454
expected	-2455
BeanSwing	-2456
substring	-2457
...	-2458
Agent	-2459
Sequence	-2460
ious	-2461
▁Request	-2462
▁stream	-2463
("<	-2464
Ste	-2465
▁u	-2466
obj	-2467
tinue	-2468
▁lombok	-2469
aved	-2470
▁Immutable	-2471
Collections	-2472
▁db	-2473
1\	-2474
rs	-2475
▁up	-2476
(1);	-2477
▁host	-2478
▁account	-2479
Selection	-2480
(4	-2481
DS	-2482
▁em	-2483
▁cache	-2484
Plan	-2485
▁string	-2486
Attr	-2487
Card	-2488
Rece	-2489
mary	-2490
Msg	-2491
DATE	-2492
services	-2493
▁0.0	-2494
INTER	-2495
short	-2496
root	-2497
token	-2498
function	-2499
▁handle	-2500
supported	-2501
eo	-2502
▁Loc	-2503
TIME	-2504
Prefix	-2505
runtime	-2506
16	-2507
\\	-2508
tom	-2509
beans	-2510
apply	-2511
getText	-2512
>()	-2513
rior	-2514
▁dec	-2515
nable	-2516
buffer	-2517
ending	-2518
channel	-2519
Permission	-2520
ilename	-2521
rop	-2522
▁As	-2523
▁Item	-2524
icle	-2525
intel	-2526
▁auth	-2527
▁Simple	-2528
vis	-2529
Initial	-2530
Qual	-2531
Current	-2532
exp	-2533
kit	-2534
▁actual	-2535
redicate	-2536
▁toString	-2537
right	-2538
▁Path	-2539
now	-2540
vious	-2541
logging	-2542
▁Default	-2543
{}	-2544
hel	-2545
▁");	-2546
Total	-2547
bound	-2548
▁temp	-2549
isEqualTo	-2550
▁continue	-2551
(5	-2552
valu	-2553
astic	-2554
arator	-2555
aml	-2556
lij	-2557
▁command	-2558
▁document	-2559
##	-2560
Mark	-2561
Remote	-2562
FO	-2563
example	-2564
\":	-2565
olog	-2566
Bin	-2567
tries	-2568
Constraints	-2569
trim	-2570
Memory	-2571
agent	-2572
HE	-2573
default	-2574
▁Collections	-2575
Decl	-2576
aset	-2577
getData	-2578
Timestamp	-2579
▁token	-2580
agement	-2581
mployee	-2582
dl	-2583
▁code	-2584
fin	-2585
her	-2586
azon	-2587
Objects	-2588
Success	-2589
dep	-2590
Visible	-2591
AX	-2592
UNT	-2593
Grid	-2594
tify	-2595
atalog	-2596
Buffered	-2597
main	-2598
Groups	-2599
intellij	-2600
▁execute	-2601
ification	-2602
Machine	-2603
ULL	-2604
Uuid	-2605
▁cal	-2606
assertTrue	-2607
mat	-2608
parent	-2609
Ignore	-2610
instance	-2611
▁options	-2612
Red	-2613
nio	-2614
etch	-2615
temp	-2616
▁array	-2617
Interval	-2618
Renderer	-2619
ritable	-2620
25	-2621
▁Ar	-2622
etro	-2623
getLogger	-2624
Ph	-2625
ensor	-2626
urrency	-2627
2)	-2628
BU	-2629
▁record	-2630
Virtual	-2631
Arch	-2632
Short	-2633
▁LOGGER	-2634
CAL	-2635
call	-2636
Global	-2637
swer	-2638
formed	-2639
DTO	-2640
uage	-2641
artment	-2642
ribu	-2643
eme	-2644
Immutable	-2645
MENT	-2646
image	-2647
ssue	-2648
▁del	-2649
▁product	-2650
NotNullable	-2651
save	-2652
▁ass	-2653
▁right	-2654
session	-2655
tachment	-2656
Game	-2657
tities	-2658
Border	-2659
▁ev	-2660
imum	-2661
ating	-2662
replace	-2663
ventory	-2664
MenuItem	-2665
▁cluster	-2666
()),	-2667
rule	-2668
▁fail	-2669
module	-2670
factory	-2671
Obs	-2672
ich	-2673
ines	-2674
Gu	-2675
Subscri	-2676
OT	-2677
Matrix	-2678
Feature	-2679
fs	-2680
html	-2681
▁Big	-2682
porte	-2683
acility	-2684
▁q	-2685
ning	-2686
▁Key	-2687
jackson	-2688
▁100	-2689
address	-2690
ManagerImpl	-2691
avail	-2692
▁listener	-2693
▁properties	-2694
encies	-2695
elastic	-2696
mockito	-2697
▁control	-2698
▁orig	-2699
Artifact	-2700
ORT	-2701
azz	-2702
▁fl	-2703
boot	-2704
Center	-2705
ci	-2706
Construct	-2707
NE	-2708
Area	-2709
chedul	-2710
OB	-2711
job	-2712
ible	-2713
▁ctx	-2714
▁left	-2715
OP	-2716
(0).	-2717
TextView	-2718
Day	-2719
▁number	-2720
Consumer	-2721
yc	-2722
not	-2723
▁".	-2724
plugin	-2725
▁des	-2726
7.	-2727
005	-2728
Core	-2729
INST	-2730
label	-2731
rimitive	-2732
Db	-2733
▁Node	-2734
Identifier	-2735
RA	-2736
2",	-2737
bot	-2738
Widget	-2739
▁register	-2740
Dest	-2741
Proxy	-2742
PAT	-2743
IO	-2744
MS	-2745
gistry	-2746
AppCompat	-2747
Keys	-2748
lex	-2749
ummy	-2750
Results	-2751
▁configuration	-2752
lec	-2753
match	-2754
0_	-2755
>)	-2756
ka	-2757
width	-2758
▁Action	-2759
IP	-2760
▁attr	-2761
change	-2762
ordin	-2763
▁total	-2764
amespace	-2765
04	-2766
Am	-2767
erc	-2768
Only	-2769
▁-1;	-2770
azelcast	-2771
▁length	-2772
ason	-2773
Active	-2774
▁DEFAULT	-2775
des	-2776
vas	-2777
warn	-2778
Float	-2779
Limit	-2780
olve	-2781
The	-2782
Failed	-2783
▁label	-2784
ComboBox	-2785
Persist	-2786
eek	-2787
ten	-2788
color	-2789
Support	-2790
▁handler	-2791
oriz	-2792
▁Config	-2793
afe	-2794
Flow	-2795
EST	-2796
aly	-2797
ian	-2798
Encoding	-2799
▁initial	-2800
▁2;	-2801
▁port	-2802
▁Pr	-2803
▁offset	-2804
64	-2805
ero	-2806
▁image	-2807
▁search	-2808
ict	-2809
Driver	-2810
Wrapper	-2811
Required	-2812
Visitor	-2813
Password	-2814
Use	-2815
jet	-2816
network	-2817
riority	-2818
Each	-2819
Rect	-2820
▁Tree	-2821
Collectors	-2822
9,	-2823
yy	-2824
Auto	-2825
After	-2826
Chain	-2827
split	-2828
output	-2829
Pointer	-2830
irect	-2831
iction	-2832
▁assertFalse	-2833
sets	-2834
iterator	-2835
Rest	-2836
COUNT	-2837
acity	-2838
tools	-2839
▁bytes	-2840
▁Context	-2841
▁block	-2842
▁//	-2843
ente	-2844
Resolver	-2845
riterion	-2846
pare	-2847
angle	-2848
▁SQLException	-2849
over	-2850
ached	-2851
▁exception	-2852
[][]	-2853
Bag	-2854
▁found	-2855
▁hashCode	-2856
sm	-2857
LAY	-2858
position	-2859
▁channel	-2860
JE	-2861
getInt	-2862
cre	-2863
uby	-2864
card	-2865
lear	-2866
8,	-2867
med	-2868
refix	-2869
Dt	-2870
AND	-2871
TextField	-2872
_2	-2873
Blob	-2874
▁Intent	-2875
setValue	-2876
6,	-2877
ACK	-2878
QUE	-2879
▁job	-2880
ynamic	-2881
hashCode	-2882
cal	-2883
Disk	-2884
ontal	-2885
escriptor	-2886
OF	-2887
by	-2888
▁head	-2889
Script	-2890
getProperty	-2891
go	-2892
road	-2893
▁len	-2894
Fin	-2895
Pipeline	-2896
wo	-2897
amb	-2898
grid	-2899
unch	-2900
OUR	-2901
alth	-2902
▁print	-2903
▁Arrays	-2904
Nodes	-2905
ology	-2906
▁hash	-2907
faster	-2908
can	-2909
▁"<	-2910
world	-2911
jo	-2912
VICE	-2913
Scroll	-2914
▁match	-2915
▁title	-2916
Segment	-2917
orizontal	-2918
XML	-2919
▁lo	-2920
Stop	-2921
ases	-2922
filer	-2923
facebook	-2924
fasterxml	-2925
Play	-2926
▁doc	-2927
Duration	-2928
Pop	-2929
DATA	-2930
OUT	-2931
Temp	-2932
▁order	-2933
▁address	-2934
NUM	-2935
0\	-2936
sole	-2937
▁vis	-2938
▁Hash	-2939
▁engine	-2940
box	-2941
leep	-2942
Stage	-2943
KeyValue	-2944
etail	-2945
legate	-2946
▁short	-2947
▁Linked	-2948
▁Get	-2949
▁color	-2950
▁height	-2951
validate	-2952
55	-2953
NG	-2954
RED	-2955
success	-2956
amed	-2957
▁http	-2958
ActionListener	-2959
clude	-2960
Random	-2961
convert	-2962
INE	-2963
eners	-2964
▁Image	-2965
HttpServlet	-2966
Org	-2967
OD	-2968
▁use	-2969
bytes	-2970
▁back	-2971
GET	-2972
▁it	-2973
laim	-2974
iness	-2975
▁date	-2976
▁rule	-2977
CRE	-2978
LIC	-2979
▁zz	-2980
Tags	-2981
ived	-2982
▁man	-2983
Scope	-2984
anges	-2985
Step	-2986
uario	-2987
▁width	-2988
▁Search	-2989
▁Command	-2990
ASE	-2991
▁show	-2992
template	-2993
▁element	-2994
cp	-2995
init	-2996
▁assertNotNull	-2997
cur	-2998
Columns	-2999
Drawable	-3000
▁container	-3001
':	-3002
MM	-3003
Stub	-3004
▁tag	-3005
NOT	-3006
copy	-3007
rift	-3008
▁Color	-3009
▁Local	-3010
composite	-3011
Do	-3012
demo	-3013
Word	-3014
ROUTE	-3015
SSAGE	-3016
▁{}",	-3017
10	-3018
rel	-3019
Vertex	-3020
JB	-3021
activ	-3022
Selector	-3023
imp	-3024
kip	-3025
upiter	-3026
storage	-3027
lem	-3028
Answer	-3029
ecret	-3030
ycler	-3031
account	-3032
ilities	-3033
Nullable	-3034
Domain	-3035
▁parameter	-3036
bit	-3037
FILE	-3038
def	-3039
▁uri	-3040
Editor	-3041
▁Query	-3042
Elements	-3043
FileName	-3044
Funciones	-3045
elasticsearch	-3046
Main	-3047
Counter	-3048
configuration	-3049
WN	-3050
FIX	-3051
INJ	-3052
Fore	-3053
▁conf	-3054
Folder	-3055
containsKey	-3056
:"	-3057
gor	-3058
▁must	-3059
component	-3060
▁location	-3061
jupiter	-3062
startsWith	-3063
types	-3064
TED	-3065
▁pay	-3066
GL	-3067
IR	-3068
][	-3069
Cod	-3070
▁Rec	-3071
Visibility	-3072
uction	-3073
cluster	-3074
Direction	-3075
▁Objects	-3076
NS	-3077
wer	-3078
Print	-3079
graphics	-3080
Vector	-3081
▁1.0	-3082
▁world	-3083
▁callback	-3084
di	-3085
unc	-3086
ens	-3087
ico	-3088
▁Pro	-3089
▁env	-3090
collection	-3091
Atom	-3092
▁req	-3093
▁reader	-3094
▁HashSet	-3095
erializer	-3096
ha	-3097
ou	-3098
py	-3099
pan	-3100
gorith	-3101
Present	-3102
hasNext	-3103
OnClickListener	-3104
alm	-3105
here	-3106
ward	-3107
OK	-3108
>");	-3109
amazon	-3110
Scanner	-3111
TimeMillis	-3112
1");	-3113
▁Mockito	-3114
redentials	-3115
Doc	-3116
ocus	-3117
pres	-3118
▁Wrong	-3119
ability	-3120
▁Atomic	-3121
product	-3122
Calendar	-3123
5.	-3124
▁ar	-3125
JECT	-3126
Avail	-3127
Login	-3128
Serializer	-3129
00,	-3130
Relacion	-3131
▁Virtual	-3132
▁Internal	-3133
▁9	-3134
Edge	-3135
ship	-3136
Constructor	-3137
ke	-3138
Ow	-3139
ker	-3140
!");	-3141
lers	-3142
getStatus	-3143
ATOR	-3144
VALID	-3145
schema	-3146
Rout	-3147
ench	-3148
▁send	-3149
▁JSONObject	-3150
Logic	-3151
Variables	-3152
▁Dis	-3153
ormal	-3154
▁stop	-3155
straint	-3156
▁Y	-3157
ais	-3158
mit	-3159
▁Memory	-3160
MIN	-3161
▁br	-3162
icon	-3163
ique	-3164
application	-3165
AU	-3166
foo	-3167
Audit	-3168
Common	-3169
Background	-3170
Debug	-3171
▁Gener	-3172
▁ByteArray	-3173
oss	-3174
▁Al	-3175
menu	-3176
thon	-3177
manager	-3178
Can	-3179
ffect	-3180
Second	-3181
Headers	-3182
CHE	-3183
▁mo	-3184
▁Page	-3185
serial	-3186
jection	-3187
▁networkAcl	-3188
---	-3189
▁Model	-3190
compositeIndex	-3191
ByteArray	-3192
when	-3193
oder	-3194
itions	-3195
03	-3196
');	-3197
ENT	-3198
car	-3199
▁buf	-3200
flater	-3201
▁Attribute	-3202
HO	-3203
aj	-3204
yper	-3205
anguage	-3206
1)	-3207
ges	-3208
")));	-3209
Email	-3210
batch	-3211
record	-3212
History	-3213
ds	-3214
overy	-3215
JSONObject	-3216
▁collection	-3217
IM	-3218
Term	-3219
ured	-3220
Throw	-3221
stack	-3222
getUser	-3223
ai	-3224
001	-3225
getB	-3226
tor	-3227
ented	-3228
Throwable	-3229
draw	-3230
Final	-3231
fx	-3232
Join	-3233
return	-3234
MESSAGE	-3235
▁property	-3236
7,	-3237
Criterion	-3238
dr	-3239
fmt	-3240
mer	-3241
src	-3242
Locale	-3243
metadata	-3244
Sl	-3245
Me	-3246
mic	-3247
▁Method	-3248
▁serial	-3249
=\"	-3250
Aut	-3251
ium	-3252
Args	-3253
ysis	-3254
Measure	-3255
Mockito	-3256
▁display	-3257
.",	-3258
****	-3259
avig	-3260
tree	-3261
Import	-3262
models	-3263
▁Client	-3264
Accessor	-3265
Performed	-3266
▁description	-3267
FIG	-3268
mdr	-3269
roy	-3270
activity	-3271
atis	-3272
▁graph	-3273
▁header	-3274
AttributeValue	-3275
so	-3276
math	-3277
isting	-3278
Admin	-3279
Delta	-3280
Shape	-3281
dev	-3282
known	-3283
Upload	-3284
▁results	-3285
▁database	-3286
Zone	-3287
▁Document	-3288
Sort	-3289
Assignment	-3290
▁Transaction	-3291
part	-3292
Bounds	-3293
Volume	-3294
▁position	-3295
23	-3296
leton	-3297
PROPER	-3298
compare	-3299
▁Throwable	-3300
UTF	-3301
admin	-3302
▁rest	-3303
attribute	-3304
ored	-3305
▁Configuration	-3306
DAO	-3307
Mask	-3308
Move	-3309
lete	-3310
orted	-3311
▁grid	-3312
parator	-3313
Children	-3314
mg	-3315
eta	-3316
sign	-3317
▁Grid	-3318
▁close	-3319
Inform	-3320
Parcel	-3321
(2,	-3322
Pag	-3323
dbc	-3324
conf	-3325
CLA	-3326
ift	-3327
▁qu	-3328
CESS	-3329
Events	-3330
▁Table	-3331
▁template	-3332
oly	-3333
SELE	-3334
▁-1)	-3335
getAttributes	-3336
aff	-3337
tile	-3338
Quest	-3339
Reporte	-3340
▁settings	-3341
(",	-3342
Opt	-3343
Period	-3344
mpleado	-3345
properties	-3346
▁certificate	-3347
InstanceState	-3348
active	-3349
▁shape	-3350
Power	-3351
▁findViewById	-3352
▁sum	-3353
Points	-3354
BO	-3355
heet	-3356
18	-3357
aven	-3358
idad	-3359
Amount	-3360
height	-3361
Summary	-3362
addComponent	-3363
▁po	-3364
Full	-3365
NonNull	-3366
findViewById	-3367
available	-3368
gov	-3369
button	-3370
VERSION	-3371
▁Database	-3372
ros	-3373
())).	-3374
World	-3375
indings	-3376
▁Stream	-3377
▁intent	-3378
▁region	-3379
Supplier	-3380
resources	-3381
getContext	-3382
getCurrent	-3383
PC	-3384
Iter	-3385
Space	-3386
lowed	-3387
▁Form	-3388
Identity	-3389
bed	-3390
ote	-3391
ped	-3392
▁GL	-3393
OURCE	-3394
Scale	-3395
argin	-3396
Busque	-3397
Single	-3398
Created	-3399
gorithm	-3400
bin	-3401
ATTR	-3402
faces	-3403
liente	-3404
4;	-3405
ls	-3406
head	-3407
ixed	-3408
trace	-3409
ood	-3410
Structure	-3411
AE	-3412
▁generate	-3413
cc	-3414
▁any	-3415
▁1000	-3416
▁custom	-3417
Character	-3418
0)	-3419
Rad	-3420
Topic	-3421
parseInt	-3422
▁activity	-3423
El	-3424
ND	-3425
▁that	-3426
PerunBl	-3427
(()	-3428
▁tx	-3429
DataSource	-3430
BagConstraints	-3431
urface	-3432
▁select	-3433
struction	-3434
Validation	-3435
adow	-3436
pha	-3437
▁Sc	-3438
▁bo	-3439
▁body	-3440
Deploy	-3441
External	-3442
Mgr	-3443
sTo	-3444
▁open	-3445
ErrorException	-3446
aws	-3447
python	-3448
Sol	-3449
ottom	-3450
▁random	-3451
Authentication	-3452
3;	-3453
FORM	-3454
▁Web	-3455
8.	-3456
body	-3457
▁cap	-3458
▁iter	-3459
getPath	-3460
database	-3461
▁argument	-3462
Book	-3463
ple	-3464
▁rel	-3465
▁stack	-3466
Available	-3467
VM	-3468
11.	-3469
Dependencies	-3470
nt	-3471
▁No	-3472
space	-3473
ina	-3474
kkit	-3475
iddhi	-3476
Archive	-3477
repository	-3478
▁application	-3479
My	-3480
3);	-3481
Orig	-3482
▁Vector	-3483
▁mapper	-3484
Writable	-3485
earCache	-3486
description	-3487
14	-3488
Buf	-3489
ROM	-3490
Generated	-3491
FER	-3492
CHAR	-3493
Video	-3494
iteral	-3495
offset	-3496
▁frame	-3497
lin	-3498
lix	-3499
Extra	-3500
▁link	-3501
Metric	-3502
StateException	-3503
FIN	-3504
javax	-3505
Sample	-3506
')	-3507
Mis	-3508
---+	-3509
pose	-3510
cheme	-3511
▁msgpack	-3512
▁Buffered	-3513
▁Property	-3514
ARY	-3515
▁co	-3516
Look	-3517
Latch	-3518
insert	-3519
▁schema	-3520
▁volume	-3521
ma	-3522
idu	-3523
▁Cal	-3524
Place	-3525
Matchers	-3526
ableFuture	-3527
otor	-3528
Person	-3529
])	-3530
jb	-3531
Cloud	-3532
▁copy	-3533
forEach	-3534
getDefault	-3535
09	-3536
isor	-3537
▁def	-3538
Close	-3539
report	-3540
--------	-3541
anization	-3542
MODE	-3543
WORD	-3544
logic	-3545
▁Error	-3546
spector	-3547
▁Task	-3548
BER	-3549
getAttribute	-3550
zz	-3551
Fac	-3552
Desc	-3553
izar	-3554
eatures	-3555
▁Iterator	-3556
78	-3557
201	-3558
ctx	-3559
getH	-3560
link	-3561
alysis	-3562
invoke	-3563
Remo	-3564
Show	-3565
Creator	-3566
cheduler	-3567
getResource	-3568
Ax	-3569
NGTH	-3570
intValue	-3571
wt	-3572
dom	-3573
orr	-3574
join	-3575
arshaller	-3576
connection	-3577
SU	-3578
▁++	-3579
CTION	-3580
SECON	-3581
baidu	-3582
ookie	-3583
▁"'	-3584
00);	-3585
push	-3586
Guard	-3587
Users	-3588
eer	-3589
▁me	-3590
Material	-3591
▁api	-3592
Focus	-3593
LENGTH	-3594
number	-3595
FT	-3596
elf	-3597
udy	-3598
▁").	-3599
ertical	-3600
ManagerBl	-3601
yclerView	-3602
SW	-3603
aver	-3604
▁Operation	-3605
doc	-3606
CODE	-3607
dest	-3608
otype	-3609
▁Auth	-3610
Factor	-3611
Platform	-3612
ucene	-3613
CONFIG	-3614
Complete	-3615
generate	-3616
QU	-3617
td	-3618
lan	-3619
Disp	-3620
_.	-3621
▁device	-3622
MI	-3623
Has	-3624
READ	-3625
clus	-3626
Chunk	-3627
solute	-3628
Invocation	-3629
game	-3630
itude	-3631
▁game	-3632
Payload	-3633
getBytes	-3634
rie	-3635
Paths	-3636
Price	-3637
ACTION	-3638
ective	-3639
roadcast	-3640
Validator	-3641
sResponse	-3642
9.	-3643
ALL	-3644
ins	-3645
▁thread	-3646
getL	-3647
vc	-3648
Same	-3649
▁rem	-3650
custom	-3651
IgnoreCase	-3652
3",	-3653
hir	-3654
▁"_	-3655
PATH	-3656
alyz	-3657
adding	-3658
Subject	-3659
INSTANCE	-3660
RuleList	-3661
iro	-3662
▁Sp	-3663
make	-3664
▁save	-3665
Declar	-3666
Schedule	-3667
▁Funciones	-3668
▁InputStream	-3669
SY	-3670
Evalu	-3671
Timer	-3672
▁Function	-3673
UND	-3674
lab	-3675
▁4,	-3676
emon	-3677
▁2);	-3678
▁err	-3679
▁point	-3680
Assertion	-3681
Completion	-3682
member	-3683
connect	-3684
▁dt	-3685
Issue	-3686
Toast	-3687
▁enum	-3688
parser	-3689
Concept	-3690
Management	-3691
▁we	-3692
ather	-3693
SELECT	-3694
random	-3695
▁userId	-3696
▁original	-3697
Off	-3698
Font	-3699
Library	-3700
BE	-3701
Com	-3702
ELD	-3703
idx	-3704
▁<<	-3705
▁Vm	-3706
LINE	-3707
orig	-3708
▁rece	-3709
ling	-3710
DataSet	-3711
me	-3712
edu	-3713
ged	-3714
▁loc	-3715
alled	-3716
Remove	-3717
gration	-3718
▁password	-3719
BY	-3720
XT	-3721
AST	-3722
cat	-3723
AEJB	-3724
ISUS	-3725
entr	-3726
▁tmp	-3727
ombre	-3728
amount	-3729
▁Field	-3730
Encoder	-3731
ISUSAEJB	-3732
ribution	-3733
sn	-3734
5);	-3735
ervisor	-3736
▁layout	-3737
▁component	-3738
56	-3739
anc	-3740
▁My	-3741
_005	-3742
▁dist	-3743
▁lock	-3744
commit	-3745
▁second	-3746
▁success	-3747
BigDecimal	-3748
uffix	-3749
Updated	-3750
handler	-3751
property	-3752
req	-3753
uite	-3754
▁Api	-3755
Datos	-3756
PROPERTY	-3757
▁parameters	-3758
5;	-3759
gen	-3760
Cancel	-3761
TestUtils	-3762
Subscription	-3763
CUR	-3764
dao	-3765
alib	-3766
plan	-3767
ercise	-3768
ump	-3769
Copy	-3770
dist	-3771
▁cur	-3772
eeper	-3773
Errors	-3774
istics	-3775
▁queue	-3776
entation	-3777
Failure	-3778
▁Custom	-3779
material	-3780
ClassName	-3781
pm	-3782
aba	-3783
begin	-3784
▁store	-3785
HashSet	-3786
▁equalTo	-3787
▁getName	-3788
▁pattern	-3789
del	-3790
Basic	-3791
Owner	-3792
▁conn	-3793
▁draw	-3794
MetaData	-3795
13	-3796
▁src	-3797
Tuple	-3798
verse	-3799
▁Char	-3800
SERVICE	-3801
Listeners	-3802
CR	-3803
[2	-3804
▁BigDecimal	-3805
▁Connection	-3806
Por	-3807
▁di	-3808
▁Xml	-3809
▁Line	-3810
Blocks	-3811
rigger	-3812
getLong	-3813
itional	-3814
▁convert	-3815
▁metadata	-3816
▁transaction	-3817
eries	-3818
owner	-3819
Guardar	-3820
oftware	-3821
INTERVAL	-3822
▁Ed	-3823
rive	-3824
▁"");	-3825
▁menu	-3826
covery	-3827
Expected	-3828
Observer	-3829
VersionUID	-3830
PUT	-3831
ism	-3832
LOCK	-3833
Such	-3834
cryp	-3835
▁Mod	-3836
▁one	-3837
Tools	-3838
udent	-3839
alibaba	-3840
▁Complet	-3841
PI	-3842
ONG	-3843
Primitive	-3844
Preferences	-3845
Br	-3846
xx	-3847
ACT	-3848
▁2)	-3849
Generic	-3850
element	-3851
getCounter	-3852
.<	-3853
ww	-3854
bean	-3855
ours	-3856
Unable	-3857
thrift	-3858
uncher	-3859
▁16	-3860
▁3,	-3861
header	-3862
Payment	-3863
Predicate	-3864
Dependency	-3865
COMP	-3866
Speed	-3867
Serializable	-3868
":	-3869
ous	-3870
ryp	-3871
cent	-3872
Cursor	-3873
---+---+	-3874
avigation	-3875
ADD	-3876
Ali	-3877
the	-3878
Wait	-3879
gson	-3880
Camera	-3881
▁equals	-3882
▁Criteria	-3883
Lower	-3884
sleep	-3885
▁TEST	-3886
remote	-3887
hazelcast	-3888
transform	-3889
controller	-3890
afka	-3891
Primary	-3892
Relative	-3893
CLASS	-3894
istor	-3895
Monitor	-3896
Dimension	-3897
sample	-3898
abilities	-3899
Att	-3900
▁abc	-3901
▁cannot	-3902
dc	-3903
[1]	-3904
oad	-3905
pay	-3906
ourse	-3907
arshall	-3908
▁androidx	-3909
▁edu	-3910
Sender	-3911
Transl	-3912
ecycle	-3913
DateFormat	-3914
Observable	-3915
(-	-3916
TP	-3917
Rows	-3918
amil	-3919
▁Dep	-3920
▁factory	-3921
1_	-3922
PRI	-3923
ugh	-3924
Flag	-3925
Mouse	-3926
Rules	-3927
Split	-3928
stere	-3929
▁clazz	-3930
aut	-3931
Rate	-3932
Span	-3933
STRING	-3934
alance	-3935
getBlock	-3936
platform	-3937
container	-3938
newBuilder	-3939
Ip	-3940
▁arr	-3941
Runner	-3942
Cl	-3943
HI	-3944
UMN	-3945
ius	-3946
utdown	-3947
getTime	-3948
▁Column	-3949
</	-3950
ime	-3951
tax	-3952
▁li	-3953
▁URL	-3954
isNot	-3955
render	-3956
ashboard	-3957
ChangeListener	-3958
ART	-3959
rot	-3960
getX	-3961
urer	-3962
Enable	-3963
Permis	-3964
day	-3965
Flags	-3966
brain	-3967
▁sign	-3968
access	-3969
▁Point	-3970
Usuario	-3971
Distance	-3972
ClassLoader	-3973
▁postClient	-3974
bus	-3975
inner	-3976
DataType	-3977
listener	-3978
TRA	-3979
Delay	-3980
Light	-3981
rivile	-3982
entrySet	-3983
▁provincia	-3984
ense	-3985
lice	-3986
prop	-3987
incip	-3988
▁saved	-3989
Contact	-3990
settings	-3991
Conversion	-3992
stereotype	-3993
EMP	-3994
Enc	-3995
\",	-3996
cmd	-3997
arge	-3998
TABLE	-3999
Linked	-4000
incias	-4001
▁Cache	-4002
▁after	-4003
▁plugin	-4004
Sync	-4005
fail	-4006
incipal	-4007
Comparator	-4008
▁getPerunBl	-4009
='	-4010
ITH	-4011
▁"-	-4012
▁Clo	-4013
▁Random	-4014
▁Application	-4015
ested	-4016
light	-4017
indexOf	-4018
library	-4019
Busqueda	-4020
document	-4021
ublisher	-4022
Indicator	-4023
exceptions	-4024
jsonObject	-4025
Certificate	-4026
Unsupported	-4027
FL	-4028
acer	-4029
▁Filter	-4030
ParseException	-4031
lap	-4032
Sink	-4033
stances	-4034
▁Server	-4035
▁holder	-4036
▁javafx	-4037
txt	-4038
▁cn	-4039
fire	-4040
tool	-4041
▁Dec	-4042
Blank	-4043
amage	-4044
ateway	-4045
ToString	-4046
amazonaws	-4047
▁Serializ	-4048
▁executor	-4049
▁getAttributes	-4050
19	-4051
env	-4052
[0];	-4053
olat	-4054
stop	-4055
▁web	-4056
transaction	-4057
Gap	-4058
agn	-4059
Paint	-4060
ifest	-4061
bukkit	-4062
▁clear	-4063
igration	-4064
Attachment	-4065
▁parser	-4066
Compound	-4067
Standard	-4068
LoggerFactory	-4069
cap	-4070
etwe	-4071
throw	-4072
uplic	-4073
accept	-4074
Inspector	-4075
▁tableName	-4076
eq	-4077
Aux	-4078
peri	-4079
▁dat	-4080
posal	-4081
States	-4082
▁apply	-4083
▁track	-4084
display	-4085
ActionEvent	-4086
GeneralPath	-4087
)");	-4088
ally	-4089
It	-4090
▁mat	-4091
utter	-4092
▁native	-4093
Services	-4094
▁iterator	-4095
Car	-4096
exists	-4097
▁items	-4098
NearCache	-4099
TIVE	-4100
Void	-4101
▁ind	-4102
Algorithm	-4103
equalsIgnoreCase	-4104
▁10	-4105
▁IS	-4106
ased	-4107
▁evt	-4108
Screen	-4109
mapper	-4110
Layer	-4111
Example	-4112
▁module	-4113
Declaration	-4114
TA	-4115
▁Ad	-4116
Tick	-4117
QUEST	-4118
tains	-4119
apping	-4120
▁insert	-4121
Alignment	-4122
getColumn	-4123
6.	-4124
>\	-4125
PT	-4126
__.	-4127
Axis	-4128
Star	-4129
▁red	-4130
Binary	-4131
etween	-4132
RuleListN	-4133
ony	-4134
sdk	-4135
("");	-4136
Trigger	-4137
▁subject	-4138
WS	-4139
ROUP	-4140
Autow	-4141
Retry	-4142
▁pack	-4143
region	-4144
▁HttpServlet	-4145
MY	-4146
▁Fr	-4147
Methods	-4148
Absolute	-4149
getResources	-4150
WT	-4151
▁"",	-4152
netty	-4153
antity	-4154
second	-4155
Preferred	-4156
▁Runnable	-4157
URE	-4158
off	-4159
2");	-4160
tist	-4161
▁off	-4162
Effect	-4163
Operator	-4164
Autowired	-4165
▁username	-4166
Information	-4167
setVisibility	-4168
Pass	-4169
Tile	-4170
rate	-4171
▁"--	-4172
Bucket	-4173
▁setup	-4174
isDebug	-4175
▁change	-4176
Filename	-4177
▁FuncionesSwing	-4178
▁Mon	-4179
level	-4180
CREATE	-4181
getAll	-4182
isNull	-4183
▁Basic	-4184
Tracker	-4185
▁localVar	-4186
▁required	-4187
▁LoggerFactory	-4188
EC	-4189
▁CO	-4190
getY	-4191
Formul	-4192
params	-4193
Register	-4194
▁Account	-4195
▁addCriterion	-4196
>,	-4197
)))	-4198
mode	-4199
ulate	-4200
Should	-4201
Illegal	-4202
END	-4203
avi	-4204
▁pop	-4205
ended	-4206
orator	-4207
Filters	-4208
yperHost	-4209
dx	-4210
▁CON	-4211
Raw	-4212
yped	-4213
ulator	-4214
▁expect	-4215
▁internal	-4216
getContent	-4217
▁Provincia	-4218
LL	-4219
ORY	-4220
Tri	-4221
spi	-4222
Side	-4223
When	-4224
olec	-4225
wait	-4226
▁where	-4227
ca	-4228
Any	-4229
Bit	-4230
Idx	-4231
Repo	-4232
getParent	-4233
codeString	-4234
SIG	-4235
▁(_	-4236
REST	-4237
just	-4238
▁Add	-4239
pared	-4240
▁have	-4241
Shared	-4242
inject	-4243
Program	-4244
ypervisor	-4245
jar	-4246
▁ok	-4247
Math	-4248
sort	-4249
style	-4250
Catalog	-4251
LayoutParams	-4252
SA	-4253
ulk	-4254
▁Fl	-4255
▁hel	-4256
track	-4257
▁Pair	-4258
▁tree	-4259
Insert	-4260
getItem	-4261
istoric	-4262
setName	-4263
▁extension	-4264
wrap	-4265
Lines	-4266
ipher	-4267
getCode	-4268
jButton	-4269
constant	-4270
05	-4271
MAN	-4272
beta	-4273
▁are	-4274
aggreg	-4275
▁Group	-4276
ictionary	-4277
ByteBuffer	-4278
Processing	-4279
isDebugEnabled	-4280
inf	-4281
TERN	-4282
fill	-4283
ited	-4284
▁was	-4285
Foreign	-4286
Require	-4287
▁JPanel	-4288
password	-4289
▁assertNull	-4290
2\	-4291
verify	-4292
Dynamic	-4293
▁access	-4294
addColumn	-4295
SP	-4296
(((	-4297
SHA	-4298
Ruby	-4299
meta	-4300
ular	-4301
▁Per	-4302
▁Sol	-4303
UserId	-4304
toArray	-4305
Inflater	-4306
ALI	-4307
Touch	-4308
ivery	-4309
answer	-4310
▁profile	-4311
execution	-4312
singleton	-4313
setVisible	-4314
Interceptor	-4315
API	-4316
▁Te	-4317
park	-4318
Codes	-4319
roker	-4320
CATION	-4321
Expect	-4322
orrect	-4323
icker	-4324
Static	-4325
Entries	-4326
Matcher	-4327
options	-4328
fragment	-4329
Inventory	-4330
4);	-4331
▁VM	-4332
▁Mat	-4333
▁tab	-4334
Selec	-4335
obile	-4336
ready	-4337
▁role	-4338
brains	-4339
Members	-4340
▁before	-4341
RESOURCE	-4342
EM	-4343
▁ph	-4344
Score	-4345
yntax	-4346
Export	-4347
▁Button	-4348
▁TimeUnit	-4349
8;	-4350
mon	-4351
Cost	-4352
Draw	-4353
come	-4354
anger	-4355
Unknown	-4356
initial	-4357
nextInt	-4358
▁dialog	-4359
operator	-4360
Assertions	-4361
pi	-4362
ORI	-4363
▁ST	-4364
Health	-4365
Arguments	-4366
▁previous	-4367
pop	-4368
▁ec	-4369
▁VAL	-4370
▁mon	-4371
▁provider	-4372
ors	-4373
ific	-4374
▁Net	-4375
▁Schema	-4376
Animation	-4377
sk	-4378
RAY	-4379
▁by	-4380
conn	-4381
getE	-4382
▁props	-4383
▁Parameter	-4384
APP	-4385
Pais	-4386
ores	-4387
Descr	-4388
FIELD	-4389
▁FROM	-4390
PREFIX	-4391
Section	-4392
▁Project	-4393
total	-4394
SECONDS	-4395
callback	-4396
▁annotation	-4397
▁controller	-4398
▁ResponseEntity	-4399
DEX	-4400
▁"]	-4401
fhir	-4402
uter	-4403
Delet	-4404
Merge	-4405
locate	-4406
▁batch	-4407
▁Pattern	-4408
▁registry	-4409
▁validate	-4410
ET	-4411
Put	-4412
tab	-4413
TEXT	-4414
eral	-4415
▁card	-4416
charAt	-4417
Without	-4418
Receiver	-4419
Persistence	-4420
("[	-4421
>",	-4422
tml	-4423
PORT	-4424
VENT	-4425
Board	-4426
Tests	-4427
atest	-4428
▁over	-4429
olecule	-4430
openapi	-4431
Relation	-4432
▁ByteBuffer	-4433
)",	-4434
dto	-4435
gui	-4436
len	-4437
clud	-4438
Added	-4439
Offer	-4440
uting	-4441
Aggreg	-4442
reader	-4443
▁Index	-4444
Tx	-4445
ogn	-4446
Expir	-4447
profile	-4448
▁storage	-4449
Observation	-4450
SessionBean	-4451
setProperty	-4452
▁Unsupported	-4453
002	-4454
MAP	-4455
Inst	-4456
ories	-4457
ActionPerformed	-4458
ced	-4459
fol	-4460
▁";	-4461
allel	-4462
▁Bitmap	-4463
8);	-4464
OFF	-4465
Scan	-4466
Slot	-4467
▁cell	-4468
provider	-4469
▁timeout	-4470
)),	-4471
LOB	-4472
flush	-4473
TestCase	-4474
▁facility	-4475
▁Q	-4476
9999	-4477
Exists	-4478
Actions	-4479
assertThat	-4480
▁VirtualMachine	-4481
BT	-4482
CS	-4483
ads	-4484
las	-4485
LIST	-4486
▁Val	-4487
▁Token	-4488
econditions	-4489
cas	-4490
iss	-4491
▁Mo	-4492
azure	-4493
Weight	-4494
adapter	-4495
▁button	-4496
▁Element	-4497
Parametro	-4498
▁Standard	-4499
▁es	-4500
▁os	-4501
bern	-4502
vers	-4503
▁Man	-4504
AsString	-4505
▁Invalid	-4506
jetbrains	-4507
CL	-4508
LATE	-4509
WITH	-4510
▁Util	-4511
Mutable	-4512
drawable	-4513
▁category	-4514
fe	-4515
ulo	-4516
Kind	-4517
Ship	-4518
▁URI	-4519
(0));	-4520
Motor	-4521
Calcul	-4522
▁fields	-4523
structor	-4524
▁selected	-4525
34	-4526
Im	-4527
Rpc	-4528
ugg	-4529
amel	-4530
ceed	-4531
▁Main	-4532
▁part	-4533
▁encod	-4534
▁prefix	-4535
LowerCase	-4536
NullPointer	-4537
Dig	-4538
(2);	-4539
"))).	-4540
mEntity	-4541
Ms	-4542
uk	-4543
ARD	-4544
Lif	-4545
getN	-4546
sent	-4547
▁DataType	-4548
Inner	-4549
erval	-4550
▁Read	-4551
▁resol	-4552
lay	-4553
oll	-4554
antId	-4555
▁disk	-4556
Reason	-4557
Spring	-4558
▁operation	-4559
urs	-4560
THOD	-4561
▁Rect	-4562
▁State	-4563
hasRight	-4564
▁headers	-4565
Horizontal	-4566
expression	-4567
Sm	-4568
Month	-4569
prest	-4570
static	-4571
toList	-4572
Setting	-4573
Language	-4574
ah	-4575
bc	-4576
Gad	-4577
oci	-4578
ecure	-4579
endency	-4580
========	-4581
ded	-4582
ined	-4583
▁Job	-4584
▁resources	-4585
▁descriptor	-4586
Da	-4587
reset	-4588
▁scale	-4589
Customer	-4590
▁onCreate	-4591
nn	-4592
ILE	-4593
▁ti	-4594
Lookup	-4595
▁Multi	-4596
eration	-4597
▁3;	-4598
Drop	-4599
▁Uri	-4600
▁prop	-4601
PREFER	-4602
▁email	-4603
Convert	-4604
INVALID	-4605
CheckBox	-4606
Decision	-4607
Connector	-4608
▁Reference	-4609
▁partition	-4610
eff	-4611
▁":	-4612
full	-4613
rime	-4614
▁(!(	-4615
BLOCK	-4616
Refresh	-4617
ierarch	-4618
▁Bundle	-4619
TypeName	-4620
▁Serializable	-4621
▁ID	-4622
ixin	-4623
Asset	-4624
handle	-4625
mapapi	-4626
Coordin	-4627
eedback	-4628
Instances	-4629
att	-4630
ids	-4631
ados	-4632
▁Work	-4633
▁play	-4634
Master	-4635
holder	-4636
Checked	-4637
▁failed	-4638
Capacity	-4639
▁Content	-4640
Signature	-4641
getParameter	-4642
assertNotNull	-4643
cum	-4644
▁'"	-4645
▁5,	-4646
▁10;	-4647
keySet	-4648
Records	-4649
▁Concurrent	-4650
▁MessagePack	-4651
lica	-4652
Toolbar	-4653
compute	-4654
▁render	-4655
Contract	-4656
iddhiApp	-4657
getSource	-4658
▁TextView	-4659
iddhiAppRuntime	-4660
DF	-4661
EXT	-4662
iti	-4663
▁uk	-4664
spec	-4665
abric	-4666
acing	-4667
▁Call	-4668
jPanel	-4669
▁level	-4670
MediaPlayer	-4671
arProvincia	-4672
15	-4673
Intr	-4674
▁Java	-4675
▁push	-4676
▁sess	-4677
▁spec	-4678
Assign	-4679
userId	-4680
bernate	-4681
entities	-4682
OptionPane	-4683
▁statement	-4684
MQ	-4685
DER	-4686
author	-4687
constraint	-4688
._	-4689
OM	-4690
ooth	-4691
Switch	-4692
Delegate	-4693
PerunSession	-4694
Sys	-4695
opt	-4696
ison	-4697
▁bin	-4698
Chart	-4699
argar	-4700
ircle	-4701
Margin	-4702
simple	-4703
getFile	-4704
sRequest	-4705
▁Cluster	-4706
toLowerCase	-4707
BR	-4708
mc	-4709
("%	-4710
irm	-4711
Send	-4712
Begin	-4713
▁will	-4714
ByName	-4715
▁Build	-4716
▁Print	-4717
Connect	-4718
reflect	-4719
EventType	-4720
▁function	-4721
ne	-4722
DIS	-4723
(1).	-4724
▁btn	-4725
▁fin	-4726
Changes	-4727
Dataset	-4728
▁Activity	-4729
Relaciones	-4730
_;	-4731
ied	-4732
▁12	-4733
▁Ag	-4734
ATCH	-4735
ture	-4736
uevo	-4737
visit	-4738
▁Enum	-4739
arning	-4740
PREFERRED	-4741
getSelected	-4742
FK	-4743
ful	-4744
Loop	-4745
prec	-4746
Alert	-4747
Claim	-4748
▁year	-4749
▁active	-4750
validation	-4751
requestCode	-4752
LOW	-4753
Than	-4754
▁}).	-4755
Drive	-4756
COLUMN	-4757
mdrReq	-4758
▁Session	-4759
2(	-4760
aa	-4761
MSG	-4762
TRO	-4763
Home	-4764
hash	-4765
hbase	-4766
ariant	-4767
protos	-4768
▁onClick	-4769
namespace	-4770
structure	-4771
▁progress	-4772
SQLException	-4773
tf	-4774
Famil	-4775
earance	-4776
▁Player	-4777
GroupName	-4778
Prop	-4779
Save	-4780
batis	-4781
▁dummy	-4782
tl	-4783
NONE	-4784
orum	-4785
▁Pre	-4786
agram	-4787
ooser	-4788
▁setUp	-4789
imation	-4790
▁ItemStack	-4791
▁Annotation	-4792
BLE	-4793
UNK	-4794
Init	-4795
ongo	-4796
etails	-4797
Texture	-4798
resolve	-4799
devtools	-4800
getWidth	-4801
RuntimeException	-4802
VAR	-4803
▁""	-4804
))).	-4805
less	-4806
Public	-4807
▁compare	-4808
quireNonNull	-4809
Jar	-4810
Pat	-4811
Help	-4812
grad	-4813
▁xml	-4814
chain	-4815
▁remote	-4816
interfaces	-4817
DD	-4818
pp	-4819
ovie	-4820
Tabla	-4821
▁keys	-4822
ilidad	-4823
matcher	-4824
▁Common	-4825
Exercise	-4826
extension	-4827
▁Calendar	-4828
▁empty	-4829
Defined	-4830
ferences	-4831
▁payload	-4832
DownLatch	-4833
Cmd	-4834
Bill	-4835
▁getC	-4836
ryption	-4837
findById	-4838
sb	-4839
ham	-4840
grpc	-4841
ness	-4842
▁merge	-4843
getField	-4844
rt	-4845
USH	-4846
erg	-4847
jav	-4848
nel	-4849
INFO	-4850
▁MAX	-4851
Codec	-4852
rieve	-4853
Inject	-4854
OBJECT	-4855
▁Toast	-4856
Checker	-4857
username	-4858
Appearance	-4859
▁namespace	-4860
dt	-4861
omet	-4862
script	-4863
Encoded	-4864
▁Create	-4865
▁window	-4866
▁getUser	-4867
transport	-4868
ViewHolder	-4869
ym	-4870
HER	-4871
ATUS	-4872
RENT	-4873
forge	-4874
sTipo	-4875
▁Rule	-4876
Symbol	-4877
ifiers	-4878
▁split	-4879
Surface	-4880
prepare	-4881
▁domain	-4882
Modified	-4883
Runnable	-4884
▁artifact	-4885
_3	-4886
sv	-4887
ops	-4888
Push	-4889
This	-4890
mbed	-4891
safe	-4892
▁non	-4893
▁sol	-4894
▁wait	-4895
symbol	-4896
▁Cloud	-4897
▁TABLE	-4898
▁person	-4899
periment	-4900
setLayout	-4901
▁complete	-4902
alk	-4903
SIGN	-4904
Roles	-4905
Compar	-4906
▁Float	-4907
subscri	-4908
▁canvas	-4909
Entities	-4910
Workflow	-4911
addGroup	-4912
▁refresh	-4913
▁fileName	-4914
▁Dimension	-4915
CA	-4916
▁()	-4917
▁rs	-4918
BASE	-4919
Hint	-4920
havi	-4921
mise	-4922
Fixed	-4923
GROUP	-4924
Pager	-4925
andid	-4926
setId	-4927
▁Menu	-4928
▁visit	-4929
Comment	-4930
Strings	-4931
auncher	-4932
package	-4933
commands	-4934
▁updated	-4935
37	-4936
▁\	-4937
ders	-4938
ecto	-4939
ktop	-4940
Tasks	-4941
bench	-4942
▁Game	-4943
▁Rest	-4944
RESULT	-4945
device	-4946
pipeline	-4947
paredStatement	-4948
BL	-4949
jdbc	-4950
▁Sub	-4951
Lists	-4952
▁USER	-4953
▁down	-4954
alyzer	-4955
▁author	-4956
Animator	-4957
Proposal	-4958
Visibilidad	-4959
newInstance	-4960
▁initialize	-4961
▁WrongAttribute	-4962
fg	-4963
hs	-4964
Sequ	-4965
prev	-4966
▁edge	-4967
ysical	-4968
Currency	-4969
selected	-4970
Fn	-4971
Popup	-4972
ished	-4973
should	-4974
▁Update	-4975
Injection	-4976
Seleccion	-4977
ableProperty	-4978
setAttribute	-4979
▁StringBuffer	-4980
Lat	-4981
ean	-4982
ANGE	-4983
agger	-4984
▁Input	-4985
▁seedu	-4986
getHost	-4987
▁extract	-4988
ItemStack	-4989
hn	-4990
rit	-4991
ixel	-4992
okup	-4993
dater	-4994
thread	-4995
Transport	-4996
div	-4997
▁'\	-4998
BYTE	-4999
Comb	-5000
aging	-5001
etter	-5002
https	-5003
multi	-5004
ountry	-5005
prefix	-5006
Species	-5007
24	-5008
Div	-5009
Two	-5010
ets	-5011
(1)).	-5012
JUnit	-5013
▁step	-5014
▁append	-5015
ImageView	-5016
EW	-5017
GHT	-5018
ano	-5019
▁rep	-5020
Allowed	-5021
pattern	-5022
▁script	-5023
erialize	-5024
▁created	-5025
ForeignKey	-5026
07	-5027
High	-5028
enum	-5029
▁syn	-5030
▁Post	-5031
▁UUID	-5032
Cookie	-5033
parameter	-5034
Components	-5035
Transformer	-5036
Activ	-5037
CISION	-5038
Commit	-5039
▁Valid	-5040
▁Remote	-5041
arLayout	-5042
ExecutorService	-5043
("-	-5044
[]>	-5045
Html	-5046
NOWN	-5047
Room	-5048
▁idx	-5049
reater	-5050
▁times	-5051
Execute	-5052
REQUEST	-5053
▁Properties	-5054
▁repository	-5055
hasRightValue	-5056
je	-5057
Mvc	-5058
acy	-5059
ili	-5060
▁He	-5061
MAIL	-5062
attr	-5063
rome	-5064
step	-5065
term	-5066
Producer	-5067
strument	-5068
Composite	-5069
AbsolutePath	-5070
gu	-5071
udio	-5072
metry	-5073
scene	-5074
▁bean	-5075
leanup	-5076
▁Theme	-5077
OrderBy	-5078
Padding	-5079
Download	-5080
getSimple	-5081
ObjectInspector	-5082
DU	-5083
GB	-5084
IB	-5085
FOR	-5086
bum	-5087
Enter	-5088
STATE	-5089
crest	-5090
finis	-5091
words	-5092
▁Hand	-5093
▁make	-5094
import	-5095
presto	-5096
testng	-5097
finispan	-5098
▁primary	-5099
▁execution	-5100
06	-5101
<>	-5102
Ev	-5103
nb	-5104
▁{\	-5105
NING	-5106
Nuevo	-5107
datab	-5108
release	-5109
WE	-5110
Nic	-5111
NULL	-5112
▁pan	-5113
runner	-5114
▁getId	-5115
▁prime	-5116
▁enable	-5117
▁getClass	-5118
▁@	-5119
ble	-5120
hoto	-5121
price	-5122
▁edit	-5123
SSWORD	-5124
Running	-5125
▁Number	-5126
Question	-5127
38	-5128
WA	-5129
pk	-5130
dfs	-5131
Vars	-5132
[0]);	-5133
frame	-5134
▁Card	-5135
Franch	-5136
setMax	-5137
crement	-5138
PRECISION	-5139
Bad	-5140
rep	-5141
INDEX	-5142
▁Label	-5143
Parallel	-5144
Descriptors	-5145
Pt	-5146
rpc	-5147
uet	-5148
andy	-5149
edit	-5150
▁meta	-5151
▁VALUE	-5152
▁price	-5153
Literal	-5154
archive	-5155
Bindings	-5156
▁invalid	-5157
compareTo	-5158
\1\	-5159
den	-5160
▁>>	-5161
topic	-5162
▁does	-5163
Unpack	-5164
UNKNOWN	-5165
Vertical	-5166
▁Assertion	-5167
MIL	-5168
ike	-5169
▁We	-5170
apped	-5171
▁full	-5172
▁getS	-5173
Offering	-5174
hamcrest	-5175
Credentials	-5176
mi	-5177
Fns	-5178
Inf	-5179
Camb	-5180
FLAG	-5181
sure	-5182
▁struct	-5183
ByteString	-5184
▁LinkedList	-5185
▁ImmutableList	-5186
sim	-5187
▁Psi	-5188
idden	-5189
OPTION	-5190
Protos	-5191
Extract	-5192
perform	-5193
▁Status	-5194
▁option	-5195
▁testGet	-5196
getMethod	-5197
Dispatcher	-5198
LETE	-5199
isSet	-5200
Recipe	-5201
rement	-5202
▁widget	-5203
ierarchy	-5204
getHeight	-5205
Preference	-5206
▁condition	-5207
SK	-5208
5",	-5209
alt	-5210
role	-5211
▁Sql	-5212
PTION	-5213
quare	-5214
▁NULL	-5215
▁resp	-5216
ResponseProto	-5217
cd	-5218
(3,	-5219
IST	-5220
btn	-5221
Chat	-5222
Expr	-5223
udit	-5224
▁answer	-5225
▁runtime	-5226
Separator	-5227
17	-5228
LF	-5229
gs	-5230
Fil	-5231
▁ip	-5232
FINI	-5233
Note	-5234
blem	-5235
iser	-5236
oved	-5237
EMPTY	-5238
vance	-5239
▁mark	-5240
Backup	-5241
▁refer	-5242
clusive	-5243
subject	-5244
▁Person	-5245
▁manager	-5246
▁Execution	-5247
CallSettings	-5248
Registration	-5249
2_	-5250
CP	-5251
au	-5252
ru	-5253
tmp	-5254
city	-5255
ffff	-5256
found	-5257
OrNull	-5258
cancel	-5259
mented	-5260
uetooth	-5261
Destination	-5262
Replication	-5263
GU	-5264
rad	-5265
sun	-5266
ires	-5267
▁KEY	-5268
▁PRO	-5269
▁SWT	-5270
Fetch	-5271
Props	-5272
folio	-5273
▁tool	-5274
Binder	-5275
CONTRO	-5276
METHOD	-5277
Worker	-5278
FilePath	-5279
descriptor	-5280
6;	-5281
▁4;	-5282
▁CR	-5283
Scal	-5284
▁255	-5285
SIBLE	-5286
rough	-5287
encode	-5288
global	-5289
▁reset	-5290
matches	-5291
Specification	-5292
Ins	-5293
####	-5294
SCRI	-5295
Numer	-5296
Suite	-5297
Theme	-5298
▁mode	-5299
SERVER	-5300
owered	-5301
▁Graph	-5302
Formulario	-5303
/"	-5304
Sk	-5305
Geo	-5306
SUB	-5307
rece	-5308
▁reg	-5309
otlin	-5310
Unique	-5311
fields	-5312
ALROUTE	-5313
endsWith	-5314
operation	-5315
(6	-5316
LY	-5317
dp	-5318
Dev	-5319
awn	-5320
azy	-5321
CENT	-5322
ride	-5323
▁SER	-5324
dialog	-5325
Features	-5326
▁Version	-5327
Instruction	-5328
▁invocation	-5329
SPA	-5330
ctr	-5331
anos	-5332
medi	-5333
000);	-5334
igger	-5335
Closed	-5336
nowled	-5337
Managed	-5338
getLast	-5339
▁history	-5340
▁Observable	-5341
Ter	-5342
▁On	-5343
▁bl	-5344
ggle	-5345
incl	-5346
▁now	-5347
EMAIL	-5348
LAYER	-5349
gments	-5350
feature	-5351
lemetry	-5352
Supported	-5353
Requirement	-5354
▁assignment	-5355
VirtualMachine	-5356
Jack	-5357
setOn	-5358
Sensor	-5359
▁range	-5360
Permiso	-5361
TypeEnum	-5362
▁Channel	-5363
getEntity	-5364
Deployment	-5365
lableProperty	-5366
Dc	-5367
▁$	-5368
BUG	-5369
Diff	-5370
(1));	-5371
click	-5372
Bottom	-5373
rosoft	-5374
▁multi	-5375
▁names	-5376
Decoder	-5377
isation	-5378
olatile	-5379
▁JLabel	-5380
▁Generic	-5381
▁expression	-5382
Wh	-5383
[3	-5384
OLE	-5385
rio	-5386
NODE	-5387
▁low	-5388
LOBAL	-5389
culate	-5390
export	-5391
person	-5392
ulation	-5393
HttpClient	-5394
rf	-5395
Sem	-5396
UST	-5397
abs	-5398
▁fs	-5399
Week	-5400
__).	-5401
loop	-5402
▁gen	-5403
CCESS	-5404
Pagin	-5405
robot	-5406
shiro	-5407
▁Short	-5408
▁admin	-5409
Private	-5410
mybatis	-5411
getState	-5412
ViewGroup	-5413
getService	-5414
methodResult	-5415
("#	-5416
MEM	-5417
sel	-5418
▁UI	-5419
▁pc	-5420
▁"\"	-5421
Named	-5422
START	-5423
encod	-5424
▁flag	-5425
Commun	-5426
Native	-5427
▁cause	-5428
▁limit	-5429
▁topic	-5430
locator	-5431
ributed	-5432
▁report	-5433
▁getValue	-5434
▁snapshot	-5435
evt	-5436
gwt	-5437
iol	-5438
ios	-5439
ixt	-5440
Real	-5441
aybe	-5442
▁nic	-5443
alink	-5444
email	-5445
Accion	-5446
center	-5447
▁delta	-5448
metrics	-5449
▁bundle	-5450
emptyList	-5451
longValue	-5452
setEnabled	-5453
Dr	-5454
FR	-5455
duc	-5456
RESP	-5457
Team	-5458
room	-5459
utes	-5460
grade	-5461
saved	-5462
▁scan	-5463
Validate	-5464
▁Network	-5465
▁acceptor	-5466
0101	-5467
Boot	-5468
Done	-5469
SCHE	-5470
▁Name	-5471
▁pool	-5472
Attend	-5473
aining	-5474
vector	-5475
compile	-5476
▁sample	-5477
▁system	-5478
▁volatile	-5479
▁arguments	-5480
setSelected	-5481
4",	-5482
BML	-5483
]",	-5484
fit	-5485
▁ds	-5486
UBLE	-5487
udad	-5488
Angle	-5489
▁Core	-5490
▁Mono	-5491
Labels	-5492
Modify	-5493
option	-5494
▁chunk	-5495
▁notify	-5496
compiler	-5497
databind	-5498
▁existing	-5499
CLI	-5500
buff	-5501
orer	-5502
▁ign	-5503
▁sort	-5504
▁mouse	-5505
ardware	-5506
▁Region	-5507
▁observ	-5508
Redirect	-5509
condition	-5510
▁;	-5511
Emp	-5512
mos	-5513
sys	-5514
▁EX	-5515
Year	-5516
Depth	-5517
▁Check	-5518
▁async	-5519
▁users	-5520
actions	-5521
▁thrown	-5522
uplicate	-5523
Dashboard	-5524
ResultSet	-5525
microsoft	-5526
▁BufferedReader	-5527
umb	-5528
Fire	-5529
getR	-5530
plus	-5531
▁core	-5532
▁inject	-5533
getTable	-5534
processor	-5535
eh	-5536
Art	-5537
REG	-5538
WAR	-5539
▁vx	-5540
ENER	-5541
Find	-5542
ural	-5543
▁COL	-5544
scale	-5545
Marker	-5546
▁Order	-5547
MessageV	-5548
getChild	-5549
getObject	-5550
infinispan	-5551
Annotations	-5552
▁methodName	-5553
ImmutableList	-5554
getConnection	-5555
LS	-5556
003	-5557
ELE	-5558
aga	-5559
ANCH	-5560
Fill	-5561
pais	-5562
press	-5563
riend	-5564
urable	-5565
Privile	-5566
VISIBLE	-5567
Additional	-5568
Statistics	-5569
isNotEmpty	-5570
▁)	-5571
004	-5572
Reg	-5573
bad	-5574
>>>>	-5575
[0],	-5576
atio	-5577
▁TAG	-5578
aring	-5579
uggest	-5580
Chooser	-5581
▁contains	-5582
▁StringUtils	-5583
getSimpleName	-5584
FS	-5585
Pur	-5586
non	-5587
Camp	-5588
Celd	-5589
▁cre	-5590
ARRAY	-5591
media	-5592
Behavi	-5593
OFFSET	-5594
gradle	-5595
Replace	-5596
▁cancel	-5597
▁jLabel	-5598
schedule	-5599
setString	-5600
▁ResultSet	-5601
Authorization	-5602
getAbsolutePath	-5603
FE	-5604
More	-5605
irth	-5606
tech	-5607
▁NOT	-5608
▁obs	-5609
Upper	-5610
jboss	-5611
super	-5612
▁span	-5613
UPDATE	-5614
reshold	-5615
Priority	-5616
ichAttribute	-5617
EventListener	-5618
bb	-5619
TENT	-5620
rase	-5621
istic	-5622
Destroy	-5623
Seconds	-5624
Graphics	-5625
profiler	-5626
isPresent	-5627
tegration	-5628
▁JsonNode	-5629
-8	-5630
tc	-5631
▁ca	-5632
Else	-5633
[0].	-5634
Alarm	-5635
Cycle	-5636
Shard	-5637
voice	-5638
policy	-5639
verity	-5640
▁Bytes	-5641
▁proto	-5642
▁binding	-5643
▁Instance	-5644
▁fragment	-5645
assertFalse	-5646
7;	-5647
emq	-5648
Need	-5649
edis	-5650
year	-5651
enode	-5652
▁0));	-5653
Direct	-5654
▁media	-5655
Classes	-5656
▁Vmware	-5657
▁segment	-5658
parametro	-5659
22	-5660
ga	-5661
Ifc	-5662
USE	-5663
uls	-5664
usp	-5665
zip	-5666
▁1]	-5667
▁Dir	-5668
Realm	-5669
openg	-5670
Missing	-5671
Pending	-5672
▁symbol	-5673
Topology	-5674
▁Scanner	-5675
▁jButton	-5676
▁profiler	-5677
▁transform	-5678
RecyclerView	-5679
So	-5680
Psi	-5681
jpa	-5682
Poly	-5683
▁high	-5684
Damage	-5685
enable	-5686
verage	-5687
▁owner	-5688
Gateway	-5689
ifiable	-5690
getFirst	-5691
original	-5692
▁newValue	-5693
▁SearchCriteria	-5694
Zk	-5695
Len	-5696
▁")	-5697
▁-=	-5698
<?>>	-5699
HERE	-5700
TITY	-5701
▁1));	-5702
Configs	-5703
NumberOf	-5704
Connected	-5705
Lifecycle	-5706
▁directory	-5707
36	-5708
SL	-5709
Gen	-5710
cho	-5711
▁AS	-5712
Phone	-5713
maven	-5714
ignite	-5715
▁files	-5716
Reportes	-5717
▁variable	-5718
Encryption	-5719
getResponse	-5720
responseCode	-5721
100	-5722
emy	-5723
ADER	-5724
Clip	-5725
oper	-5726
▁bit	-5727
allet	-5728
Cliente	-5729
Forward	-5730
Utility	-5731
bedPane	-5732
▁Access	-5733
▁Global	-5734
▁Member	-5735
allocate	-5736
Formatter	-5737
ABEL	-5738
CTED	-5739
POSI	-5740
RESPON	-5741
Console	-5742
▁single	-5743
▁className	-5744
(".	-5745
avity	-5746
ollow	-5747
▁icon	-5748
AndGet	-5749
income	-5750
window	-5751
Removed	-5752
Verifier	-5753
▁Address	-5754
Principal	-5755
parameters	-5756
DisplayName	-5757
Btn	-5758
REP	-5759
Exit	-5760
ners	-5761
sync	-5762
▁Rel	-5763
▁raw	-5764
▁Iter	-5765
AMETER	-5766
▁nodes	-5767
Employee	-5768
Modifier	-5769
RESPONSE	-5770
TimeUnit	-5771
artifact	-5772
9;	-5773
COR	-5774
▁De	-5775
flix	-5776
Celda	-5777
POINT	-5778
single	-5779
▁cloud	-5780
netflix	-5781
andidate	-5782
▁connect	-5783
getApplication	-5784
▁LinkedHashMap	-5785
ServiceResponse	-5786
VisibilidadCelda	-5787
>"	-5788
[])	-5789
ana	-5790
▁18	-5791
buck	-5792
Sound	-5793
ables	-5794
andra	-5795
clazz	-5796
ocity	-5797
eferal	-5798
getLocal	-5799
▁members	-5800
ActionBar	-5801
isereferal	-5802
ServiceImpl	-5803
▁BigInteger	-5804
isereferalincome	-5805
dro	-5806
▁Id	-5807
Cert	-5808
Days	-5809
▁Ref	-5810
SPACE	-5811
range	-5812
regex	-5813
Shadow	-5814
deploy	-5815
plugins	-5816
▁cursor	-5817
▁upload	-5818
PASSWORD	-5819
▁"[	-5820
▁gl	-5821
Live	-5822
aker	-5823
▁Bin	-5824
Could	-5825
Exist	-5826
resol	-5827
▁auto	-5828
Scheme	-5829
CONTROL	-5830
setType	-5831
▁global	-5832
category	-5833
▁JOptionPane	-5834
ProcessInstance	-5835
(7	-5836
js	-5837
va	-5838
509	-5839
Cli	-5840
▁"3	-5841
▁Min	-5842
Excel	-5843
ORDER	-5844
▁slot	-5845
Branch	-5846
decode	-5847
▁jPanel	-5848
********	-5849
shutdown	-5850
▁consumer	-5851
▁filename	-5852
Distribution	-5853
ek	-5854
ZER	-5855
cid	-5856
jax	-5857
mid	-5858
WING	-5859
uent	-5860
uest	-5861
▁Res	-5862
Clock	-5863
DEBUG	-5864
Equal	-5865
flink	-5866
Counts	-5867
Router	-5868
▁Utils	-5869
▁events	-5870
Blocking	-5871
business	-5872
Functions	-5873
▁processor	-5874
MethodVisitor	-5875
Go	-5876
wh	-5877
IDE	-5878
ISO	-5879
WRI	-5880
biz	-5881
orp	-5882
poch	-5883
reet	-5884
wind	-5885
ridge	-5886
escribe	-5887
assandra	-5888
▁ImmutableMap	-5889
200	-5890
ena	-5891
▁6,	-5892
▁VK	-5893
ival	-5894
lict	-5895
solr	-5896
▁10,	-5897
force	-5898
▁bind	-5899
driver	-5900
▁Count	-5901
▁chain	-5902
▁claim	-5903
Empleado	-5904
Quantity	-5905
localhost	-5906
partition	-5907
getSession	-5908
▁permission	-5909
▁ReferenceEntry	-5910
Med	-5911
▁DB	-5912
▁eq	-5913
▁jj	-5914
avor	-5915
real	-5916
CURVE	-5917
LOGIC	-5918
layer	-5919
▁prev	-5920
helper	-5921
▁bound	-5922
Deleted	-5923
Pressed	-5924
getStart	-5925
HttpStatus	-5926
KeyValueList	-5927
Ui	-5928
ali	-5929
igo	-5930
OPER	-5931
Yaml	-5932
Zero	-5933
PARAM	-5934
▁pres	-5935
Expert	-5936
cursor	-5937
findBy	-5938
intent	-5939
transl	-5940
derscore	-5941
getColor	-5942
▁persist	-5943
currentThread	-5944
NC	-5945
na	-5946
BIN	-5947
▁15	-5948
("",	-5949
LOAD	-5950
irew	-5951
Shift	-5952
Where	-5953
▁Async	-5954
▁exist	-5955
Removal	-5956
irewall	-5957
▁invoke	-5958
nowledge	-5959
▁Control	-5960
Utilities	-5961
getClient	-5962
Transition	-5963
writeString	-5964
AV	-5965
PK	-5966
]+	-5967
nd	-5968
rows	-5969
▁jar	-5970
Organ	-5971
cloak	-5972
exion	-5973
▁Open	-5974
▁rows	-5975
Secret	-5976
shared	-5977
Username	-5978
▁Location	-5979
rientation	-5980
rastructure	-5981
BC	-5982
CM	-5983
fc	-5984
mx	-5985
\0\	-5986
swt	-5987
0));	-5988
iven	-5989
ollo	-5990
Aware	-5991
Dummy	-5992
Embed	-5993
▁book	-5994
▁mask	-5995
NUMBER	-5996
▁agent	-5997
Defaults	-5998
LOCATION	-5999
Rotation	-6000
FieldName	-6001
Placement	-6002
Organization	-6003
GR	-6004
mov	-6005
oom	-6006
▁Sw	-6007
Alpha	-6008
clone	-6009
login	-6010
ISWING	-6011
ialect	-6012
▁stage	-6013
▁style	-6014
getNode	-6015
Transfer	-6016
getInput	-6017
handlers	-6018
▁comment	-6019
▁children	-6020
▁notification	-6021
ACHE	-6022
INTR	-6023
zone	-6024
▁Arg	-6025
Audio	-6026
Views	-6027
Attemp	-6028
Cached	-6029
lucene	-6030
printf	-6031
Compile	-6032
00000000	-6033
Feedback	-6034
jComboBox	-6035
▁Security	-6036
getRequest	-6037
getChildren	-6038
ks	-6039
Nam	-6040
pol	-6041
▁sl	-6042
ales	-6043
▁PAR	-6044
Based	-6045
flags	-6046
kafka	-6047
props	-6048
proxy	-6049
▁unit	-6050
Accept	-6051
Subnet	-6052
modules	-6053
contract	-6054
▁adapter	-6055
▁archive	-6056
▁support	-6057
hibernate	-6058
FileSystem	-6059
getBoolean	-6060
ContentType	-6061
▁destination	-6062
AccessorTable	-6063
fa	-6064
lr	-6065
Now	-6066
asy	-6067
ird	-6068
ses	-6069
TRAN	-6070
▁0.5	-6071
temis	-6072
▁fill	-6073
▁plot	-6074
FORMAT	-6075
Throws	-6076
lastic	-6077
▁attrs	-6078
▁panel	-6079
increment	-6080
▁reference	-6081
.0,	-6082
ons	-6083
▁AC	-6084
REMO	-6085
hdfs	-6086
ones	-6087
icial	-6088
toJson	-6089
ToolBar	-6090
▁export	-6091
▁weight	-6092
▁changed	-6093
Qualified	-6094
OS	-6095
▁^	-6096
REC	-6097
RESS	-6098
STATUS	-6099
▁NoSuch	-6100
▁sender	-6101
Delivery	-6102
onCreate	-6103
▁external	-6104
LOGICLAYER	-6105
NetworkAcl	-6106
Paginacion	-6107
▁.	-6108
Iss	-6109
LONG	-6110
mask	-6111
▁INT	-6112
licit	-6113
agnost	-6114
events	-6115
▁accept	-6116
▁amount	-6117
Creation	-6118
external	-6119
Resolution	-6120
20	-6121
Bi	-6122
_0	-6123
Equ	-6124
ech	-6125
pdf	-6126
rem	-6127
////	-6128
AUTH	-6129
ador	-6130
keys	-6131
EVENT	-6132
Indexed	-6133
▁Module	-6134
▁getType	-6135
▁5;	-6136
....	-6137
▁day	-6138
acher	-6139
strap	-6140
Getter	-6141
Sorted	-6142
public	-6143
Locator	-6144
Callable	-6145
OrBuilder	-6146
uggestion	-6147
▁endpoint	-6148
References	-6149
TableDatos	-6150
newArrayList	-6151
requireNonNull	-6152
IllegalArgument	-6153
(0.	-6154
(__	-6155
ANT	-6156
Din	-6157
EAR	-6158
TAL	-6159
asm	-6160
ota	-6161
▁"}	-6162
▁ru	-6163
IGHT	-6164
traS	-6165
▁rot	-6166
ersal	-6167
getIn	-6168
LOGGER	-6169
bucket	-6170
ention	-6171
orElse	-6172
socket	-6173
usters	-6174
AndView	-6175
Logging	-6176
SpectraS	-6177
▁Component	-6178
nl	-6179
DUM	-6180
www	-6181
DOWN	-6182
GUID	-6183
hive	-6184
mail	-6185
ross	-6186
Dirty	-6187
Edges	-6188
amico	-6189
Atomic	-6190
Cannot	-6191
Suffix	-6192
aphore	-6193
mdrOpt	-6194
Analyzer	-6195
Previous	-6196
▁Product	-6197
Scheduler	-6198
Extensions	-6199
▁available	-6200
etty	-6201
inger	-6202
▁Host	-6203
▁curr	-6204
▁jarg	-6205
▁word	-6206
expect	-6207
contact	-6208
counter	-6209
findAll	-6210
Dinamico	-6211
Concurrent	-6212
ingService	-6213
▁timestamp	-6214
SO	-6215
▁24	-6216
▁cc	-6217
CATE	-6218
RECT	-6219
oned	-6220
▁Int	-6221
▁lat	-6222
▁sent	-6223
NoSuch	-6224
Started	-6225
binding	-6226
swagger	-6227
Foreground	-6228
Marshaller	-6229
▁dummyAudit	-6230
sq	-6231
Cur	-6232
▁"%	-6233
▁"{	-6234
▁mv	-6235
Bind	-6236
HOST	-6237
Hours	-6238
items	-6239
nodes	-6240
▁html	-6241
▁synX	-6242
catalog	-6243
oGeneral	-6244
▁Servlet	-6245
▁Storage	-6246
Evaluator	-6247
Migration	-6248
PARAMETER	-6249
▁Argument	-6250
FormatType	-6251
ationContext	-6252
▁ObjectMapper	-6253
pu	-6254
his	-6255
Stmt	-6256
sFor	-6257
WRITE	-6258
ulsar	-6259
▁board	-6260
throwIt	-6261
▁Layout	-6262
▁bucket	-6263
Describe	-6264
Firewall	-6265
▁schedule	-6266
Credential	-6267
modifiable	-6268
▁ISOException	-6269
▁AtomicInteger	-6270
29	-6271
59	-6272
BB	-6273
Ok	-6274
TT	-6275
ox	-6276
DIR	-6277
Hor	-6278
Sim	-6279
ipt	-6280
lat	-6281
Rich	-6282
amma	-6283
ffee	-6284
rier	-6285
▁Dat	-6286
▁errn	-6287
▁plan	-6288
Capture	-6289
▁packet	-6290
question	-6291
Dictionary	-6292
TableModel	-6293
HA	-6294
256	-6295
Cop	-6296
_0_	-6297
ife	-6298
tro	-6299
Bond	-6300
GONE	-6301
case	-6302
stor	-6303
LABEL	-6304
Ready	-6305
Tipos	-6306
encia	-6307
▁Solr	-6308
▁desc	-6309
▁mage	-6310
▁star	-6311
▁vmMo	-6312
Captor	-6313
getVal	-6314
loader	-6315
notify	-6316
EObject	-6317
waitFor	-6318
getGroup	-6319
Decorator	-6320
etAddress	-6321
separator	-6322
ParallelGroup	-6323
33	-6324
ki	-6325
'",	-6326
Arr	-6327
TEN	-6328
Watch	-6329
flate	-6330
iddle	-6331
▁prepare	-6332
▁configure	-6333
qa	-6334
(4,	-6335
?",	-6336
ITI	-6337
▁fil	-6338
Sheet	-6339
sFrom	-6340
▁need	-6341
CLIENT	-6342
verted	-6343
getRoot	-6344
legator	-6345
present	-6346
▁Delete	-6347
Business	-6348
▁subscri	-6349
constants	-6350
LayoutInflater	-6351
img	-6352
star	-6353
CHECK	-6354
▁Stack	-6355
Inbound	-6356
ibility	-6357
▁JButton	-6358
▁payment	-6359
integration	-6360
SD	-6361
CLO	-6362
Cat	-6363
big	-6364
kie	-6365
▁Sup	-6366
▁inv	-6367
Alias	-6368
Setup	-6369
000000	-6370
igrate	-6371
Disable	-6372
▁socket	-6373
Matching	-6374
▁Notification	-6375
▁|=	-6376
ERIC	-6377
auto	-6378
getG	-6379
inst	-6380
site	-6381
uber	-6382
uuid	-6383
▁gov	-6384
DUMMY	-6385
Picker	-6386
onical	-6387
▁Alert	-6388
WorkJob	-6389
LICATION	-6390
▁already	-6391
▁dataset	-6392
Broadcast	-6393
TabbedPane	-6394
toByteArray	-6395
88	-6396
DED	-6397
TIL	-6398
ssl	-6399
▁ts	-6400
:");	-6401
Deep	-6402
POST	-6403
getV	-6404
arrow	-6405
errup	-6406
merge	-6407
pcion	-6408
scope	-6409
())));	-6410
Artist	-6411
Broker	-6412
Respon	-6413
lineTo	-6414
▁issue	-6415
Weather	-6416
▁simple	-6417
Multiple	-6418
Outbound	-6419
Playlist	-6420
▁feature	-6421
getResult	-6422
▁duration	-6423
getAccount	-6424
ni	-6425
Lng	-6426
YPE	-6427
hip	-6428
▁25	-6429
ince	-6430
▁fac	-6431
▁rad	-6432
Associ	-6433
Normal	-6434
Origin	-6435
anchor	-6436
Minimum	-6437
Analysis	-6438
▁resolve	-6439
▁TestUtil	-6440
Comparison	-6441
▁Underscore	-6442
notification	-6443
organization	-6444
';	-6445
gi	-6446
TOP	-6447
bon	-6448
ibm	-6449
mob	-6450
oke	-6451
TIFI	-6452
▁STR	-6453
▁opt	-6454
Other	-6455
abbit	-6456
onfig	-6457
▁Blob	-6458
Family	-6459
IdPais	-6460
▁WHERE	-6461
PATTERN	-6462
tenantId	-6463
Department	-6464
▁serializer	-6465
ees	-6466
▁DO	-6467
▁3);	-6468
▁API	-6469
▁CRLF	-6470
CENTER	-6471
drools	-6472
ixture	-6473
Heading	-6474
segment	-6475
widgets	-6476
▁Author	-6477
argument	-6478
Scheduled	-6479
▁resolved	-6480
<?,	-6481
lev	-6482
sIn	-6483
Bool	-6484
skip	-6485
▁bar	-6486
OLEAN	-6487
Tower	-6488
chart	-6489
itter	-6490
master	-6491
▁login	-6492
charset	-6493
previous	-6494
▁attrDef	-6495
Publisher	-6496
resultList	-6497
getConfiguration	-6498
_,	-6499
ITE	-6500
1").	-6501
3");	-6502
stim	-6503
Front	-6504
Reply	-6505
Radius	-6506
▁IRuby	-6507
Between	-6508
JButton	-6509
Release	-6510
artemis	-6511
Facility	-6512
TextArea	-6513
JSONArray	-6514
getConfig	-6515
JsonObject	-6516
marshaller	-6517
permission	-6518
readString	-6519
▁IRubyObject	-6520
Ten	-6521
▁Co	-6522
▁ME	-6523
")),	-6524
expr	-6525
help	-6526
▁XML	-6527
▁due	-6528
▁mis	-6529
spong	-6530
Design	-6531
JLabel	-6532
Cambios	-6533
Loading	-6534
Percent	-6535
utation	-6536
registry	-6537
Operations	-6538
ContentView	-6539
▁NullPointer	-6540
▁getInstance	-6541
AA	-6542
sf	-6543
6);	-6544
erp	-6545
jec	-6546
Trim	-6547
axis	-6548
cell	-6549
▁"/"	-6550
MILLI	-6551
rules	-6552
▁nums	-6553
Assist	-6554
BigInt	-6555
reement	-6556
marshall	-6557
getVersion	-6558
addProperty	-6559
▁currentData	-6560
SocketAddress	-6561
ationException	-6562
Mi	-6563
bs	-6564
Cas	-6565
Ctx	-6566
__);	-6567
Super	-6568
fabric	-6569
manage	-6570
writer	-6571
Testing	-6572
▁ensure	-6573
▁future	-6574
Charsets	-6575
relation	-6576
variable	-6577
▁matcher	-6578
Hierarchy	-6579
hl	-6580
Hex	-6581
alf	-6582
▁--	-6583
▁Bl	-6584
▁fd	-6585
▁ps	-6586
Pred	-6587
Turn	-6588
▁102	-6589
▁dev	-6590
Times	-6591
allow	-6592
shard	-6593
▁been	-6594
Expand	-6595
ometry	-6596
SUCCESS	-6597
measure	-6598
▁Source	-6599
▁bottom	-6600
ListView	-6601
Molecule	-6602
TreeNode	-6603
setColor	-6604
▁compute	-6605
▁example	-6606
▁delegate	-6607
IndexUsage	-6608
▁startTime	-6609
GuardarCambios	-6610
INK	-6611
Pic	-6612
eep	-6613
TING	-6614
\",\	-6615
disk	-6616
▁Hel	-6617
Notes	-6618
Voice	-6619
...");	-6620
icient	-6621
▁study	-6622
CONTENT	-6623
RunWith	-6624
getSize	-6625
Generate	-6626
endpoint	-6627
StartTime	-6628
argsBatch	-6629
▁Iterable	-6630
BigInteger	-6631
Navigation	-6632
jTableDatos	-6633
▁Expression	-6634
▁CountDownLatch	-6635
(5,	-6636
Air	-6637
DEN	-6638
Inv	-6639
OID	-6640
Rot	-6641
}",	-6642
")))	-6643
Cons	-6644
TRUE	-6645
ULTI	-6646
resa	-6647
▁2.0	-6648
RIGHT	-6649
where	-6650
▁Back	-6651
▁Void	-6652
Tables	-6653
getSup	-6654
▁chart	-6655
Instant	-6656
Student	-6657
extract	-6658
ression	-6659
▁editor	-6660
▁locale	-6661
▁period	-6662
Declared	-6663
executor	-6664
▁entries	-6665
Discovery	-6666
▁constant	-6667
Orientation	-6668
jp	-6669
Hot	-6670
SEC	-6671
▁Db	-6672
▁gr	-6673
font	-6674
ided	-6675
ught	-6676
yyyy	-6677
Radio	-6678
▁skip	-6679
Images	-6680
Quorum	-6681
observ	-6682
NUMERIC	-6683
clusion	-6684
currency	-6685
dataflow	-6686
elements	-6687
getSystem	-6688
inventory	-6689
tableName	-6690
▁Settings	-6691
sendMessage	-6692
getIntOrNull	-6693
▁constructor	-6694
Preconditions	-6695
FormatException	-6696
PR	-6697
▁UN	-6698
COMM	-6699
TEMP	-6700
chor	-6701
home	-6702
kmer	-6703
Using	-6704
erved	-6705
plain	-6706
selen	-6707
ynamo	-6708
▁self	-6709
getBase	-6710
Commands	-6711
Datastore	-6712
Modifiers	-6713
replaceAll	-6714
lementation	-6715
▁environment	-6716
▁OutputStream	-6717
1:	-6718
MB	-6719
WHI	-6720
emp	-6721
▁["	-6722
("\"	-6723
Brow	-6724
aign	-6725
blue	-6726
ital	-6727
after	-6728
herit	-6729
▁Sign	-6730
▁}));	-6731
▁fetch	-6732
ReqCall	-6733
▁getAll	-6734
Original	-6735
activemq	-6736
▁protocol	-6737
Sequential	-6738
Initialized	-6739
▁Constantes	-6740
[4	-6741
uf	-6742
Cnt	-6743
DAY	-6744
PUB	-6745
psi	-6746
▁?>	-6747
▁DA	-6748
desc	-6749
▁New	-6750
IGINT	-6751
aries	-6752
▁Edit	-6753
▁TYPE	-6754
▁join	-6755
imiter	-6756
itation	-6757
▁finish	-6758
▁listOf	-6759
ShouldBe	-6760
▁replace	-6761
setStatus	-6762
CES	-6763
TIT	-6764
Tod	-6765
ema	-6766
fil	-6767
▁pt	-6768
acon	-6769
flat	-6770
▁(((	-6771
camel	-6772
ooter	-6773
orary	-6774
Nombre	-6775
amodel	-6776
rapped	-6777
weight	-6778
▁sTipo	-6779
▁stats	-6780
getNext	-6781
history	-6782
readLine	-6783
renderer	-6784
▁platform	-6785
▁software	-6786
28	-6787
lif	-6788
Addr	-6789
Plus	-6790
obot	-6791
Infos	-6792
▁font	-6793
Canvas	-6794
getMax	-6795
inline	-6796
▁Param	-6797
▁debug	-6798
getView	-6799
▁Spring	-6800
TypeImpl	-6801
▁Console	-6802
Provincias	-6803
▁Rectangle	-6804
Cr	-6805
Ne	-6806
▁oc	-6807
LOAT	-6808
Skip	-6809
IBUTE	-6810
Stamp	-6811
▁dtms	-6812
SCHEMA	-6813
Stroke	-6814
▁extra	-6815
▁types	-6816
Preview	-6817
Updater	-6818
payload	-6819
spongep	-6820
sequence	-6821
▁program	-6822
BufferPack	-6823
management	-6824
▁Transform	-6825
▁direction	-6826
spongepowered	-6827
authentication	-6828
1/	-6829
Cla	-6830
SSL	-6831
Coll	-6832
func	-6833
ites	-6834
▁enc	-6835
Toggle	-6836
0000000	-6837
ACCOUNT	-6838
▁aggreg	-6839
complete	-6840
emaphore	-6841
▁Handler	-6842
▁generic	-6843
ategories	-6844
ConfigSpec	-6845
InstanceId	-6846
▁getService	-6847
HandlerContext	-6848
CollectionUtils	-6849
---+---+---+---+	-6850
Sdk	-6851
Vol	-6852
ris	-6853
▁Ph	-6854
Hist	-6855
Like	-6856
isIn	-6857
Epoch	-6858
▁done	-6859
▁move	-6860
Consum	-6861
getObs	-6862
▁Entry	-6863
▁Lists	-6864
Threads	-6865
▁Window	-6866
ErrorCode	-6867
▁mContext	-6868
▁dimension	-6869
SelectedRow	-6870
collections	-6871
mpleadoBeanSwing	-6872
35	-6873
ACH	-6874
xid	-6875
▁Le	-6876
▁vo	-6877
DING	-6878
Viol	-6879
▁1).	-6880
▁Tag	-6881
▁txt	-6882
ORMAL	-6883
Photo	-6884
▁site	-6885
Outcome	-6886
dispose	-6887
inflate	-6888
program	-6889
▁deploy	-6890
messages	-6891
endencies	-6892
tionEvent	-6893
Initializer	-6894
getActivity	-6895
ArgsConstructor	-6896
----------------	-6897
='"	-6898
Img	-6899
▁tv	-6900
HTTP	-6901
LEFT	-6902
adin	-6903
easy	-6904
feed	-6905
tera	-6906
smart	-6907
DELETE	-6908
Keeper	-6909
icates	-6910
Received	-6911
BlockData	-6912
TableName	-6913
Actualizar	-6914
BlockState	-6915
▁actionPerformed	-6916
(!	-6917
Ds	-6918
Cor	-6919
Sig	-6920
tit	-6921
▁"0	-6922
hook	-6923
side	-6924
ADING	-6925
osmos	-6926
tests	-6927
▁Dist	-6928
▁Yaml	-6929
CHANGE	-6930
editor	-6931
▁timer	-6932
ordinal	-6933
Starting	-6934
andExpect	-6935
icializar	-6936
getProject	-6937
Calculation	-6938
implemented	-6939
Deserializer	-6940
RemoteException	-6941
Leg	-6942
ooq	-6943
uhn	-6944
▁8,	-6945
2));	-6946
Lite	-6947
tics	-6948
wers	-6949
▁car	-6950
Break	-6951
async	-6952
paces	-6953
▁Meta	-6954
cluded	-6955
failed	-6956
Overlay	-6957
mediate	-6958
msgpack	-6959
timeout	-6960
ynamoDb	-6961
Executors	-6962
getAction	-6963
▁Fragment	-6964
▁received	-6965
▁Department	-6966
Ack	-6967
▁cp	-6968
0800	-6969
atar	-6970
oods	-6971
▁ent	-6972
Drawer	-6973
atomic	-6974
bottom	-6975
enario	-6976
icated	-6977
submit	-6978
IndexOf	-6979
maining	-6980
▁Border	-6981
▁Record	-6982
Filtered	-6983
standard	-6984
Permissions	-6985
Capabilities	-6986
EventHandler	-6987
provinciaLogic	-6988
26	-6989
esh	-6990
uer	-6991
▁bb	-6992
Pull	-6993
STEM	-6994
▁but	-6995
ATIVE	-6996
CONNE	-6997
Round	-6998
izard	-6999
usage	-7000
▁getM	-7001
▁sink	-7002
Attach	-7003
cessed	-7004
detail	-7005
▁bases	-7006
▁month	-7007
WARNING	-7008
mapping	-7009
▁Cipher	-7010
▁Plugin	-7011
▁folder	-7012
Extended	-7013
Manifest	-7014
language	-7015
setTitle	-7016
▁enabled	-7017
▁setName	-7018
opengamma	-7019
serialize	-7020
▁Variable	-7021
serializer	-7022
▁nullValue	-7023
RemovalTime	-7024
EntityManager	-7025
Serialization	-7026
MD	-7027
SV	-7028
NBT	-7029
enef	-7030
stmt	-7031
▁Imp	-7032
▁emp	-7033
ANCHO	-7034
uator	-7035
▁Book	-7036
▁tick	-7037
(100);	-7038
RECORD	-7039
▁Widget	-7040
▁called	-7041
mContext	-7042
▁dataSet	-7043
▁running	-7044
▁Employee	-7045
▁Repository	-7046
presentation	-7047
thenNearCache	-7048
OW	-7049
ARG	-7050
DBC	-7051
IME	-7052
Ops	-7053
aje	-7054
tas	-7055
Site	-7056
ajor	-7057
▁dao	-7058
MULTI	-7059
roved	-7060
ighter	-7061
include	-7062
▁normal	-7063
identity	-7064
▁details	-7065
connector	-7066
▁BlockPos	-7067
▁Consumer	-7068
▁inflater	-7069
tv	-7070
wd	-7071
Aff	-7072
ERY	-7073
Ign	-7074
ROP	-7075
RPC	-7076
xFF	-7077
xff	-7078
FFER	-7079
PLAY	-7080
TIES	-7081
CACHE	-7082
druid	-7083
(",");	-7084
Series	-7085
▁Agent	-7086
▁Timer	-7087
▁Tuple	-7088
▁clone	-7089
isBlank	-7090
unknown	-7091
Physical	-7092
bitField	-7093
essaging	-7094
progress	-7095
putExtra	-7096
▁classes	-7097
Presenter	-7098
Registered	-7099
attributes	-7100
getMembers	-7101
▁Composite	-7102
▁Timestamp	-7103
ErrorResponse	-7104
etSocketAddress	-7105
▁AssertionError	-7106
84	-7107
--;	-7108
Seq	-7109
MARY	-7110
pref	-7111
used	-7112
Meter	-7113
thing	-7114
▁flow	-7115
Absent	-7116
Expiry	-7117
idence	-7118
▁QName	-7119
Printer	-7120
isValid	-7121
Requests	-7122
ingleton	-7123
readValue	-7124
getInteger	-7125
gistration	-7126
▁onChanged	-7127
singletonList	-7128
▁defaultValue	-7129
MAL	-7130
ZED	-7131
\02	-7132
dan	-7133
SCAL	-7134
]");	-7135
acle	-7136
cipl	-7137
▁ids	-7138
▁sec	-7139
Actor	-7140
alanc	-7141
codec	-7142
craft	-7143
hello	-7144
phone	-7145
stone	-7146
▁Edge	-7147
▁blob	-7148
▁intr	-7149
▁only	-7150
▁repo	-7151
Backed	-7152
TypeId	-7153
▁Tools	-7154
Exclude	-7155
Replica	-7156
Routing	-7157
article	-7158
forName	-7159
results	-7160
▁errors	-7161
▁metrics	-7162
▁scanner	-7163
Callbacks	-7164
CliOptions	-7165
PrimaryKey	-7166
▁Container	-7167
ProfileCount	-7168
3)	-7169
16.	-7170
ORK	-7171
lyn	-7172
mar	-7173
1));	-7174
Leaf	-7175
usic	-7176
Aname	-7177
MATCH	-7178
Small	-7179
antic	-7180
asper	-7181
await	-7182
idual	-7183
redis	-7184
▁Pack	-7185
getUrl	-7186
vaadin	-7187
dataset	-7188
▁retval	-7189
Exchange	-7190
Historic	-7191
▁Managed	-7192
ATTRIBUTE	-7193
Allocator	-7194
MediaType	-7195
colBigInt	-7196
subscribe	-7197
Relacionado	-7198
minecraftforge	-7199
76	-7200
CUL	-7201
▁IO	-7202
▁ap	-7203
FACT	-7204
Insn	-7205
PAGE	-7206
[1];	-7207
solo	-7208
Least	-7209
atype	-7210
autoc	-7211
▁uuid	-7212
Viewer	-7213
▁added	-7214
▁scope	-7215
elocity	-7216
▁branch	-7217
employee	-7218
selenium	-7219
▁release	-7220
▁JSONArray	-7221
▁ViewGroup	-7222
▁character	-7223
▁getString	-7224
▁Unimplemented	-7225
EP	-7226
bi	-7227
kn	-7228
ku	-7229
rv	-7230
CER	-7231
gre	-7232
moe	-7233
(10,	-7234
▁'{}	-7235
Pause	-7236
enums	-7237
sible	-7238
▁fire	-7239
Lucene	-7240
upload	-7241
▁Media	-7242
Complex	-7243
getPage	-7244
▁driver	-7245
▁matrix	-7246
onfigure	-7247
priority	-7248
ODocument	-7249
heritance	-7250
rovedFile	-7251
▁Permission	-7252
TimeConstant	-7253
▁outputStream	-7254
▁Authentication	-7255
EQ	-7256
32(	-7257
Oid	-7258
SPE	-7259
aid	-7260
trl	-7261
▁sm	-7262
SERT	-7263
atic	-7264
exit	-7265
stub	-7266
▁dst	-7267
▁txn	-7268
▁-1);	-7269
▁Code	-7270
Letter	-7271
REMOTE	-7272
getLog	-7273
screen	-7274
Android	-7275
▁Buffer	-7276
▁commit	-7277
▁findBy	-7278
Acciones	-7279
Iterable	-7280
▁employee	-7281
▁supported	-7282
2()	-7283
ASK	-7284
Spi	-7285
("\\	-7286
high	-7287
jooq	-7288
1"));	-7289
Stock	-7290
Units	-7291
bazel	-7292
iders	-7293
sheet	-7294
users	-7295
Ranger	-7296
coffee	-7297
lookup	-7298
▁setId	-7299
Warning	-7300
ciplina	-7301
headers	-7302
notNull	-7303
redient	-7304
refresh	-7305
Builders	-7306
HashCode	-7307
Resolved	-7308
▁columns	-7309
▁interval	-7310
components	-7311
▁calculate	-7312
▁LocalDateTime	-7313
ExecutionContext	-7314
=%	-7315
PL	-7316
hy	-7317
++]	-7318
0.0	-7319
Dnn	-7320
STA	-7321
TAB	-7322
ilt	-7323
ira	-7324
▁BY	-7325
▁Gl	-7326
MAIN	-7327
fast	-7328
uted	-7329
▁1];	-7330
▁Ass	-7331
▁dim	-7332
INITI	-7333
Scene	-7334
attle	-7335
usion	-7336
▁solo	-7337
▁stmt	-7338
Digest	-7339
vanced	-7340
TIMEOUT	-7341
assertj	-7342
▁exists	-7343
Versions	-7344
consumer	-7345
▁Character	-7346
SearchParam	-7347
▁Comparator	-7348
▁invalidate	-7349
''	-7350
TRY	-7351
yun	-7352
▁"#	-7353
(3);	-7354
Safe	-7355
▁Par	-7356
Paged	-7357
[1]);	-7358
endix	-7359
lectr	-7360
Finance	-7361
Indented	-7362
Severity	-7363
TypeInfo	-7364
ookeeper	-7365
▁getItem	-7366
endVertex	-7367
▁Artifact	-7368
LinkedList	-7369
ObjectType	-7370
▁background	-7371
▁attributesTo	-7372
_8	-7373
Sec	-7374
▁AR	-7375
▁OR	-7376
ALSE	-7377
Sets	-7378
▁Obs	-7379
Nanos	-7380
▁diff	-7381
ToolTip	-7382
changed	-7383
getBody	-7384
Acceptor	-7385
analysis	-7386
precated	-7387
▁pending	-7388
Threshold	-7389
removeAll	-7390
▁selector	-7391
Translator	-7392
HttpRequest	-7393
ProgressBar	-7394
▁Attributes	-7395
▁attachment	-7396
ImmutableMap	-7397
yntaxException	-7398
PN	-7399
:00	-7400
ete	-7401
▁yy	-7402
Demo	-7403
Have	-7404
INTE	-7405
Coord	-7406
Flush	-7407
MODEL	-7408
QUERY	-7409
stage	-7410
NORMAL	-7411
signed	-7412
ternet	-7413
Contain	-7414
Sources	-7415
▁ignored	-7416
Tokenizer	-7417
getMember	-7418
▁Direction	-7419
setBackground	-7420
StoreException	-7421
21	-7422
.";	-7423
Liv	-7424
OLD	-7425
(4);	-7426
Extr	-7427
rook	-7428
setC	-7429
Arrow	-7430
Force	-7431
atter	-7432
codes	-7433
Setter	-7434
isTrue	-7435
packet	-7436
Regions	-7437
disable	-7438
usiness	-7439
▁Blocks	-7440
Reporter	-7441
▁customer	-7442
PostClient	-7443
Integration	-7444
▁LinearLayout	-7445
IndentedString	-7446
Ti	-7447
[^	-7448
UAL	-7449
[2]	-7450
nic	-7451
raf	-7452
HOME	-7453
IDTH	-7454
ides	-7455
imin	-7456
izes	-7457
mine	-7458
oice	-7459
requ	-7460
ways	-7461
▁All	-7462
Datas	-7463
patch	-7464
power	-7465
MEMBER	-7466
ceeded	-7467
expand	-7468
newGad	-7469
MockMvc	-7470
inition	-7471
rooklyn	-7472
Specific	-7473
fileName	-7474
▁Mutable	-7475
getPackage	-7476
▁ODocument	-7477
Unavailable	-7478
▁PostClient	-7479
▁FormAttachment	-7480
newGadPostClient	-7481
STO	-7482
geo	-7483
tid	-7484
()];	-7485
Mapp	-7486
Solr	-7487
edge	-7488
}");	-7489
▁"."	-7490
micro	-7491
▁expr	-7492
esture	-7493
Modules	-7494
Spinner	-7495
▁Socket	-7496
▁section	-7497
getTarget	-7498
▁Duration	-7499
▁priority	-7500
Invalidated	-7501
▁Constraint	-7502
iddhiManager	-7503
▁tableColumn	-7504
MessageDialog	-7505
1(	-7506
Js	-7507
enk	-7508
pag	-7509
▁MO	-7510
▁Po	-7511
Bulk	-7512
Maps	-7513
drop	-7514
icip	-7515
uxio	-7516
▁Seg	-7517
▁img	-7518
Const	-7519
fetch	-7520
iller	-7521
rofit	-7522
▁Font	-7523
Decode	-7524
Numeric	-7525
allback	-7526
TypeCode	-7527
▁counter	-7528
▁mapping	-7529
Framework	-7530
animation	-7531
▁Currency	-7532
UserDefined	-7533
RequestProto	-7534
lasticsearch	-7535
▁RichAttribute	-7536
Den	-7537
Utf	-7538
jud	-7539
ves	-7540
nano	-7541
▁you	-7542
Optim	-7543
Clause	-7544
Resume	-7545
cedure	-7546
Charset	-7547
alRoute	-7548
fferent	-7549
▁decode	-7550
ThreadPool	-7551
▁Constants	-7552
▁selection	-7553
ItemSelected	-7554
▁networkAclNo	-7555
▁oldIndexUsage	-7556
hu	-7557
ii	-7558
pe	-7559
vi	-7560
vp	-7561
SED	-7562
mem	-7563
png	-7564
ACTER	-7565
SHORT	-7566
Unary	-7567
igned	-7568
Google	-7569
Article	-7570
Publish	-7571
egative	-7572
▁backup	-7573
▁removed	-7574
directory	-7575
reference	-7576
▁DateTime	-7577
reaterThan	-7578
DatoGeneral	-7579
returnValue	-7580
.\	-7581
AF	-7582
sd	-7583
NEW	-7584
ROW	-7585
dst	-7586
hid	-7587
▁ne	-7588
("</	-7589
Oper	-7590
ighb	-7591
ocab	-7592
span	-7593
▁0),	-7594
▁bad	-7595
FOUND	-7596
Recon	-7597
Notify	-7598
encion	-7599
optFns	-7600
planet	-7601
vision	-7602
▁begin	-7603
Include	-7604
LEADING	-7605
memberMe	-7606
className	-7607
indexUsed	-7608
▁clientId	-7609
Parcelable	-7610
▁inputStream	-7611
serialization	-7612
▁objectMapper	-7613
_4	-7614
tu	-7615
!",	-7616
USD	-7617
ima	-7618
(0),	-7619
VIEW	-7620
ette	-7621
GENER	-7622
Links	-7623
Quick	-7624
alias	-7625
names	-7626
spark	-7627
uffle	-7628
DEFINI	-7629
HostId	-7630
bundle	-7631
▁Option	-7632
▁loader	-7633
▁retVal	-7634
OPERATION	-7635
TextUtils	-7636
getServer	-7637
AttendBill	-7638
▁ClassPath	-7639
GP	-7640
AEL	-7641
Fly	-7642
gon	-7643
AGER	-7644
Cast	-7645
Peer	-7646
bose	-7647
enew	-7648
some	-7649
Ratio	-7650
delta	-7651
ooled	-7652
▁100;	-7653
▁Load	-7654
▁inst	-7655
▁loop	-7656
Recurs	-7657
SYSTEM	-7658
▁Sound	-7659
▁proxy	-7660
Restore	-7661
complet	-7662
▁policy	-7663
alformed	-7664
Extractor	-7665
▁criteria	-7666
Parametros	-7667
▁FileUtils	-7668
▁generator	-7669
Connections	-7670
getCategory	-7671
Communicator	-7672
unmodifiable	-7673
▁HttpResponse	-7674
▁checkNotNull	-7675
getDescription	-7676
(8	-7677
GO	-7678
Gui	-7679
UCT	-7680
baz	-7681
lar	-7682
wso	-7683
Hook	-7684
bian	-7685
▁5);	-7686
▁Not	-7687
Annot	-7688
Redis	-7689
Anchor	-7690
secret	-7691
▁place	-7692
Helpers	-7693
Patient	-7694
Quality	-7695
TestSet	-7696
backend	-7697
ingType	-7698
▁worker	-7699
Behavior	-7700
Disabled	-7701
snapshot	-7702
▁getData	-7703
▁messages	-7704
▁retrieve	-7705
Conditions	-7706
▁hyperHost	-7707
▁mFragment	-7708
constraints	-7709
getDeclared	-7710
ReporteDinamico	-7711
("$	-7712
(";	-7713
>>)	-7714
REL	-7715
cor	-7716
Bits	-7717
▁-1,	-7718
Wrong	-7719
evalu	-7720
sList	-7721
stats	-7722
storm	-7723
Recogn	-7724
Routes	-7725
atient	-7726
jected	-7727
openqa	-7728
▁realm	-7729
Minutes	-7730
monitor	-7731
▁Render	-7732
▁reason	-7733
▁allowed	-7734
Aggregate	-7735
UpperCase	-7736
TileEntity	-7737
▁getDefault	-7738
StateManager	-7739
▁ApiException	-7740
▁RecyclerView	-7741
30	-7742
EE	-7743
失败	-7744
Zip	-7745
(1),	-7746
ILED	-7747
haus	-7748
ipes	-7749
rink	-7750
▁foo	-7751
▁isS	-7752
(""))	-7753
OutOf	-7754
WHITE	-7755
basic	-7756
▁Queue	-7757
▁allow	-7758
▁lines	-7759
▁lista	-7760
▁shard	-7761
Authent	-7762
Clicked	-7763
▁STRING	-7764
DeviceId	-7765
writeInt	-7766
ederation	-7767
▁Pipeline	-7768
▁setValue	-7769
getElement	-7770
initialize	-7771
judication	-7772
getDocument	-7773
getLocation	-7774
RC	-7775
UG	-7776
9);	-7777
Old	-7778
cam	-7779
isS	-7780
▁dp	-7781
Fila	-7782
ROLE	-7783
WORK	-7784
blob	-7785
ries	-7786
))));	-7787
LOCAL	-7788
Visit	-7789
assed	-7790
igure	-7791
limit	-7792
▁Flow	-7793
▁Plan	-7794
Called	-7795
Encryp	-7796
normal	-7797
▁Range	-7798
enabled	-7799
▁Target	-7800
formance	-7801
▁trigger	-7802
Minecraft	-7803
▁bindings	-7804
▁distance	-7805
▁elements	-7806
QuestItems	-7807
MaterialData	-7808
▁ClassLoader	-7809
azelcastInstance	-7810
66	-7811
AI	-7812
(\"	-7813
SES	-7814
ino	-7815
poi	-7816
two	-7817
▁(1	-7818
▁1.	-7819
ORIZ	-7820
REEN	-7821
TIVI	-7822
adoc	-7823
igot	-7824
mous	-7825
▁Rep	-7826
Devel	-7827
Pixel	-7828
lixir	-7829
retry	-7830
uring	-7831
canvas	-7832
mobile	-7833
nombre	-7834
utures	-7835
getUuid	-7836
mplates	-7837
▁contact	-7838
Evaluation	-7839
autoconfigure	-7840
▁Preconditions	-7841
44	-7842
jk	-7843
vs	-7844
>>>	-7845
PAN	-7846
Ptr	-7847
ada	-7848
det	-7849
txn	-7850
▁eu	-7851
BUIL	-7852
Func	-7853
ITEM	-7854
Iden	-7855
bits	-7856
flag	-7857
getZ	-7858
slot	-7859
Guild	-7860
Outer	-7861
Reset	-7862
Typed	-7863
▁Arch	-7864
Archiv	-7865
Leader	-7866
OfType	-7867
STANCE	-7868
Slider	-7869
astore	-7870
onymous	-7871
▁Elixir	-7872
▁Locale	-7873
▁Metric	-7874
▁memory	-7875
AsStream	-7876
erialized	-7877
▁Category	-7878
GenericValue	-7879
executeQuery	-7880
▁Authorization	-7881
AccessException	-7882
77	-7883
XY	-7884
tw	-7885
()[	-7886
AXB	-7887
Ent	-7888
Git	-7889
INS	-7890
LED	-7891
MON	-7892
▁NO	-7893
CALL	-7894
ipay	-7895
▁Des	-7896
▁ssl	-7897
("201	-7898
Slice	-7899
oring	-7900
▁2));	-7901
PARATOR	-7902
invalid	-7903
nanoTime	-7904
DEFINITION	-7905
ScrollPane	-7906
lastIndexOf	-7907
▁columnName	-7908
▁horizontal	-7909
AsyncHandler	-7910
SequentialGroup	-7911
▁FileInputStream	-7912
><	-7913
SM	-7914
(0)	-7915
ION	-7916
uru	-7917
FACE	-7918
Into	-7919
MEDI	-7920
MODI	-7921
ergy	-7922
lite	-7923
oose	-7924
pool	-7925
ynth	-7926
▁Ver	-7927
Clear	-7928
Share	-7929
alpha	-7930
avega	-7931
▁Gson	-7932
▁buff	-7933
▁drop	-7934
▁getF	-7935
HEADER	-7936
rypted	-7937
▁Batch	-7938
▁flush	-7939
MANAGER	-7940
Related	-7941
routing	-7942
ectories	-7943
getTotal	-7944
▁Writable	-7945
▁userName	-7946
Classifier	-7947
background	-7948
▁indicator	-7949
ingExercise	-7950
▁ElixirTypes	-7951
aignExtension	-7952
GeneralUsuario	-7953
TC	-7954
zk	-7955
00;	-7956
NAL	-7957
ats	-7958
iar	-7959
mor	-7960
odb	-7961
tbl	-7962
▁HT	-7963
ROOT	-7964
[1],	-7965
cert	-7966
rypt	-7967
▁ack	-7968
▁mem	-7969
BYTES	-7970
Exact	-7971
FALSE	-7972
Plate	-7973
iudad	-7974
parql	-7975
turer	-7976
▁home	-7977
Append	-7978
Energy	-7979
Tracer	-7980
canton	-7981
chemas	-7982
▁1000;	-7983
Cartera	-7984
Resolve	-7985
getList	-7986
updated	-7987
▁Offset	-7988
▁attach	-7989
▁cached	-7990
▁ignore	-7991
codehaus	-7992
enchmark	-7993
▁library	-7994
Objective	-7995
fieldName	-7996
APPLICATION	-7997
TagCompound	-7998
▁AtomicLong	-7999
▁dependency	-8000
Css	-8001
_12	-8002
cut	-8003
iot	-8004
("__	-8005
Tabs	-8006
ants	-8007
ensi	-8008
illi	-8009
team	-8010
▁evs	-8011
Nonce	-8012
chase	-8013
remio	-8014
▁qual	-8015
GLOBAL	-8016
Ground	-8017
future	-8018
stanti	-8019
worker	-8020
▁Track	-8021
Confirm	-8022
GroupId	-8023
Receive	-8024
alytics	-8025
enerale	-8026
ergency	-8027
▁DOUBLE	-8028
▁caller	-8029
Terminal	-8030
getTitle	-8031
▁include	-8032
▁missing	-8033
▁waitFor	-8034
Recursive	-8035
ActionType	-8036
▁LocalDate	-8037
▁asyncHandler	-8038
RelativeOffset	-8039
▁archiveScanner	-8040
Qi	-8041
kv	-8042
▁~	-8043
RUN	-8044
Typ	-8045
eto	-8046
▁TO	-8047
▁av	-8048
ATED	-8049
Acce	-8050
▁iss	-8051
ALTER	-8052
Fluid	-8053
WIDTH	-8054
netes	-8055
▁10);	-8056
▁Sort	-8057
getRow	-8058
volume	-8059
▁Files	-8060
▁asset	-8061
▁force	-8062
ilation	-8063
objects	-8064
▁taskId	-8065
Actuator	-8066
Handlers	-8067
interval	-8068
ordinates	-8069
ubernetes	-8070
▁TestUtils	-8071
checkNotNull	-8072
-1	-8073
Hi	-8074
mq	-8075
zh	-8076
Mix	-8077
\03	-8078
cms	-8079
vol	-8080
▁14	-8081
▁aa	-8082
▁ui	-8083
ZERO	-8084
adef	-8085
ereo	-8086
▁("_	-8087
▁Pay	-8088
▁Tab	-8089
(2));	-8090
CIMAL	-8091
Facet	-8092
affic	-8093
enger	-8094
fully	-8095
inker	-8096
jetty	-8097
rames	-8098
Elimin	-8099
crypto	-8100
getNum	-8101
metric	-8102
sender	-8103
ByteBuf	-8104
Totales	-8105
clientId	-8106
ffective	-8107
▁tracker	-8108
▁Metadata	-8109
MouseEvent	-8110
▁ActionBar	-8111
▁transient	-8112
getDataType	-8113
ObjectMapper	-8114
PreferredSize	-8115
StringBuilder	-8116
ProtocolProtos	-8117
MessageConstants	-8118
kg	-8119
ANG	-8120
PTZ	-8121
You	-8122
▁8)	-8123
▁cz	-8124
BACK	-8125
▁Row	-8126
▁vol	-8127
▁pair	-8128
▁pred	-8129
▁term	-8130
▁trim	-8131
Patron	-8132
Timing	-8133
Towers	-8134
asText	-8135
carter	-8136
portal	-8137
▁alert	-8138
ELEMENT	-8139
Fetcher	-8140
comment	-8141
▁bitmap	-8142
▁okhttp	-8143
Detector	-8144
getModel	-8145
ogenerale	-8146
▁capacity	-8147
attachment	-8148
carteradef	-8149
randomUUID	-8150
FileNotFound	-8151
Organisation	-8152
85	-8153
AVA	-8154
dap	-8155
FULL	-8156
ruby	-8157
that	-8158
▁(__	-8159
▁Sys	-8160
▁inf	-8161
Trust	-8162
\":\"	-8163
curve	-8164
shake	-8165
tiles	-8166
video	-8167
▁ship	-8168
Submit	-8169
evolve	-8170
gGraph	-8171
kernel	-8172
▁delet	-8173
created	-8174
posable	-8175
Accounts	-8176
Conflict	-8177
Contents	-8178
Diagnost	-8179
Permisos	-8180
RuleCall	-8181
CHARACTER	-8182
isNotNull	-8183
▁encoding	-8184
Privileges	-8185
Reflection	-8186
ValueException	-8187
jm	-8188
tt	-8189
vx	-8190
Jav	-8191
Tax	-8192
Txn	-8193
_);	-8194
pho	-8195
rip	-8196
▁zk	-8197
("//	-8198
Cali	-8199
Free	-8200
Grpc	-8201
ieQi	-8202
libs	-8203
▁ADD	-8204
▁pub	-8205
▁sys	-8206
Cause	-8207
EXTRA	-8208
aving	-8209
redit	-8210
study	-8211
▁Auto	-8212
▁bits	-8213
Rating	-8214
▁inner	-8215
▁video	-8216
aversal	-8217
ertices	-8218
readInt	-8219
setFont	-8220
evolveum	-8221
▁SERVICE	-8222
Authorized	-8223
PageContext	-8224
▁getCurrent	-8225
MILLISECONDS	-8226
▁BorderLayout	-8227
PTZCommunicator	-8228
FY	-8229
dm	-8230
PEN	-8231
exl	-8232
duce	-8233
▁ptr	-8234
Large	-8235
TICAL	-8236
ambda	-8237
etime	-8238
setIs	-8239
▁TEXT	-8240
INSERT	-8241
Loaded	-8242
Balance	-8243
Through	-8244
▁camera	-8245
duration	-8246
▁complet	-8247
setBorder	-8248
translate	-8249
▁sequence	-8250
getPrimary	-8251
▁ErrorCode	-8252
▁predicate	-8253
ChangeEvent	-8254
Definitions	-8255
environment	-8256
jComboBoxTipos	-8257
cm	-8258
ARK	-8259
CKE	-8260
Dot	-8261
FIR	-8262
MIS	-8263
ica	-8264
mac	-8265
pad	-8266
ula	-8267
▁6;	-8268
▁TR	-8269
Buff	-8270
Drag	-8271
STAMP	-8272
URITY	-8273
erate	-8274
openc	-8275
▁Bean	-8276
▁TIME	-8277
▁fake	-8278
▁side	-8279
▁used	-8280
Attack	-8281
ByType	-8282
▁basic	-8283
addItem	-8284
testing	-8285
EditText	-8286
▁between	-8287
HyperHost	-8288
▁FileType	-8289
▁language	-8290
Coordinate	-8291
Partitions	-8292
getCluster	-8293
▁transport	-8294
getSelection	-8295
▁ImmutableSet	-8296
heritanceClass	-8297
zu	-8298
GUY	-8299
RSA	-8300
Ser	-8301
TRI	-8302
aho	-8303
edi	-8304
obs	-8305
▁3)	-8306
▁[%	-8307
▁For	-8308
▁Geo	-8309
▁Has	-8310
▁[{}	-8311
▁gui	-8312
ABLED	-8313
Icons	-8314
hidra	-8315
BitSet	-8316
Circle	-8317
Mirror	-8318
Signal	-8319
arDown	-8320
concat	-8321
copyOf	-8322
enkins	-8323
groups	-8324
ocabul	-8325
Divider	-8326
EndTime	-8327
Indexes	-8328
Servers	-8329
columns	-8330
Namenode	-8331
Particle	-8332
Readable	-8333
encoding	-8334
keycloak	-8335
▁restore	-8336
ApiClient	-8337
isPermiso	-8338
▁filtered	-8339
▁populate	-8340
▁HttpServer	-8341
getTransaction	-8342
▁DatabaseEngine	-8343
▁WrongReference	-8344
toIndentedString	-8345
ji	-8346
sy	-8347
Pal	-8348
SUF	-8349
igr	-8350
mud	-8351
ube	-8352
▁cs	-8353
Para	-8354
Under	-8355
bydan	-8356
orian	-8357
▁real	-8358
compat	-8359
ingBox	-8360
▁Level	-8361
▁flags	-8362
Contains	-8363
Existing	-8364
▁disable	-8365
Unexpected	-8366
addListener	-8367
CharSequence	-8368
HttpResponse	-8369
erialization	-8370
BufferedReader	-8371
39	-8372
75	-8373
Py	-8374
RS	-8375
("{	-8376
1).	-8377
7);	-8378
>";	-8379
ACL	-8380
Arn	-8381
MET	-8382
hor	-8383
iva	-8384
getA	-8385
note	-8386
▁NUM	-8387
▁PRE	-8388
▁fix	-8389
Hello	-8390
Phase	-8391
__");	-8392
helix	-8393
strar	-8394
▁sync	-8395
Adjust	-8396
Hidden	-8397
Invoke	-8398
isFrom	-8399
vmware	-8400
▁Usage	-8401
▁phone	-8402
SETTING	-8403
checked	-8404
cliente	-8405
primary	-8406
▁secret	-8407
Channels	-8408
SECURITY	-8409
setImage	-8410
generator	-8411
ocabulary	-8412
scheduler	-8413
validator	-8414
▁Supplier	-8415
▁fieldName	-8416
▁specified	-8417
ResponseBody	-8418
Seleccionados	-8419
RichAttributes	-8420
mdrReqINTERVAL	-8421
fw	-8422
gt	-8423
CAN	-8424
DAT	-8425
Fix	-8426
KEN	-8427
WEB	-8428
das	-8429
sig	-8430
▁Gr	-8431
▁dc	-8432
Exam	-8433
URIS	-8434
erod	-8435
osis	-8436
rill	-8437
tags	-8438
BRUSH	-8439
ecast	-8440
panel	-8441
setup	-8442
urnal	-8443
▁Anal	-8444
▁Ruby	-8445
▁Temp	-8446
▁than	-8447
Finder	-8448
Tokens	-8449
alipay	-8450
descri	-8451
switch	-8452
▁Frame	-8453
▁alias	-8454
▁expir	-8455
Desktop	-8456
KeyPair	-8457
balance	-8458
destroy	-8459
scanner	-8460
▁radius	-8461
Configur	-8462
GUYBRUSH	-8463
enciones	-8464
interrup	-8465
midpoint	-8466
▁encoded	-8467
converter	-8468
timestamp	-8469
Hypervisor	-8470
ReturnType	-8471
4)	-8472
pf	-8473
0),	-8474
gms	-8475
uda	-8476
▁"$	-8477
▁60	-8478
▁NS	-8479
▁ms	-8480
cape	-8481
curr	-8482
ouse	-8483
{}",	-8484
▁31,	-8485
▁act	-8486
QName	-8487
lices	-8488
watch	-8489
▁rect	-8490
OUTPUT	-8491
PUBLIC	-8492
aliyun	-8493
memory	-8494
rabbit	-8495
▁Future	-8496
▁Spigot	-8497
▁center	-8498
▁parsed	-8499
Internet	-8500
NodeType	-8501
Override	-8502
▁General	-8503
getOutput	-8504
isEnabled	-8505
▁parseAnd	-8506
▁Statement	-8507
Coordinator	-8508
getBlockData	-8509
LocalDateTime	-8510
QualifiedName	-8511
▁TextAppearance	-8512
StructureMethods	-8513
48	-8514
FX	-8515
ae	-8516
rx	-8517
01,	-8518
Suc	-8519
__)	-8520
pin	-8521
4");	-8522
Craw	-8523
Perf	-8524
getD	-8525
▁CRE	-8526
7816.	-8527
Atoms	-8528
Beans	-8529
SCALE	-8530
metas	-8531
addGap	-8532
ensity	-8533
produc	-8534
▁Empty	-8535
▁Write	-8536
classes	-8537
clients	-8538
pravega	-8539
▁Header	-8540
▁latest	-8541
TestUtil	-8542
customer	-8543
getError	-8544
makeText	-8545
▁Measure	-8546
Authority	-8547
FileUtils	-8548
▁DynamoDb	-8549
▁Platform	-8550
▁describe	-8551
▁vertical	-8552
setMessage	-8553
▁ImageView	-8554
▁UserGroup	-8555
▁resultSet	-8556
Translation	-8557
▁RegionCode	-8558
▁provincias	-8559
AssistContext	-8560
PipelineStage	-8561
▁ModelAndView	-8562
ClientNamenode	-8563
▁startActivity	-8564
▁setContentView	-8565
ProposalAcceptor	-8566
RequestException	-8567
StandardCharsets	-8568
96	-8569
DT	-8570
DIT	-8571
Hit	-8572
Src	-8573
tep	-8574
▁CH	-8575
2").	-8576
DESC	-8577
SBML	-8578
Sent	-8579
bine	-8580
osgi	-8581
peer	-8582
▁0))	-8583
>>();	-8584
ADATA	-8585
Calls	-8586
Joint	-8587
Sizes	-8588
Updat	-8589
files	-8590
▁city	-8591
▁wrap	-8592
CALCUL	-8593
Needed	-8594
PARENT	-8595
apereo	-8596
izable	-8597
▁retry	-8598
ADDRESS	-8599
Offsets	-8600
erature	-8601
setCell	-8602
▁Dialog	-8603
▁Evento	-8604
▁suffix	-8605
InMillis	-8606
gredient	-8607
▁Archive	-8608
▁publish	-8609
▁visitor	-8610
Portfolio	-8611
▁Callback	-8612
▁exchange	-8613
▁pageSize	-8614
openmetadata	-8615
▁ICompletion	-8616
isFromNamespace	-8617
dv	-8618
1.0	-8619
14.	-8620
AML	-8621
ANN	-8622
__,	-8623
ido	-8624
pub	-8625
▁"&	-8626
▁\""	-8627
▁zip	-8628
(100,	-8629
chest	-8630
▁'\''	-8631
AndSet	-8632
getTop	-8633
square	-8634
curveTo	-8635
records	-8636
▁Single	-8637
Mappings	-8638
examples	-8639
ationDate	-8640
Accessible	-8641
BufferSize	-8642
▁increment	-8643
credentials	-8644
ofBlockData	-8645
▁getContent	-8646
MainActivity	-8647
▁PrintWriter	-8648
\"\	-8649
ane	-8650
iom	-8651
▁99	-8652
▁cf	-8653
▁go	-8654
>>()	-8655
Song	-8656
ahoo	-8657
repo	-8658
shop	-8659
vlan	-8660
vmMo	-8661
▁"</	-8662
▁4);	-8663
▁AND	-8664
▁Cod	-8665
▁EGL	-8666
▁{},	-8667
chant	-8668
icine	-8669
route	-8670
▁same	-8671
ENTITY	-8672
aching	-8673
design	-8674
icture	-8675
jLabel	-8676
jasper	-8677
ritten	-8678
▁shift	-8679
patcher	-8680
▁Matrix	-8681
existing	-8682
▁Pending	-8683
▁measure	-8684
▁objects	-8685
WebDriver	-8686
▁Template	-8687
Persistent	-8688
ReferenceEntry	-8689
carteradefecto	-8690
cx	-8691
nc	-8692
ENG	-8693
FIL	-8694
Vec	-8695
bpm	-8696
emf	-8697
sky	-8698
(1.0	-8699
EXCE	-8700
(0)).	-8701
aming	-8702
atory	-8703
datas	-8704
ounce	-8705
▁anim	-8706
▁room	-8707
Course	-8708
TaskId	-8709
alleng	-8710
Gesture	-8711
URATION	-8712
easured	-8713
Launcher	-8714
POSITION	-8715
USERNAME	-8716
workflow	-8717
▁Profile	-8718
versation	-8719
▁INSTANCE	-8720
▁htmltext	-8721
▁pipeline	-8722
▁security	-8723
TextAppearance	-8724
▁worldRenderer	-8725
▁ParseException	-8726
▁viewDefinition	-8727
40	-8728
:\	-8729
Es	-8730
Lab	-8731
WER	-8732
tip	-8733
uel	-8734
▁et	-8735
FAIL	-8736
ICON	-8737
Prec	-8738
bulk	-8739
gers	-8740
▁DAO	-8741
▁SSL	-8742
Birth	-8743
Black	-8744
crete	-8745
ogram	-8746
oment	-8747
views	-8748
STRUCT	-8749
cludes	-8750
define	-8751
orient	-8752
▁Match	-8753
▁given	-8754
▁paint	-8755
▁pstmt	-8756
▁lookup	-8757
Firebase	-8758
▁Segment	-8759
▁unknown	-8760
dimension	-8761
functions	-8762
▁supplier	-8763
extensions	-8764
ynchronous	-8765
▁connector	-8766
akReference	-8767
▁additional	-8768
▁AlertDialog	-8769
FileDescriptor	-8770
================	-8771
1[	-8772
Ge	-8773
;",	-8774
></	-8775
CSV	-8776
DOM	-8777
ILI	-8778
dim	-8779
▁7;	-8780
▁EN	-8781
▁sn	-8782
Bank	-8783
EXEC	-8784
Grad	-8785
Jobs	-8786
dark	-8787
diff	-8788
▁cfg	-8789
."));	-8790
ARGET	-8791
Decor	-8792
audit	-8793
oauth	-8794
Logout	-8795
Repeat	-8796
Syntax	-8797
animal	-8798
extern	-8799
ollout	-8800
putAll	-8801
unlock	-8802
▁clean	-8803
▁trust	-8804
agnosis	-8805
concept	-8806
flatMap	-8807
getFull	-8808
ingMode	-8809
reactiv	-8810
▁BIGINT	-8811
▁outRec	-8812
▁scroll	-8813
Dispatch	-8814
getCount	-8815
▁Feature	-8816
▁virtual	-8817
SEPARATOR	-8818
arraycopy	-8819
▁MenuItem	-8820
toUpperCase	-8821
▁dataSource	-8822
Relationship	-8823
▁codeGenerator	-8824
Gl	-8825
fp	-8826
Ole	-8827
SEN	-8828
TON	-8829
[^/	-8830
gdx	-8831
gem	-8832
▁lp	-8833
deep	-8834
perm	-8835
sist	-8836
yarn	-8837
▁1),	-8838
Reuse	-8839
Words	-8840
getAs	-8841
ovirt	-8842
utate	-8843
works	-8844
▁perm	-8845
▁tags	-8846
Colors	-8847
getMap	-8848
▁under	-8849
Prepare	-8850
▁Camera	-8851
IfAbsent	-8852
▁clients	-8853
getLength	-8854
jMenuItem	-8855
Suggestion	-8856
isNotBlank	-8857
methodName	-8858
Placeholder	-8859
Unmarshaller	-8860
▁parseAndRun	-8861
Initialization	-8862
ObjectReference	-8863
CC	-8864
UTH	-8865
dub	-8866
Does	-8867
baom	-8868
etic	-8869
eval	-8870
idou	-8871
ilar	-8872
miss	-8873
soft	-8874
▁hit	-8875
▁mdr	-8876
[^/]+	-8877
ained	-8878
aunch	-8879
ident	-8880
shell	-8881
BUFFER	-8882
Bridge	-8883
Canton	-8884
JPanel	-8885
Termin	-8886
dremio	-8887
ehicle	-8888
ridden	-8889
▁Unary	-8890
Variant	-8891
▁Packet	-8892
▁Report	-8893
▁detail	-8894
▁expand	-8895
▁getMax	-8896
baomidou	-8897
ensitive	-8898
filename	-8899
▁Package	-8900
Qualifier	-8901
TestClass	-8902
▁numberOf	-8903
experiment	-8904
CALCULATION	-8905
appendChild	-8906
ImmutableSet	-8907
onedDateTime	-8908
▁getResource	-8909
NodeProcessor	-8910
2[	-8911
hm	-8912
ye	-8913
1()	-8914
Sur	-8915
bid	-8916
fac	-8917
ftc	-8918
sec	-8919
▁8;	-8920
▁iv	-8921
scan	-8922
undo	-8923
▁cor	-8924
Apply	-8925
Movie	-8926
Patch	-8927
Quota	-8928
phere	-8929
Daemon	-8930
Verify	-8931
ressed	-8932
sorted	-8933
talend	-8934
▁round	-8935
Devices	-8936
PROCESS	-8937
allenge	-8938
details	-8939
getPort	-8940
toBytes	-8941
▁Answer	-8942
▁metric	-8943
▁points	-8944
▁screen	-8945
▁transl	-8946
Embedded	-8947
projects	-8948
▁Contact	-8949
▁perform	-8950
AccountId	-8951
statement	-8952
▁Constant	-8953
▁Workflow	-8954
Capability	-8955
Instrument	-8956
▁getClient	-8957
Interaction	-8958
QualSpecies	-8959
▁Conversion	-8960
▁accountHead	-8961
▁DynamoDbMapper	-8962
commonCliOptions	-8963
OG	-8964
gy	-8965
0",	-8966
Low	-8967
sem	-8968
▁7,	-8969
▁BO	-8970
▁Di	-8971
▁Do	-8972
Cart	-8973
TASK	-8974
anks	-8975
beat	-8976
heel	-8977
prot	-8978
(10);	-8979
chunk	-8980
ernel	-8981
iento	-8982
▁pass	-8983
SOURCE	-8984
THREAD	-8985
blocks	-8986
carbon	-8987
Company	-8988
Fixture	-8989
console	-8990
▁1000);	-8991
▁Select	-8992
▁groups	-8993
▁helper	-8994
▁shadow	-8995
INTERNAL	-8996
KeyEvent	-8997
resolved	-8998
sBuilder	-8999
LocalDate	-9000
cheduling	-9001
▁Encoding	-9002
CarteraDef	-9003
identifier	-9004
writeValue	-9005
GreaterThan	-9006
ToolTipText	-9007
▁JTextField	-9008
▁Environment	-9009
setDescription	-9010
FragmentManager	-9011
PH	-9012
PP	-9013
mr	-9014
Bot	-9015
Mob	-9016
POR	-9017
Poi	-9018
REE	-9019
Uid	-9020
Via	-9021
imo	-9022
▁'%	-9023
(2).	-9024
LICY	-9025
Mmoe	-9026
Tail	-9027
mart	-9028
▁Bit	-9029
▁TLS	-9030
▁sim	-9031
Grant	-9032
anism	-9033
mixin	-9034
mount	-9035
Balanc	-9036
matrix	-9037
▁quote	-9038
▁score	-9039
▁using	-9040
Indices	-9041
Problem	-9042
Queries	-9043
▁Sorted	-9044
▁origin	-9045
regorian	-9046
▁charset	-9047
▁configs	-9048
▁failure	-9049
▁Broadcast	-9050
▁signature	-9051
AlertDialog	-9052
datogenerale	-9053
CommandSender	-9054
▁memberElement	-9055
.2	-9056
YS	-9057
[5	-9058
iq	-9059
-01	-9060
1";	-9061
234	-9062
cli	-9063
ods	-9064
pis	-9065
syn	-9066
▁11	-9067
▁19	-9068
▁20	-9069
Jdbc	-9070
Prob	-9071
Seed	-9072
beam	-9073
echa	-9074
onos	-9075
reed	-9076
sume	-9077
▁bot	-9078
FLOAT	-9079
hance	-9080
izing	-9081
▁oper	-9082
▁safe	-9083
▁zone	-9084
barrio	-9085
ecause	-9086
encent	-9087
setKey	-9088
ymbols	-9089
▁layer	-9090
Compute	-9091
DECIMAL	-9092
entries	-9093
▁Driver	-9094
TimeZone	-9095
Emergency	-9096
Increment	-9097
datamodel	-9098
getHeader	-9099
▁TreeNode	-9100
▁testRule	-9101
▁Condition	-9102
Association	-9103
UserDetails	-9104
▁DataSource	-9105
▁JsonObject	-9106
▁Reflection	-9107
BufferUnpack	-9108
▁CipherSuite	-9109
ISUSAEJBREMOTE	-9110
manageException	-9111
3_	-9112
Jo	-9113
Na	-9114
sr	-9115
wa	-9116
Alt	-9117
Rew	-9118
bas	-9119
rew	-9120
sos	-9121
uck	-9122
Dump	-9123
HAND	-9124
SKIP	-9125
acos	-9126
loor	-9127
▁","	-9128
▁Git	-9129
ADMIN	-9130
getID	-9131
icted	-9132
shape	-9133
▁DATE	-9134
▁Stop	-9135
/[^/]+	-9136
Facing	-9137
POLICY	-9138
SUFFIX	-9139
entaho	-9140
getFac	-9141
getNew	-9142
▁activ	-9143
▁speed	-9144
▁usage	-9145
Ability	-9146
Dialect	-9147
KEYWORD	-9148
correct	-9149
▁Shared	-9150
Interpol	-9151
ObjectId	-9152
selector	-9153
setPower	-9154
▁Timeout	-9155
▁getTest	-9156
anyString	-9157
getCreate	-9158
▁Drawable	-9159
mybatisplus	-9160
onosproject	-9161
▁Transformer	-9162
▁paramParcel	-9163
SocketChannel	-9164
getStatusCode	-9165
FirewallSubnet	-9166
getClassLoader	-9167
."	-9168
_5	-9169
00)	-9170
10.	-9171
AES	-9172
ego	-9173
ini	-9174
pow	-9175
▁Cl	-9176
▁bi	-9177
▁cm	-9178
▁cr	-9179
▁ic	-9180
ARCH	-9181
Curr	-9182
Gson	-9183
Incl	-9184
KEYS	-9185
Urls	-9186
agic	-9187
▁Cpp	-9188
▁Lib	-9189
InAEL	-9190
LATED	-9191
Terms	-9192
house	-9193
prise	-9194
timer	-9195
▁Cell	-9196
▁LONG	-9197
▁sbml	-9198
Review	-9199
preter	-9200
quires	-9201
InBytes	-9202
Packets	-9203
acenter	-9204
getDate	-9205
osition	-9206
▁Change	-9207
▁Linear	-9208
Finished	-9209
Keyboard	-9210
Segments	-9211
Anonymous	-9212
CLASSNAME	-9213
addObject	-9214
ettyPrint	-9215
getRecord	-9216
navigation	-9217
▁AppCompat	-9218
Directories	-9219
Seleccionar	-9220
stringValue	-9221
▁ThreadPool	-9222
getComponent	-9223
BuilderFactory	-9224
NuevoProvincia	-9225
infrastructure	-9226
ParameterGeneral	-9227
regorianCalendar	-9228
DC	-9229
>("	-9230
Fit	-9231
JCR	-9232
Slf	-9233
pic	-9234
▁!(	-9235
▁ON	-9236
▁gu	-9237
HTML	-9238
Hour	-9239
OVER	-9240
REAM	-9241
VATE	-9242
▁Ret	-9243
anted	-9244
arker	-9245
orpus	-9246
ultim	-9247
▁Cart	-9248
▁FILE	-9249
▁cost	-9250
▁take	-9251
Inputs	-9252
arable	-9253
bedded	-9254
reduce	-9255
ividual	-9256
▁encode	-9257
getShort	-9258
▁groupId	-9259
setParent	-9260
▁Customer	-9261
▁Protocol	-9262
▁question	-9263
ActionCode	-9264
isSelected	-9265
NodeManager	-9266
▁AssertJUnit	-9267
▁requestBody	-9268
▁dependencies	-9269
VK	-9270
{"	-9271
)];	-9272
--)	-9273
/",	-9274
006	-9275
inn	-9276
ura	-9277
▁Bo	-9278
▁ns	-9279
▁rv	-9280
AUTO	-9281
IDER	-9282
Idle	-9283
Less	-9284
MPLE	-9285
YEAR	-9286
▁Jar	-9287
▁cod	-9288
▁det	-9289
Cance	-9290
ONTAL	-9291
OptFn	-9292
Water	-9293
tives	-9294
▁getE	-9295
▁vmId	-9296
Choice	-9297
Combos	-9298
Notice	-9299
enefit	-9300
getTag	-9301
▁click	-9302
▁redis	-9303
▁GLOBAL	-9304
▁Script	-9305
▁modify	-9306
▁optFns	-9307
▁unique	-9308
Agreement	-9309
ORIZONTAL	-9310
▁analysis	-9311
▁download	-9312
▁itemView	-9313
▁textView	-9314
InstanceVO	-9315
getAddress	-9316
MeasureSpec	-9317
▁authentication	-9318
-9	-9319
ih	-9320
Der	-9321
JOB	-9322
LEN	-9323
oof	-9324
tho	-9325
tre	-9326
▁EC	-9327
▁ag	-9328
000,	-9329
<?>)	-9330
Blue	-9331
Prev	-9332
asse	-9333
chat	-9334
ming	-9335
()");	-9336
Cards	-9337
Ender	-9338
MEDIA	-9339
Robot	-9340
geode	-9341
quote	-9342
scram	-9343
ureka	-9344
▁area	-9345
▁into	-9346
ACKAGE	-9347
affold	-9348
getCon	-9349
▁evalu	-9350
Correct	-9351
Install	-9352
Upgrade	-9353
Coverage	-9354
badlogic	-9355
launcher	-9356
▁monitor	-9357
RPCBitmap	-9358
isInstance	-9359
AccessToken	-9360
MessagePack	-9361
RadioButton	-9362
Measurements	-9363
WithoutCheck	-9364
▁HttpRequest	-9365
▁SimpleString	-9366
RestController	-9367
SessionFactory	-9368
setToolTipText	-9369
createStatement	-9370
▁AtomicReference	-9371
2:	-9372
EGL	-9373
SSF	-9374
abc	-9375
eco	-9376
rib	-9377
▁1:	-9378
▁MQ	-9379
▁Py	-9380
▁dr	-9381
(5);	-9382
0\1\	-9383
Dead	-9384
LINK	-9385
Lang	-9386
REPO	-9387
cord	-9388
decl	-9389
enda	-9390
wire	-9391
▁Str	-9392
▁box	-9393
Alive	-9394
RETRY	-9395
White	-9396
altar	-9397
offer	-9398
oting	-9399
tipos	-9400
ufact	-9401
▁exit	-9402
Rotate	-9403
SECOND	-9404
Visual	-9405
curacy	-9406
direct	-9407
getCan	-9408
health	-9409
▁delay	-9410
▁enemy	-9411
▁maybe	-9412
RELATED	-9413
Targets	-9414
Watcher	-9415
dBorder	-9416
jectile	-9417
pentaho	-9418
▁Active	-9419
PageSize	-9420
Patterns	-9421
TEMPLATE	-9422
mployees	-9423
▁Matcher	-9424
▁Process	-9425
SCRIPTION	-9426
WebServer	-9427
▁strategy	-9428
PrivateKey	-9429
▁anyString	-9430
▁obsService	-9431
izedTypeImpl	-9432
-0	-9433
65	-9434
:%	-9435
cf	-9436
fn	-9437
Iam	-9438
PKG	-9439
aze	-9440
▁OB	-9441
▁md	-9442
▁so	-9443
RELE	-9444
oral	-9445
pojo	-9446
pond	-9447
zure	-9448
▁mid	-9449
Album	-9450
TITLE	-9451
USTER	-9452
lists	-9453
FAILED	-9454
LAYOUT	-9455
Linear	-9456
Tenant	-9457
before	-9458
origin	-9459
▁10000	-9460
▁Audio	-9461
▁Login	-9462
▁World	-9463
▁parts	-9464
Rollout	-9465
generic	-9466
ingInfo	-9467
setData	-9468
▁submit	-9469
Attempts	-9470
▁records	-9471
Bluetooth	-9472
ationship	-9473
findFirst	-9474
getSchema	-9475
setHeader	-9476
▁Schedule	-9477
▁getTable	-9478
EntityType	-9479
RememberMe	-9480
LuceneQuery	-9481
OutOfBounds	-9482
StoragePool	-9483
▁validation	-9484
LinkedHashMap	-9485
getProvincias	-9486
▁ClassNotFound	-9487
prepareStatement	-9488
87	-9489
gb	-9490
("0	-9491
SDK	-9492
VED	-9493
▁im	-9494
LACE	-9495
Many	-9496
Tint	-9497
ctor	-9498
▁-9,	-9499
▁gap	-9500
▁tbl	-9501
Allow	-9502
Solar	-9503
Trade	-9504
oling	-9505
▁100,	-9506
▁Flux	-9507
▁tech	-9508
ApiKey	-9509
Duplic	-9510
Facade	-9511
SignIn	-9512
Vmware	-9513
effect	-9514
▁Parse	-9515
CURRENT	-9516
DISPLAY	-9517
Offline	-9518
OrEmpty	-9519
clickOn	-9520
section	-9521
▁Deploy	-9522
▁loaded	-9523
########	-9524
DEFAULTS	-9525
ReadOnly	-9526
erodrome	-9527
getIndex	-9528
redirect	-9529
retrieve	-9530
▁usuario	-9531
Cancelled	-9532
Chaincode	-9533
NAMESPACE	-9534
PorIdPais	-9535
utilities	-9536
▁Molecule	-9537
▁manifest	-9538
▁retrofit	-9539
JSONString	-9540
▁decorator	-9541
inicializar	-9542
▁writeValue	-9543
getJSONArray	-9544
SourceArchive	-9545
getJSONObject	-9546
ProtocolBuffer	-9547
ExistsException	-9548
▁GlStateManager	-9549
Sn	-9550
qp	-9551
2).	-9552
Mer	-9553
PAY	-9554
▁am	-9555
++);	-9556
DoFn	-9557
Resp	-9558
SING	-9559
Scop	-9560
anim	-9561
calc	-9562
nail	-9563
omin	-9564
oost	-9565
pass	-9566
peek	-9567
▁NBT	-9568
▁OUT	-9569
▁age	-9570
TOKEN	-9571
accum	-9572
angel	-9573
apsed	-9574
bined	-9575
getCo	-9576
getPt	-9577
icket	-9578
igest	-9579
spect	-9580
yahoo	-9581
▁Cali	-9582
▁best	-9583
Encode	-9584
Online	-9585
getApp	-9586
ignore	-9587
moveTo	-9588
▁Power	-9589
▁sleep	-9590
Outputs	-9591
Windows	-9592
payment	-9593
umbnail	-9594
▁bounds	-9595
METADATA	-9596
▁general	-9597
▁maximum	-9598
Busquedas	-9599
Closeable	-9600
Secondary	-9601
configure	-9602
oreground	-9603
styleable	-9604
zookeeper	-9605
FileUpload	-9606
assertNull	-9607
▁Minecraft	-9608
Conditional	-9609
ISUSAEJBHOME	-9610
lp	-9611
Nav	-9612
Plc	-9613
arc	-9614
▁}\	-9615
agen	-9616
edBy	-9617
inct	-9618
oute	-9619
tele	-9620
yaml	-9621
DayOf	-9622
Marks	-9623
cover	-9624
encer	-9625
mouse	-9626
obody	-9627
▁Role	-9628
▁Tile	-9629
▁getP	-9630
COMPAT	-9631
DIRECT	-9632
DITION	-9633
DOUBLE	-9634
INFINI	-9635
IsUsed	-9636
Living	-9637
Remark	-9638
binary	-9639
border	-9640
tables	-9641
taskId	-9642
▁Paths	-9643
▁reads	-9644
▁{"));	-9645
CONTEXT	-9646
Cleanup	-9647
Expired	-9648
Formula	-9649
PRIMARY	-9650
Returns	-9651
getLeft	-9652
getTest	-9653
▁Parser	-9654
Reserved	-9655
UserData	-9656
▁correct	-9657
tribution	-9658
variables	-9659
WebElement	-9660
DEFINITIONS	-9661
ElementType	-9662
ReturnGeneral	-9663
ReferenceCycle	-9664
▁XmlSerializer	-9665
MessagePackable	-9666
▁expectedValues	-9667
InheritanceClass	-9668
$$	-9669
<<	-9670
Hr	-9671
gc	-9672
COM	-9673
ULE	-9674
hed	-9675
peg	-9676
rol	-9677
▁SH	-9678
ATER	-9679
Conv	-9680
akes	-9681
mers	-9682
scal	-9683
setB	-9684
▁two	-9685
2"));	-9686
>());	-9687
atlas	-9688
depth	-9689
▁your	-9690
ACCESS	-9691
Chrome	-9692
ciudad	-9693
licies	-9694
pulsar	-9695
riever	-9696
tology	-9697
▁Paint	-9698
methods	-9699
setSize	-9700
▁Struct	-9701
▁design	-9702
▁shared	-9703
artments	-9704
▁MCOMPAT	-9705
▁getFile	-9706
▁receive	-9707
▁summary	-9708
Completed	-9709
Duplicate	-9710
Rectangle	-9711
andReturn	-9712
discovery	-9713
workbench	-9714
▁External	-9715
▁material	-9716
▁quantity	-9717
Assignable	-9718
Subscriber	-9719
positories	-9720
▁ValueType	-9721
▁telemetry	-9722
enePermisos	-9723
getMetadata	-9724
parseDouble	-9725
sourceforge	-9726
▁regionCode	-9727
RuleResponse	-9728
hasQuestItems	-9729
▁OffsetDateTime	-9730
Io	-9731
)";	-9732
DOC	-9733
Mac	-9734
▁SE	-9735
DROP	-9736
PING	-9737
esis	-9738
fish	-9739
lood	-9740
maps	-9741
quis	-9742
CODER	-9743
COLOR	-9744
TYPES	-9745
dinal	-9746
jobId	-9747
movie	-9748
under	-9749
voker	-9750
yForm	-9751
▁Term	-9752
▁txId	-9753
Levels	-9754
edName	-9755
entral	-9756
ulated	-9757
▁facet	-9758
MISSION	-9759
Traffic	-9760
ascript	-9761
imeType	-9762
summary	-9763
▁Output	-9764
▁expert	-9765
▁router	-9766
Assigned	-9767
▁article	-9768
▁setUser	-9769
BuildFile	-9770
PorNombre	-9771
Requested	-9772
▁Solution	-9773
descripcion	-9774
▁getMessage	-9775
getNamespace	-9776
QF	-9777
jf	-9778
nf	-9779
BIT	-9780
Che	-9781
Tcp	-9782
gml	-9783
iec	-9784
sBy	-9785
sdl	-9786
JDBC	-9787
None	-9788
ORTH	-9789
Pref	-9790
STOR	-9791
Vlan	-9792
mong	-9793
setP	-9794
ysql	-9795
▁Red	-9796
▁sig	-9797
EXTEN	-9798
Shell	-9799
Ticks	-9800
getUn	-9801
ience	-9802
issue	-9803
tasks	-9804
udson	-9805
ursal	-9806
ItemId	-9807
TERNAL	-9808
camera	-9809
ensaje	-9810
getEnd	-9811
ipient	-9812
▁mView	-9813
▁power	-9814
▁setIs	-9815
BOOLEAN	-9816
Country	-9817
▁JBasic	-9818
IfNeeded	-9819
Solution	-9820
XContent	-9821
getQuery	-9822
▁Display	-9823
▁Toolbar	-9824
Locations	-9825
TextColor	-9826
ValuePair	-9827
▁KeyEvent	-9828
▁Material	-9829
▁Registry	-9830
▁filePath	-9831
▁returned	-9832
▁serialize	-9833
Informacion	-9834
isDirectory	-9835
▁contentType	-9836
hasPermission	-9837
Implementation	-9838
getInputStream	-9839
▁ValueProperties	-9840
89	-9841
QN	-9842
ze	-9843
Mic	-9844
Was	-9845
[],	-9846
fml	-9847
war	-9848
▁pd	-9849
'");	-9850
INAL	-9851
LASS	-9852
ease	-9853
otes	-9854
▁20;	-9855
▁Bad	-9856
▁Det	-9857
▁Zip	-9858
▁hor	-9859
(200,	-9860
FIRST	-9861
PARTI	-9862
TRANS	-9863
oller	-9864
serde	-9865
▁msgs	-9866
TIVITY	-9867
ackbar	-9868
criter	-9869
endant	-9870
▁curve	-9871
Formats	-9872
Nothing	-9873
VARCHAR	-9874
tracker	-9875
Timeline	-9876
channels	-9877
glEnable	-9878
▁cleanup	-9879
▁keyword	-9880
DataTypes	-9881
chedulers	-9882
productId	-9883
▁paramInt	-9884
▁tearDown	-9885
▁typeName	-9886
CONNECTION	-9887
Experiment	-9888
QueryParam	-9889
getChannel	-9890
▁composite	-9891
LastUpdated	-9892
clickOnText	-9893
▁comparator	-9894
▁identifier	-9895
ApiException	-9896
InstanceInfo	-9897
▁Certificate	-9898
checkArgument	-9899
▁MainActivity	-9900
▁StringWriter	-9901
▁setAttribute	-9902
RequestMapping	-9903
(\	-9904
;\	-9905
Hp	-9906
Own	-9907
SUP	-9908
css	-9909
tel	-9910
▁13	-9911
▁Br	-9912
▁Go	-9913
▁PO	-9914
▁ss	-9915
GAME	-9916
Zxid	-9917
aper	-9918
uxeo	-9919
▁201	-9920
MONTH	-9921
lipay	-9922
ossip	-9923
quick	-9924
▁help	-9925
Numero	-9926
Tensor	-9927
coming	-9928
riting	-9929
▁Prism	-9930
▁upper	-9931
dynamic	-9932
Expanded	-9933
ooKeeper	-9934
Multipart	-9935
generated	-9936
▁Executor	-9937
▁YamlNode	-9938
▁conexion	-9939
▁supports	-9940
▁vertices	-9941
edSnapshot	-9942
getSubject	-9943
▁Semaphore	-9944
▁provision	-9945
Compression	-9946
HttpHeaders	-9947
JobSpectraS	-9948
LayoutStyle	-9949
getInternal	-9950
getRequired	-9951
ByPrimaryKey	-9952
LinearLayout	-9953
PreferredGap	-9954
TraceEnabled	-9955
▁AtomicBoolean	-9956
addPreferredGap	-9957
27	-9958
6_	-9959
AIN	-9960
VEN	-9961
fcs	-9962
▁AL	-9963
▁Ab	-9964
▁IP	-9965
Repl	-9966
VOKE	-9967
ceso	-9968
ebit	-9969
pted	-9970
sosy	-9971
▁lib	-9972
▁ten	-9973
▁uid	-9974
CANCE	-9975
Fails	-9976
ToMap	-9977
abstr	-9978
asset	-9979
oving	-9980
unity	-9981
▁Disk	-9982
▁aver	-9983
▁getB	-9984
PECTED	-9985
course	-9986
ighted	-9987
imited	-9988
scroll	-9989
PROJECT	-9990
openide	-9991
taglibs	-9992
ultimap	-9993
▁master	-9994
▁nested	-9995
andatory	-9996
children	-9997
▁DataSet	-9998
▁Decoder	-9999
▁destroy	-10000
▁getNext	-10001
getValues	-10002
setAdapter	-10003
destination	-10004
▁Comparable	-10005
RegistryLite	-10006
▁credentials	-10007
executeUpdate	-10008
RequestBuilder	-10009
47	-10010
OA	-10011
OC	-10012
("_	-10013
29.	-10014
GUI	-10015
Mem	-10016
Orc	-10017
Pdf	-10018
asc	-10019
bor	-10020
jdk	-10021
▁HE	-10022
=");	-10023
Fast	-10024
Goal	-10025
Lazy	-10026
Logo	-10027
Warn	-10028
ento	-10029
pair	-10030
sbml	-10031
umes	-10032
ving	-10033
▁att	-10034
▁lbl	-10035
FEREN	-10036
Spark	-10037
edPos	-10038
▁note	-10039
Extent	-10040
Tracks	-10041
Wizard	-10042
agraph	-10043
olingo	-10044
▁latch	-10045
▁sheet	-10046
AndWait	-10047
Backend	-10048
mongodb	-10049
▁encryp	-10050
▁unsafe	-10051
Compress	-10052
getStack	-10053
gression	-10054
initions	-10055
spection	-10056
▁isValid	-10057
BeanClass	-10058
ufacturer	-10059
Executable	-10060
Expiration	-10061
Multiplier	-10062
Structures	-10063
Vocabulary	-10064
ScrollPanel	-10065
isAssignable	-10066
ypervisorType	-10067
isTraceEnabled	-10068
▁BufferedImage	-10069
▁userRepository	-10070
setPreferredSize	-10071
RY	-10072
cu	-10073
mf	-10074
▁#	-10075
64.	-10076
CLU	-10077
DES	-10078
Dim	-10079
bos	-10080
ddr	-10081
zer	-10082
▁mT	-10083
▁om	-10084
1"),	-10085
City	-10086
Graf	-10087
acao	-10088
apon	-10089
have	-10090
only	-10091
ulty	-10092
▁11,	-10093
▁MIN	-10094
▁ant	-10095
INPUT	-10096
Press	-10097
Valor	-10098
ocker	-10099
small	-10100
trust	-10101
▁eval	-10102
Indent	-10103
Nested	-10104
allery	-10105
branch	-10106
ipment	-10107
ponent	-10108
stacle	-10109
urance	-10110
▁ERROR	-10111
▁Merge	-10112
▁Paged	-10113
▁Style	-10114
▁avail	-10115
▁train	-10116
Teacher	-10117
citygml	-10118
filters	-10119
lighter	-10120
▁tables	-10121
PoolSize	-10122
Profiles	-10123
Purchase	-10124
Tracking	-10125
Velocity	-10126
distance	-10127
nextWord	-10128
ramerate	-10129
requency	-10130
▁forward	-10131
Connexion	-10132
Highlight	-10133
TokenType	-10134
addEntity	-10135
direction	-10136
getSecond	-10137
mFragment	-10138
reactivex	-10139
▁features	-10140
▁sentencia	-10141
Modification	-10142
addAttribute	-10143
▁classLoader	-10144
getAnnotation	-10145
▁Elasticsearch	-10146
▁getDescription	-10147
isAssignableFrom	-10148
3/	-10149
IX	-10150
TS	-10151
01;	-10152
IGH	-10153
RGB	-10154
SEL	-10155
ars	-10156
csv	-10157
ese	-10158
ose	-10159
osp	-10160
▁(-	-10161
▁pe	-10162
("--	-10163
AMAN	-10164
WEST	-10165
agon	-10166
auge	-10167
prim	-10168
prox	-10169
unda	-10170
walk	-10171
ANNEL	-10172
Assoc	-10173
Helix	-10174
INSTL	-10175
ToGet	-10176
arios	-10177
jruby	-10178
share	-10179
stuff	-10180
▁REST	-10181
▁coll	-10182
▁elem	-10183
▁extr	-10184
▁prec	-10185
IdType	-10186
ensure	-10187
▁Admin	-10188
▁alpha	-10189
▁oprot	-10190
(1000);	-10191
getBean	-10192
restore	-10193
▁AsPath	-10194
▁PARSER	-10195
delegate	-10196
▁because	-10197
▁pointer	-10198
Exclusive	-10199
HashIndex	-10200
ternative	-10201
getArtifact	-10202
queryParams	-10203
JsonProperty	-10204
parseBoolean	-10205
▁CommandLine	-10206
▁getProperty	-10207
TienePermisos	-10208
getIdentifier	-10209
▁provinciaAux	-10210
checkNamespace	-10211
SimpleDateFormat	-10212
3(	-10213
["	-10214
lc	-10215
12.	-10216
EXP	-10217
MAY	-10218
pac	-10219
win	-10220
▁Bu	-10221
▁sk	-10222
(-1,	-10223
MODU	-10224
opts	-10225
▁cut	-10226
Modal	-10227
Study	-10228
TOPIC	-10229
Todos	-10230
Union	-10231
autom	-10232
cards	-10233
oofax	-10234
▁Size	-10235
▁tile	-10236
ACTIVE	-10237
FILTER	-10238
archar	-10239
efined	-10240
erview	-10241
rowser	-10242
▁angle	-10243
DcMotor	-10244
failure	-10245
publish	-10246
▁common	-10247
▁mPaint	-10248
////////	-10249
CaseData	-10250
DATETIME	-10251
GElement	-10252
Marshall	-10253
Products	-10254
TIFICATE	-10255
etermine	-10256
getEvent	-10257
▁Decimal	-10258
getRegion	-10259
ordinator	-10260
robotcore	-10261
▁Identity	-10262
FinanceRow	-10263
SourceFile	-10264
ArrayEquals	-10265
Compartment	-10266
InetAddress	-10267
Measurement	-10268
ObjectField	-10269
RequestBody	-10270
UserService	-10271
ListResponse	-10272
Transactional	-10273
▁InputHandler	-10274
DecimalUtility	-10275
▁RemoteException	-10276
IID	-10277
REF	-10278
▁fn	-10279
▁jp	-10280
Heap	-10281
Logs	-10282
Mail	-10283
leaf	-10284
mass	-10285
orph	-10286
▁ALL	-10287
▁Hor	-10288
▁big	-10289
▁geo	-10290
Forum	-10291
IMAGE	-10292
Restr	-10293
realm	-10294
vertx	-10295
▁kmer	-10296
▁like	-10297
BUTION	-10298
Browse	-10299
ampler	-10300
atable	-10301
minate	-10302
toFile	-10303
▁junit	-10304
INTEGER	-10305
Partial	-10306
Polygon	-10307
camunda	-10308
dataSet	-10309
trigger	-10310
usuario	-10311
▁anchor	-10312
ENDPOINT	-10313
Editable	-10314
Recorder	-10315
Unsigned	-10316
▁Options	-10317
▁endTime	-10318
aggregate	-10319
messaging	-10320
▁redirect	-10321
ColumnName	-10322
StringUtil	-10323
getPerunBl	-10324
ofNullable	-10325
▁validator	-10326
Retenciones	-10327
ShortNumber	-10328
Intermediate	-10329
DatabaseError	-10330
▁loggerMessage	-10331
getSelectedItem	-10332
6-	-10333
WR	-10334
px	-10335
("*	-10336
2),	-10337
202	-10338
Ann	-10339
IGN	-10340
IdP	-10341
MIT	-10342
MOB	-10343
▁'}	-10344
▁bs	-10345
Plot	-10346
Ramp	-10347
Wind	-10348
onus	-10349
setS	-10350
▁200	-10351
▁Car	-10352
▁Gui	-10353
▁may	-10354
Cover	-10355
Estim	-10356
\030\	-10357
stock	-10358
▁Step	-10359
▁ctxt	-10360
▁mBtn	-10361
BINARY	-10362
Ciudad	-10363
MODULE	-10364
STREAM	-10365
Stored	-10366
killer	-10367
nobody	-10368
raries	-10369
viewer	-10370
▁getIs	-10371
▁pause	-10372
▁robot	-10373
▁space	-10374
▁which	-10375
Inverse	-10376
MapView	-10377
Purpose	-10378
Reports	-10379
artbeat	-10380
omentum	-10381
tagPool	-10382
▁hudson	-10383
emptyMap	-10384
required	-10385
supplier	-10386
▁actions	-10387
▁texture	-10388
▁writeTo	-10389
Detection	-10390
Workspace	-10391
getDouble	-10392
glDisable	-10393
▁bitField	-10394
▁contract	-10395
Generation	-10396
StatusCode	-10397
▁Inventory	-10398
▁Predicate	-10399
▁variables	-10400
Expressions	-10401
▁Assignment	-10402
singletonMap	-10403
▁assertQuery	-10404
▁packageName	-10405
▁CharSequence	-10406
▁JSONException	-10407
cantonBeanSwing	-10408
MethodDescriptor	-10409
▁GridConstraints	-10410
▁certificateName	-10411
sa	-10412
(25	-10413
ALS	-10414
NaN	-10415
cmp	-10416
iso	-10417
les	-10418
▁LE	-10419
1234	-10420
IMUM	-10421
Wrap	-10422
anno	-10423
icio	-10424
keep	-10425
▁EMP	-10426
▁cls	-10427
▁sch	-10428
PROTO	-10429
Skill	-10430
Spawn	-10431
Trial	-10432
USTOM	-10433
tuple	-10434
ullet	-10435
▁Fast	-10436
▁HTTP	-10437
▁clip	-10438
ALIZED	-10439
Phrase	-10440
VEvent	-10441
ibatis	-10442
plorer	-10443
▁watch	-10444
AtLeast	-10445
Parsing	-10446
Receipt	-10447
Working	-10448
entrant	-10449
▁COLUMN	-10450
▁Device	-10451
▁Direct	-10452
Comments	-10453
Compiler	-10454
Shutdown	-10455
▁strings	-10456
▁toolbar	-10457
Inclusion	-10458
IpAddress	-10459
Malformed	-10460
nextToken	-10461
presenter	-10462
publisher	-10463
setBounds	-10464
telemetry	-10465
▁Business	-10466
▁doAnswer	-10467
▁embedded	-10468
▁workflow	-10469
Exceptions	-10470
PullParser	-10471
getExternal	-10472
▁Invocation	-10473
ResponseCode	-10474
WithResponse	-10475
setTextColor	-10476
▁TestHelpers	-10477
RequestMetrics	-10478
getInputHandler	-10479
incrementAndGet	-10480
▁parameterIndex	-10481
cn	-10482
fd	-10483
mk	-10484
808	-10485
:",	-10486
CAP	-10487
CLE	-10488
cts	-10489
ryo	-10490
una	-10491
vim	-10492
Care	-10493
PROP	-10494
STOP	-10495
VARI	-10496
VERI	-10497
dhis	-10498
unge	-10499
Desde	-10500
EXIST	-10501
POWER	-10502
UTTON	-10503
cause	-10504
drill	-10505
games	-10506
nuxeo	-10507
oodie	-10508
▁getT	-10509
Amazon	-10510
Finish	-10511
LatLng	-10512
ToDeep	-10513
actors	-10514
backup	-10515
finish	-10516
▁EMPTY	-10517
▁Typed	-10518
▁appId	-10519
Deliver	-10520
PACKAGE	-10521
equalTo	-10522
runners	-10523
ApiModel	-10524
BlockPos	-10525
Clusters	-10526
ordinate	-10527
RESTUtils	-10528
Remaining	-10529
ufficient	-10530
▁Decision	-10531
▁drawable	-10532
DataObject	-10533
columnName	-10534
dependency	-10535
setCurrent	-10536
contentType	-10537
displayName	-10538
vInvocation	-10539
▁Validation	-10540
AgentSettings	-10541
ingServiceName	-10542
ConnexionToDeep	-10543
FieldsBeanClass	-10544
istoricDecision	-10545
45	-10546
Dia	-10547
WIN	-10548
▁2:	-10549
▁au	-10550
▁bt	-10551
FROM	-10552
Quan	-10553
getT	-10554
gets	-10555
icmp	-10556
ihmc	-10557
▁git	-10558
ABASE	-10559
Quote	-10560
Regex	-10561
atego	-10562
cesar	-10563
ttype	-10564
▁"]";	-10565
▁JAXB	-10566
AMANIO	-10567
Follow	-10568
Mobile	-10569
Repair	-10570
SQLite	-10571
TARGET	-10572
assign	-10573
reform	-10574
▁Start	-10575
▁lists	-10576
▁shell	-10577
GENERAL	-10578
Javadoc	-10579
Streams	-10580
private	-10581
virtual	-10582
wrapper	-10583
▁Cursor	-10584
▁doTest	-10585
▁issues	-10586
Handling	-10587
VERTICAL	-10588
download	-10589
getRight	-10590
▁getLast	-10591
EXTENSION	-10592
Retention	-10593
TRIBUTION	-10594
TableCell	-10595
startTime	-10596
MessageTag	-10597
SubCluster	-10598
setDefault	-10599
▁EventType	-10600
▁firstName	-10601
▁jComboBox	-10602
▁listeners	-10603
▁parseFrom	-10604
CERTIFICATE	-10605
deserialize	-10606
getFunction	-10607
▁HttpStatus	-10608
▁actualBlob	-10609
ApiConstants	-10610
BaseMessages	-10611
Configurable	-10612
FileTemplate	-10613
Instructions	-10614
ClassNotFound	-10615
URLConnection	-10616
CarteraDefecto	-10617
ChaincodeEvent	-10618
ServiceRequest	-10619
▁PendingIntent	-10620
▁methodBuilder	-10621
LD	-10622
bv	-10623
cy	-10624
CAM	-10625
VEL	-10626
[3]	-10627
dsl	-10628
hit	-10629
▁(2	-10630
▁Gu	-10631
▁SU	-10632
▁mc	-10633
Guru	-10634
IELD	-10635
ONLY	-10636
area	-10637
atom	-10638
life	-10639
odId	-10640
oded	-10641
Chars	-10642
Mixin	-10643
OutPt	-10644
ToLog	-10645
▁decl	-10646
getPay	-10647
iverse	-10648
toPath	-10649
▁IData	-10650
▁chars	-10651
▁rkmer	-10652
Already	-10653
Empresa	-10654
getRole	-10655
getTask	-10656
imiento	-10657
members	-10658
weather	-10659
▁Binary	-10660
▁Volume	-10661
▁border	-10662
▁vector	-10663
Affected	-10664
Families	-10665
OrCreate	-10666
Revision	-10667
XmEntity	-10668
▁ACCOUNT	-10669
▁contain	-10670
▁minimum	-10671
FieldType	-10672
shortInfo	-10673
▁deviceId	-10674
▁rotation	-10675
▁xmEntity	-10676
▁department	-10677
▁dispatcher	-10678
ResourceType	-10679
getPartition	-10680
▁MotionEvent	-10681
Authenticated	-10682
BlockingQueue	-10683
createElement	-10684
▁AttributeSet	-10685
▁getDescriptor	-10686
▁requireNonNull	-10687
.5	-10688
8_	-10689
Fe	-10690
NI	-10691
SN	-10692
},	-10693
Esc	-10694
std	-10695
▁0:	-10696
▁36	-10697
▁Bi	-10698
▁UP	-10699
▁cu	-10700
Docs	-10701
Rank	-10702
Then	-10703
[1].	-10704
aplo	-10705
▁raf	-10706
About	-10707
LIGHT	-10708
SPECI	-10709
Until	-10710
alert	-10711
ebean	-10712
forum	-10713
ither	-10714
▁Icon	-10715
▁SBML	-10716
▁Send	-10717
▁\001	-10718
Issuer	-10719
MINUTE	-10720
MITIVE	-10721
bitmap	-10722
getRaw	-10723
reload	-10724
setMin	-10725
▁")");	-10726
▁BinOp	-10727
▁forum	-10728
▁lower	-10729
▁movie	-10730
▁paths	-10731
Gravity	-10732
Numbers	-10733
Samples	-10734
addLast	-10735
keyword	-10736
lectric	-10737
setTime	-10738
Semantic	-10739
creation	-10740
▁Persist	-10741
▁locator	-10742
▁methods	-10743
▁reverse	-10744
Consumers	-10745
efficient	-10746
getBuffer	-10747
getGroups	-10748
▁calendar	-10749
▁provided	-10750
PROPERTIES	-10751
▁productId	-10752
AdapterView	-10753
getPassword	-10754
▁constraint	-10755
distribution	-10756
JSONException	-10757
ThreadContext	-10758
ServiceRollout	-10759
PayloadCategory	-10760
RangerRESTUtils	-10761
****************	-10762
ScrollPanelDatos	-10763
(9	-10764
86	-10765
DP	-10766
SB	-10767
vt	-10768
("1	-10769
BAD	-10770
CBC	-10771
Csv	-10772
FOL	-10773
MEN	-10774
bat	-10775
cla	-10776
ior	-10777
rar	-10778
rdf	-10779
▁ai	-10780
▁nl	-10781
Dept	-10782
Eval	-10783
exam	-10784
jena	-10785
orth	-10786
trib	-10787
▁fdl	-10788
-8");	-10789
Goods	-10790
TRACE	-10791
named	-10792
pause	-10793
stell	-10794
▁Hive	-10795
▁Lock	-10796
▁each	-10797
▁isIn	-10798
▁poly	-10799
Ranges	-10800
indent	-10801
▁Route	-10802
▁Smart	-10803
Aligned	-10804
CHANNEL	-10805
PRIVATE	-10806
Stopped	-10807
managed	-10808
▁Native	-10809
▁Ranger	-10810
EventBus	-10811
getValor	-10812
▁Instant	-10813
▁Metrics	-10814
▁filters	-10815
▁reactor	-10816
Annotated	-10817
analytics	-10818
interrupt	-10819
predicate	-10820
▁RESOURCE	-10821
EventCount	-10822
SpringBoot	-10823
setContent	-10824
Distributed	-10825
doubleValue	-10826
▁HttpClient	-10827
addPortfolio	-10828
getCanonical	-10829
▁Instruction	-10830
getBlockState	-10831
▁distribution	-10832
HashIndexReuse	-10833
ManagerFactory	-10834
performControl	-10835
2<	-10836
DN	-10837
[6	-10838
▁,	-10839
('\	-10840
(15	-10841
CRI	-10842
ERA	-10843
Jpa	-10844
Ssl	-10845
eth	-10846
iki	-10847
inv	-10848
nav	-10849
oda	-10850
utf	-10851
zai	-10852
▁Lo	-10853
▁pf	-10854
000;	-10855
Best	-10856
Gray	-10857
OPEN	-10858
Walk	-10859
addr	-10860
bill	-10861
done	-10862
gres	-10863
jing	-10864
meth	-10865
poll	-10866
▁":"	-10867
▁fit	-10868
▁ssc	-10869
Coded	-10870
Plain	-10871
black	-10872
hmcts	-10873
hyper	-10874
rator	-10875
reach	-10876
reuse	-10877
titus	-10878
toMap	-10879
xpack	-10880
▁Null	-10881
Auxili	-10882
Insets	-10883
Latest	-10884
Manual	-10885
Office	-10886
SCRIPT	-10887
ancial	-10888
attend	-10889
getMin	-10890
propag	-10891
unique	-10892
▁Clone	-10893
Attempt	-10894
CLUSTER	-10895
Overlap	-10896
authent	-10897
icipant	-10898
nonNull	-10899
padding	-10900
reeting	-10901
setIcon	-10902
▁Google	-10903
▁assign	-10904
▁rotate	-10905
▁vmName	-10906
>>>>>>>>	-10907
Overflow	-10908
Validity	-10909
typeName	-10910
▁getView	-10911
▁literal	-10912
▁reporte	-10913
▁routing	-10914
ThreadSet	-10915
cassandra	-10916
readsheet	-10917
▁segments	-10918
Ingredient	-10919
JTextField	-10920
▁Benchmark	-10921
▁Signature	-10922
▁candidate	-10923
▁getColumn	-10924
▁remaining	-10925
BeforeClass	-10926
▁FileReader	-10927
▁getContext	-10928
▁httpClient	-10929
ationHeading	-10930
getContainer	-10931
▁Distributed	-10932
▁serviceName	-10933
EncryptionKey	-10934
LayoutManager	-10935
ClientResponse	-10936
ModelException	-10937
▁intSelectedRow	-10938
ExceptionMessage	-10939
0:	-10940
DR	-10941
OO	-10942
XX	-10943
oy	-10944
(//	-10945
007	-10946
NER	-10947
ddy	-10948
sak	-10949
ung	-10950
utr	-10951
uts	-10952
▁Dr	-10953
▁Js	-10954
▁VI	-10955
▁tc	-10956
▁wl	-10957
Face	-10958
Hits	-10959
Misc	-10960
aily	-10961
apps	-10962
artz	-10963
sink	-10964
▁Cap	-10965
▁ans	-10966
▁mIs	-10967
Clean	-10968
Forms	-10969
Hints	-10970
Maker	-10971
Mongo	-10972
guard	-10973
lower	-10974
toInt	-10975
▁'{}'	-10976
▁0.0;	-10977
▁Bank	-10978
▁CODE	-10979
▁INTO	-10980
▁gson	-10981
▁hide	-10982
▁keep	-10983
▁leaf	-10984
▁rate	-10985
DArray	-10986
Pagina	-10987
ariate	-10988
folder	-10989
ledger	-10990
locale	-10991
▁coord	-10992
BINDING	-10993
Maximum	-10994
STORAGE	-10995
dismiss	-10996
getByte	-10997
helpers	-10998
setLast	-10999
▁Sample	-11000
▁butter	-11001
Gradient	-11002
aplotype	-11003
exchange	-11004
getCause	-11005
getUsage	-11006
hardware	-11007
rollback	-11008
setRetry	-11009
▁collect	-11010
▁dynamic	-11011
▁findAll	-11012
▁related	-11013
▁setType	-11014
Subscribe	-11015
Activities	-11016
provincias	-11017
▁JMenuItem	-11018
▁migration	-11019
CommandLine	-11020
ExpertTower	-11021
CommandEvent	-11022
▁convertView	-11023
ClientException	-11024
53	-11025
bd	-11026
("@	-11027
6",	-11028
Err	-11029
FOO	-11030
ORE	-11031
Pin	-11032
ern	-11033
jvm	-11034
udo	-11035
▁17	-11036
▁PA	-11037
▁Wh	-11038
Dtos	-11039
Guid	-11040
Hive	-11041
RESH	-11042
Shop	-11043
mods	-11044
ssdk	-11045
▁MAP	-11046
▁acc	-11047
▁lon	-11048
▁mer	-11049
▁mor	-11050
▁pid	-11051
Camel	-11052
MAYBE	-11053
Money	-11054
\022\	-11055
getEs	-11056
knife	-11057
produ	-11058
times	-11059
▁Port	-11060
▁exam	-11061
▁pref	-11062
▁rand	-11063
Objeto	-11064
Thrift	-11065
codigo	-11066
points	-11067
▁100);	-11068
▁Bound	-11069
▁modal	-11070
Crawler	-11071
Develop	-11072
Promise	-11073
airbyte	-11074
mostrar	-11075
visible	-11076
▁Backup	-11077
▁\001(\	-11078
▁follow	-11079
TestBase	-11080
TypeUtil	-11081
▁BOOLEAN	-11082
▁console	-11083
▁student	-11084
Collision	-11085
HexString	-11086
getCustom	-11087
isVisible	-11088
▁dataType	-11089
CreateTime	-11090
operations	-11091
setRequest	-11092
▁Datastore	-11093
▁Transport	-11094
▁byteArray	-11095
▁getStatus	-11096
▁ViewHolder	-11097
▁Observation	-11098
▁VirtualFile	-11099
▁deserialize	-11100
▁ServiceBacked	-11101
ChangedListener	-11102
FileInputStream	-11103
NotNullablePack	-11104
SearchParameter	-11105
ServiceOffering	-11106
ServiceException	-11107
▁checkAttributes	-11108
JS	-11109
Oc	-11110
Os	-11111
Xg	-11112
DIG	-11113
GEN	-11114
PED	-11115
Pod	-11116
afv	-11117
equ	-11118
gax	-11119
hal	-11120
▁31	-11121
▁4)	-11122
▁JB	-11123
1\1\	-11124
ATIC	-11125
Pose	-11126
dirs	-11127
getJ	-11128
setN	-11129
▁1))	-11130
▁>>>	-11131
▁ioe	-11132
ATURE	-11133
Xgafv	-11134
ading	-11135
crual	-11136
icast	-11137
nowfl	-11138
rypto	-11139
▁memo	-11140
▁refs	-11141
COMPLE	-11142
Checks	-11143
ersect	-11144
mapbox	-11145
omment	-11146
rotate	-11147
▁Close	-11148
▁mCall	-11149
AndType	-11150
encoded	-11151
▁getKey	-11152
▁nombre	-11153
Exporter	-11154
FieldSet	-11155
INFINITY	-11156
Recovery	-11157
UserInfo	-11158
aliyuncs	-11159
getImage	-11160
requests	-11161
Classpath	-11162
Populator	-11163
completed	-11164
listeners	-11165
Calculator	-11166
getDisplay	-11167
▁Generator	-11168
SQLFunction	-11169
TableColumn	-11170
ableProduct	-11171
abstraction	-11172
getUsername	-11173
NotSupported	-11174
▁butterknife	-11175
isNullOrEmpty	-11176
Configurations	-11177
(":	-11178
789	-11179
ADO	-11180
ASY	-11181
DEL	-11182
Edm	-11183
Hub	-11184
mpt	-11185
tud	-11186
LAST	-11187
Rele	-11188
Susp	-11189
Vote	-11190
]));	-11191
ades	-11192
erve	-11193
ikip	-11194
none	-11195
prod	-11196
tifi	-11197
▁Can	-11198
▁PER	-11199
▁Vis	-11200
▁cnt	-11201
▁den	-11202
▁dup	-11203
Blend	-11204
Locks	-11205
STACK	-11206
agers	-11207
moved	-11208
ocial	-11209
perun	-11210
ribut	-11211
ually	-11212
▁Rece	-11213
▁offs	-11214
▁vlan	-11215
Banner	-11216
HEIGHT	-11217
htable	-11218
period	-11219
tenant	-11220
▁GROUP	-11221
▁occur	-11222
Aliases	-11223
ForType	-11224
IndexTo	-11225
angelog	-11226
feedzai	-11227
▁Reader	-11228
▁sensor	-11229
▁sorted	-11230
ZkClient	-11231
getCache	-11232
ikipedia	-11233
levation	-11234
nowflake	-11235
▁balance	-11236
▁wrapper	-11237
Procedure	-11238
countDown	-11239
▁entities	-11240
▁hardware	-11241
▁chunkSize	-11242
setPosition	-11243
FromResource	-11244
URLException	-11245
▁getApplication	-11246
UD	-11247
VC	-11248
ky	-11249
(6,	-11250
Dns	-11251
TUR	-11252
]))	-11253
ely	-11254
hub	-11255
raz	-11256
sid	-11257
uta	-11258
▁Op	-11259
▁df	-11260
▁ls	-11261
▁pm	-11262
(201	-11263
5");	-11264
Dict	-11265
STRI	-11266
UNCH	-11267
▁256	-11268
▁PRI	-11269
▁der	-11270
▁yet	-11271
Guest	-11272
House	-11273
Maven	-11274
Noise	-11275
atisf	-11276
exist	-11277
parts	-11278
speed	-11279
▁1024	-11280
▁Fake	-11281
▁atom	-11282
▁peer	-11283
▁slow	-11284
▁team	-11285
Propor	-11286
Wallet	-11287
attack	-11288
atural	-11289
manent	-11290
nector	-11291
ponses	-11292
▁Debug	-11293
▁alarm	-11294
▁trace	-11295
Bitmaps	-11296
avorite	-11297
getDisk	-11298
▁produc	-11299
▁regEnt	-11300
Appender	-11301
mpleados	-11302
▁Subject	-11303
▁targets	-11304
▁working	-11305
Bootstrap	-11306
Configure	-11307
Histogram	-11308
calculate	-11309
otlinFile	-11310
putString	-11311
Configurer	-11312
HostConfig	-11313
OuterClass	-11314
▁iteration	-11315
TestContext	-11316
packageName	-11317
▁getVersion	-11318
▁onComplete	-11319
ErrorMessage	-11320
DialogInterface	-11321
VocabularyValue	-11322
barrioBeanSwing	-11323
▁ClassPathLoader	-11324
DH	-11325
bg	-11326
oi	-11327
(1)	-11328
ARE	-11329
HAL	-11330
OAD	-11331
Pok	-11332
ptr	-11333
▁sd	-11334
Coin	-11335
FIED	-11336
ToBe	-11337
cost	-11338
rect	-11339
swig	-11340
tinu	-11341
▁2).	-11342
▁jav	-11343
Badge	-11344
Masks	-11345
anned	-11346
icion	-11347
jface	-11348
rides	-11349
▁"1",	-11350
▁'}';	-11351
▁Join	-11352
▁kind	-11353
INSTIL	-11354
Locked	-11355
PARSER	-11356
Thrown	-11357
Unidad	-11358
ambari	-11359
arioAI	-11360
friend	-11361
uncate	-11362
▁Store	-11363
▁Types	-11364
▁helix	-11365
Mensaje	-11366
Scaling	-11367
verbose	-11368
▁Aggreg	-11369
▁direct	-11370
FillType	-11371
OrUpdate	-11372
firebase	-11373
ifecycle	-11374
learning	-11375
squareup	-11376
userName	-11377
▁Program	-11378
▁deleted	-11379
▁replica	-11380
▁surface	-11381
DataStore	-11382
arguments	-11383
parseLong	-11384
precision	-11385
▁ActiveMQ	-11386
▁getState	-11387
▁mHandler	-11388
HORIZONTAL	-11389
MethodName	-11390
Proporcion	-11391
▁Partition	-11392
▁primitive	-11393
ertificates	-11394
getPosition	-11395
EmailAddress	-11396
Interpolator	-11397
OutputFormat	-11398
getEsGuardar	-11399
registration	-11400
arioAIOptions	-11401
▁ParamKeyValue	-11402
▁ZonedDateTime	-11403
▁ActionListener	-11404
▁historyService	-11405
-"	-11406
3:	-11407
DL	-11408
JID	-11409
cii	-11410
git	-11411
rog	-11412
▁ge	-11413
(21)	-11414
Fake	-11415
Ring	-11416
SHOT	-11417
STER	-11418
iece	-11419
maxX	-11420
need	-11421
▁Ssl	-11422
▁Use	-11423
DIGIT	-11424
alyze	-11425
atial	-11426
ofbiz	-11427
▁Draw	-11428
▁Tool	-11429
▁stub	-11430
Barrio	-11431
Cipher	-11432
alette	-11433
fluent	-11434
ission	-11435
native	-11436
recogn	-11437
▁"'");	-11438
▁Board	-11439
CREATED	-11440
EntryIs	-11441
Matches	-11442
desktop	-11443
outMenu	-11444
returns	-11445
sources	-11446
systems	-11447
▁Effect	-11448
▁filled	-11449
CenterId	-11450
EDEFAULT	-11451
numberOf	-11452
observer	-11453
setField	-11454
ternally	-11455
▁Library	-11456
▁Payment	-11457
▁cliente	-11458
IsMutable	-11459
JComboBox	-11460
Knowledge	-11461
Violation	-11462
getNumber	-11463
getOffset	-11464
getPrefix	-11465
▁defStyle	-11466
▁getModel	-11467
▁setTitle	-11468
Diagnostic	-11469
Production	-11470
tableAname	-11471
▁JComboBox	-11472
▁throwable	-11473
▁tokenizer	-11474
▁Disciplina	-11475
▁whenEntryIs	-11476
ComponentItem	-11477
intSelectedRow	-11478
ExceptionHandler	-11479
ToolBarProvincia	-11480
?,	-11481
CY	-11482
II	-11483
25.	-11484
ISH	-11485
[].	-11486
cos	-11487
mdk	-11488
sal	-11489
sap	-11490
uke	-11491
▁fi	-11492
▁lv	-11493
("1.	-11494
(500	-11495
*");	-11496
Swap	-11497
VERE	-11498
YAML	-11499
enix	-11500
plet	-11501
poly	-11502
rank	-11503
resp	-11504
self	-11505
sers	-11506
uler	-11507
▁Art	-11508
Known	-11509
Scrol	-11510
Steps	-11511
TType	-11512
cAtom	-11513
coord	-11514
errar	-11515
tType	-11516
▁saga	-11517
CAMERA	-11518
Charge	-11519
Define	-11520
errors	-11521
▁Dummy	-11522
▁Mouse	-11523
Browser	-11524
COMMAND	-11525
Closing	-11526
Reverse	-11527
Workout	-11528
archiva	-11529
asyMock	-11530
strings	-11531
visitor	-11532
▁cookie	-11533
KeyStore	-11534
Recargar	-11535
Scenario	-11536
UserType	-11537
addChild	-11538
calendar	-11539
evaluate	-11540
receiver	-11541
rotation	-11542
▁Student	-11543
▁concept	-11544
BagLayout	-11545
Precision	-11546
construct	-11547
getWindow	-11548
usionstor	-11549
▁Launcher	-11550
▁buffered	-11551
▁lastName	-11552
▁operator	-11553
▁rowIndex	-11554
Adjustment	-11555
ObjectName	-11556
jackrabbit	-11557
▁fieldType	-11558
▁projectId	-11559
▁workspace	-11560
FieldMapper	-11561
InputDialog	-11562
SizeInBytes	-11563
DataSnapshot	-11564
FieldBuilder	-11565
getTimestamp	-11566
toJSONString	-11567
▁MeasureSpec	-11568
setHorizontal	-11569
▁VMInstanceVO	-11570
▁assertThrows	-11571
ValueReference	-11572
createHistoric	-11573
getDisplayName	-11574
BulkJobSpectraS	-11575
InternetGateway	-11576
unmodifiableList	-11577
▁resourceElement	-11578
[(	-11579
aM	-11580
bt	-11581
dn	-11582
fi	-11583
("(	-11584
999	-11585
Exc	-11586
Too	-11587
deb	-11588
egl	-11589
▁(;	-11590
$");	-11591
(0.0	-11592
(100	-11593
SHOW	-11594
ichi	-11595
stab	-11596
weet	-11597
Clone	-11598
Dates	-11599
Debit	-11600
Parts	-11601
SENSI	-11602
Ships	-11603
Smart	-11604
appId	-11605
devel	-11606
month	-11607
reply	-11608
xpath	-11609
▁Fire	-11610
▁dead	-11611
▁myDt	-11612
▁scal	-11613
CANCEL	-11614
SINGLE	-11615
ansion	-11616
awssdk	-11617
essell	-11618
putInt	-11619
shadow	-11620
▁""));	-11621
▁Helix	-11622
▁Movie	-11623
▁addTo	-11624
▁lease	-11625
▁links	-11626
DoesNot	-11627
Special	-11628
hasMore	-11629
hasSize	-11630
ickNote	-11631
integer	-11632
▁resize	-11633
EXPECTED	-11634
fromJson	-11635
isActive	-11636
software	-11637
▁Example	-11638
▁integer	-11639
▁provide	-11640
▁seconds	-11641
Behaviour	-11642
EXCEPTION	-11643
accountId	-11644
hancement	-11645
▁DbEntity	-11646
▁Interval	-11647
▁allocate	-11648
artifactId	-11649
▁Scheduled	-11650
▁sessionId	-11651
ManagerStub	-11652
PropertySet	-11653
RedirectUri	-11654
inputStream	-11655
Interactions	-11656
▁getActivity	-11657
▁requestCode	-11658
RpcController	-11659
EmergencyNumber	-11660
ElementException	-11661
lm	-11662
lw	-11663
wp	-11664
Cpu	-11665
Dsl	-11666
Iso	-11667
Kit	-11668
Nos	-11669
RAD	-11670
esp	-11671
gra	-11672
iet	-11673
ims	-11674
isN	-11675
pet	-11676
rev	-11677
sin	-11678
uml	-11679
xal	-11680
▁LA	-11681
▁nr	-11682
/");	-11683
Elem	-11684
IQUE	-11685
Ints	-11686
Mono	-11687
mtrl	-11688
roke	-11689
▁Vec	-11690
▁dto	-11691
▁seq	-11692
01003	-11693
BATCH	-11694
Cases	-11695
Later	-11696
ROUND	-11697
Slash	-11698
ickup	-11699
optim	-11700
using	-11701
▁5));	-11702
▁NAME	-11703
▁more	-11704
Editar	-11705
Figure	-11706
Imagen	-11707
ToLive	-11708
ailing	-11709
carded	-11710
getJob	-11711
latest	-11712
loaded	-11713
taichi	-11714
webapp	-11715
▁Asset	-11716
▁Mongo	-11717
▁popup	-11718
Editing	-11719
TAMANIO	-11720
getRule	-11721
logFile	-11722
matched	-11723
reports	-11724
▁STATUS	-11725
▁health	-11726
▁inputs	-11727
▁margin	-11728
▁regist	-11729
LessThan	-11730
getItems	-11731
ointment	-11732
setError	-11733
▁TreeMap	-11734
▁authent	-11735
▁isEmpty	-11736
PopupMenu	-11737
Templates	-11738
dashboard	-11739
▁Progress	-11740
▁dbEntity	-11741
▁keyValue	-11742
▁services	-11743
Enterprise	-11744
Processors	-11745
hasContent	-11746
processing	-11747
▁isPermiso	-11748
FileChooser	-11749
certificate	-11750
▁Dependency	-11751
▁FileWriter	-11752
ObjetoActual	-11753
StateListener	-11754
▁errorMessage	-11755
▁propertyName	-11756
LocationClient	-11757
▁LinkedHashSet	-11758
MessageReference	-11759
Kn	-11760
RM	-11761
1_1	-11762
ODY	-11763
]],	-11764
esk	-11765
scr	-11766
sey	-11767
suc	-11768
▁"5	-11769
▁si	-11770
BLUE	-11771
CKET	-11772
Lost	-11773
Mean	-11774
PUSH	-11775
QUEN	-11776
UTIL	-11777
cdwa	-11778
geom	-11779
guid	-11780
hisp	-11781
ised	-11782
lied	-11783
proc	-11784
robo	-11785
roov	-11786
▁Def	-11787
▁did	-11788
CLOSE	-11789
HBase	-11790
Renew	-11791
ecess	-11792
ecurs	-11793
front	-11794
iding	-11795
izers	-11796
▁Case	-11797
▁FORM	-11798
▁SERI	-11799
▁emit	-11800
▁util	-11801
Buscar	-11802
DOMAIN	-11803
Flight	-11804
Issues	-11805
JFrame	-11806
SEVERE	-11807
Semana	-11808
Serial	-11809
attach	-11810
cargar	-11811
margin	-11812
reason	-11813
zstack	-11814
▁Proxy	-11815
▁VALID	-11816
▁depth	-11817
▁tuple	-11818
Diagram	-11819
LECTION	-11820
ipBlock	-11821
onError	-11822
respond	-11823
running	-11824
tencent	-11825
variant	-11826
Forecast	-11827
LogEvent	-11828
MixLevel	-11829
Notifier	-11830
Sessions	-11831
criteria	-11832
strategy	-11833
▁Complex	-11834
Localized	-11835
MarkedPos	-11836
getActive	-11837
getRandom	-11838
isSuccess	-11839
uloActual	-11840
▁Password	-11841
▁Snapshot	-11842
▁observer	-11843
Disciplina	-11844
Formatting	-11845
Submission	-11846
comparator	-11847
dataSource	-11848
osReportes	-11849
stellation	-11850
▁presenter	-11851
VirtualFile	-11852
▁components	-11853
ParameterName	-11854
RuleListNrule	-11855
authorization	-11856
HypervisorHost	-11857
▁authorization	-11858
ApplicationList	-11859
DividerDrawable	-11860
SimpleComponent	-11861
StreamException	-11862
NumeroPaginacion	-11863
RuleListNipBlock	-11864
protocolTypeCode	-11865
setSelectedIndex	-11866
▁ConversionIssue	-11867
2/	-11868
3[	-11869
8(	-11870
JO	-11871
bm	-11872
1),	-11873
FQN	-11874
Grp	-11875
Loo	-11876
MER	-11877
ejb	-11878
sha	-11879
}";	-11880
▁"1	-11881
▁HA	-11882
("11	-11883
(2),	-11884
ABUI	-11885
LISH	-11886
Self	-11887
Tele	-11888
gemp	-11889
kind	-11890
mozu	-11891
ough	-11892
pipe	-11893
ters	-11894
ukku	-11895
▁Box	-11896
▁SET	-11897
▁dcl	-11898
▁own	-11899
BLACK	-11900
Curve	-11901
DiaDa	-11902
Kafka	-11903
NORTH	-11904
Wheel	-11905
audio	-11906
ayers	-11907
break	-11908
eated	-11909
rived	-11910
roovy	-11911
sales	-11912
three	-11913
▁Conf	-11914
▁getD	-11915
ASSIGN	-11916
Footer	-11917
Models	-11918
NosHor	-11919
Reconc	-11920
Resize	-11921
arshal	-11922
endent	-11923
escape	-11924
▁"]");	-11925
▁Candy	-11926
▁fixed	-11927
addView	-11928
ariosDa	-11929
gateway	-11930
located	-11931
mutable	-11932
portist	-11933
ributor	-11934
▁scheme	-11935
▁strain	-11936
........	-11937
BeanInfo	-11938
XmlNames	-11939
capacity	-11940
features	-11941
ffffffff	-11942
gempukku	-11943
getFrame	-11944
netbeans	-11945
nextLine	-11946
▁Horario	-11947
Different	-11948
NotEquals	-11949
Streaming	-11950
addNosHor	-11951
getPlayer	-11952
getRemote	-11953
getUserId	-11954
setAction	-11955
toBuilder	-11956
▁Nullable	-11957
Disconnect	-11958
SnapshotId	-11959
bluebutton	-11960
conTotales	-11961
getRuntime	-11962
setMinimum	-11963
▁mActivity	-11964
ContextImpl	-11965
DiaDaSemana	-11966
▁Assertions	-11967
▁DateFormat	-11968
▁processing	-11969
▁viewHolder	-11970
▁containerId	-11971
getObsService	-11972
DataSetChanged	-11973
fhasPermission	-11974
TargetException	-11975
addNosHorariosDa	-11976
▁DefaultXmlNames	-11977
0(	-11978
4\	-11979
:/	-11980
VG	-11981
[:	-11982
lt	-11983
}"	-11984
(10	-11985
(7,	-11986
123	-11987
Lik	-11988
ley	-11989
01);	-11990
HASH	-11991
WAIT	-11992
blog	-11993
dump	-11994
tipo	-11995
▁ter	-11996
▁tip	-11997
(3));	-11998
Accum	-11999
SSING	-12000
Serde	-12001
getVm	-12002
tions	-12003
▁Anim	-12004
▁chat	-12005
▁lang	-12006
ANDARD	-12007
BUTTON	-12008
Coding	-12009
IdTipo	-12010
NodeId	-12011
nested	-12012
▁Named	-12013
▁Swing	-12014
▁jobId	-12015
▁named	-12016
▁regex	-12017
Keyword	-12018
ickName	-12019
ingFile	-12020
install	-12021
▁VALUES	-12022
▁expiry	-12023
▁mdrReq	-12024
▁vertex	-12025
AndBegin	-12026
Combined	-12027
Discount	-12028
EXTERNAL	-12029
EndPoint	-12030
ForValue	-12031
Packages	-12032
Projects	-12033
Recycler	-12034
deviceId	-12035
getOwner	-12036
getToken	-12037
getTopic	-12038
utations	-12039
▁country	-12040
▁exclude	-12041
▁getDate	-12042
▁started	-12043
▁yybegin	-12044
CharArray	-12045
TIMESTAMP	-12046
remaining	-12047
signature	-12048
▁Facility	-12049
▁FormData	-12050
▁shutdown	-12051
▁writable	-12052
CacheEntry	-12053
essellator	-12054
▁determine	-12055
Coefficient	-12056
▁returnType	-12057
Configurtion	-12058
setVariables	-12059
getParameters	-12060
setLayoutData	-12061
0[	-12062
_)	-12063
ANY	-12064
CRY	-12065
DRI	-12066
IDs	-12067
MOD	-12068
NON	-12069
usc	-12070
▁*=	-12071
▁ba	-12072
▁ee	-12073
SQLS	-12074
clip	-12075
coin	-12076
fake	-12077
rupt	-12078
uima	-12079
upon	-12080
▁10)	-12081
▁16)	-12082
▁got	-12083
▁tcp	-12084
(-1);	-12085
ALLOW	-12086
Digit	-12087
Major	-12088
Staff	-12089
egoti	-12090
getOr	-12091
lapse	-12092
omial	-12093
sound	-12094
ugNic	-12095
▁Show	-12096
▁Span	-12097
Ticket	-12098
Triple	-12099
ategor	-12100
ibling	-12101
▁Child	-12102
▁slice	-12103
▁tasks	-12104
▁touch	-12105
Similar	-12106
ickname	-12107
mockReq	-12108
▁Hadoop	-12109
▁OBJECT	-12110
▁Sparse	-12111
▁circle	-12112
▁marker	-12113
Balancer	-12114
SQLSynch	-12115
brooklyn	-12116
dataType	-12117
vertical	-12118
▁Charset	-12119
▁Promise	-12120
▁deliver	-12121
▁privile	-12122
▁setting	-12123
ClassPath	-12124
Numerator	-12125
VmWorkJob	-12126
reachable	-12127
▁KeyValue	-12128
▁compound	-12129
▁domainId	-12130
▁receiver	-12131
FinalQuery	-12132
Projection	-12133
containers	-12134
▁criterion	-12135
▁longitude	-12136
AXException	-12137
AddressBook	-12138
getFileName	-12139
hyperledger	-12140
jComboBoxid	-12141
jTabbedPane	-12142
Availability	-12143
▁zzMarkedPos	-12144
FilterFactory	-12145
PagedResponse	-12146
SQLSynchQuery	-12147
ServiceConfig	-12148
▁getAttribute	-12149
▁MessageFormat	-12150
▁entityManager	-12151
▁richAttribute	-12152
▁siddhiManager	-12153
ConversionIssue	-12154
MT	-12155
QS	-12156
]\	-12157
pg	-12158
qi	-12159
vf	-12160
ASC	-12161
FUN	-12162
ONT	-12163
Std	-12164
als	-12165
cls	-12166
fly	-12167
ori	-12168
▁9,	-12169
▁BU	-12170
▁Cr	-12171
▁dv	-12172
Adap	-12173
CPtr	-12174
FFFF	-12175
FILL	-12176
INIT	-12177
LIKE	-12178
MASK	-12179
SENT	-12180
Seek	-12181
avel	-12182
erce	-12183
gree	-12184
joda	-12185
osit	-12186
▁"',	-12187
▁Put	-12188
▁VAR	-12189
▁mac	-12190
▁pkg	-12191
Agreg	-12192
Biome	-12193
Hosts	-12194
Imple	-12195
VIDER	-12196
alone	-12197
ators	-12198
coder	-12199
cpach	-12200
ecker	-12201
ersey	-12202
erver	-12203
mysql	-12204
react	-12205
umber	-12206
white	-12207
zEdge	-12208
▁RECE	-12209
▁turn	-12210
▁warn	-12211
010101	-12212
Claims	-12213
InfoVo	-12214
addAnd	-12215
amento	-12216
govEmp	-12217
mendix	-12218
scheme	-12219
setInt	-12220
▁accum	-12221
▁enter	-12222
▁motor	-12223
▁sound	-12224
▁tests	-12225
Average	-12226
Migrate	-12227
forward	-12228
require	-12229
▁VmWork	-12230
▁binary	-12231
DURATION	-12232
accumulo	-12233
ecursive	-12234
finished	-12235
▁Article	-12236
▁persons	-12237
PublicKey	-12238
connected	-12239
fieldType	-12240
getBundle	-12241
sessionId	-12242
▁ksession	-12243
▁renderer	-12244
▁rootView	-12245
AccessFile	-12246
Schedulers	-12247
actualizar	-12248
cpachecker	-12249
department	-12250
setContext	-12251
▁inventory	-12252
MotionEvent	-12253
getTerminal	-12254
▁onActivity	-12255
DataProvider	-12256
FieldMapping	-12257
PropertyName	-12258
▁LayoutParams	-12259
▁getResources	-12260
▁subscription	-12261
Representation	-12262
▁SiddhiManager	-12263
▁paramKeyValue	-12264
▁ArchiveScanner	-12265
▁OSQLSynchQuery	-12266
FileOutputStream	-12267
1-	-12268
54	-12269
XA	-12270
():	-12271
Age	-12272
Utc	-12273
dog	-12274
hab	-12275
▁Be	-12276
▁HH	-12277
▁IM	-12278
▁Qu	-12279
▁pw	-12280
Agen	-12281
cdap	-12282
hing	-12283
sqrt	-12284
ucle	-12285
▁DOM	-12286
▁MOD	-12287
▁PAT	-12288
▁aut	-12289
▁bus	-12290
▁hdp	-12291
▁},\	-12292
10000	-12293
Azure	-12294
Train	-12295
datap	-12296
metac	-12297
mongo	-12298
posed	-12299
uages	-12300
▁Bind	-12301
▁Chat	-12302
▁Lazy	-12303
▁Poly	-12304
▁Stat	-12305
▁cmds	-12306
▁getX	-12307
▁guid	-12308
▁tail	-12309
<>());	-12310
Joiner	-12311
Tester	-12312
ameter	-12313
anning	-12314
energy	-12315
entrum	-12316
isInfo	-12317
istema	-12318
▁Redis	-12319
Buckets	-12320
Exactly	-12321
Partner	-12322
isFalse	-12323
olation	-12324
workJob	-12325
writeTo	-12326
AgenServ	-12327
NOTATION	-12328
Possible	-12329
Profiler	-12330
compress	-12331
filePath	-12332
pageSize	-12333
qualcomm	-12334
setModel	-12335
testutil	-12336
▁LogUtil	-12337
▁REQUEST	-12338
▁another	-12339
▁sources	-12340
▁updater	-12341
Privilege	-12342
Providers	-12343
Singleton	-12344
ViewPager	-12345
getActual	-12346
getFilter	-12347
principal	-12348
▁newState	-12349
▁pageable	-12350
▁resolver	-12351
▁theField	-12352
LogFactory	-12353
MQProducer	-12354
RouteTable	-12355
createCell	-12356
foundation	-12357
getResults	-12358
▁converted	-12359
▁sqlSelect	-12360
MessageType	-12361
metacentrum	-12362
▁Controller	-12363
▁assertSame	-12364
▁dateFormat	-12365
▁threadPool	-12366
▁unexpected	-12367
ApiController	-12368
Parameterized	-12369
setAccessible	-12370
▁hdpException	-12371
▁EventProcessor	-12372
']	-12373
/%	-12374
79	-12375
8)	-12376
oa	-12377
3()	-12378
64;	-12379
Lon	-12380
PAC	-12381
Sal	-12382
Yes	-12383
pom	-12384
zza	-12385
▁"4	-12386
▁"@	-12387
▁Ax	-12388
▁Sn	-12389
FPos	-12390
GRAY	-12391
JAVA	-12392
ORIG	-12393
ajes	-12394
coll	-12395
free	-12396
hide	-12397
intr	-12398
ints	-12399
live	-12400
mapp	-12401
onom	-12402
▁Bar	-12403
▁Lat	-12404
▁[[:	-12405
▁ins	-12406
▁suc	-12407
▁sym	-12408
())))	-12409
Histo	-12410
Pages	-12411
Prior	-12412
addTo	-12413
added	-12414
ances	-12415
clean	-12416
erber	-12417
jkiss	-12418
▁blue	-12419
▁cert	-12420
Aerial	-12421
KeyAnd	-12422
Neighb	-12423
Stages	-12424
commun	-12425
getSub	-12426
legacy	-12427
linked	-12428
market	-12429
pisode	-12430
proval	-12431
▁Email	-12432
▁Topic	-12433
▁album	-12434
▁least	-12435
Agregar	-12436
GraphQL	-12437
Waiting	-12438
getLine	-12439
ildcard	-12440
inality	-12441
licable	-12442
▁CONFIG	-12443
Deletion	-12444
Multimap	-12445
Positive	-12446
UniqueId	-12447
omething	-12448
▁Binding	-12449
▁Dynamic	-12450
▁managed	-12451
▁matches	-12452
Directive	-12453
PRIMITIVE	-12454
PageToken	-12455
byteArray	-12456
formation	-12457
mockStore	-12458
▁identity	-12459
▁matching	-12460
▁newEntry	-12461
Disposable	-12462
Recognizer	-12463
cionActual	-12464
deployment	-12465
iException	-12466
instrument	-12467
▁Selection	-12468
▁getOutput	-12469
▁readValue	-12470
▁requested	-12471
▁setStatus	-12472
DisplayData	-12473
Implemented	-12474
PackageName	-12475
SetDownload	-12476
UserRequest	-12477
WorkPackage	-12478
getNumberOf	-12479
interceptor	-12480
▁setDefault	-12481
ContainerGap	-12482
PropertyType	-12483
getDimension	-12484
opentelemetry	-12485
realTimestamp	-12486
setParameters	-12487
▁groupElement	-12488
SearchCriteria	-12489
ServiceContext	-12490
securitycenter	-12491
▁DriverManager	-12492
ciudadBeanSwing	-12493
commitTimestamp	-12494
clienteBeanSwing	-12495
▁FileNodeManager	-12496
▁attributesToSet	-12497
CN	-12498
_"	-12499
bp	-12500
成功	-12501
2.0	-12502
Dom	-12503
SCO	-12504
rea	-12505
tod	-12506
▁3:	-12507
▁SW	-12508
▁Vk	-12509
▁jm	-12510
MOVE	-12511
SAML	-12512
SHIP	-12513
fund	-12514
ians	-12515
ldap	-12516
rich	-12517
▁"'"	-12518
▁One	-12519
▁eob	-12520
("100	-12521
ENTRY	-12522
GREEN	-12523
MENTS	-12524
OAuth	-12525
Timed	-12526
aniti	-12527
roken	-12528
▁Copy	-12529
▁Scal	-12530
▁dept	-12531
▁seek	-12532
Animal	-12533
Motion	-12534
Passed	-12535
Portal	-12536
daemon	-12537
▁"%");	-12538
▁INDEX	-12539
▁Issue	-12540
Equival	-12541
Invoice	-12542
addData	-12543
iversal	-12544
▁CREATE	-12545
▁mouseY	-12546
TreeUtil	-12547
Triangle	-12548
UserName	-12549
dispatch	-12550
ulticast	-12551
▁complex	-12552
▁ifMatch	-12553
▁indices	-12554
▁orderBy	-12555
▁preview	-12556
OrEqualTo	-12557
Specified	-12558
Translate	-12559
avedState	-12560
datastore	-12561
primitive	-12562
quisition	-12563
selection	-12564
▁Compound	-12565
▁commands	-12566
JsonParser	-12567
pathParams	-12568
springboot	-12569
▁Primitive	-12570
▁semaphore	-12571
getElements	-12572
▁Identifier	-12573
▁groupsFrom	-12574
InstanceName	-12575
allocateData	-12576
▁columnIndex	-12577
▁userService	-12578
▁RequestOptFn	-12579
ResponseEntity	-12580
▁BitmapFactory	-12581
▁caliException	-12582
▁LayoutInflater	-12583
OrganisationUnit	-12584
ParameterHandler	-12585
getSystemService	-12586
xm	-12587
异常	-12588
LIT	-12589
SYS	-12590
asp	-12591
atr	-12592
mul	-12593
oak	-12594
udu	-12595
▁"(	-12596
▁DI	-12597
▁Tx	-12598
▁da	-12599
CAST	-12600
Flat	-12601
HALF	-12602
[2];	-12603
asso	-12604
aves	-12605
isis	-12606
plex	-12607
xxxx	-12608
▁"-"	-12609
▁Doc	-12610
▁pin	-12611
▁pur	-12612
Daily	-12613
ILITY	-12614
Lease	-12615
NCell	-12616
SBase	-12617
ToAdd	-12618
claim	-12619
iltin	-12620
lines	-12621
▁DATA	-12622
▁Turn	-12623
▁give	-12624
CUSTOM	-12625
Deltas	-12626
Mapped	-12627
SEQUEN	-12628
Sparse	-12629
coding	-12630
▁Shard	-12631
▁front	-12632
▁ready	-12633
▁route	-12634
▁scene	-12635
machine	-12636
ollback	-12637
streams	-12638
thought	-12639
▁ENTITY	-12640
▁damage	-12641
DATABASE	-12642
Fraction	-12643
MapEntry	-12644
getBuild	-12645
illation	-12646
setWidth	-12647
▁ByteBuf	-12648
▁regions	-12649
▁setData	-12650
Encounter	-12651
Expansion	-12652
Transient	-12653
googleads	-12654
locations	-12655
FileReader	-12656
Inspection	-12657
StatusEnum	-12658
definition	-12659
horizontal	-12660
parseColor	-12661
AttendAudit	-12662
Enumeration	-12663
setLocation	-12664
▁PsiElement	-12665
▁extensions	-12666
▁registered	-12667
▁urlEncoded	-12668
ActionButton	-12669
CssConstants	-12670
isInstanceOf	-12671
getDescriptor	-12672
▁ResultColumn	-12673
▁deserializer	-12674
▁ErrorResponse	-12675
VerifierContext	-12676
addContainerGap	-12677
▁lastComparison	-12678
▁objectEventType	-12679
50	-12680
("^	-12681
>[]	-12682
ACC	-12683
CEN	-12684
Imm	-12685
LOY	-12686
Tar	-12687
apm	-12688
egg	-12689
meg	-12690
tap	-12691
tcp	-12692
▁29	-12693
▁</	-12694
▁CM	-12695
▁qc	-12696
▁}.	-12697
AINT	-12698
Migr	-12699
SITE	-12700
ccgo	-12701
duto	-12702
ivot	-12703
setE	-12704
spot	-12705
tail	-12706
▁"12	-12707
▁?>>	-12708
▁Inf	-12709
▁Out	-12710
▁VER	-12711
▁{",	-12712
Attrs	-12713
Craft	-12714
PRODU	-12715
USAGE	-12716
ening	-12717
trade	-12718
Caller	-12719
FOLDER	-12720
Frames	-12721
IntVal	-12722
Middle	-12723
Please	-12724
Scaled	-12725
ToPool	-12726
iculty	-12727
imizer	-12728
oldown	-12729
sCount	-12730
swccgo	-12731
ynthes	-12732
▁Split	-12733
▁Title	-12734
Archivo	-12735
CHANGED	-12736
MAXIMUM	-12737
Proceso	-12738
Regular	-12739
SESSION	-12740
cAtomQF	-12741
dialect	-12742
parsers	-12743
through	-12744
▁adjust	-12745
▁reload	-12746
Searcher	-12747
Training	-12748
gorithms	-12749
populate	-12750
received	-12751
▁Texture	-12752
▁subPlan	-12753
▁wrapped	-12754
Processed	-12755
committed	-12756
injection	-12757
▁memoized	-12758
▁oldValue	-12759
Filesystem	-12760
googlecode	-12761
setMaximum	-12762
▁generated	-12763
▁getParent	-12764
QueryParams	-12765
TaskService	-12766
clusterName	-12767
▁FileSystem	-12768
▁newBuilder	-12769
Instillation	-12770
ServerConfig	-12771
assertThrows	-12772
ineTransform	-12773
measurements	-12774
▁setProperty	-12775
AtomicInteger	-12776
ThreadFactory	-12777
isInfoEnabled	-12778
▁outputBuffer	-12779
PhysicalDevice	-12780
PrimaryStorage	-12781
getRemovalTime	-12782
parameterIndex	-12783
▁FileTypeToLog	-12784
▁checkArgument	-12785
GenerateStrategy	-12786
SecurityActuator	-12787
Ns	-12788
Pk	-12789
tm	-12790
CRC	-12791
dbe	-12792
ray	-12793
rir	-12794
▁SO	-12795
▁bc	-12796
▁pp	-12797
Clob	-12798
Once	-12799
extr	-12800
nums	-12801
tpop	-12802
▁"["	-12803
▁css	-12804
▁div	-12805
01000	-12806
Cross	-12807
LIMIT	-12808
Minor	-12809
OrKey	-12810
RANGE	-12811
candy	-12812
dummy	-12813
getAl	-12814
itect	-12815
rench	-12816
strip	-12817
▁Root	-12818
▁VOID	-12819
▁func	-12820
▁some	-12821
Unsafe	-12822
launch	-12823
micron	-12824
ograph	-12825
parsed	-12826
wicket	-12827
▁Analy	-12828
▁Audit	-12829
▁Jedis	-12830
▁audit	-12831
▁three	-12832
Imports	-12833
Jackson	-12834
Topical	-12835
Trimmed	-12836
getFrom	-12837
ologies	-12838
phoenix	-12839
▁Cancel	-12840
▁existe	-12841
▁labels	-12842
▁millis	-12843
▁tokens	-12844
▁vmUuid	-12845
FullName	-12846
ListItem	-12847
ThrownBy	-12848
getLabel	-12849
Rendering	-12850
authToken	-12851
getErrors	-12852
getFormat	-12853
migration	-12854
usermodel	-12855
▁Messages	-12856
▁clusters	-12857
▁exercise	-12858
▁mCurrent	-12859
▁marshall	-12860
▁scaffold	-12861
Activation	-12862
Extraction	-12863
Interfaces	-12864
JsonString	-12865
Namespaces	-12866
addElement	-12867
addJavadoc	-12868
datasource	-12869
foreground	-12870
getConcept	-12871
ExcAgenServ	-12872
endixObject	-12873
entrantLock	-12874
▁decorators	-12875
▁ERepository	-12876
▁pageContext	-12877
ConfigBuilder	-12878
DescribeTable	-12879
MethodBinding	-12880
SecurityMarks	-12881
startActivity	-12882
BeanDefinition	-12883
EventProcessor	-12884
ResultMatchers	-12885
ServletContext	-12886
setStringValue	-12887
YamlInputDialog	-12888
▁loggerMessages	-12889
setImageResource	-12890
31	-12891
MU	-12892
[8	-12893
vn	-12894
zy	-12895
.0.	-12896
IPT	-12897
alg	-12898
ecm	-12899
irl	-12900
uzz	-12901
▁"+	-12902
▁IF	-12903
▁jc	-12904
▁tf	-12905
▁|\	-12906
CARD	-12907
DEST	-12908
Fund	-12909
Scsi	-12910
Slow	-12911
WARE	-12912
apis	-12913
bool	-12914
loss	-12915
pred	-12916
rand	-12917
will	-12918
▁Jvm	-12919
▁SUB	-12920
▁ann	-12921
Trait	-12922
droid	-12923
edido	-12924
locks	-12925
seudo	-12926
▁With	-12927
▁dump	-12928
▁getG	-12929
▁zero	-12930
Denied	-12931
DiskTO	-12932
Fabric	-12933
Opened	-12934
econds	-12935
opencv	-12936
▁Stage	-12937
▁jieQi	-12938
▁white	-12939
creator	-12940
general	-12941
ictions	-12942
ownload	-12943
receive	-12944
setView	-12945
▁factor	-12946
▁ghidra	-12947
▁mTitle	-12948
Momentum	-12949
WithUser	-12950
▁TreeSet	-12951
▁alluxio	-12952
▁variant	-12953
▁weather	-12954
Employees	-12955
Executing	-12956
Provision	-12957
Responses	-12958
SessionId	-12959
classpath	-12960
encrypted	-12961
getHostId	-12962
ifPresent	-12963
interface	-12964
objectweb	-12965
▁Position	-12966
▁TreeItem	-12967
▁requires	-12968
Checkpoint	-12969
Configured	-12970
▁callbacks	-12971
▁committed	-12972
▁errorCode	-12973
▁precision	-12974
DataAdapter	-12975
getDatabase	-12976
▁LogManager	-12977
▁Parcelable	-12978
▁clientName	-12979
▁transition	-12980
CellRenderer	-12981
QueryBuilder	-12982
thoughtworks	-12983
InstanceQuery	-12984
▁capabilities	-12985
ServletRequest	-12986
ThreadSetEntity	-12987
mockLuceneQuery	-12988
TemplateTypeEnum	-12989
beginTransaction	-12990
2>	-12991
3\	-12992
GC	-12993
/13	-12994
Ctl	-12995
FAC	-12996
IMP	-12997
INF	-12998
adt	-12999
hum	-13000
iqu	-13001
une	-13002
▁mx	-13003
Cont	-13004
Ping	-13005
Pojo	-13006
Soft	-13007
hold	-13008
jeta	-13009
mble	-13010
ster	-13011
stit	-13012
▁"{:	-13013
▁AST	-13014
▁End	-13015
▁GET	-13016
▁Jpa	-13017
▁nil	-13018
56789	-13019
ASYNC	-13020
Grade	-13021
dubai	-13022
lista	-13023
rites	-13024
stand	-13025
typed	-13026
uenta	-13027
▁Area	-13028
▁Jexl	-13029
▁calc	-13030
Albian	-13031
Joined	-13032
Manten	-13033
closed	-13034
enance	-13035
getCap	-13036
kotlin	-13037
outIdx	-13038
overed	-13039
servic	-13040
urname	-13041
wallet	-13042
▁Video	-13043
▁isSet	-13044
▁reply	-13045
BCNames	-13046
STRAINT	-13047
Updates	-13048
setLook	-13049
warning	-13050
▁'{}'",	-13051
▁Banner	-13052
▁Coding	-13053
▁Cosmos	-13054
▁Fields	-13055
▁Public	-13056
▁Writer	-13057
▁indent	-13058
▁setMax	-13059
ACTIVITY	-13060
Cooldown	-13061
DataSets	-13062
Printing	-13063
bitdubai	-13064
▁Initial	-13065
▁appName	-13066
Candidate	-13067
Statistic	-13068
ViewModel	-13069
delegator	-13070
resultSet	-13071
setSource	-13072
▁Profiler	-13073
▁workbook	-13074
Decoration	-13075
Dimensions	-13076
GlobalTipo	-13077
LogManager	-13078
ScrollView	-13079
getDetails	-13080
getFeature	-13081
invocation	-13082
▁datastore	-13083
▁getServer	-13084
▁locations	-13085
▁returnVal	-13086
▁scheduler	-13087
BatchSender	-13088
Importacion	-13089
ListAdapter	-13090
StreamField	-13091
acesContext	-13092
toCharArray	-13093
Transactions	-13094
▁callerStack	-13095
▁instruction	-13096
Mantenimiento	-13097
getMethodName	-13098
▁ImprovedFile	-13099
▁recyclerView	-13100
▁searchFilter	-13101
Transformation	-13102
▁SolrException	-13103
▁empAttendBill	-13104
▁unknownFields	-13105
BackgroundColor	-13106
ServiceSettings	-13107
TimeoutException	-13108
2]	-13109
5)	-13110
CB	-13111
Mb	-13112
CIP	-13113
JPA	-13114
LES	-13115
RDF	-13116
SOR	-13117
SUM	-13118
Try	-13119
adr	-13120
isH	-13121
nep	-13122
▁'/	-13123
▁'0	-13124
▁IG	-13125
▁bg	-13126
▁rc	-13127
idea	-13128
itar	-13129
msgs	-13130
trip	-13131
▁12,	-13132
▁20,	-13133
▁Sum	-13134
▁adj	-13135
▁dot	-13136
▁dtm	-13137
▁sel	-13138
Disks	-13139
Kmers	-13140
NAMES	-13141
Prote	-13142
Sleep	-13143
WINDO	-13144
album	-13145
clock	-13146
elite	-13147
grees	-13148
isNil	-13149
opter	-13150
▁20);	-13151
▁mean	-13152
▁seed	-13153
Avatar	-13154
SEARCH	-13155
Vision	-13156
caller	-13157
getOut	-13158
rottle	-13159
visual	-13160
▁Maybe	-13161
▁White	-13162
▁photo	-13163
EnderIO	-13164
Nonnull	-13165
Retries	-13166
Typical	-13167
reverse	-13168
student	-13169
windCnt	-13170
▁Engine	-13171
▁Vertex	-13172
▁dbName	-13173
▁extent	-13174
Detected	-13175
Injector	-13176
Obstacle	-13177
Returned	-13178
bcIntVal	-13179
disabled	-13180
userJack	-13181
▁catalog	-13182
▁matched	-13183
▁require	-13184
▁testSet	-13185
Installed	-13186
Selective	-13187
TimeRange	-13188
indicator	-13189
planation	-13190
▁ListNode	-13191
▁TreeUtil	-13192
▁disabled	-13193
▁testFile	-13194
preference	-13195
▁accountId	-13196
▁constants	-13197
▁construct	-13198
Authorities	-13199
Compilation	-13200
OptionsMenu	-13201
PrintWriter	-13202
QueryPlugin	-13203
ruleContext	-13204
toHexString	-13205
▁byteBuffer	-13206
▁operations	-13207
EntityPlayer	-13208
QueryRequest	-13209
SearchResult	-13210
setParameter	-13211
▁curveConfig	-13212
▁registration	-13213
;"	-13214
VS	-13215
ny	-13216
删除	-13217
').	-13218
008	-13219
ARM	-13220
OTH	-13221
SCA	-13222
Tal	-13223
acc	-13224
bac	-13225
fox	-13226
glu	-13227
lop	-13228
olt	-13229
pkg	-13230
ycl	-13231
▁HO	-13232
▁Is	-13233
▁Zk	-13234
▁cb	-13235
▁dl	-13236
▁dy	-13237
BODY	-13238
Ctrl	-13239
HIFT	-13240
ITCH	-13241
Life	-13242
MSON	-13243
NOTI	-13244
aced	-13245
ante	-13246
aped	-13247
jaxb	-13248
labs	-13249
mesh	-13250
rima	-13251
▁31;	-13252
▁Fin	-13253
▁Mis	-13254
▁frc	-13255
▁mob	-13256
Anter	-13257
Atlas	-13258
Authn	-13259
getAd	-13260
guest	-13261
sakai	-13262
toSet	-13263
voked	-13264
wsSdk	-13265
▁"}";	-13266
▁Info	-13267
▁Push	-13268
▁Scan	-13269
▁here	-13270
▁pipe	-13271
▁rank	-13272
▁toto	-13273
Corner	-13274
MEMORY	-13275
Shader	-13276
ZATION	-13277
getAnd	-13278
gresql	-13279
includ	-13280
motion	-13281
throws	-13282
▁Chart	-13283
▁SHIFT	-13284
▁estim	-13285
Compare	-13286
INITIAL	-13287
Operand	-13288
SysUser	-13289
easurer	-13290
literal	-13291
▁Export	-13292
▁PROPER	-13293
▁Shadow	-13294
▁aClass	-13295
▁friend	-13296
▁repeat	-13297
▁replay	-13298
Accuracy	-13299
Attached	-13300
Bookmark	-13301
TempFile	-13302
asString	-13303
geometry	-13304
licopter	-13305
portista	-13306
runelite	-13307
▁Adapter	-13308
▁promise	-13309
▁safeGet	-13310
GraphNode	-13311
SortOrder	-13312
XmlString	-13313
anisation	-13314
micronaut	-13315
▁currency	-13316
▁filenode	-13317
▁interrup	-13318
▁topology	-13319
PERMISSION	-13320
networkAcl	-13321
unregister	-13322
▁Interface	-13323
▁Lifecycle	-13324
▁Validator	-13325
▁principal	-13326
▁startDate	-13327
orientation	-13328
▁checkpoint	-13329
▁myDelegate	-13330
▁statistics	-13331
InclFilename	-13332
LastModified	-13333
wsSdkMetrics	-13334
▁accessToken	-13335
QueryResponse	-13336
ribCollection	-13337
ireUserDetails	-13338
topicPartition	-13339
DataInputStream	-13340
▁provinciaLogic	-13341
ProjectResources	-13342
GG	-13343
LR	-13344
dy	-13345
Lex	-13346
Lic	-13347
MIX	-13348
RON	-13349
UCE	-13350
igu	-13351
jda	-13352
kin	-13353
nas	-13354
nih	-13355
seg	-13356
▁Am	-13357
▁To	-13358
(200	-13359
AnyD	-13360
Crud	-13361
DENT	-13362
Dirs	-13363
EAST	-13364
Feed	-13365
Fuel	-13366
Road	-13367
ives	-13368
maxY	-13369
same	-13370
vmId	-13371
▁"\\	-13372
▁(++	-13373
▁APP	-13374
▁Aff	-13375
▁Nic	-13376
▁Sim	-13377
▁cat	-13378
▁iso	-13379
▁med	-13380
▁pag	-13381
▁por	-13382
▁}",	-13383
01009	-13384
Bench	-13385
DEFIN	-13386
IdSet	-13387
OData	-13388
Prefs	-13389
STORE	-13390
TEIID	-13391
acted	-13392
aders	-13393
expir	-13394
plash	-13395
▁255,	-13396
▁docs	-13397
▁getR	-13398
▁urls	-13399
MODIFY	-13400
Scalar	-13401
Strict	-13402
VALUES	-13403
cached	-13404
cuenta	-13405
detect	-13406
street	-13407
unwrap	-13408
▁Actor	-13409
▁COUNT	-13410
▁Slice	-13411
▁about	-13412
▁doesn	-13413
▁fecha	-13414
▁green	-13415
▁rules	-13416
/[^/]+/	-13417
Acceler	-13418
BHelper	-13419
ENABLED	-13420
KeySpec	-13421
Latency	-13422
Spoofax	-13423
TimeUtc	-13424
planner	-13425
samples	-13426
▁Course	-13427
▁METHOD	-13428
▁Secret	-13429
▁asList	-13430
▁effect	-13431
▁packed	-13432
Repeated	-13433
Warnings	-13434
contable	-13435
itecture	-13436
▁RECEIPT	-13437
Traversal	-13438
createNew	-13439
getDomain	-13440
multipart	-13441
ouncement	-13442
▁Register	-13443
▁getTitle	-13444
▁paramMap	-13445
▁projects	-13446
Aggregator	-13447
FieldValue	-13448
ForTesting	-13449
HttpMethod	-13450
ResultType	-13451
TestResult	-13452
getPayload	-13453
▁Closeable	-13454
▁imageView	-13455
PopupWindow	-13456
accessToken	-13457
controllers	-13458
dataManager	-13459
▁ColumnInfo	-13460
▁ObjectName	-13461
▁ObsService	-13462
▁serverName	-13463
setSelection	-13464
▁InetAddress	-13465
▁clusterName	-13466
▁hardwareMap	-13467
ContextHolder	-13468
LabelProvider	-13469
cloudprofiler	-13470
lineSeparator	-13471
organizations	-13472
▁DataSnapshot	-13473
▁FileNotFound	-13474
DataReplication	-13475
FailedException	-13476
mockTransaction	-13477
▁ArgumentCaptor	-13478
ConverterFactory	-13479
▁AddressTemplate	-13480
▁executorService	-13481
46	-13482
IA	-13483
('.	-13484
AIR	-13485
BOT	-13486
CAT	-13487
Fee	-13488
Mid	-13489
NEG	-13490
Syn	-13491
och	-13492
sax	-13493
▁&=	-13494
▁OA	-13495
Loss	-13496
Mini	-13497
Mojo	-13498
NEXT	-13499
TIPO	-13500
USED	-13501
Verb	-13502
[2],	-13503
apic	-13504
elem	-13505
gent	-13506
hole	-13507
hour	-13508
saml	-13509
turn	-13510
▁CLI	-13511
▁Ign	-13512
BUILD	-13513
Bname	-13514
Gauge	-13515
InSEL	-13516
Lista	-13517
ToUse	-13518
_1_0_	-13519
arkus	-13520
bases	-13521
derby	-13522
rease	-13523
score	-13524
verti	-13525
▁half	-13526
▁week	-13527
DESIGN	-13528
FState	-13529
SCREEN	-13530
calcul	-13531
ferred	-13532
itfire	-13533
vature	-13534
ypoint	-13535
▁Realm	-13536
▁kafka	-13537
Airship	-13538
Buffers	-13539
Clients	-13540
FACTORY	-13541
KeyType	-13542
MISSING	-13543
Playing	-13544
Unbound	-13545
calcite	-13546
capture	-13547
centage	-13548
dbeaver	-13549
empresa	-13550
groupId	-13551
tifiers	-13552
▁getLog	-13553
PROTOCOL	-13554
Policies	-13555
StmtList	-13556
iliation	-13557
setTotal	-13558
solution	-13559
▁combine	-13560
▁endDate	-13561
▁inOrder	-13562
ByExample	-13563
Delimited	-13564
IamPolicy	-13565
PARTITION	-13566
Passenger	-13567
Protected	-13568
mActivity	-13569
ockSearch	-13570
▁getFirst	-13571
▁latitude	-13572
▁producer	-13573
Characters	-13574
HttpServer	-13575
Invitation	-13576
assignment	-13577
▁Animation	-13578
▁aggregate	-13579
▁byteOrder	-13580
▁findState	-13581
▁getSource	-13582
▁scheduled	-13583
BoundingBox	-13584
▁GlobalVars	-13585
▁getRequest	-13586
CacheManager	-13587
Descriptions	-13588
provinciaAux	-13589
▁Integration	-13590
▁PageContext	-13591
▁ThreadLocal	-13592
▁permissions	-13593
StringLiteral	-13594
paisProvincia	-13595
▁WeakReference	-13596
containsExactly	-13597
▁DataInputStream	-13598
49	-13599
CD	-13600
OI	-13601
PS	-13602
_7	-13603
nr	-13604
pd	-13605
qn	-13606
++,	-13607
/";	-13608
500	-13609
IFT	-13610
Nio	-13611
Sty	-13612
[4]	-13613
clz	-13614
dml	-13615
nci	-13616
qtt	-13617
thh	-13618
ven	-13619
▁"^	-13620
▁En	-13621
▁gc	-13622
▁sf	-13623
(8);	-13624
HOUR	-13625
InDb	-13626
adap	-13627
adas	-13628
getI	-13629
hero	-13630
ilib	-13631
insp	-13632
loud	-13633
plot	-13634
rock	-13635
▁Cre	-13636
▁crc	-13637
▁ole	-13638
▁rhs	-13639
▁win	-13640
CODES	-13641
Party	-13642
delay	-13643
gridx	-13644
icthh	-13645
iroom	-13646
tidad	-13647
▁Note	-13648
▁boot	-13649
▁getV	-13650
Cargar	-13651
Codigo	-13652
Friend	-13653
INVOKE	-13654
Secure	-13655
Signed	-13656
chemes	-13657
ournal	-13658
parity	-13659
sumers	-13660
tagext	-13661
tified	-13662
BUILDER	-13663
DEFINED	-13664
Delayed	-13665
Enqueue	-13666
Mineral	-13667
Plugins	-13668
Station	-13669
batfish	-13670
quality	-13671
toolBar	-13672
▁PREFIX	-13673
▁Secure	-13674
▁vmSpec	-13675
ArrowBuf	-13676
Columnas	-13677
Designer	-13678
Fallback	-13679
FromUser	-13680
OPERATOR	-13681
Subtitle	-13682
kiFranch	-13683
ofMillis	-13684
procesar	-13685
scramble	-13686
▁Catalog	-13687
▁Counter	-13688
▁EnumSet	-13689
▁Flutter	-13690
▁Logging	-13691
▁chapter	-13692
▁confirm	-13693
▁install	-13694
▁maxSize	-13695
▁migrate	-13696
▁receipt	-13697
Challenge	-13698
Delimiter	-13699
JsonArray	-13700
addHeader	-13701
findState	-13702
setObject	-13703
yclerview	-13704
ynthesize	-13705
▁Manifest	-13706
▁getChild	-13707
▁runnable	-13708
categories	-13709
getAllowed	-13710
getCreated	-13711
getOptions	-13712
▁Converter	-13713
▁Namespace	-13714
▁broadcast	-13715
▁getLogger	-13716
PrintStream	-13717
getExpected	-13718
▁LogFactory	-13719
▁credential	-13720
▁evsConcept	-13721
▁fieldValue	-13722
▁getSupport	-13723
▁sqlSession	-13724
AgentRequest	-13725
Interceptors	-13726
ToggleButton	-13727
setCellValue	-13728
BorderFactory	-13729
Communication	-13730
DirectionInfo	-13731
usuarioActual	-13732
▁pushAndBegin	-13733
AccionBusqueda	-13734
ClusterManager	-13735
ControllerType	-13736
Identification	-13737
removeAttribute	-13738
▁ClientResponse	-13739
getPrimaryHolder	-13740
▁readValueOfType	-13741
=?	-13742
###	-13743
009	-13744
10-	-13745
ATT	-13746
BAR	-13747
Bid	-13748
Cov	-13749
EOF	-13750
Foo	-13751
ICK	-13752
TET	-13753
Way	-13754
edm	-13755
psd	-13756
sgi	-13757
xia	-13758
▁KW	-13759
ALTO	-13760
CION	-13761
Echo	-13762
MARK	-13763
Soap	-13764
VELO	-13765
_8);	-13766
bird	-13767
docs	-13768
hest	-13769
like	-13770
minX	-13771
misc	-13772
otel	-13773
perf	-13774
▁"%"	-13775
▁MAR	-13776
▁Reg	-13777
▁dtc	-13778
Autom	-13779
Axiom	-13780
Campo	-13781
IsSet	-13782
Leave	-13783
Moved	-13784
QUEUE	-13785
SOUTH	-13786
Storm	-13787
__++)	-13788
ecord	-13789
entes	-13790
fixed	-13791
gridy	-13792
ibase	-13793
music	-13794
upper	-13795
▁Crud	-13796
▁High	-13797
▁LOCK	-13798
▁Sync	-13799
▁Unit	-13800
▁cons	-13801
▁four	-13802
▁live	-13803
▁swap	-13804
("}");	-13805
COMMIT	-13806
Manage	-13807
Pooled	-13808
WorkID	-13809
eleton	-13810
regist	-13811
▁FLOAT	-13812
▁INTER	-13813
▁annot	-13814
▁contr	-13815
▁doGet	-13816
▁jmenu	-13817
▁recon	-13818
Buttons	-13819
confirm	-13820
flutter	-13821
marshal	-13822
offline	-13823
orderBy	-13824
toolbar	-13825
▁SQLite	-13826
Auxiliar	-13827
JsonNode	-13828
combined	-13829
fastjson	-13830
inspires	-13831
localVar	-13832
ospected	-13833
transfer	-13834
▁consume	-13835
▁testAdd	-13836
BytesUsed	-13837
Diagnosis	-13838
Documents	-13839
FromGroup	-13840
ListPanel	-13841
myProject	-13842
streaming	-13843
▁EditText	-13844
▁PROPERTY	-13845
▁business	-13846
▁metaData	-13847
▁observed	-13848
▁relative	-13849
▁testList	-13850
Breakpoint	-13851
ObjectList	-13852
gameserver	-13853
▁JCheckBox	-13854
▁buildFile	-13855
▁getResult	-13856
▁getWindow	-13857
▁paramType	-13858
▁publisher	-13859
getEncoding	-13860
getProtocol	-13861
▁NetworkAcl	-13862
▁createTime	-13863
▁facilities	-13864
▁unregister	-13865
StoreFactory	-13866
deeplearning	-13867
recyclerview	-13868
CoreAttribute	-13869
HostException	-13870
PackageReader	-13871
PropertiesEXT	-13872
firstinspires	-13873
getFacilities	-13874
ClusterRequest	-13875
CountDownLatch	-13876
MQProducerImpl	-13877
NoSuchAlgorithm	-13878
▁infrastructure	-13879
▁AccessTokenType	-13880
▁NoSuchAlgorithm	-13881
58	-13882
WO	-13883
[7	-13884
032	-13885
2";	-13886
2))	-13887
7.0	-13888
EQU	-13889
HAS	-13890
JNI	-13891
KED	-13892
REQ	-13893
Sym	-13894
TES	-13895
TOM	-13896
cus	-13897
eli	-13898
mIs	-13899
nah	-13900
pur	-13901
sym	-13902
uce	-13903
woo	-13904
▁?,	-13905
▁dx	-13906
▁kv	-13907
▁~0	-13908
("{}	-13909
Cent	-13910
Door	-13911
EXIT	-13912
SNAP	-13913
UNIT	-13914
ceil	-13915
derr	-13916
duit	-13917
econ	-13918
eman	-13919
ista	-13920
▁8);	-13921
▁inc	-13922
▁rpc	-13923
▁rsp	-13924
)"));	-13925
01001	-13926
ByKey	-13927
CATEG	-13928
INTRA	-13929
KeyId	-13930
Swipe	-13931
There	-13932
anode	-13933
armup	-13934
extra	-13935
nahme	-13936
theme	-13937
▁")";	-13938
▁Fill	-13939
▁SELE	-13940
▁[{}]	-13941
Aspect	-13942
CurrPt	-13943
Gitlab	-13944
Opcion	-13945
PORTED	-13946
ToFile	-13947
ediate	-13948
epoint	-13949
iation	-13950
isFile	-13951
marker	-13952
middle	-13953
recipe	-13954
ziroom	-13955
▁Clock	-13956
▁RectF	-13957
▁bonus	-13958
▁clock	-13959
▁const	-13960
▁offer	-13961
▁theme	-13962
AndPort	-13963
Calling	-13964
RESHOLD	-13965
VarInsn	-13966
configs	-13967
missing	-13968
▁Amazon	-13969
▁Transl	-13970
▁cargar	-13971
▁getApp	-13972
▁onItem	-13973
▁ranges	-13974
BASELINE	-13975
TenantId	-13976
TypeList	-13977
datatype	-13978
laration	-13979
swigCPtr	-13980
▁Compile	-13981
▁Connect	-13982
▁Monitor	-13983
▁Usuario	-13984
▁threads	-13985
▁upgrade	-13986
Reporting	-13987
RowResult	-13988
Sequencer	-13989
TypeError	-13990
UserGroup	-13991
WebSocket	-13992
contracts	-13993
getFields	-13994
▁Vertical	-13995
▁XContent	-13996
▁userJack	-13997
Converters	-13998
Directions	-13999
Invalidate	-14000
UpdateTime	-14001
WriteQueue	-14002
insertLink	-14003
javascript	-14004
kubernetes	-14005
▁converter	-14006
▁parametro	-14007
▁sqlgGraph	-14008
CounterInfo	-14009
createState	-14010
currentData	-14011
getEndpoint	-14012
getSnapshot	-14013
▁BlockState	-14014
Verification	-14015
getClassName	-14016
▁currentTime	-14017
▁getRequired	-14018
angelogReader	-14019
▁VmwareHelper	-14020
▁successfully	-14021
FieldDescriptor	-14022
getLayoutParams	-14023
▁valueReference	-14024
OrderByProvincia	-14025
ResourceLocation	-14026
ServiceOperation	-14027
jPanelParametros	-14028
▁OperationResult	-14029
BA	-14030
KV	-14031
KW	-14032
LC	-14033
LT	-14034
MX	-14035
ja	-14036
wm	-14037
信息	-14038
東京	-14039
7",	-14040
Asc	-14041
BUL	-14042
DFS	-14043
MoE	-14044
Reb	-14045
Rtp	-14046
Sun	-14047
TIN	-14048
YES	-14049
lbl	-14050
plc	-14051
yml	-14052
zed	-14053
▁CA	-14054
▁JR	-14055
▁Sl	-14056
▁bp	-14057
▁dm	-14058
ARTI	-14059
Apps	-14060
EDIT	-14061
HIGH	-14062
JACK	-14063
Rear	-14064
Refs	-14065
Seen	-14066
Uris	-14067
WARD	-14068
acks	-14069
echo	-14070
flip	-14071
iere	-14072
minY	-14073
odpi	-14074
wide	-14075
▁2),	-14076
▁MEM	-14077
▁TRA	-14078
▁abs	-14079
▁srv	-14080
0000;	-14081
ByIds	-14082
CATOR	-14083
DECOR	-14084
OCTET	-14085
Sport	-14086
avers	-14087
floor	-14088
getPh	-14089
poser	-14090
stado	-14091
tropy	-14092
woosh	-14093
xroad	-14094
▁Axis	-14095
▁DROP	-14096
▁Part	-14097
Classe	-14098
Medico	-14099
Orders	-14100
binder	-14101
errain	-14102
ingKey	-14103
sensor	-14104
vertex	-14105
▁align	-14106
▁edges	-14107
▁leave	-14108
▁notes	-14109
CORRECT	-14110
FileSet	-14111
Modific	-14112
TreeMap	-14113
legated	-14114
lossary	-14115
setBold	-14116
▁Remove	-14117
▁Unique	-14118
▁closed	-14119
▁sprite	-14120
Datatype	-14121
FileSize	-14122
ToDelete	-14123
ToDeploy	-14124
ervation	-14125
fference	-14126
getEmail	-14127
getWorld	-14128
resolver	-14129
▁Pointer	-14130
▁dueDate	-14131
▁loading	-14132
CONDITION	-14133
CalConfig	-14134
Factories	-14135
Handshake	-14136
bootstrap	-14137
featureID	-14138
metamodel	-14139
parseFrom	-14140
propagate	-14141
setOutput	-14142
webDriver	-14143
▁Graphics	-14144
▁PageData	-14145
▁Provider	-14146
▁TestData	-14147
▁animator	-14148
▁delivery	-14149
▁getTotal	-14150
▁injector	-14151
▁products	-14152
ANNOTATION	-14153
ApiVersion	-14154
BeforeEach	-14155
FlyoutMenu	-14156
LocalVideo	-14157
assertSame	-14158
invalidate	-14159
tyPipeline	-14160
▁Cloneable	-14161
▁Connector	-14162
▁testParse	-14163
AccessQueue	-14164
createTable	-14165
getTemplate	-14166
▁EnumFacing	-14167
▁Serializer	-14168
▁artifactId	-14169
▁jTextField	-14170
AttributeSet	-14171
TypeActivity	-14172
experimental	-14173
getOperation	-14174
getSecondary	-14175
moduloActual	-14176
riddenStatus	-14177
rowsMetadata	-14178
sakaiproject	-14179
singleResult	-14180
subscription	-14181
▁annotations	-14182
▁interceptor	-14183
getExpression	-14184
createProperty	-14185
▁TypeReference	-14186
ProductAttribute	-14187
▁ExecutorService	-14188
/2	-14189
HH	-14190
IF	-14191
]]	-14192
bk	-14193
gm	-14194
BOX	-14195
IDA	-14196
OBS	-14197
ONY	-14198
PIN	-14199
iid	-14200
iph	-14201
nlp	-14202
▁(%	-14203
▁FS	-14204
▁Ok	-14205
▁il	-14206
▁tl	-14207
▁uc	-14208
0");	-14209
FLOW	-14210
ISTR	-14211
Inte	-14212
MIME	-14213
SAFE	-14214
Wire	-14215
cart	-14216
nepx	-14217
oves	-14218
zero	-14219
▁"("	-14220
▁"-+	-14221
▁Pop	-14222
▁Pub	-14223
▁pod	-14224
("1",	-14225
01008	-14226
EXPIR	-14227
Forge	-14228
Quiet	-14229
SMALL	-14230
aches	-14231
arPor	-14232
getTo	-14233
going	-14234
pages	-14235
phony	-14236
yclic	-14237
▁Cert	-14238
▁HSSF	-14239
▁Mode	-14240
▁VIEW	-14241
▁axis	-14242
BIGINT	-14243
Crypto	-14244
Gossip	-14245
IsNull	-14246
ListOf	-14247
Minimo	-14248
Queued	-14249
STATIC	-14250
Scopes	-14251
Usages	-14252
ZoneId	-14253
arison	-14254
atures	-14255
modify	-14256
mpling	-14257
▁Maven	-14258
▁ktrim	-14259
▁never	-14260
▁pixel	-14261
▁plain	-14262
▁spawn	-14263
▁storm	-14264
CRIMSON	-14265
Consist	-14266
Defence	-14267
Emitter	-14268
StoreId	-14269
TaskRun	-14270
nepxion	-14271
▁Sensor	-14272
▁course	-14273
▁sparql	-14274
AgentWeb	-14275
BaseName	-14276
Capturer	-14277
CodeList	-14278
Computer	-14279
POSITIVE	-14280
hostname	-14281
newValue	-14282
setStyle	-14283
topology	-14284
velocity	-14285
▁GraphQL	-14286
▁Gravity	-14287
▁Surface	-14288
▁UriType	-14289
▁getTask	-14290
▁getText	-14291
▁getTime	-14292
▁onError	-14293
▁padding	-14294
BackStack	-14295
KeyAndVal	-14296
character	-14297
getGlobal	-14298
getModule	-14299
projectId	-14300
textValue	-14301
uhnMatrix	-14302
▁Analysis	-14303
▁Describe	-14304
▁Expected	-14305
▁conflict	-14306
ColumnType	-14307
FromString	-14308
RowIndexTo	-14309
Successful	-14310
▁Directory	-14311
▁Discovery	-14312
▁delegator	-14313
▁effective	-14314
▁responses	-14315
▁resultMap	-14316
▁starttime	-14317
▁urlParams	-14318
ActionError	-14319
DesktopPane	-14320
DevEndpoint	-14321
ElementList	-14322
constructor	-14323
getSequence	-14324
getVariable	-14325
▁CustomNode	-14326
▁ObjectType	-14327
▁Preference	-14328
▁configured	-14329
▁deployment	-14330
ClusterState	-14331
DashboardDTO	-14332
relationship	-14333
visitVarInsn	-14334
RefreshLayout	-14335
WeakReference	-14336
XmlStringFile	-14337
setForeground	-14338
▁StringReader	-14339
▁modalAgregar	-14340
▁organization	-14341
ToObjetoActual	-14342
acosProperties	-14343
▁ConsoleLocale	-14344
▁Serialization	-14345
▁methodCreator	-14346
isCoreAttribute	-14347
isTienePermisos	-14348
IterationContext	-14349
▁DialogInterface	-14350
=[	-14351
HR	-14352
行っ	-14353
DEP	-14354
DNN	-14355
DSA	-14356
ERS	-14357
Tre	-14358
aps	-14359
eet	-14360
ici	-14361
muc	-14362
rmi	-14363
yro	-14364
▁9;	-14365
▁By	-14366
▁mb	-14367
▁tp	-14368
.0);	-14369
Both	-14370
Good	-14371
Poll	-14372
ROLL	-14373
SEND	-14374
TRIC	-14375
amer	-14376
ills	-14377
inha	-14378
leet	-14379
mean	-14380
minZ	-14381
onas	-14382
uses	-14383
▁Tri	-14384
▁sha	-14385
01004	-14386
ILING	-14387
JobId	-14388
LEVEL	-14389
Reads	-14390
SHIFT	-14391
Stand	-14392
TRACT	-14393
cular	-14394
endor	-14395
etype	-14396
mbari	-14397
nemon	-14398
▁Play	-14399
▁TEMP	-14400
▁addr	-14401
▁bank	-14402
▁good	-14403
▁para	-14404
▁song	-14405
LAUNCH	-14406
Legend	-14407
Markup	-14408
TField	-14409
bosity	-14410
broker	-14411
labels	-14412
plexus	-14413
radius	-14414
repeat	-14415
tensor	-14416
▁Clear	-14417
▁Const	-14418
▁Inner	-14419
▁OAuth	-14420
▁STIPO	-14421
▁Shape	-14422
▁Users	-14423
▁iprot	-14424
Futures	-14425
ModuleE	-14426
Predict	-14427
appName	-14428
ational	-14429
enqueue	-14430
nRecord	-14431
e	-14432
▁	-14433
t	-14434
i	-14435
r	-14436
a	-14437
o	-14438
n	-14439
s	-14440
l	-14441
c	-14442
.	-14443
p	-14444
u	-14445
d	-14446
(	-14447
)	-14448
m	-14449
g	-14450
;	-14451
b	-14452
f	-14453
S	-14454
h	-14455
v	-14456
y	-14457
C	-14458
,	-14459
E	-14460
T	-14461
"	-14462
=	-14463
I	-14464
A	-14465
w	-14466
R	-14467
x	-14468
{	-14469
}	-14470
P	-14471
L	-14472
M	-14473
k	-14474
D	-14475
_	-14476
O	-14477
N	-14478
F	-14479
B	-14480
j	-14481
0	-14482
U	-14483
V	-14484
1	-14485
>	-14486
q	-14487
<	-14488
H	-14489
G	-14490
+	-14491
2	-14492
z	-14493
W	-14494
:	-14495
-	-14496
[	-14497
]	-14498
J	-14499
K	-14500
!	-14501
3	-14502
/	-14503
\	-14504
&	-14505
Y	-14506
4	-14507
Q	-14508
5	-14509
X	-14510
'	-14511
7	-14512
|	-14513
6	-14514
8	-14515
*	-14516
9	-14517
?	-14518
Z	-14519
%	-14520
#	-14521
$	-14522
@	-14523
^	-14524
~	-14525
`	-14526
失	-14527
败	-14528
に	-14529
的	-14530
数	-14531
た	-14532
の	-14533
е	-14534
不	-14535
用	-14536
и	-14537
о	-14538
为	-14539
行	-14540
务	-14541
。	-14542
成	-14543
入	-14544
时	-14545
っ	-14546
ó	-14547
а	-14548
信	-14549
除	-14550
常	-14551
、	-14552
る	-14553
异	-14554
功	-14555
в	-14556
し	-14557
息	-14558
户	-14559
新	-14560
请	-14561
т	-14562
р	-14563
删	-14564
を	-14565
加	-14566
在	-14567
京	-14568
東	-14569
错	-14570
都	-14571
取	-14572
í	-14573
单	-14574
文	-14575
置	-14576
と	-14577
存	-14578
н	-14579
は	-14580
据	-14581
な	-14582
出	-14583
查	-14584
件	-14585
分	-14586
类	-14587
设	-14588
も	-14589
录	-14590
间	-14591
号	-14592
名	-14593
い	-14594
す	-14595
财	-14596
已	-14597
程	-14598
к	-14599
能	-14600
前	-14601
开	-14602
空	-14603
て	-14604
中	-14605
é	-14606
═	-14607
修	-14608
接	-14609
未	-14610
参	-14611
当	-14612
ñ	-14613
ú	-14614
收	-14615
误	-14616
配	-14617
д	-14618
是	-14619
法	-14620
á	-14621
л	-14622
更	-14623
有	-14624
定	-14625
获	-14626
с	-14627
量	-14628
で	-14629
回	-14630
大	-14631
改	-14632
无	-14633
点	-14634
线	-14635
码	-14636
结	-14637
内	-14638
发	-14639
始	-14640
м	-14641
が	-14642
れ	-14643
值	-14644
到	-14645
方	-14646
登	-14647
п	-14648
一	-14649
增	-14650
批	-14651
у	-14652
动	-14653
启	-14654
容	-14655
果	-14656
系	-14657
重	-14658
体	-14659
支	-14660
正	-14661
认	-14662
询	-14663
ま	-14664
或	-14665
提	-14666
服	-14667
添	-14668
こ	-14669
ー	-14670
下	-14671
了	-14672
返	-14673
║	-14674
人	-14675
输	-14676
上	-14677
客	-14678
小	-14679
か	-14680
字	-14681
实	-14682
庫	-14683
调	-14684
з	-14685
я	-14686
地	-14687
报	-14688
本	-14689
状	-14690
理	-14691
目	-14692
块	-14693
态	-14694
日	-14695
次	-14696
ы	-14697
交	-14698
今	-14699
付	-14700
任	-14701
天	-14702
标	-14703
页	-14704
П	-14705
ン	-14706
事	-14707
匹	-14708
合	-14709
否	-14710
复	-14711
あ	-14712
后	-14713
密	-14714
年	-14715
度	-14716
消	-14717
统	-14718
菜	-14719
蓝	-14720
表	-14721
证	-14722
超	-14723
连	-14724
ら	-14725
例	-14726
器	-14727
图	-14728
属	-14729
找	-14730
断	-14731
模	-14732
注	-14733
牙	-14734
确	-14735
者	-14736
载	-14737
ã	-14738
个	-14739
使	-14740
列	-14741
口	-14742
导	-14743
式	-14744
期	-14745
没	-14746
生	-14747
自	-14748
被	-14749
账	-14750
送	-14751
作	-14752
保	-14753
应	-14754
性	-14755
所	-14756
称	-14757
立	-14758
选	-14759
à	-14760
き	-14761
く	-14762
停	-14763
关	-14764
写	-14765
可	-14766
最	-14767
示	-14768
端	-14769
等	-14770
级	-14771
组	-14772
该	-14773
进	-14774
道	-14775
部	-14776
よ	-14777
会	-14778
传	-14779
典	-14780
型	-14781
子	-14782
月	-14783
知	-14784
私	-14785
第	-14786
默	-14787
Ç	-14788
б	-14789
ậ	-14790
さ	-14791
り	-14792
击	-14793
商	-14794
场	-14795
对	-14796
持	-14797
操	-14798
片	-14799
索	-14800
編	-14801
计	-14802
记	-14803
面	-14804
项	-14805
đ	-14806
й	-14807
ず	-14808
ス	-14809
你	-14810
公	-14811
制	-14812
化	-14813
址	-14814
我	-14815
敵	-14816
暂	-14817
现	-14818
符	-14819
Ã	-14820
ạ	-14821
う	-14822
そ	-14823
だ	-14824
以	-14825
位	-14826
嗨	-14827
备	-14828
工	-14829
建	-14830
执	-14831
择	-14832
检	-14833
段	-14834
渠	-14835
病	-14836
维	-14837
编	-14838
艦	-14839
贼	-14840
路	-14841
转	-14842
集	-14843
高	-14844
ь	-14845
め	-14846
义	-14847
份	-14848
初	-14849
区	-14850
古	-14851
处	-14852
完	-14853
寒	-14854
岩	-14855
径	-14856
意	-14857
波	-14858
白	-14859
经	-14860
解	-14861
警	-14862
话	-14863
軍	-14864
车	-14865
通	-14866
问	-14867
ç	-14868
ш	-14869
ア	-14870
マ	-14871
ラ	-14872
レ	-14873
与	-14874
受	-14875
必	-14876
换	-14877
撃	-14878
机	-14879
条	-14880
来	-14881
款	-14882
联	-14883
至	-14884
身	-14885
限	-14886
에	-14887
В	-14888
С	-14889
ん	-14890
ジ	-14891
価	-14892
値	-14893
刷	-14894
包	-14895
布	-14896
引	-14897
情	-14898
手	-14899
描	-14900
搜	-14901
权	-14902
束	-14903
板	-14904
此	-14905
版	-14906
电	-14907
种	-14908
节	-14909
订	-14910
过	-14911
降	-14912
预	-14913
题	-14914
ư	-14915
ẩ	-14916
ゾ	-14917
于	-14918
从	-14919
别	-14920
句	-14921
员	-14922
局	-14923
戦	-14924
按	-14925
插	-14926
攻	-14927
析	-14928
格	-14929
画	-14930
移	-14931
窗	-14932
色	-14933
要	-14934
读	-14935
需	-14936
러	-14937
°	-14938
ê	-14939
ا	-14940
د	-14941
ả	-14942
【	-14943
】	-14944
け	-14945
つ	-14946
べ	-14947
ッ	-14948
ド	-14949
メ	-14950
三	-14951
创	-14952
即	-14953
同	-14954
和	-14955
対	-14956
市	-14957
後	-14958
得	-14959
態	-14960
打	-14961
政	-14962
效	-14963
時	-14964
水	-14965
求	-14966
特	-14967
秋	-14968
签	-14969
算	-14970
装	-14971
试	-14972
运	-14973
钥	-14974
钮	-14975
门	-14976
闭	-14977
验	-14978
글	-14979
력	-14980
제	-14981
Á	-14982
É	-14983
ä	-14984
ö	-14985
г	-14986
ầ	-14987
“	-14988
”	-14989
お	-14990
わ	-14991
イ	-14992
ク	-14993
ダ	-14994
主	-14995
二	-14996
供	-14997
元	-14998
印	-14999
及	-15000
只	-15001
品	-15002
张	-15003
心	-15004
您	-15005
扫	-15006
指	-15007
暑	-15008
源	-15009
準	-15010
王	-15011
申	-15012
相	-15013
管	-15014
箱	-15015
网	-15016
考	-15017
角	-15018
触	-15019
访	-15020
购	-15021
邮	-15022
雪	-15023
非	-15024
생	-15025
정	-15026
ô	-15027
ü	-15028
Đ	-15029
ı	-15030
М	-15031
О	-15032
ه	-15033
ی	-15034
「	-15035
」	-15036
ど	-15037
书	-15038
买	-15039
产	-15040
仕	-15041
佣	-15042
允	-15043
全	-15044
切	-15045
刊	-15046
历	-15047
压	-15048
厳	-15049
去	-15050
反	-15051
变	-15052
国	-15053
報	-15054
填	-15055
家	-15056
尊	-15057
序	-15058
形	-15059
愛	-15060
播	-15061
放	-15062
教	-15063
整	-15064
明	-15065
春	-15066
显	-15067
柄	-15068
止	-15069
活	-15070
発	-15071
素	-15072
絶	-15073
终	-15074
续	-15075
聊	-15076
般	-15077
议	-15078
许	-15079
这	-15080
露	-15081
¥	-15082
ý	-15083
З	-15084
Н	-15085
ч	-15086
щ	-15087
ب	-15088
ش	-15089
و	-15090
ề	-15091
‚	-15092
→	-15093
コ	-15094
テ	-15095
ト	-15096
何	-15097
假	-15098
先	-15099
共	-15100
册	-15101
冬	-15102
力	-15103
勤	-15104
原	-15105
吃	-15106
圆	-15107
夏	-15108
多	-15109
如	-15110
山	-15111
师	-15112
库	-15113
待	-15114
总	-15115
敬	-15116
普	-15117
書	-15118
機	-15119
步	-15120
每	-15121
矩	-15122
禁	-15123
秒	-15124
稍	-15125
経	-15126
约	-15127
络	-15128
详	-15129
象	-15130
退	-15131
钟	-15132
际	-15133
雷	-15134
발	-15135
삭	-15136
성	-15137
요	-15138
을	-15139
일	-15140
출	-15141
Ó	-15142
ø	-15143
ă	-15144
ć	-15145
ł	-15146
ś	-15147
И	-15148
ж	-15149
ב	-15150
י	-15151
م	-15152
ن	-15153
ớ	-15154
ụ	-15155
ủ	-15156
ử	-15157
—	-15158
€	-15159
♖	-15160
♗	-15161
♘	-15162
♜	-15163
♝	-15164
♞	-15165
え	-15166
ち	-15167
ぬ	-15168
ば	-15169
み	-15170
む	-15171
や	-15172
ろ	-15173
エ	-15174
タ	-15175
パ	-15176
ム	-15177
ル	-15178
且	-15179
业	-15180
举	-15181
互	-15182
亚	-15183
亮	-15184
代	-15185
众	-15186
医	-15187
単	-15188
却	-15189
台	-15190
向	-15191
含	-15192
外	-15193
女	-15194
嬴	-15195
宝	-15196
実	-15197
影	-15198
往	-15199
従	-15200
思	-15201
感	-15202
托	-15203
拟	-15204
排	-15205
昼	-15206
根	-15207
業	-15208
毕	-15209
流	-15210
测	-15211
清	-15212
済	-15213
激	-15214
照	-15215
爱	-15216
班	-15217
男	-15218
療	-15219
秦	-15220
税	-15221
籍	-15222
继	-15223
脚	-15224
臨	-15225
芒	-15226
补	-15227
見	-15228
视	-15229
誠	-15230
請	-15231
评	-15232
费	-15233
込	-15234
速	-15235
達	-15236
選	-15237
針	-15238
链	-15239
锅	-15240
隊	-15241
雨	-15242
须	-15243
饭	-15244
驚	-15245
농	-15246
는	-15247
다	-15248
류	-15249
리	-15250
번	-15251
산	-15252
서	-15253
오	-15254
주	-15255
품	-15256
️	-15257
£	-15258
§	-15259
Í	-15260
Ö	-15261
Ø	-15262
è	-15263
ą	-15264
č	-15265
μ	-15266
σ	-15267
Д	-15268
х	-15269
ح	-15270
ر	-15271
ص	-15272
ل	-15273
ở	-15274
ợ	-15275
–	-15276
‘	-15277
’	-15278
》	-15279
せ	-15280
ィ	-15281
セ	-15282
フ	-15283
プ	-15284
ベ	-15285
企	-15286
低	-15287
備	-15288
其	-15289
剪	-15290
卡	-15291
命	-15292
响	-15293
四	-15294
土	-15295
域	-15296
場	-15297
夜	-15298
季	-15299
少	-15300
层	-15301
帖	-15302
恢	-15303
旧	-15304
易	-15305
李	-15306
架	-15307
样	-15308
標	-15309
権	-15310
残	-15311
永	-15312
滑	-15313
满	-15314
灣	-15315
热	-15316
物	-15317
环	-15318
甲	-15319
略	-15320
百	-15321
直	-15322
看	-15323
短	-15324
稿	-15325
章	-15326
終	-15327
纳	-15328
缩	-15329
而	-15330
藏	-15331
裁	-15332
规	-15333
言	-15334
計	-15335
読	-15336
论	-15337
豆	-15338
赋	-15339
走	-15340
远	-15341
述	-15342
释	-15343
金	-15344
関	-15345
霜	-15346
音	-15347
额	-15348
首	-15349
가	-15350
고	-15351
과	-15352
내	-15353
세	-15354
스	-15355
입	-15356
잉	-15357
자	-15358
째	-15359
파	-15360
항	-15361
해	-15362
¢	-15363
·	-15364
¿	-15365
â	-15366
ò	-15367
Ś	-15368
ż	-15369
ƒ	-15370
̳	-15371
Г	-15372
К	-15373
ф	-15374
э	-15375
ю	-15376
ד	-15377
ה	-15378
ע	-15379
ק	-15380
ר	-15381
ת	-15382
گ	-15383
ế	-15384
ễ	-15385
ồ	-15386
ộ	-15387
•	-15388
╔	-15389
╗	-15390
╚	-15391
╝	-15392
♔	-15393
♕	-15394
♚	-15395
♛	-15396
✔	-15397
々	-15398
〈	-15399
〉	-15400
《	-15401
『	-15402
』	-15403
〔	-15404
〕	-15405
〖	-15406
〗	-15407
ひ	-15408
へ	-15409
ほ	-15410
ァ	-15411
ェ	-15412
カ	-15413
キ	-15414
シ	-15415
チ	-15416
デ	-15417
ニ	-15418
ポ	-15419
ミ	-15420
ュ	-15421
万	-15422
之	-15423
乏	-15424
五	-15425
令	-15426
价	-15427
伯	-15428
便	-15429
候	-15430
储	-15431
再	-15432
农	-15433
冲	-15434
准	-15435
划	-15436
刚	-15437
励	-15438
動	-15439
北	-15440
千	-15441
卓	-15442
占	-15443
吗	-15444
哦	-15445
哪	-15446
善	-15447
囲	-15448
坐	-15449
坛	-15450
基	-15451
夹	-15452
好	-15453
委	-15454
姬	-15455
威	-15456
学	-15457
安	-15458
宜	-15459
审	-15460
射	-15461
就	-15462
屋	-15463
屏	-15464
希	-15465
带	-15466
幀	-15467
干	-15468
平	-15469
广	-15470
強	-15471
弹	-15472
归	-15473
循	-15474
志	-15475
恥	-15476
惊	-15477
想	-15478
慰	-15479
懇	-15480
截	-15481
房	-15482
才	-15483
技	-15484
拉	-15485
拒	-15486
拦	-15487
拿	-15488
捕	-15489
授	-15490
控	-15491
推	-15492
揮	-15493
敗	-15494
斐	-15495
既	-15496
昭	-15497
景	-15498
望	-15499
末	-15500
校	-15501
核	-15502
框	-15503
歇	-15504
歓	-15505
气	-15506
浏	-15507
温	-15508
港	-15509
演	-15510
潜	-15511
澳	-15512
火	-15513
烟	-15514
煩	-15515
爆	-15516
牌	-15517
玩	-15518
現	-15519
番	-15520
異	-15521
疑	-15522
痛	-15523
盛	-15524
睡	-15525
砲	-15526
確	-15527
社	-15528
福	-15529
種	-15530
穂	-15531
突	-15532
策	-15533
範	-15534
粛	-15535
[...]
