<unk>	0
<s>	0
</s>	0
String	0
java	0
org	0
assertEquals	0
com	0
springframework	0
util	0
android	0
IOException	0
ArrayList	0
List	0
Exception	0
Object	0
Integer	0
toString	0
System	0
result	0
value	0
annotation	0
context	0
equals	0
apache	0
append	0
javax	0
get	0
length	0
println	0
Assert	0
google	0
add	0
assertTrue	0
assertThat	0
junit	0
model	0
IllegalArgumentException	0
name	0
getName	0
size	0
request	0
printStackTrace	0
response	0
protobuf	0
out	0
builder	0
lwjgl3ApplicationConfiguration0	0
put	0
common	0
assertNotNull	0
Builder	0
data	0
findViewById	0
client	0
i	0
getString	0
getInstance	0
core	0
HashMap	0
message	0
StringBuilder	0
Map	0
io	0
index	0
Throwable	0
getValue	0
isEmpty	0
swing	0
lang	0
format	0
event	0
service	0
content	0
Collections	0
entity	0
id	0
RuntimeException	0
getMessage	0
savedInstanceState	0
type	0
Boolean	0
File	0
minecraft	0
config	0
persistence	0
annotations	0
contains	0
Collection	0
setText	0
api	0
build	0
net	0
Context	0
logger	0
view	0
GroupLayout	0
e	0
assertFalse	0
Long	0
InterruptedException	0
Logger	0
position	0
assertNull	0
LoggerFactory	0
getClass	0
View	0
stream	0
values	0
HttpServletRequest	0
concurrent	0
getId	0
valueOf	0
SQLException	0
UnsupportedOperationException	0
Arrays	0
Optional	0
input	0
JSONObject	0
Response	0
StringUtils	0
args	0
key	0
description	0
Lwjgl3ApplicationConfiguration	0
Criteria	0
info	0
InputStream	0
list	0
widget	0
Class	0
currentTimeMillis	0
thenReturn	0
create	0
IllegalStateException	0
BigDecimal	0
Double	0
error	0
NullPointerException	0
close	0
hashCode	0
equalsIgnoreCase	0
Serializable	0
TextView	0
factory	0
params	0
start	0
properties	0
configuration	0
setOnClickListener	0
query	0
exception	0
file	0
HttpServletResponse	0
Intent	0
other	0
substring	0
target	0
support	0
serialVersionUID	0
getLogger	0
repository	0
deploymentEntityManager0	0
debug	0
github	0
parent	0
player	0
security	0
extensionRegistry	0
log	0
node	0
item	0
instance	0
Date	0
InvalidProtocolBufferException	0
status	0
ResponseEntity	0
session	0
map	0
connection	0
user	0
server	0
listener	0
source	0
commons	0
servlet	0
addComponent	0
iterator	0
text	0
getProperty	0
state	0
path	0
Constants	0
Color	0
domain	0
Objects	0
element	0
string	0
elasticsearch	0
OnClickListener	0
count	0
layout	0
GeneratedMessageV3	0
SubLObject	0
next	0
eclipse	0
Configuration	0
execute	0
buffer	0
BufferedReader	0
Collectors	0
badlogic	0
Assertions	0
remove	0
getText	0
Bundle	0
write	0
setVisibility	0
addCriterion	0
containsKey	0
getType	0
entry	0
test	0
controller	0
field	0
SimpleDateFormat	0
collect	0
filter	0
Set	0
internal	0
isEqualTo	0
Math	0
lombok	0
HashSet	0
PREFERRED_SIZE	0
fasterxml	0
Iterator	0
utils	0
graphics	0
Properties	0
parameters	0
ByteArrayOutputStream	0
object	0
intent	0
addActionListener	0
height	0
GridBagConstraints	0
Connection	0
options	0
http	0
expected	0
method	0
address	0
ActionEvent	0
LayoutInflater	0
handler	0
Calendar	0
command	0
FuncionesSwing	0
stereotype	0
parseInt	0
example	0
container	0
hikariConfig1	0
asList	0
AppCompatActivity	0
jupiter	0
output	0
offset	0
bind	0
location	0
Mockito	0
obj	0
web	0
set	0
resource	0
R	0
FileNotFoundException	0
component	0
Thread	0
LinkedList	0
getContext	0
jackson	0
ItemStack	0
createParallelGroup	0
services	0
password	0
project	0
onCreate	0
username	0
world	0
parser	0
width	0
hikariConfig0	0
ByteBuffer	0
awt	0
runtime	0
slf4j	0
HttpConnection	0
framework	0
when	0
engine	0
writer	0
main	0
startsWith	0
action	0
ByteString	0
impl	0
logging	0
ExtensionRegistryLite	0
activity	0
mockito	0
protocol	0
getApplicationContext	0
FileInputStream	0
User	0
json	0
Log	0
drawable	0
bitField0_	0
InputStreamReader	0
intellij	0
function	0
LocalDateTime	0
sql	0
androidx	0
reader	0
Constantes	0
Element	0
getKey	0
Node	0
FileOutputStream	0
update	0
beans	0
StringBuffer	0
url	0
hasNext	0
getDefaultInstance	0
requireNonNull	0
getResources	0
sb	0
Test	0
app	0
table	0
Runnable	0
setName	0
Autowired	0
channel	0
ViewGroup	0
Component	0
current	0
newInstance	0
verify	0
TimeUnit	0
clear	0
fileName	0
T	0
database	0
LOGGER	0
callback	0
title	0
javafx	0
RecyclerView	0
time	0
Message	0
getSimpleName	0
setVisible	0
transaction	0
newBuilder	0
BigInteger	0
Button	0
MAX_VALUE	0
ParseException	0
property	0
version	0
ImmutableList	0
PreparedStatement	0
HttpStatus	0
line	0
base	0
toLowerCase	0
setValue	0
getAbsolutePath	0
JLabel	0
ImageView	0
ActionListener	0
parse	0
application	0
msg	0
replace	0
nestedInnerQueryParseSupport1	0
metadata	0
array	0
addAll	0
getDescription	0
CompletableFuture	0
createSequentialGroup	0
provider	0
token	0
Pattern	0
models	0
delete	0
ObjectMapper	0
getActivity	0
userId	0
startActivity	0
root	0
ClassNotFoundException	0
Type	0
validation	0
Function	0
setEnabled	0
ByteArrayInputStream	0
actionPerformed	0
results	0
jetbrains	0
helper	0
attributes	0
assertArrayEquals	0
unknownFields	0
x	0
setProperty	0
expression	0
split	0
print	0
Entry	0
color	0
ctx	0
getBytes	0
UnsupportedEncodingException	0
code	0
Document	0
lwjgl3WindowConfiguration0	0
Dimension	0
document	0
JOptionPane	0
settings	0
adapter	0
getAttribute	0
parseFrom	0
simpleIndexQueryParserTests0	0
forEach	0
Toast	0
mapper	0
exceptions	0
compareTo	0
setContentView	0
matcher	0
right	0
record	0
of	0
getParameter	0
JsonObject	0
fail	0
Path	0
register	0
manager	0
IllegalAccessException	0
getHeight	0
DialogInterface	0
ServletException	0
indexOf	0
HikariConfig	0
hash	0
JButton	0
cursor	0
LocalDate	0
onChanged	0
statement	0
res	0
plugin	0
onClick	0
group	0
StandardCharsets	0
ex	0
first	0
setAttribute	0
backends	0
SharedPreferences	0
getStatus	0
Preconditions	0
LayoutParams	0
Activity	0
headers	0
holder	0
registry	0
column	0
INSTANCE	0
UUID	0
run	0
Scanner	0
nextInt	0
str	0
body	0
OutputStream	0
s	0
LinkedHashMap	0
response1	0
sendMessage	0
setTitle	0
hadoop	0
block	0
minecraftforge	0
Descriptors	0
clazz	0
j	0
getInt	0
ResultSet	0
ConcurrentHashMap	0
resources	0
row	0
Alignment	0
className	0
JSONArray	0
header	0
CharSequence	0
pos	0
entrySet	0
cloud	0
getResource	0
getWidth	0
Result	0
contentType	0
condition	0
JPanel	0
Locale	0
reflect	0
cache	0
left	0
InvocationTargetException	0
MainActivity	0
mContext	0
image	0
DEFAULT_SIZE	0
prepareStatement	0
xml	0
from	0
success	0
init	0
entities	0
schema	0
c	0
template	0
charAt	0
commands	0
getConnection	0
collection	0
exists	0
addAttribute	0
JSONException	0
Method	0
Level	0
BufferedImage	0
transform	0
child	0
jsoup	0
lucene	0
Resource	0
bytes	0
jsonObject	0
NumberFormatException	0
accept	0
stack	0
addGroup	0
constraints	0
Expression	0
Random	0
Character	0
random	0
slimTableFactoryTest0	0
val	0
process	0
modules	0
read	0
JTextField	0
serializedObjectSupporter0	0
getData	0
date	0
replaceAll	0
getChildren	0
param	0
driver	0
getDescriptor	0
Comparator	0
in	0
defaultValue	0
components	0
thrift	0
apply	0
Player	0
LinearLayout	0
MediaType	0
filename	0
PrintWriter	0
tableName	0
RecognitionException	0
getPath	0
Field	0
singletonList	0
toArray	0
fragment	0
trim	0
namespace	0
inputStream	0
task	0
items	0
network	0
actual	0
matches	0
toIndentedString	0
Service	0
arguments	0
show	0
search	0
y	0
Entity	0
FieldAccessorTable	0
timestamp	0
cloudslang	0
label	0
fields	0
editor	0
attribute	0
setId	0
elements	0
NoSuchAlgorithmException	0
dialog	0
gdx	0
prefix	0
mock	0
Observable	0
events	0
save	0
interfaces	0
rs	0
Request	0
_jspx_page_context	0
compiler	0
scene	0
children	0
AtomicInteger	0
LOG	0
Status	0
email	0
authentication	0
temp	0
extension	0
bukkit	0
DEFAULT_INSTANCE	0
isPresent	0
TAG	0
page	0
delegate	0
getTime	0
ExecutorService	0
a	0
fieldName	0
is	0
pattern	0
ViewHolder	0
LENGTH_SHORT	0
b	0
Nullable	0
platform	0
types	0
graph	0
setBackground	0
storage	0
ExecutionException	0
ResourceLocation	0
number	0
Utils	0
module	0
Application	0
level	0
generator	0
initialize	0
lwjgl3	0
assertThrows	0
mergeFrom	0
edu	0
descriptor	0
showMessageDialog	0
equalTo	0
Location	0
setString	0
MalformedURLException	0
executor	0
intValue	0
validate	0
hamcrest	0
BorderLayout	0
executeQuery	0
conn	0
toList	0
isDebugEnabled	0
isInitialized	0
checkNotNull	0
startTime	0
keySet	0
setDescription	0
game	0
Timestamp	0
Config	0
ImmutableMap	0
Point	0
environment	0
getBoolean	0
emptyList	0
max	0
currentThread	0
control	0
nio	0
EditText	0
operation	0
RemoteException	0
HttpURLConnection	0
var	0
MouseEvent	0
makeText	0
Environment	0
URISyntaxException	0
andExpect	0
system	0
putExtra	0
messages	0
throwable	0
Vector	0
Float	0
methodName	0
buf	0
getParent	0
bean	0
slangImpl0	0
KeyEvent	0
spongepowered	0
AlertDialog	0
LinearLayoutManager	0
openapi	0
account	0
store	0
PARSER	0
resultSet	0
p	0
end	0
Duration	0
maybeForceBuilderInitialization	0
category	0
thread	0
call	0
ComponentPlacement	0
Predicate	0
microsoft	0
setLayout	0
setMessage	0
getResourceAsStream	0
getInputStream	0
Item	0
Iterable	0
gson	0
separator	0
order	0
criteria	0
ui	0
hibernate	0
tag	0
props	0
Files	0
readLine	0
port	0
gridBagConstraints	0
invoke	0
inflater	0
TextUtils	0
that	0
score	0
inventory	0
parameter	0
flush	0
converter	0
inject	0
statusCode	0
permission	0
Model	0
Consumer	0
Handler	0
nodes	0
amount	0
RequestMapping	0
identifier	0
Constantes2	0
parametroGeneralUsuario	0
os	0
uri	0
isAssignableFrom	0
setColor	0
dao	0
toUpperCase	0
assertSame	0
filePath	0
databind	0
onOptionsItemSelected	0
sleep	0
convertView	0
frame	0
t	0
consumer	0
ret	0
Statement	0
charset	0
newArrayList	0
handle	0
getLocation	0
newValue	0
AttributeSet	0
setStatus	0
product	0
de	0
CountDownLatch	0
bundle	0
evt	0
Property	0
Block	0
Bitmap	0
SimpleIndexQueryParserTests	0
BlockPos	0
Transaction	0
CodedInputStream	0
dto	0
insert	0
inflate	0
Direction	0
ref	0
Session	0
v	0
NoSuchElementException	0
runner	0
Pair	0
plugins	0
Void	0
userService	0
Label	0
mybatisplus	0
ModelAndView	0
setPreferredSize	0
Fragment	0
autoconfigure	0
itemView	0
swagger	0
tools	0
errorMessage	0
getStatusCode	0
subject	0
getProperties	0
URL	0
Material	0
parseDouble	0
getColor	0
duration	0
verifyException	0
payload	0
notifyDataSetChanged	0
propertyName	0
State	0
validator	0
counter	0
endsWith	0
getValorProporcion	0
compile	0
getSystemService	0
setState	0
resourceGroupName	0
CollectionUtils	0
JsonProcessingException	0
executeUpdate	0
getContent	0
clone	0
addPreferredGap	0
mapping	0
builderForValue	0
UNPROVIDED	0
ApiException	0
SpringApplication	0
getState	0
canvas	0
TreeNode	0
Stream	0
response0	0
packageName	0
dataSource	0
getCode	0
InetSocketAddress	0
BufferedWriter	0
commit	0
queue	0
destination	0
processor	0
VISIBLE	0
Value	0
MenuItem	0
requestCode	0
min	0
language	0
direction	0
PackageManager	0
DataSource	0
setType	0
Event	0
amazonaws	0
Attribute	0
n	0
HttpResponse	0
getClassLoader	0
userName	0
conf	0
getTitle	0
getSession	0
DateTimeFormatter	0
getContentPane	0
getConfiguration	0
seedu	0
findById	0
math	0
alibaba	0
sender	0
o	0
compare	0
convert	0
ISUSAEJBLOGICLAYER	0
notification	0
addContainerGap	0
hikari	0
boot	0
resolve	0
zaxxer	0
Person	0
Controller	0
getVersion	0
getUsername	0
animation	0
Matchers	0
calendar	0
match	0
getJSONObject	0
Settings	0
objectMapper	0
AtomicBoolean	0
tree	0
visitor	0
cluster	0
toByteArray	0
memoizedIsInitialized	0
proto	0
Command	0
MotionEvent	0
predicate	0
columns	0
setFont	0
empty	0
Rectangle	0
stringBuilder	0
Project	0
applicationContext	0
limit	0
outputStream	0
connect	0
db	0
getMethod	0
var1	0
getSupportFragmentManager	0
AllArgsConstructor	0
Short	0
Blocks	0
getPosition	0
objects	0
req	0
getSource	0
timeout	0
UnknownFieldSet	0
Token	0
select	0
CodedOutputStream	0
load	0
FileUtils	0
randomUUID	0
facebook	0
Number	0
testsystems	0
StringUtil	0
queryWhereSelectParameters	0
Annotation	0
getObject	0
netty	0
rest	0
Query	0
findElement	0
directory	0
Action	0
isNotEmpty	0
createStatement	0
attrs	0
getCount	0
binding	0
);	-0
▁{	-1
▁}	-2
▁=	-3
()	-4
▁(	-5
ur	-6
▁f	-7
ll	-8
();	-9
("	-10
▁"	-11
▁+	-12
ull	-13
",	-14
).	-15
Pr	-16
().	-17
");	-18
));	-19
▁m	-20
▁0	-21
());	-22
ul	-23
Id	-24
um	-25
▁C	-26
▁S	-27
00	-28
▁==	-29
▁1	-30
rm	-31
▁d	-32
▁l	-33
▁!	-34
rd	-35
))	-36
rr	-37
IN	-38
ru	-39
▁!=	-40
Ch	-41
▁r	-42
ON	-43
(),	-44
▁-	-45
▁A	-46
Cl	-47
[]	-48
▁D	-49
())	-50
▁I	-51
▁M	-52
Gr	-53
▁w	-54
ff	-55
";	-56
▁:	-57
▁P	-58
rk	-59
ES	-60
▁&	-61
gr	-62
▁<	-63
),	-64
Fr	-65
▁B	-66
AL	-67
ME	-68
Ad	-69
▁&&	-70
ld	-71
▁h	-72
rg	-73
Im	-74
LE	-75
▁E	-76
▁_	-77
▁0;	-78
ID	-79
gh	-80
SE	-81
▁2	-82
lu	-83
Su	-84
▁F	-85
lum	-86
DE	-87
▁V	-88
qu	-89
(1	-90
ION	-91
▁|	-92
Or	-93
du	-94
"));	-95
Err	-96
▁>	-97
CO	-98
Wr	-99
▁G	-100
▁g	-101
▁(!	-102
EN	-103
++	-104
fl	-105
(0	-106
▁J	-107
>();	-108
▁u	-109
").	-110
▁N	-111
▁U	-112
\"	-113
Au	-114
NA	-115
▁H	-116
▁*	-117
--	-118
2.	-119
Cr	-120
▁((	-121
Bu	-122
▁O	-123
PE	-124
AC	-125
gl	-126
ml	-127
()).	-128
▁?	-129
Qu	-130
▁L	-131
)).	-132
AN	-133
1.	-134
▁'	-135
▁||	-136
Sh	-137
▁->	-138
IS	-139
rl	-140
Add	-141
01	-142
>>	-143
Of	-144
((	-145
NAME	-146
rf	-147
All	-148
▁0)	-149
Ou	-150
OU	-151
dr	-152
▁3	-153
IC	-154
rC	-155
ud	-156
mm	-157
++)	-158
Arr	-159
Ar	-160
LA	-161
];	-162
VE	-163
▁fl	-164
MA	-165
▁});	-166
ING	-167
DA	-168
Pl	-169
▁W	-170
▁/	-171
UL	-172
ED	-173
PA	-174
__	-175
"),	-176
1,	-177
▁Pr	-178
rD	-179
dl	-180
Em	-181
rS	-182
.0	-183
CH	-184
<>();	-185
"))	-186
hr	-187
FI	-188
urr	-189
GE	-190
LO	-191
▁wh	-192
dS	-193
..	-194
<?	-195
dB	-196
Dr	-197
Off	-198
EC	-199
(2	-200
()));	-201
rP	-202
Bl	-203
Al	-204
NO	-205
Null	-206
▁0,	-207
Ed	-208
CON	-209
KE	-210
Fu	-211
Url	-212
AD	-213
dC	-214
▁4	-215
Fl	-216
lFr	-217
▁k	-218
dP	-219
▁+=	-220
rI	-221
0000	-222
PO	-223
UN	-224
▁",	-225
EX	-226
.*	-227
//	-228
▁5	-229
Buff	-230
▁1;	-231
YPE	-232
[0	-233
lS	-234
FA	-235
AB	-236
AS	-237
000	-238
rN	-239
md	-240
gm	-241
rM	-242
▁z	-243
hm	-244
==	-245
▁};	-246
COL	-247
US	-248
.*;	-249
ql	-250
Arg	-251
")	-252
VAL	-253
IL	-254
dul	-255
ku	-256
IG	-257
MO	-258
2,	-259
>(	-260
▁-1	-261
0,	-262
ML	-263
3.	-264
umm	-265
rF	-266
Curr	-267
▁%	-268
Cu	-269
uld	-270
Clu	-271
.");	-272
EL	-273
ESS	-274
▁K	-275
dD	-276
SS	-277
99	-278
gg	-279
UM	-280
KEY	-281
UE	-282
▁1,	-283
lD	-284
hu	-285
(0,	-286
[0]	-287
MP	-288
FAUL	-289
▁1);	-290
EA	-291
FO	-292
HO	-293
▁0);	-294
rPr	-295
Ag	-296
()))	-297
dI	-298
::	-299
▁Cl	-300
SI	-301
▁X	-302
▁__	-303
dg	-304
rId	-305
▁Gr	-306
Sw	-307
▁>=	-308
rB	-309
Pu	-310
rA	-311
")).	-312
▁{}	-313
lM	-314
**	-315
Num	-316
="	-317
[1	-318
▁6	-319
3,	-320
AP	-321
CE	-322
',	-323
dM	-324
OP	-325
_1	-326
rE	-327
QL	-328
02	-329
▁\"	-330
IM	-331
VO	-332
(0);	-333
2);	-334
<?>	-335
▁Ch	-336
lug	-337
lC	-338
hS	-339
(1,	-340
11	-341
].	-342
mu	-343
)));	-344
rH	-345
FF	-346
Br	-347
gS	-348
dA	-349
IP	-350
4.	-351
rIm	-352
kS	-353
ZE	-354
▁8	-355
5,	-356
If	-357
OM	-358
CA	-359
▁1)	-360
duM	-361
----	-362
0.	-363
Ur	-364
lV	-365
ABLE	-366
],	-367
1",	-368
DI	-369
Sl	-370
dk	-371
BU	-372
0;	-373
0);	-374
".	-375
dF	-376
OL	-377
://	-378
▁IN	-379
▁<=	-380
2;	-381
Vm	-382
("\	-383
4,	-384
1);	-385
++;	-386
gu	-387
▁},	-388
Argum	-389
▁[	-390
<>(	-391
df	-392
Mul	-393
▁"\	-394
DB	-395
rmPr	-396
("/	-397
HE	-398
lN	-399
▁Wr	-400
]);	-401
12	-402
0100	-403
dO	-404
gJ	-405
lP	-406
LI	-407
▁"/	-408
('	-409
SU	-410
hC	-411
Wh	-412
fr	-413
Gl	-414
USE	-415
Aud	-416
lf	-417
ONE	-418
IME	-419
SON	-420
mM	-421
DEFAUL	-422
rL	-423
AGE	-424
▁0.	-425
▁"";	-426
dd	-427
▁7	-428
DS	-429
BE	-430
Xml	-431
▁gr	-432
(3	-433
dL	-434
▁("	-435
gC	-436
lm	-437
lB	-438
mS	-439
CU	-440
▁2,	-441
▁DE	-442
Ph	-443
MS	-444
dN	-445
lI	-446
gD	-447
MEN	-448
32	-449
OPE	-450
rU	-451
1;	-452
(_	-453
08	-454
hP	-455
mul	-456
QU	-457
Equ	-458
▁q	-459
====	-460
rul	-461
gJI	-462
...	-463
▁Z	-464
Edg	-465
("<	-466
IVE	-467
Plug	-468
1\	-469
(1);	-470
(4	-471
lA	-472
hD	-473
▁0.0	-474
gI	-475
\\	-476
SION	-477
>()	-478
kB	-479
▁dr	-480
IO	-481
uff	-482
SC	-483
SQL	-484
▁mu	-485
{}	-486
▁");	-487
(5	-488
dW	-489
##	-490
SIZE	-491
wr	-492
SH	-493
\":	-494
wS	-495
CK	-496
DO	-497
16	-498
rum	-499
25	-500
AX	-501
mum	-502
▁Im	-503
fm	-504
2)	-505
UI	-506
Sql	-507
kgr	-508
OB	-509
wC	-510
mN	-511
▁qu	-512
()),	-513
PU	-514
LEC	-515
gB	-516
▁100	-517
Mu	-518
WO	-519
lr	-520
OK	-521
2",	-522
dE	-523
lE	-524
(0).	-525
▁".	-526
7.	-527
005	-528
ICE	-529
ND	-530
>)	-531
▁Au	-532
AM	-533
fu	-534
04	-535
UP	-536
▁-1;	-537
▁Cr	-538
mD	-539
mmu	-540
LIC	-541
ULL	-542
▁Sh	-543
gE	-544
lF	-545
▁2;	-546
64	-547
VA	-548
lPr	-549
Am	-550
kI	-551
Gu	-552
rV	-553
9,	-554
COUN	-555
_2	-556
▁//	-557
GL	-558
MM	-559
ACE	-560
rO	-561
[][]	-562
dh	-563
ACK	-564
8,	-565
WA	-566
hI	-567
6,	-568
INE	-569
OF	-570
rkfl	-571
XML	-572
kC	-573
▁"<	-574
Af	-575
NS	-576
rld	-577
BO	-578
0\	-579
ug	-580
Full	-581
55	-582
▁rul	-583
INJ	-584
▁zz	-585
IGH	-586
IF	-587
dH	-588
':	-589
kM	-590
▁{}",	-591
▁DEFAUL	-592
gP	-593
Summ	-594
▁Ar	-595
▁Em	-596
FIX	-597
:"	-598
JEC	-599
lH	-600
AME	-601
EMA	-602
JSON	-603
ugh	-604
▁mS	-605
ALL	-606
zz	-607
▁Su	-608
▁1.0	-609
23	-610
][	-611
WN	-612
001	-613
FILE	-614
wl	-615
>");	-616
VALUE	-617
5.	-618
1");	-619
00,	-620
DES	-621
▁Pl	-622
▁9	-623
ESSAGE	-624
SO	-625
03	-626
▁Cu	-627
!");	-628
VALID	-629
mP	-630
rgum	-631
▁Y	-632
GU	-633
lk	-634
LASS	-635
EM	-636
wD	-637
---	-638
10	-639
Ow	-640
EMP	-641
');	-642
CHA	-643
LEN	-644
")));	-645
AND	-646
kN	-647
▁fr	-648
7,	-649
VI	-650
PI	-651
lur	-652
mdr	-653
kD	-654
=\"	-655
.",	-656
****	-657
BA	-658
hM	-659
MIN	-660
CESS	-661
wM	-662
El	-663
VICE	-664
DAO	-665
1)	-666
dV	-667
(2,	-668
▁-1)	-669
(",	-670
mC	-671
PC	-672
mI	-673
SELEC	-674
MESSAGE	-675
fk	-676
INI	-677
urf	-678
lg	-679
dCh	-680
▁GL	-681
SA	-682
gM	-683
hA	-684
())).	-685
8.	-686
0)	-687
4;	-688
rw	-689
wL	-690
CODE	-691
▁1000	-692
dPr	-693
Ig	-694
SP	-695
(()	-696
_0	-697
hN	-698
Org	-699
▁Dr	-700
EG	-701
rW	-702
3;	-703
wh	-704
Buf	-705
▁wr	-706
YS	-707
EAD	-708
11.	-709
FIG	-710
rAd	-711
Mgr	-712
3);	-713
')	-714
---+	-715
lErr	-716
▁Err	-717
09	-718
rBl	-719
MODE	-720
])	-721
dG	-722
--------	-723
AU	-724
ggr	-725
_.	-726
78	-727
18	-728
201	-729
VEN	-730
▁++	-731
SECON	-732
WE	-733
▁"'	-734
00);	-735
EQU	-736
▁").	-737
fh	-738
▁ID	-739
▁Q	-740
14	-741
mg	-742
▁SE	-743
dId	-744
9.	-745
CLASS	-746
BLE	-747
rCh	-748
LOCK	-749
▁"_	-750
Chu	-751
zur	-752
EW	-753
▁4,	-754
▁2);	-755
BY	-756
gA	-757
km	-758
WI	-759
mL	-760
▁fu	-761
EP	-762
dm	-763
3",	-764
ELD	-765
▁<<	-766
Eff	-767
IAL	-768
NUM	-769
56	-770
_005	-771
FE	-772
rmul	-773
kA	-774
5;	-775
IZ	-776
uk	-777
▁DA	-778
▁Fu	-779
CAL	-780
LAY	-781
5);	-782
OO	-783
lL	-784
hB	-785
[2	-786
▁NO	-787
▁Xml	-788
mq	-789
ww	-790
▁"");	-791
ONG	-792
▁mC	-793
INS	-794
▁2)	-795
.<	-796
dK	-797
▁16	-798
▁3,	-799
":	-800
▁Al	-801
LENG	-802
▁Qu	-803
---+---+	-804
mw	-805
▁Or	-806
▁gl	-807
CONFIG	-808
EFIX	-809
UC	-810
LIS	-811
[1]	-812
(-	-813
END	-814
▁Gl	-815
</	-816
Sk	-817
MAX	-818
APP	-819
\",	-820
lId	-821
▁du	-822
='	-823
wI	-824
▁"-	-825
llP	-826
▁Ad	-827
ESP	-828
[0];	-829
▁Arr	-830
▁10	-831
▁mM	-832
LINE	-833
DD	-834
)");	-835
13	-836
JB	-837
OS	-838
AY	-839
6.	-840
▁Br	-841
>\	-842
ADD	-843
__.	-844
rGr	-845
1_	-846
OUP	-847
("");	-848
Nu	-849
▁"",	-850
▁Mul	-851
IGN	-852
2");	-853
rru	-854
IONS	-855
▁"--	-856
▁Pu	-857
19	-858
>,	-859
)))	-860
SW	-861
▁CON	-862
▁Bl	-863
CL	-864
gU	-865
kF	-866
VM	-867
ILE	-868
UMN	-869
▁mI	-870
2\	-871
▁(_	-872
kP	-873
(((	-874
DIS	-875
OFF	-876
wP	-877
rkJ	-878
ESOU	-879
INDE	-880
EQUES	-881
8;	-882
4);	-883
▁mul	-884
MY	-885
mId	-886
▁VAL	-887
▁VM	-888
FIELD	-889
SECONDS	-890
▁"]	-891
INFO	-892
("[	-893
>",	-894
lU	-895
)",	-896
8);	-897
HA	-898
002	-899
05	-900
gL	-901
MAP	-902
▁";	-903
FLA	-904
Aggr	-905
)),	-906
LOB	-907
ghl	-908
9999	-909
Aw	-910
API	-911
OD	-912
OUND	-913
(0));	-914
▁SW	-915
dAll	-916
34	-917
(2);	-918
Immu	-919
"))).	-920
IDE	-921
▁Fl	-922
BLOCK	-923
mW	-924
rG	-925
HOD	-926
rdS	-927
▁AS	-928
========	-929
full	-930
SHA	-931
FS	-932
YP	-933
▁Ur	-934
▁Clu	-935
kl	-936
▁3;	-937
▁El	-938
INVALID	-939
Du	-940
dU	-941
▁":	-942
▁(!(	-943
lW	-944
IES	-945
rCl	-946
▁'"	-947
▁5,	-948
▁10;	-949
lO	-950
rkA	-951
▁Fr	-952
Alg	-953
MQ	-954
ENE	-955
▁Immu	-956
ICA	-957
▁uk	-958
ISION	-959
("%	-960
▁Add	-961
_;	-962
(1).	-963
2(	-964
Sm	-965
lh	-966
▁12	-967
_3	-968
▁USE	-969
COM	-970
▁}).	-971
hF	-972
hL	-973
MSG	-974
EMO	-975
▁mP	-976
▁dumm	-977
ful	-978
NONE	-979
ldr	-980
▁""	-981
))).	-982
gF	-983
KNO	-984
._	-985
ulk	-986
OBJEC	-987
SB	-988
IBU	-989
▁mD	-990
hl	-991
▁MAX	-992
BASE	-993
▁()	-994
37	-995
▁\	-996
CEN	-997
ESUL	-998
▁CO	-999
umul	-1000
24	-1001
SV	-1002
▁'\	-1003
(1)).	-1004
SD	-1005
07	-1006
OLE	-1007
USH	-1008
CHAN	-1009
15	-1010
gH	-1011
mf	-1012
("-	-1013
[]>	-1014
GB	-1015
fg	-1016
hE	-1017
IMA	-1018
kId	-1019
POIN	-1020
AE	-1021
JU	-1022
dGr	-1023
HI	-1024
dw	-1025
gN	-1026
ECISION	-1027
<>	-1028
rmD	-1029
▁{\	-1030
KNOWN	-1031
AG	-1032
hH	-1033
6;	-1034
▁@	-1035
▁IC	-1036
38	-1037
LS	-1038
NE	-1039
[0]);	-1040
hum	-1041
▁AC	-1042
▁Mu	-1043
INDEX	-1044
mU	-1045
kO	-1046
▁>>	-1047
LY	-1048
mH	-1049
MIL	-1050
\1\	-1051
▁full	-1052
FINI	-1053
FLAG	-1054
COLUMN	-1055
30	-1056
gw	-1057
PEC	-1058
IGIN	-1059
IA	-1060
IND	-1061
ISO	-1062
LOW	-1063
LF	-1064
mF	-1065
5",	-1066
BL	-1067
JC	-1068
(3,	-1069
Cmd	-1070
▁EX	-1071
llS	-1072
NING	-1073
ffff	-1074
OrNull	-1075
rK	-1076
▁KEY	-1077
kU	-1078
IMI	-1079
QUE	-1080
SCH	-1081
SYS	-1082
▁4;	-1083
POSI	-1084
▁255	-1085
▁NULL	-1086
kH	-1087
gPr	-1088
####	-1089
PASS	-1090
/"	-1091
kCl	-1092
(6	-1093
ggl	-1094
rOr	-1095
000);	-1096
mB	-1097
EMAIL	-1098
DU	-1099
▁Ou	-1100
OC	-1101
▁$	-1102
BUG	-1103
NAL	-1104
(1));	-1105
gul	-1106
LOBAL	-1107
28	-1108
2_	-1109
ELE	-1110
lGr	-1111
__).	-1112
OW	-1113
[3	-1114
("#	-1115
▁IS	-1116
▁"\"	-1117
EE	-1118
ANS	-1119
▁Sql	-1120
YN	-1121
0101	-1122
20	-1123
4",	-1124
]",	-1125
gGr	-1126
rdw	-1127
LICA	-1128
OUBLE	-1129
▁Buff	-1130
SK	-1131
kL	-1132
▁ru	-1133
▁;	-1134
LIEN	-1135
MPLE	-1136
7;	-1137
ldI	-1138
EQ	-1139
UME	-1140
rdD	-1141
mPr	-1142
▁mL	-1143
ANCH	-1144
▁ISO	-1145
▁)	-1146
003	-1147
004	-1148
Flu	-1149
>>>>	-1150
UPDA	-1151
[0],	-1152
hd	-1153
OFFSE	-1154
ECK	-1155
ENC	-1156
rEl	-1157
▁mB	-1158
▁mH	-1159
LOCA	-1160
-8	-1161
hO	-1162
SUB	-1163
[0].	-1164
FK	-1165
MB	-1166
DESC	-1167
▁Vmw	-1168
▁0));	-1169
▁1]	-1170
QN	-1171
hV	-1172
▁")	-1173
▁-=	-1174
<?>>	-1175
▁1));	-1176
36	-1177
Suff	-1178
llI	-1179
ESPON	-1180
22	-1181
LL	-1182
gW	-1183
(".	-1184
0001	-1185
EVEN	-1186
PK	-1187
qC	-1188
wG	-1189
POS	-1190
dIm	-1191
▁Flu	-1192
ESPONSE	-1193
9;	-1194
>"	-1195
BC	-1196
SHO	-1197
[])	-1198
▁18	-1199
DF	-1200
PASSWO	-1201
LOA	-1202
hPr	-1203
▁"[	-1204
▁Sl	-1205
(7	-1206
509	-1207
AEJB	-1208
ISUS	-1209
********	-1210
ISUSAEJB	-1211
wF	-1212
ACH	-1213
ASE	-1214
CAN	-1215
ECO	-1216
DEBUG	-1217
17	-1218
wB	-1219
▁Bu	-1220
▁Sw	-1221
UNKNOWN	-1222
MI	-1223
PP	-1224
▁6,	-1225
▁PA	-1226
▁VK	-1227
▁10,	-1228
WING	-1229
dFr	-1230
IfN	-1231
▁15	-1232
("",	-1233
]+	-1234
mE	-1235
wV	-1236
MIS	-1237
NULL	-1238
LAB	-1239
\0\	-1240
rfl	-1241
LOAD	-1242
CHECK	-1243
NUMBE	-1244
EPO	-1245
▁JB	-1246
ACHE	-1247
DELE	-1248
ISWING	-1249
zh	-1250
200	-1251
Pur	-1252
00000000	-1253
MAL	-1254
hdf	-1255
Eq	-1256
mA	-1257
LONG	-1258
NODE	-1259
uldB	-1260
▁0.5	-1261
kr	-1262
.0,	-1263
SUC	-1264
hCh	-1265
0));	-1266
▁^	-1267
29	-1268
IB	-1269
▁.	-1270
Dumm	-1271
LEF	-1272
////	-1273
kd	-1274
▁5;	-1275
....	-1276
AA	-1277
(0.	-1278
(__	-1279
OfB	-1280
▁"}	-1281
▁mF	-1282
kE	-1283
DUM	-1284
llB	-1285
www	-1286
mdrO	-1287
NAM	-1288
OID	-1289
GUID	-1290
lAdd	-1291
CLIEN	-1292
MD	-1293
NEC	-1294
dCl	-1295
▁24	-1296
HOS	-1297
dFu	-1298
▁"%	-1299
▁"{	-1300
▁WHE	-1301
▁Argum	-1302
59	-1303
▁Ag	-1304
▁EN	-1305
▁Id	-1306
ICAL	-1307
uf	-1308
gId	-1309
gQu	-1310
▁EC	-1311
256	-1312
DOWN	-1313
GONE	-1314
Surf	-1315
LABEL	-1316
▁Curr	-1317
_,	-1318
'",	-1319
Sum	-1320
Lu	-1321
(4,	-1322
?",	-1323
EGE	-1324
qIN	-1325
XC	-1326
▁SQL	-1327
lEm	-1328
▁DB	-1329
▁|=	-1330
DUMMY	-1331
SCHEMA	-1332
DED	-1333
UAL	-1334
llu	-1335
:");	-1336
▁JSON	-1337
())));	-1338
rmA	-1339
▁25	-1340
3");	-1341
';	-1342
EADE	-1343
▁VALUE	-1344
gO	-1345
DEN	-1346
▁UI	-1347
▁3);	-1348
▁Plug	-1349
EF	-1350
<?,	-1351
INK	-1352
▁MA	-1353
▁API	-1354
_8	-1355
rFr	-1356
1").	-1357
26	-1358
wH	-1359
")),	-1360
PLAY	-1361
SIGN	-1362
rdId	-1363
▁COL	-1364
SL	-1365
rku	-1366
▁"/"	-1367
▁XML	-1368
ANCHO	-1369
06	-1370
lK	-1371
__);	-1372
SUCCESS	-1373
33	-1374
wN	-1375
▁--	-1376
▁102	-1377
▁Aud	-1378
rSh	-1379
SING	-1380
\",\	-1381
...");	-1382
(5,	-1383
DEC	-1384
rmC	-1385
}",	-1386
")))	-1387
▁2.0	-1388
MUL	-1389
wPr	-1390
NUME	-1391
100	-1392
FAC	-1393
▁Off	-1394
1:	-1395
SOU	-1396
▁LO	-1397
▁["	-1398
("\"	-1399
▁}));	-1400
WS	-1401
[4	-1402
IVI	-1403
PUB	-1404
▁?>	-1405
COMM	-1406
AF	-1407
BB	-1408
zu	-1409
rSu	-1410
▁QN	-1411
▁(((	-1412
MAN	-1413
gur	-1414
ldC	-1415
▁UN	-1416
INSE	-1417
1/	-1418
MEM	-1419
ACCOUN	-1420
0000000	-1421
---+---+---+---+	-1422
35	-1423
DBC	-1424
▁IO	-1425
▁1).	-1426
----------------	-1427
84	-1428
hG	-1429
wA	-1430
6);	-1431
='"	-1432
_0_	-1433
kArgum	-1434
(!	-1435
INA	-1436
▁"0	-1437
ADING	-1438
CP	-1439
mO	-1440
uh	-1441
FFE	-1442
▁8,	-1443
2));	-1444
dSu	-1445
llC	-1446
▁Ed	-1447
▁Ph	-1448
kg	-1449
mK	-1450
ELA	-1451
rJ	-1452
Plu	-1453
glD	-1454
(100);	-1455
CONNEC	-1456
Chr	-1457
Sdk	-1458
▁MO	-1459
BACK	-1460
rz	-1461
ugg	-1462
0800	-1463
CACHE	-1464
(",");	-1465
Sr	-1466
wW	-1467
--;	-1468
ADA	-1469
▁Edg	-1470
IFICA	-1471
3)	-1472
ALE	-1473
\02	-1474
IZED	-1475
]");	-1476
OCESS	-1477
76	-1478
IZE	-1479
llD	-1480
▁IP	-1481
Addr	-1482
rArr	-1483
IMEOU	-1484
16.	-1485
mGr	-1486
NAGE	-1487
[1];	-1488
mumS	-1489
32(	-1490
(10,	-1491
▁'{}	-1492
21	-1493
ASK	-1494
Cur	-1495
rdM	-1496
▁-1);	-1497
2()	-1498
Aff	-1499
("\\	-1500
1));	-1501
1(	-1502
=%	-1503
BI	-1504
++]	-1505
▁BY	-1506
▁1];	-1507
1"));	-1508
COMPA	-1509
''	-1510
DIA	-1511
▁"#	-1512
(3);	-1513
GENE	-1514
[1]);	-1515
kBuff	-1516
88	-1517
AI	-1518
PL	-1519
gK	-1520
hU	-1521
0.0	-1522
ALSE	-1523
MODEL	-1524
NB	-1525
:00	-1526
CEP	-1527
DAY	-1528
MILLI	-1529
fS	-1530
.";	-1531
00;	-1532
CAS	-1533
dAr	-1534
(4);	-1535
MAIN	-1536
VIEW	-1537
UB	-1538
[^	-1539
[2]	-1540
rkD	-1541
rql	-1542
HOME	-1543
MEMBE	-1544
mJ	-1545
uB	-1546
FIN	-1547
UES	-1548
()];	-1549
PAGE	-1550
}");	-1551
▁"."	-1552
CS	-1553
wE	-1554
Blu	-1555
rud	-1556
40	-1557
dJ	-1558
dOu	-1559
rkI	-1560
CULA	-1561
OV	-1562
▁FO	-1563
Bulk	-1564
Pull	-1565
.\	-1566
Ok	-1567
PN	-1568
EEN	-1569
SED	-1570
("</	-1571
▁0),	-1572
FOUND	-1573
LEADING	-1574
wd	-1575
!",	-1576
▁ME	-1577
(0),	-1578
IMAL	-1579
OVE	-1580
▁100;	-1581
(8	-1582
hGr	-1583
▁"3	-1584
ILED	-1585
llSu	-1586
▁5);	-1587
hW	-1588
("$	-1589
(";	-1590
>>)	-1591
AIN	-1592
AML	-1593
HOU	-1594
LED	-1595
uru	-1596
▁mA	-1597
▁-1,	-1598
CI	-1599
XA	-1600
失败	-1601
WHI	-1602
WID	-1603
lCl	-1604
(1),	-1605
FACE	-1606
(""))	-1607
MON	-1608
OfW	-1609
USD	-1610
▁mPr	-1611
))));	-1612
EMPLA	-1613
77	-1614
(\"	-1615
▁(1	-1616
▁1.	-1617
CONS	-1618
llEd	-1619
▁All	-1620
44	-1621
66	-1622
>>>	-1623
rmI	-1624
▁km	-1625
BUIL	-1626
GP	-1627
_4	-1628
()[	-1629
CLO	-1630
LES	-1631
SECU	-1632
("201	-1633
LOCAL	-1634
▁2));	-1635
DEFINI	-1636
><	-1637
(0)	-1638
AMP	-1639
PAN	-1640
HEADE	-1641
-1	-1642
XY	-1643
fC	-1644
9);	-1645
ffl	-1646
rWr	-1647
Sugg	-1648
[1],	-1649
FALSE	-1650
▁1000;	-1651
APPLICA	-1652
GC	-1653
("__	-1654
GLOBAL	-1655
▁DOUBLE	-1656
kV	-1657
▁~	-1658
EFE	-1659
HAS	-1660
▁NB	-1661
▁10);	-1662
85	-1663
hK	-1664
kW	-1665
\03	-1666
rDr	-1667
CALL	-1668
▁("_	-1669
(2));	-1670
ZC	-1671
rh	-1672
AEL	-1673
IZA	-1674
IfA	-1675
dAu	-1676
▁8)	-1677
MODI	-1678
YB	-1679
fP	-1680
NEW	-1681
▁14	-1682
▁mN	-1683
FULL	-1684
▁(__	-1685
\":\"	-1686
hz	-1687
lw	-1688
_);	-1689
dSh	-1690
flu	-1691
wCl	-1692
▁Am	-1693
("//	-1694
▁ADD	-1695
MILLISECONDS	-1696
ECE	-1697
OAD	-1698
39	-1699
gV	-1700
qr	-1701
IVA	-1702
UNI	-1703
▁6;	-1704
▁JS	-1705
CLUS	-1706
ELEMEN	-1707
JA	-1708
JS	-1709
Ol	-1710
VC	-1711
Xm	-1712
rX	-1713
wO	-1714
dQu	-1715
rdf	-1716
▁3)	-1717
▁Wh	-1718
▁[%	-1719
KEYS	-1720
▁[{}	-1721
75	-1722
hh	-1723
DC	-1724
("{	-1725
1).	-1726
>";	-1727
AXB	-1728
Agr	-1729
CUS	-1730
dum	-1731
mud	-1732
IMES	-1733
rAdd	-1734
__");	-1735
▁mCurr	-1736
mV	-1737
7);	-1738
ldS	-1739
rdP	-1740
urg	-1741
▁60	-1742
▁gu	-1743
GUYB	-1744
OJEC	-1745
48	-1746
EAM	-1747
WEB	-1748
rmF	-1749
▁"$	-1750
▁mV	-1751
ENCE	-1752
{}",	-1753
▁31,	-1754
PUBLIC	-1755
▁10000	-1756
4)	-1757
96	-1758
Mm	-1759
__)	-1760
4");	-1761
▁DAO	-1762
7816.	-1763
ABLED	-1764
QF	-1765
SM	-1766
mh	-1767
1.0	-1768
dID	-1769
2").	-1770
SEPA	-1771
▁0))	-1772
▁NUM	-1773
>>();	-1774
COMPLE	-1775
CALCULA	-1776
JI	-1777
LD	-1778
ANG	-1779
IdP	-1780
__,	-1781
dAd	-1782
glE	-1783
▁"&	-1784
▁20	-1785
▁Sm	-1786
▁\""	-1787
(100,	-1788
▁'\''	-1789
fd	-1790
CEL	-1791
\"\	-1792
hQL	-1793
wId	-1794
▁99	-1795
▁NS	-1796
>>()	-1797
▁"</	-1798
▁4);	-1799
▁AND	-1800
▁{},	-1801
SCALE	-1802
ECU	-1803
rCr	-1804
rdI	-1805
rkS	-1806
▁fd	-1807
(1.0	-1808
ICON	-1809
dArr	-1810
(0)).	-1811
LABLE	-1812
MEDIA	-1813
▁BIGIN	-1814
1[	-1815
:\	-1816
IE	-1817
Vl	-1818
BML	-1819
YNC	-1820
gml	-1821
FAIL	-1822
OKEN	-1823
SBML	-1824
rUrl	-1825
▁EGL	-1826
================	-1827
FX	-1828
;",	-1829
></	-1830
SSF	-1831
SUF	-1832
kCh	-1833
rdN	-1834
rmu	-1835
▁7;	-1836
."));	-1837
EDI	-1838
[^/	-1839
dWr	-1840
rdO	-1841
▁1),	-1842
2[	-1843
mr	-1844
00)	-1845
1()	-1846
▁mdr	-1847
BUFFE	-1848
[^/]+	-1849
DP	-1850
fM	-1851
0),	-1852
234	-1853
CLE	-1854
ISH	-1855
▁8;	-1856
▁SH	-1857
▁zzF	-1858
_5	-1859
zk	-1860
SSL	-1861
▁7,	-1862
▁IM	-1863
(10);	-1864
MANAGE	-1865
▁1000);	-1866
("0	-1867
ACL	-1868
ILI	-1869
OfS	-1870
rOu	-1871
rdB	-1872
rkM	-1873
umF	-1874
▁'%	-1875
▁11	-1876
(2).	-1877
ESPACE	-1878
[5	-1879
-01	-1880
DEL	-1881
hId	-1882
rID	-1883
▁19	-1884
FLOA	-1885
PACK	-1886
lOff	-1887
DECIMAL	-1888
dz	-1889
uM	-1890
1";	-1891
AES	-1892
OUN	-1893
lPl	-1894
▁mW	-1895
LICY	-1896
SKIP	-1897
▁","	-1898
KEYWO	-1899
/[^/]+	-1900
NullOr	-1901
POLICY	-1902
SUFFIX	-1903
."	-1904
.2	-1905
Hu	-1906
Img	-1907
llM	-1908
rdC	-1909
▁LONG	-1910
▁XmlS	-1911
CLASSNAME	-1912
CC	-1913
DN	-1914
>("	-1915
AIL	-1916
GIN	-1917
Slf	-1918
▁!(	-1919
▁ON	-1920
rIdP	-1921
▁VmW	-1922
-0	-1923
VK	-1924
wU	-1925
{"	-1926
)];	-1927
--)	-1928
/",	-1929
006	-1930
10.	-1931
14.	-1932
SEN	-1933
YEA	-1934
ldB	-1935
▁JC	-1936
IZON	-1937
▁GLOBAL	-1938
-9	-1939
65	-1940
CSV	-1941
IFI	-1942
JOB	-1943
▁OU	-1944
000,	-1945
<?>)	-1946
LINK	-1947
()");	-1948
IONAL	-1949
INFINI	-1950
2:	-1951
Hr	-1952
kk	-1953
OfP	-1954
SDK	-1955
VIC	-1956
ldV	-1957
llF	-1958
▁1:	-1959
▁MQ	-1960
(5);	-1961
0\1\	-1962
ADMIN	-1963
87	-1964
:%	-1965
PKG	-1966
UNC	-1967
mCh	-1968
▁mE	-1969
ANGE	-1970
YPES	-1971
LAYOU	-1972
ACCESS	-1973
FAILED	-1974
Km	-1975
Vmw	-1976
rQu	-1977
rmM	-1978
▁OB	-1979
▁df	-1980
ANCE	-1981
▁-9,	-1982
▁100,	-1983
########	-1984
CM	-1985
JO	-1986
OG	-1987
PH	-1988
gd	-1989
kw	-1990
lz	-1991
wm	-1992
PAY	-1993
SEC	-1994
kPr	-1995
lOu	-1996
rAr	-1997
▁Aw	-1998
▁PO	-1999
++);	-2000
FFFF	-2001
ENCES	-2002
INDING	-2003
DISPLAY	-2004
ISUSAEJBHOME	-2005
IX	-2006
2).	-2007
EGL	-2008
GED	-2009
▁CH	-2010
▁}\	-2011
DOUBLE	-2012
▁{"));	-2013
$$	-2014
3_	-2015
<<	-2016
fW	-2017
NEL	-2018
OfM	-2019
gCl	-2020
▁md	-2021
COMP	-2022
2"));	-2023
>());	-2024
MISSION	-2025
▁MCOMPA	-2026
89	-2027
)";	-2028
Idl	-2029
OrU	-2030
mlI	-2031
umD	-2032
▁IF	-2033
▁fm	-2034
COLO	-2035
▁201	-2036
▁FILE	-2037
27	-2038
DIG	-2039
EAS	-2040
EGA	-2041
▁OP	-2042
AllD	-2043
dOff	-2044
BOOLE	-2045
0_	-2046
6_	-2047
DY	-2048
0",	-2049
[],	-2050
fml	-2051
'");	-2052
HAND	-2053
▁20;	-2054
(200,	-2055
BOOLEAN	-2056
(\	-2057
;\	-2058
LAS	-2059
VmD	-2060
rdF	-2061
OrCr	-2062
SECOND	-2063
47	-2064
PS	-2065
FIL	-2066
Pdf	-2067
ddr	-2068
llN	-2069
llO	-2070
▁13	-2071
GAME	-2072
JDBC	-2073
rkFl	-2074
AW	-2075
("_	-2076
29.	-2077
Dum	-2078
GUI	-2079
=");	-2080
LIGH	-2081
XmlN	-2082
kOff	-2083
FullN	-2084
ENSION	-2085
3(	-2086
Pk	-2087
Zk	-2088
▁#	-2089
64.	-2090
OfC	-2091
SEL	-2092
gCh	-2093
glu	-2094
1"),	-2095
INPU	-2096
PING	-2097
▁11,	-2098
3/	-2099
ESC	-2100
VmW	-2101
▁(-	-2102
▁AL	-2103
("--	-2104
AMAN	-2105
(1000);	-2106
HB	-2107
["	-2108
rY	-2109
MAY	-2110
OfD	-2111
ULE	-2112
WES	-2113
▁Ig	-2114
(-1,	-2115
SPEC	-2116
YAML	-2117
SPACE	-2118
////////	-2119
AK	-2120
IID	-2121
▁LA	-2122
(201	-2123
CAME	-2124
▁ALL	-2125
▁COM	-2126
▁Eff	-2127
ENDPOIN	-2128
lG	-2129
("*	-2130
12.	-2131
1_1	-2132
2),	-2133
202	-2134
EPL	-2135
ESE	-2136
llH	-2137
▁'}	-2138
BINA	-2139
EXIS	-2140
▁200	-2141
▁hud	-2142
BulkJ	-2143
PullP	-2144
\030\	-2145
ESSION	-2146
6-	-2147
CN	-2148
hw	-2149
(25	-2150
GEN	-2151
Old	-2152
rdL	-2153
▁JM	-2154
IMUM	-2155
mAdd	-2156
▁EMP	-2157
▁SSL	-2158
▁Null	-2159
000000	-2160
CHANGE	-2161
45	-2162
808	-2163
:",	-2164
HAL	-2165
Shu	-2166
VEL	-2167
rEd	-2168
wCh	-2169
▁rh	-2170
POWE	-2171
▁APIErr	-2172
ALI	-2173
dCr	-2174
lCh	-2175
lFu	-2176
ldD	-2177
▁2:	-2178
▁VA	-2179
1234	-2180
ABASE	-2181
▁"]";	-2182
AMANIO	-2183
NullOrEm	-2184
HS	-2185
Dur	-2186
OLD	-2187
[3]	-2188
rkP	-2189
▁(2	-2190
▁BU	-2191
IELD	-2192
LEAN	-2193
ONLY	-2194
▁MIN	-2195
▁rkm	-2196
IMAGE	-2197
ENCODE	-2198
▁ACCOUN	-2199
▁COLUMN	-2200
.5	-2201
2]	-2202
86	-2203
DH	-2204
lJ	-2205
qN	-2206
},	-2207
DOM	-2208
kIm	-2209
llE	-2210
umC	-2211
▁0:	-2212
▁36	-2213
MINU	-2214
OPEN	-2215
OPIC	-2216
[1].	-2217
▁Aggr	-2218
▁SBML	-2219
▁\001	-2220
▁")");	-2221
****************	-2222
(9	-2223
NG	-2224
BAD	-2225
CBC	-2226
FOL	-2227
rPl	-2228
EGIS	-2229
▁fdl	-2230
-8");	-2231
CHANNEL	-2232
2<	-2233
[6	-2234
kG	-2235
▁,	-2236
('\	-2237
(15	-2238
PED	-2239
ldM	-2240
rkW	-2241
▁CA	-2242
▁GE	-2243
000;	-2244
Guru	-2245
dErr	-2246
▁":"	-2247
▁BOO	-2248
▁VMI	-2249
VICES	-2250
huffl	-2251
>>>>>>>>	-2252
XX	-2253
(//	-2254
007	-2255
MOB	-2256
MOD	-2257
OrD	-2258
Phr	-2259
rBr	-2260
rkd	-2261
▁PE	-2262
▁UP	-2263
▁gh	-2264
INDO	-2265
SQLS	-2266
uldH	-2267
▁'{}'	-2268
▁0.0;	-2269
NAMESPACE	-2270
0:	-2271
Jm	-2272
NI	-2273
VG	-2274
("@	-2275
6",	-2276
AIO	-2277
FOO	-2278
▁17	-2279
▁ld	-2280
("11	-2281
ANDA	-2282
DULE	-2283
SEVE	-2284
▁MAP	-2285
EXECU	-2286
MAYBE	-2287
\022\	-2288
MODULE	-2289
▁100);	-2290
▁\001(\	-2291
▁BOOLEAN	-2292
53	-2293
Xg	-2294
ADE	-2295
ASS	-2296
IEN	-2297
lOr	-2298
llA	-2299
rmP	-2300
udS	-2301
wfl	-2302
▁31	-2303
▁4)	-2304
1\1\	-2305
▁1))	-2306
▁>>>	-2307
▁JAXB	-2308
BINDING	-2309
(":	-2310
789	-2311
INC	-2312
rmL	-2313
ZkCl	-2314
]));	-2315
llur	-2316
HEIGH	-2317
(6,	-2318
Squ	-2319
UNA	-2320
]))	-2321
▁hd	-2322
5");	-2323
UNCH	-2324
UNDE	-2325
▁256	-2326
▁1024	-2327
PACKAGE	-2328
II	-2329
fN	-2330
gG	-2331
(1)	-2332
IdS	-2333
SEA	-2334
dOr	-2335
rErr	-2336
▁2).	-2337
▁"1",	-2338
▁'}';	-2339
IALIZED	-2340
-"	-2341
3:	-2342
GA	-2343
HIS	-2344
▁IB	-2345
(21)	-2346
DING	-2347
EXPI	-2348
MQPr	-2349
Surr	-2350
dAdd	-2351
EXCEP	-2352
▁"'");	-2353
EDEFAUL	-2354
?,	-2355
("1	-2356
25.	-2357
ACC	-2358
ADO	-2359
[].	-2360
ldN	-2361
rFl	-2362
▁IG	-2363
("1.	-2364
(500	-2365
*");	-2366
Azur	-2367
▁Dumm	-2368
VS	-2369
[(	-2370
rq	-2371
("(	-2372
999	-2373
AFE	-2374
DSA	-2375
hAd	-2376
rOf	-2377
▁(;	-2378
$");	-2379
(0.0	-2380
EXPEC	-2381
▁CODE	-2382
▁DESC	-2383
SINGLE	-2384
▁""));	-2385
8(	-2386
kK	-2387
EAL	-2388
uml	-2389
▁If	-2390
▁mO	-2391
(100	-2392
/");	-2393
01003	-2394
NAMES	-2395
▁5));	-2396
COMMAND	-2397
IV	-2398
DLE	-2399
]],	-2400
zzF	-2401
▁"5	-2402
▁XC	-2403
BLUE	-2404
Nrul	-2405
ODUC	-2406
PUSH	-2407
SHOW	-2408
▁DIS	-2409
▁Org	-2410
CLOSE	-2411
rdSQL	-2412
▁NAME	-2413
▁VALID	-2414
2/	-2415
_)	-2416
uP	-2417
PLA	-2418
}";	-2419
▁WI	-2420
(2),	-2421
ABUI	-2422
AllS	-2423
DIGI	-2424
ukku	-2425
uldN	-2426
BLACK	-2427
MODIF	-2428
▁"]");	-2429
........	-2430
ffffffff	-2431
3[	-2432
4\	-2433
:/	-2434
MU	-2435
[:	-2436
}"	-2437
(10	-2438
(7,	-2439
DFS	-2440
EGO	-2441
WAI	-2442
▁"1	-2443
▁Ku	-2444
HASH	-2445
duPr	-2446
▁APP	-2447
(3));	-2448
OVIDE	-2449
010101	-2450
▁VALUES	-2451
0(	-2452
31	-2453
Pd	-2454
ANY	-2455
GLE	-2456
rdE	-2457
rkL	-2458
▁*=	-2459
EXPO	-2460
MASK	-2461
▁10)	-2462
▁16)	-2463
▁zzM	-2464
(-1);	-2465
ALLOW	-2466
LEVEL	-2467
dBuff	-2468
▁OBJEC	-2469
54	-2470
Gh	-2471
[8	-2472
]\	-2473
1),	-2474
JFr	-2475
SAL	-2476
SYN	-2477
VED	-2478
gCP	-2479
rmV	-2480
▁9,	-2481
▁CU	-2482
▁Sk	-2483
SEQU	-2484
▁"',	-2485
▁"12	-2486
rzEdg	-2487
▁OSQLS	-2488
1-	-2489
79	-2490
():	-2491
SIS	-2492
gSu	-2493
kAr	-2494
▁HH	-2495
▁DOM	-2496
▁},\	-2497
OrEqu	-2498
▁XmlP	-2499
<>());	-2500
']	-2501
/%	-2502
1]	-2503
8)	-2504
BP	-2505
GG	-2506
QS	-2507
3()	-2508
64;	-2509
CSS	-2510
DEX	-2511
OLL	-2512
ONY	-2513
▁"4	-2514
▁"@	-2515
▁Lu	-2516
▁SU	-2517
JAVA	-2518
LIKE	-2519
LIMI	-2520
▁[[:	-2521
())))	-2522
CANCEL	-2523
XP	-2524
_"	-2525
fI	-2526
成功	-2527
2.0	-2528
OUS	-2529
lWr	-2530
▁3:	-2531
▁IV	-2532
▁VI	-2533
▁ll	-2534
▁zk	-2535
FILL	-2536
VOKE	-2537
▁"'"	-2538
▁"%");	-2539
▁INDEX	-2540
FL	-2541
IW	-2542
JM	-2543
Ku	-2544
异常	-2545
FEA	-2546
IPO	-2547
SUP	-2548
lIm	-2549
ldA	-2550
ldP	-2551
mOr	-2552
rNC	-2553
▁"(	-2554
▁IA	-2555
▁VE	-2556
INGS	-2557
IdOr	-2558
[2];	-2559
rNum	-2560
▁"-"	-2561
▁HAS	-2562
("100	-2563
00002,	-2564
50	-2565
BH	-2566
OI	-2567
XW	-2568
fD	-2569
("^	-2570
>[]	-2571
FQN	-2572
Ill	-2573
LOY	-2574
SCO	-2575
mQF	-2576
mkd	-2577
rkC	-2578
rmS	-2579
▁29	-2580
▁</	-2581
▁}.	-2582
ANNO	-2583
BODY	-2584
rkID	-2585
▁?>>	-2586
▁MOD	-2587
▁{",	-2588
FOLDE	-2589
CHANGED	-2590
MAXIMUM	-2591
.1	-2592
EU	-2593
wK	-2594
008	-2595
IAN	-2596
INF	-2597
OWN	-2598
SIG	-2599
kEm	-2600
umB	-2601
wFr	-2602
▁Vk	-2603
SHIP	-2604
dumm	-2605
ldId	-2606
wArr	-2607
▁"["	-2608
ECEIP	-2609
▁VOID	-2610
3\	-2611
CD	-2612
[7	-2613
01,	-2614
OfI	-2615
UDE	-2616
kGr	-2617
kWr	-2618
lFl	-2619
▁"+	-2620
▁dl	-2621
▁|\	-2622
AllB	-2623
SAML	-2624
XmlA	-2625
▁dum	-2626
01000	-2627
mCurr	-2628
DOMAIN	-2629
2>	-2630
5)	-2631
kh	-2632
uI	-2633
uz	-2634
/13	-2635
BCN	-2636
EDU	-2637
IDS	-2638
IfP	-2639
MIX	-2640
gru	-2641
rSl	-2642
rdU	-2643
▁DI	-2644
▁lh	-2645
("12	-2646
.0.0	-2647
EMEN	-2648
▁"30	-2649
▁"{:	-2650
▁SAX	-2651
56789	-2652
ASYNC	-2653
▁'{}'",	-2654
▁CONFIG	-2655
SN	-2656
CAP	-2657
DEP	-2658
OND	-2659
dBl	-2660
dVm	-2661
hdr	-2662
mCl	-2663
rIO	-2664
▁'/	-2665
▁'0	-2666
MEMO	-2667
dArg	-2668
llPr	-2669
▁12,	-2670
▁20,	-2671
▁Blu	-2672
WINDO	-2673
▁20);	-2674
00000001	-2675
;"	-2676
KW	-2677
删除	-2678
').	-2679
ICK	-2680
JPA	-2681
OAu	-2682
dml	-2683
gOr	-2684
kFr	-2685
lSw	-2686
qlS	-2687
rqu	-2688
udd	-2689
▁dm	-2690
ENCY	-2691
FUNC	-2692
OCOL	-2693
SdkM	-2694
▁31;	-2695
▁JCh	-2696
IMSON	-2697
▁"}";	-2698
▁COUN	-2699
▁SHIF	-2700
46	-2701
_7	-2702
NAP	-2703
NEX	-2704
llU	-2705
▁SO	-2706
▁mG	-2707
(200	-2708
EIID	-2709
USED	-2710
▁"\\	-2711
▁(++	-2712
▁Aff	-2713
▁INS	-2714
▁IPr	-2715
▁}",	-2716
01001	-2717
01009	-2718
CONFI	-2719
▁255,	-2720
MODIFY	-2721
VALUES	-2722
/[^/]+/	-2723
ENABLED	-2724
49	-2725
JP	-2726
fV	-2727
('.	-2728
DAP	-2729
IFY	-2730
LIB	-2731
OBS	-2732
▁&=	-2733
▁Xm	-2734
DArr	-2735
DECO	-2736
[2],	-2737
urCh	-2738
▁Ill	-2739
▁QUE	-2740
0000;	-2741
BUILD	-2742
CODES	-2743
USAGE	-2744
_1_0_	-2745
▁LOCK	-2746
DESIGN	-2747
MISSING	-2748
SESSION	-2749
FC	-2750
LC	-2751
Nf	-2752
Ud	-2753
fw	-2754
++,	-2755
/";	-2756
CLA	-2757
EXI	-2758
NON	-2759
SAX	-2760
WEE	-2761
[4]	-2762
rAu	-2763
rfC	-2764
▁"^	-2765
▁AU	-2766
▁HB	-2767
(8);	-2768
ESHO	-2769
▁SUB	-2770
COLUM	-2771
EGION	-2772
FINED	-2773
BUILDE	-2774
HANDLE	-2775
58	-2776
=?	-2777
LG	-2778
###	-2779
009	-2780
10-	-2781
2";	-2782
CDA	-2783
EOF	-2784
NGr	-2785
lAu	-2786
llL	-2787
rdH	-2788
umS	-2789
▁KW	-2790
HIGH	-2791
IDEN	-2792
VELO	-2793
_8);	-2794
▁"%"	-2795
COMMI	-2796
__++)	-2797
▁FLOA	-2798
("}");	-2799
IGINAL	-2800
PD	-2801
dZ	-2802
fF	-2803
uS	-2804
2))	-2805
7",	-2806
EXP	-2807
IfE	-2808
JNI	-2809
Ord	-2810
mAg	-2811
mAr	-2812
rkE	-2813
rkF	-2814
▁?,	-2815
▁FS	-2816
▁SP	-2817
▁~0	-2818
("{}	-2819
AllE	-2820
EADY	-2821
INCO	-2822
_000	-2823
dEdg	-2824
hUrl	-2825
rOff	-2826
▁8);	-2827
▁mCl	-2828
)"));	-2829
SENSI	-2830
▁")";	-2831
▁[{}]	-2832
ASSIGN	-2833
EPLICA	-2834
ESHOLD	-2835
▁SELEC	-2836
ULLABLE	-2837
BASELINE	-2838
GO	-2839
GS	-2840
信息	-2841
東京	-2842
JID	-2843
OCK	-2844
VmN	-2845
hFr	-2846
hud	-2847
lVO	-2848
▁Du	-2849
▁II	-2850
INAL	-2851
JACK	-2852
MIME	-2853
lugN	-2854
▁2),	-2855
ABLES	-2856
BIGIN	-2857
SUPPO	-2858
COLLEC	-2859
COMMEN	-2860
ENDING	-2861
CY	-2862
EB	-2863
HH	-2864
MK	-2865
XE	-2866
]]	-2867
EME	-2868
HAN	-2869
MQS	-2870
ULO	-2871
dDr	-2872
hCl	-2873
umP	-2874
▁(%	-2875
▁ul	-2876
.0);	-2877
CAPE	-2878
SNAP	-2879
lAgr	-2880
▁"("	-2881
▁"-+	-2882
▁CHA	-2883
▁HOS	-2884
("1",	-2885
01008	-2886
3"));	-2887
▁HSSF	-2888
▁Surf	-2889
▁VIEW	-2890
/2	-2891
=[	-2892
行っ	-2893
ANK	-2894
CKE	-2895
DNN	-2896
IdA	-2897
JDA	-2898
OOM	-2899
dAl	-2900
dFl	-2901
rFu	-2902
▁9;	-2903
▁kr	-2904
AllC	-2905
Bull	-2906
NEGA	-2907
SHIF	-2908
dNum	-2909
▁Agr	-2910
▁OAu	-2911
01004	-2912
EdmPr	-2913
SMALL	-2914
LAUNCH	-2915
3]	-2916
67	-2917
69	-2918
("'	-2919
('/	-2920
(8,	-2921
-02	-2922
GES	-2923
ILD	-2924
IdU	-2925
PID	-2926
YES	-2927
\\.	-2928
mCr	-2929
rAl	-2930
rrl	-2931
▁"?	-2932
▁'.	-2933
HALF	-2934
lIdP	-2935
rAll	-2936
▁"].	-2937
▁16;	-2938
▁CAS	-2939
(20);	-2940
01005	-2941
01006	-2942
01007	-2943
EMOVE	-2944
NullC	-2945
IALIZE	-2946
UNIQUE	-2947
▁10));	-2948
93	-2949
9_	-2950
▁`	-2951
500	-2952
BOX	-2953
VAI	-2954
▁ZK	-2955
▁ZZ	-2956
▁{0	-2957
CASE	-2958
CONF	-2959
SBMP	-2960
lugg	-2961
mQFN	-2962
rdAd	-2963
▁NEW	-2964
▁SHO	-2965
EQUAL	-2966
▁PASS	-2967
▁UPDA	-2968
NULLABLE	-2969
VAILABLE	-2970
*[	-2971
0[	-2972
4(	-2973
43	-2974
80	-2975
Fh	-2976
()]	-2977
BIG	-2978
BUL	-2979
OUD	-2980
OfL	-2981
SVG	-2982
kSl	-2983
lSu	-2984
lud	-2985
umN	-2986
wGr	-2987
▁:=	-2988
▁dk	-2989
2();	-2990
;");	-2991
=").	-2992
ESEN	-2993
IFIE	-2994
UrlP	-2995
hAud	-2996
llCh	-2997
▁12;	-2998
▁SHA	-2999
▁mSh	-3000
▁"\1\	-3001
▁Summ	-3002
)."));	-3003
VALIDA	-3004
▁0.0);	-3005
▁INDArr	-3006
KB	-3007
KV	-3008
hJ	-3009
IBE	-3010
SWI	-3011
_1_	-3012
gDr	-3013
lID	-3014
rmB	-3015
umL	-3016
▁"2	-3017
▁GI	-3018
▁SM	-3019
▁WA	-3020
▁Zf	-3021
▁fk	-3022
(7);	-3023
>").	-3024
CLIC	-3025
dFlu	-3026
▁24)	-3027
▁6);	-3028
▁hum	-3029
<?>[]	-3030
DELAY	-3031
OFILE	-3032
▁COLO	-3033
▁INFO	-3034
▁VkPh	-3035
ECEIVE	-3036
▁MESSAGE	-3037
1}	-3038
2}	-3039
CB	-3040
DK	-3041
YY	-3042
gz	-3043
125	-3044
EMS	-3045
HEN	-3046
MAS	-3047
PAI	-3048
VMS	-3049
lDf	-3050
▁5)	-3051
▁hu	-3052
("**	-3053
0801	-3054
8");	-3055
IGNO	-3056
WAYS	-3057
▁JPA	-3058
CONDI	-3059
IFIED	-3060
▁"201	-3061
("1");	-3062
(500);	-3063
MODIFI	-3064
SCLASS	-3065
SNAPSHO	-3066
SCLASSWEB	-3067
!!	-3068
98	-3069
Ju	-3070
dY	-3071
hf	-3072
("?	-3073
01_	-3074
={}	-3075
Bur	-3076
Imm	-3077
_0(	-3078
dBr	-3079
hCr	-3080
ldO	-3081
ukk	-3082
▁97	-3083
▁Ll	-3084
▁Zk	-3085
▁mm	-3086
("==	-3087
0");	-3088
2"),	-3089
2.16	-3090
3));	-3091
CMDB	-3092
SEND	-3093
ZONE	-3094
\">\	-3095
▁Chu	-3096
▁UIS	-3097
▁Url	-3098
▁mDr	-3099
CHEMA	-3100
FINAL	-3101
INDEN	-3102
rPlug	-3103
▁1");	-3104
CODING	-3105
\""));	-3106
▁255.0	-3107
▁INVALID	-3108
*)	-3109
FN	-3110
qm	-3111
(45	-3112
.__	-3113
304	-3114
512	-3115
ACO	-3116
ADV	-3117
Arm	-3118
OME	-3119
UID	-3120
gFr	-3121
rVO	-3122
rmH	-3123
▁Gu	-3124
?");	-3125
ADIX	-3126
BOOK	-3127
CION	-3128
▁50;	-3129
())),	-3130
7.0.0	-3131
BOUND	-3132
▁16);	-3133
▁LENG	-3134
[][][]	-3135
COMPLEX	-3136
68	-3137
FU	-3138
Zf	-3139
("&	-3140
123	-3141
301	-3142
8",	-3143
AVE	-3144
IBM	-3145
OrK	-3146
QUA	-3147
]";	-3148
kOu	-3149
mlC	-3150
rWh	-3151
東京都	-3152
=\""	-3153
AAAA	-3154
ABLA	-3155
BUCK	-3156
HING	-3157
MOVE	-3158
ONEN	-3159
umCh	-3160
▁"")	-3161
▁1][	-3162
▁OFF	-3163
▁SEC	-3164
00000	-3165
6-10-	-3166
ELLOW	-3167
OOGLE	-3168
▁"3",	-3169
▁BASE	-3170
▁HASH	-3171
▁SIZE	-3172
▁}");	-3173
MANUAL	-3174
SUBJEC	-3175
UNNING	-3176
/[^/]+$");	-3177
51	-3178
5_	-3179
BM	-3180
Ul	-3181
(14	-3182
-03	-3183
11;	-3184
70,	-3185
NOW	-3186
OrC	-3187
PAD	-3188
WSA	-3189
\01	-3190
▁OS	-3191
▁PN	-3192
29);	-3193
3").	-3194
AUDI	-3195
AllI	-3196
FLOW	-3197
gEdg	-3198
rkId	-3199
uldU	-3200
▁18,	-3201
▁60;	-3202
▁hql	-3203
()]);	-3204
0000,	-3205
FIXED	-3206
[2]);	-3207
lfCur	-3208
▁0.0,	-3209
▁0.01	-3210
(""));	-3211
AILING	-3212
▁200);	-3213
▁LOCKI	-3214
IMELINE	-3215
("2016-10-	-3216
1<	-3217
CW	-3218
HM	-3219
PM	-3220
uD	-3221
'),	-3222
("2	-3223
1')	-3224
ALA	-3225
BUN	-3226
DEF	-3227
ICS	-3228
YLE	-3229
[10	-3230
hAr	-3231
rMO	-3232
▁"*	-3233
▁98	-3234
▁Jm	-3235
11",	-3236
BULK	-3237
IdPr	-3238
LANG	-3239
MENU	-3240
dUrl	-3241
▁3).	-3242
▁JFr	-3243
01002	-3244
ALOAD	-3245
GUMEN	-3246
PLACE	-3247
QUEUE	-3248
rBuff	-3249
▁"").	-3250
▁Allu	-3251
2.168.	-3252
ESCAPE	-3253
($	-3254
4_	-3255
EV	-3256
IJ	-3257
[9	-3258
[_	-3259
hk	-3260
mG	-3261
ASC	-3262
Eur	-3263
Hum	-3264
IDA	-3265
IPE	-3266
PAS	-3267
SEG	-3268
ZIP	-3269
_2_	-3270
hCu	-3271
rCu	-3272
▁2]	-3273
▁Eq	-3274
▁OD	-3275
("${	-3276
(0.5	-3277
(3).	-3278
001/	-3279
:///	-3280
MILY	-3281
_128	-3282
udPr	-3283
▁');	-3284
▁14,	-3285
▁304	-3286
▁Pul	-3287
▁VMw	-3288
ACION	-3289
ANSFO	-3290
▁3));	-3291
▁CONS	-3292
▁Crud	-3293
DEVELO	-3294
▁mCurrP	-3295
DISABLED	-3296
(?	-3297
0"	-3298
4:	-3299
72	-3300
AV	-3301
Ld	-3302
OX	-3303
gf	-3304
(""	-3305
163	-3306
3).	-3307
ABC	-3308
GAS	-3309
LAP	-3310
OfO	-3311
UIM	-3312
[5]	-3313
_78	-3314
gIm	-3315
gVO	-3316
hSu	-3317
ldL	-3318
mSh	-3319
rJU	-3320
{\"	-3321
▁(0	-3322
▁22	-3323
▁AN	-3324
▁IL	-3325
▁dw	-3326
()='	-3327
(3),	-3328
6");	-3329
<<<<	-3330
IDEO	-3331
SPAN	-3332
WEEK	-3333
hAll	-3334
▁0).	-3335
▁123	-3336
▁30,	-3337
▁POS	-3338
▁UNS	-3339
▁glf	-3340
▁mAd	-3341
CLOUD	-3342
IABLE	-3343
_128_	-3344
dAllB	-3345
ACHMEN	-3346
PAYMEN	-3347
▁{}.",	-3348
▁MODULE	-3349
▁PASSWO	-3350
▁UNKNOWN	-3351
CHECKPOIN	-3352
6)	-3353
60	-3354
AZ	-3355
SF	-3356
qw	-3357
数据	-3358
财务	-3359
("4	-3360
0()	-3361
024	-3362
ALY	-3363
DHE	-3364
DOC	-3365
ISS	-3366
WSO	-3367
rBu	-3368
rEm	-3369
rmU	-3370
wAd	-3371
wSh	-3372
{2}	-3373
▁DL	-3374
▁OA	-3375
(6);	-3376
5\1\	-3377
AGES	-3378
Crud	-3379
DINJ	-3380
EADS	-3381
ELIF	-3382
MAGE	-3383
NOMB	-3384
huzh	-3385
▁11:	-3386
▁30;	-3387
▁Chr	-3388
▁END	-3389
(5));	-3390
.2");	-3391
ELESS	-3392
FOCUS	-3393
▁1.0,	-3394
▁MEMO	-3395
("1.2.	-3396
()))).	-3397
(10));	-3398
=\"");	-3399
EPLACE	-3400
▁LOCAL	-3401
▁SCHEMA	-3402
23456789	-3403
################	-3404
/*	-3405
2-	-3406
62	-3407
LN	-3408
zA	-3409
032	-3410
16,	-3411
32.	-3412
DEG	-3413
Glu	-3414
LAN	-3415
OBJ	-3416
OKE	-3417
mIm	-3418
rdW	-3419
wEd	-3420
zzl	-3421
▁4:	-3422
EIGN	-3423
FEED	-3424
HEAD	-3425
[0])	-3426
kAdd	-3427
uldC	-3428
▁"0"	-3429
▁Pdf	-3430
▁SYS	-3431
▁zOu	-3432
(255,	-3433
ANSAC	-3434
CLUDE	-3435
CUMEN	-3436
▁200,	-3437
▁GENE	-3438
▁zzFP	-3439
"))));	-3440
CLOSED	-3441
ENABLE	-3442
FAMILY	-3443
FullQu	-3444
DISABLE	-3445
EMANAGE	-3446
UNDEFINED	-3447
////////////////	-3448
<@	-3449
CF	-3450
gk	-3451
时间	-3452
设置	-3453
(':	-3454
00.	-3455
9",	-3456
ABS	-3457
BUS	-3458
EES	-3459
EFO	-3460
FML	-3461
SHU	-3462
hAg	-3463
kQu	-3464
lQu	-3465
udF	-3466
umE	-3467
▁'9	-3468
▁35	-3469
▁Cm	-3470
▁LE	-3471
7");	-3472
ENSE	-3473
JAXB	-3474
MKOL	-3475
POOL	-3476
SYNC	-3477
VmFr	-3478
[0-9	-3479
].",	-3480
_123	-3481
hMul	-3482
▁"_"	-3483
>"));	-3484
FAILU	-3485
ruffl	-3486
▁"\",	-3487
▁DELE	-3488
▁MAPI	-3489
-8"));	-3490
BUNDLE	-3491
[0]));	-3492
▁"1");	-3493
ACCESSO	-3494
0000000000000000	-3495
,"	-3496
.%	-3497
={	-3498
OA	-3499
qq	-3500
'))	-3501
11,	-3502
384	-3503
GOV	-3504
GUA	-3505
INY	-3506
dSl	-3507
lAl	-3508
lAm	-3509
mdk	-3510
mlS	-3511
rAw	-3512
rPu	-3513
umI	-3514
▁('	-3515
▁mU	-3516
))),	-3517
01",	-3518
10",	-3519
ENDA	-3520
IFAC	-3521
LOWE	-3522
SAND	-3523
llId	-3524
rmud	-3525
▁"//	-3526
▁3),	-3527
▁355	-3528
▁7);	-3529
▁mgr	-3530
▁zzS	-3531
CANNO	-3532
QNAME	-3533
▁EXIS	-3534
INVOKE	-3535
SIMPLE	-3536
CONFIGU	-3537
${	-3538
/{	-3539
GM	-3540
KH	-3541
LM	-3542
PF	-3543
WH	-3544
zS	-3545
用户	-3546
01;	-3547
11\	-3548
199	-3549
2];	-3550
AFW	-3551
AWS	-3552
Bud	-3553
IOD	-3554
IPr	-3555
LIN	-3556
PEG	-3557
PLU	-3558
Pul	-3559
dBB	-3560
dPl	-3561
kFl	-3562
kSu	-3563
rfM	-3564
▁23	-3565
▁37	-3566
▁BA	-3567
▁CS	-3568
▁Gh	-3569
▁HO	-3570
に行っ	-3571
ACID	-3572
ANSI	-3573
BEAN	-3574
EDED	-3575
EGEX	-3576
LING	-3577
rmCl	-3578
▁0.1	-3579
▁GLU	-3580
▁Num	-3581
▁PUB	-3582
▁mAl	-3583
▁mAr	-3584
▁mCh	-3585
に行った	-3586
(50);	-3587
)))).	-3588
0001,	-3589
32();	-3590
:{}",	-3591
CHILD	-3592
IDDEN	-3593
ISSUE	-3594
▁"));	-3595
▁"2",	-3596
▁12);	-3597
▁Bukk	-3598
EMPLOY	-3599
zzBuff	-3600
▁",");	-3601
▁3042);	-3602
):	-3603
7_	-3604
BG	-3605
[@	-3606
!";	-3607
('"	-3608
(')	-3609
(16	-3610
-1.	-3611
:{}	-3612
CHE	-3613
COS	-3614
Ddl	-3615
EPE	-3616
EVE	-3617
OAK	-3618
PHA	-3619
SQS	-3620
_3_	-3621
fld	-3622
hql	-3623
kCr	-3624
ldF	-3625
▁CM	-3626
▁FA	-3627
▁LI	-3628
(123	-3629
?,?,	-3630
AllP	-3631
Budd	-3632
JPEG	-3633
LESS	-3634
[3];	-3635
_002	-3636
dSql	-3637
lAll	-3638
mSHA	-3639
rdPr	-3640
rmId	-3641
uldF	-3642
▁LIS	-3643
PLAIN	-3644
rmNum	-3645
▁"4",	-3646
▁Flum	-3647
▁MQCl	-3648
GOOGLE	-3649
INDICA	-3650
YELLOW	-3651
▁BUFFE	-3652
▁[{}]",	-3653
2.168.1.	-3654
3<	-3655
90	-3656
BS	-3657
GH	-3658
PV	-3659
XS	-3660
(',	-3661
(12	-3662
ECA	-3663
KED	-3664
OfE	-3665
PIC	-3666
_1.	-3667
dPu	-3668
rkU	-3669
rrD	-3670
▁Jw	-3671
▁ku	-3672
("")	-3673
(4),	-3674
<?>,	-3675
OLLE	-3676
duEm	-3677
gOff	-3678
▁;";	-3679
▁Img	-3680
▁Kuh	-3681
▁OkH	-3682
▁Phr	-3683
▁UDA	-3684
')");	-3685
(16);	-3686
BEGIN	-3687
CONVE	-3688
INYIN	-3689
ISHED	-3690
PHONE	-3691
YABLE	-3692
▁11);	-3693
▁255)	-3694
▁30);	-3695
0000);	-3696
010100	-3697
DEVICE	-3698
SBMLQu	-3699
▁1024;	-3700
DOCUMEN	-3701
FILENAME	-3702
42	-3703
5\	-3704
91	-3705
FW	-3706
HD	-3707
SY	-3708
wu	-3709
óm	-3710
当前	-3711
-12	-3712
0.5	-3713
:\\	-3714
AMS	-3715
HEA	-3716
SUM	-3717
WAL	-3718
];"	-3719
wIm	-3720
{1}	-3721
▁"|	-3722
▁2.	-3723
▁:"	-3724
▁EM	-3725
▁SC	-3726
(20,	-3727
AGEN	-3728
AllM	-3729
LDAP	-3730
YPSH	-3731
[2].	-3732
mlQu	-3733
▁11;	-3734
▁13,	-3735
={}",	-3736
ABUIA	-3737
ACCEP	-3738
HOUSE	-3739
IMONY	-3740
VIDEO	-3741
▁CONF	-3742
▁INPU	-3743
▁NONE	-3744
SCHEME	-3745
dABUIA	-3746
▁1000,	-3747
▁CLIEN	-3748
▁NUMBE	-3749
MAPPING	-3750
▁SECOND	-3751
ENCODING	-3752
SIZEPOLICY	-3753
,\	-3754
5(	-3755
74	-3756
92	-3757
:4	-3758
Fk	-3759
GD	-3760
]{	-3761
qB	-3762
uA	-3763
zl	-3764
08.	-3765
21.	-3766
;";	-3767
Alw	-3768
BAM	-3769
CED	-3770
ENV	-3771
Edu	-3772
OPS	-3773
SPA	-3774
SPE	-3775
dEl	-3776
dWh	-3777
gAl	-3778
glV	-3779
hDr	-3780
mAu	-3781
▁')	-3782
▁'-	-3783
▁CD	-3784
▁GB	-3785
▁MB	-3786
▁rf	-3787
++],	-3788
2010	-3789
ADAP	-3790
ENGL	-3791
IDLE	-3792
SUPE	-3793
[4];	-3794
dMul	-3795
kUrl	-3796
mUrl	-3797
▁91.	-3798
▁mGr	-3799
("200	-3800
64();	-3801
AGMEN	-3802
IdArr	-3803
VEVEN	-3804
\"");	-3805
\",\"	-3806
_8));	-3807
rGUID	-3808
▁"{\"	-3809
▁LIMI	-3810
▁LNGr	-3811
(0)));	-3812
FACILI	-3813
\":\""	-3814
▁".");	-3815
▁20));	-3816
COLUMNA	-3817
東京都に行った	-3818
EMPLOYEE	-3819
ISDEVELO	-3820
ISDEVELOPING	-3821
-3	-3822
0/	-3823
1"	-3824
GI	-3825
Ll	-3826
NP	-3827
OY	-3828
Vd	-3829
[%	-3830
rZ	-3831
uC	-3832
══	-3833
错误	-3834
("9	-3835
(11	-3836
03,	-3837
32;	-3838
41.	-3839
598	-3840
DSL	-3841
HEL	-3842
IGA	-3843
ILL	-3844
IdN	-3845
NLG	-3846
ODO	-3847
SAB	-3848
Shr	-3849
Sur	-3850
[6]	-3851
dFK	-3852
lSh	-3853
rkN	-3854
wQu	-3855
▁''	-3856
▁'_	-3857
▁BE	-3858
▁MS	-3859
▁XS	-3860
▁[]	-3861
▁kl	-3862
▁lm	-3863
▁rd	-3864
))))	-3865
5));	-3866
BOSE	-3867
Bukk	-3868
ENDE	-3869
KIND	-3870
SAVE	-3871
[3],	-3872
_1_,	-3873
duFK	-3874
hErr	-3875
mumL	-3876
rkVO	-3877
rumI	-3878
▁"1.	-3879
▁1",	-3880
▁15,	-3881
▁15;	-3882
▁18;	-3883
▁32,	-3884
▁ICA	-3885
22"),	-3886
SAMLV	-3887
▁COMM	-3888
▁Full	-3889
▁HIGH	-3890
99995,	-3891
EHOUSE	-3892
ENGLISH	-3893
SEQUENCE	-3894
000000"));	-3895
'"	-3896
->	-3897
2"	-3898
2=	-3899
4/	-3900
8_	-3901
Cd	-3902
UD	-3903
['	-3904
mk	-3905
wf	-3906
}\	-3907
存在	-3908
(*)	-3909
(2)	-3910
.//	-3911
306	-3912
8.7	-3913
>20	-3914
CPU	-3915
IMP	-3916
IdB	-3917
OXY	-3918
OfA	-3919
SDL	-3920
VMI	-3921
[++	-3922
lAr	-3923
rAm	-3924
udA	-3925
▁!"	-3926
▁6)	-3927
▁BO	-3928
▁JO	-3929
▁hr	-3930
("./	-3931
("01	-3932
://"	-3933
AINE	-3934
HOLE	-3935
IALS	-3936
SELF	-3937
UNAU	-3938
ldOf	-3939
rOfH	-3940
rdIm	-3941
ughf	-3942
wMOB	-3943
wVmW	-3944
}").	-3945
▁"##	-3946
▁"{}	-3947
▁-3,	-3948
▁1])	-3949
▁DEC	-3950
▁MON	-3951
848);	-3952
ANALY	-3953
ILINE	-3954
MIXIN	-3955
▁""),	-3956
▁MOCK	-3957
▁mdrO	-3958
(200);	-3959
FULLSC	-3960
PUBLIS	-3961
WINDOW	-3962
ullAll	-3963
▁MAPPE	-3964
(5000);	-3965
SMALLIN	-3966
▁3553);	-3967
▁PUBLIC	-3968
▁SBMLQu	-3969
\030\001	-3970
("#000000"));	-3971
)\	-3972
97	-3973
Eg	-3974
KI	-3975
Om	-3976
XD	-3977
gZ	-3978
lY	-3979
为空	-3980
获取	-3981
','	-3982
../	-3983
19.	-3984
ANA	-3985
BOL	-3986
CES	-3987
DBS	-3988
IDP	-3989
IMU	-3990
IfU	-3991
MOS	-3992
Pum	-3993
SLE	-3994
_12	-3995
_15	-3996
fEm	-3997
lCr	-3998
lFK	-3999
lSg	-4000
mAd	-4001
rkl	-4002
wOu	-4003
▁(*	-4004
▁HE	-4005
'));	-4006
("$.	-4007
(50,	-4008
++];	-4009
0808	-4010
8();	-4011
ACKE	-4012
APDU	-4013
EDEN	-4014
GADO	-4015
IMPO	-4016
MESS	-4017
POLA	-4018
SCAN	-4019
XMLL	-4020
XmlS	-4021
[]>>	-4022
gAdd	-4023
gluu	-4024
rdGr	-4025
uldS	-4026
▁((!	-4027
▁...	-4028
▁655	-4029
▁zzU	-4030
-001/	-4031
.2"),	-4032
6_005	-4033
ECIPE	-4034
FLAGS	-4035
SUBSC	-4036
[0]))	-4037
wYAML	-4038
▁"305	-4039
▁0)).	-4040
▁255;	-4041
▁8));	-4042
▁_005	-4043
7.0.0.	-4044
99998,	-4045
:00:00	-4046
CONFIGS	-4047
▁FAILED	-4048
AVAILABLE	-4049
_0026_005	-4050
-4	-4051
8:	-4052
Jw	-4053
Kh	-4054
WW	-4055
fL	-4056
zJ	-4057
0-9	-4058
116	-4059
1_,	-4060
AUD	-4061
BAN	-4062
CFA	-4063
CMD	-4064
DIV	-4065
IAS	-4066
lrS	-4067
mID	-4068
qId	-4069
umM	-4070
▁/=	-4071
▁27	-4072
▁3.	-4073
▁3]	-4074
▁CL	-4075
▁Gd	-4076
▁gm	-4077
▁mf	-4078
▁mq	-4079
▁zf	-4080
1000	-4081
1_);	-4082
AXIS	-4083
Allu	-4084
BEFO	-4085
EXEC	-4086
KING	-4087
SPLI	-4088
dOrg	-4089
▁0.9	-4090
▁1].	-4091
▁3.0	-4092
▁Cdm	-4093
▁EPC	-4094
▁GMS	-4095
▁HOU	-4096
▁PID	-4097
▁ddl	-4098
("{\"	-4099
ANDOM	-4100
Allur	-4101
OADON	-4102
SLIDE	-4103
VANCE	-4104
WEIGH	-4105
hNull	-4106
rmXml	-4107
▁"'",	-4108
▁")",	-4109
▁0");	-4110
▁50);	-4111
▁Kudu	-4112
▁MODE	-4113
")))).	-4114
BLOCKS	-4115
▁"0");	-4116
▁"}").	-4117
▁1)));	-4118
▁18));	-4119
▁CLASS	-4120
▁MODEL	-4121
▁ACCESS	-4122
▁XmlPullP	-4123
-2	-4124
1=	-4125
Cm	-4126
FD	-4127
LV	-4128
Mk	-4129
mz	-4130
不能	-4131
(-1	-4132
/**	-4133
/1.	-4134
010	-4135
055	-4136
AMQ	-4137
EXC	-4138
GAN	-4139
LIE	-4140
SOL	-4141
[7]	-4142
]).	-4143
dEm	-4144
ghL	-4145
kOr	-4146
lAd	-4147
lrP	-4148
mUr	-4149
umA	-4150
urd	-4151
▁"~	-4152
▁'1	-4153
▁AI	-4154
▁Kr	-4155
▁[{	-4156
0\2\	-4157
2017	-4158
256_	-4159
AllA	-4160
Blur	-4161
LIVE	-4162
MMdd	-4163
OfCh	-4164
PANE	-4165
]++;	-4166
fulS	-4167
lCSN	-4168
wAdd	-4169
▁"11	-4170
▁"14	-4171
▁-4,	-4172
▁0,"	-4173
▁0.8	-4174
▁40,	-4175
▁5).	-4176
▁50)	-4177
▁INC	-4178
▁INI	-4179
▁dFr	-4180
▁rdf	-4181
(2)).	-4182
2006.	-4183
BUCKE	-4184
SIONS	-4185
kNAdd	-4186
▁"0";	-4187
▁MAKE	-4188
()[0];	-4189
BufAll	-4190
SEGMEN	-4191
▁255),	-4192
▁FIELD	-4193
▁{}));	-4194
ELACION	-4195
▁2929);	-4196
▁COLLEC	-4197
SPECIFIED	-4198
1>	-4199
57	-4200
HG	-4201
JD	-4202
更新	-4203
线程	-4204
012	-4205
8).	-4206
80_	-4207
:59	-4208
ABO	-4209
ALS	-4210
Alm	-4211
DEM	-4212
PBH	-4213
YMP	-4214
fOr	-4215
hQu	-4216
llW	-4217
rmO	-4218
▁BL	-4219
▁CK	-4220
▁IU	-4221
▁JA	-4222
▁NE	-4223
▁Pd	-4224
▁SV	-4225
▁rg	-4226
')",	-4227
("00	-4228
("19	-4229
(2.0	-4230
1)).	-4231
4").	-4232
>().	-4233
ArgN	-4234
ENAN	-4235
HODS	-4236
ICIP	-4237
JOIN	-4238
Plur	-4239
QAFW	-4240
QUAN	-4241
kSql	-4242
mumC	-4243
▁"))	-4244
▁0.2	-4245
▁16,	-4246
▁FIL	-4247
▁LEF	-4248
▁SUC	-4249
▁mCu	-4250
("<==	-4251
(30);	-4252
,"));	-4253
1")).	-4254
4"));	-4255
AUDIO	-4256
UCENE	-4257
▁"\0\	-4258
▁EVEN	-4259
▁JDBC	-4260
▁zkCl	-4261
("/");	-4262
ADVISO	-4263
ALWAYS	-4264
ELEASE	-4265
LOADED	-4266
rmSumm	-4267
▁100.0	-4268
▁CACHE	-4269
▁_2010	-4270
(2000);	-4271
▁10000;	-4272
▁UNSAFE	-4273
CV	-4274
_9	-4275
mY	-4276
uw	-4277
360	-4278
BIP	-4279
IdI	-4280
KDF	-4281
MID	-4282
SCM	-4283
SEP	-4284
SOF	-4285
UCE	-4286
fff	-4287
hAu	-4288
lrC	-4289
rVM	-4290
wOr	-4291
▁$$	-4292
▁CE	-4293
▁MP	-4294
▁Mk	-4295
▁Nu	-4296
▁gw	-4297
▁rl	-4298
(15,	-4299
AddO	-4300
INGE	-4301
KEEP	-4302
OfPr	-4303
UPPE	-4304
UrlC	-4305
VmId	-4306
dVmO	-4307
dlrM	-4308
gErr	-4309
hCur	-4310
rdWr	-4311
umAr	-4312
umId	-4313
▁-8,	-4314
▁0.6	-4315
▁1.5	-4316
▁?";	-4317
▁DAY	-4318
▁LAB	-4319
▁PBH	-4320
▁dlA	-4321
▁mFl	-4322
("-->	-4323
10000	-4324
ALIAS	-4325
CYCLE	-4326
ENDED	-4327
FullC	-4328
IVILE	-4329
[0]).	-4330
_1598	-4331
uldSh	-4332
▁"\""	-4333
▁1.0;	-4334
▁100)	-4335
▁24);	-4336
▁256)	-4337
▁dlrM	-4338
IALIZA	-4339
PASSED	-4340
PLUGIN	-4341
[]>();	-4342
▁YIELD	-4343
▁LUCENE	-4344
▁zzCurr	-4345
ELEVANCE	-4346
AO	-4347
Cg	-4348
DM	-4349
Df	-4350
IQ	-4351
NC	-4352
ZZ	-4353
lX	-4354
'])	-4355
(">	-4356
(++	-4357
({}	-4358
);\	-4359
17.	-4360
24,	-4361
3";	-4362
6()	-4363
ACY	-4364
BEA	-4365
Cql	-4366
EAK	-4367
LPC	-4368
NAV	-4369
OrL	-4370
UNS	-4371
gFu	-4372
kDr	-4373
lWh	-4374
rrM	-4375
zzI	-4376
▁77	-4377
▁AD	-4378
▁DO	-4379
▁Df	-4380
▁ES	-4381
▁IE	-4382
▁IW	-4383
▁JD	-4384
▁KV	-4385
▁XA	-4386
-1",	-4387
ASSE	-4388
\032	-4389
rdSu	-4390
▁"".	-4391
▁"="	-4392
▁'\\	-4393
▁(!"	-4394
▁ASC	-4395
▁CAN	-4396
▁Cql	-4397
▁UNI	-4398
▁hdr	-4399
▁mFr	-4400
▁{};	-4401
("==>	-4402
(0.0,	-4403
(400,	-4404
00));	-4405
0001;	-4406
ALPHA	-4407
FILES	-4408
GUAGE	-4409
KEEPE	-4410
OfEff	-4411
rSurf	-4412
▁13);	-4413
▁1]);	-4414
▁4));	-4415
▁GAME	-4416
("/").	-4417
(1000,	-4418
0001);	-4419
CEEDED	-4420
DECODE	-4421
MILLIS	-4422
NAVIGA	-4423
OrAllS	-4424
[1]));	-4425
))."));	-4426
\022\02	-4427
FEEDBACK	-4428
▁1000));	-4429
▁SUCCESS	-4430
41	-4431
Er	-4432
Fq	-4433
Jf	-4434
PW	-4435
ZK	-4436
gY	-4437
qf	-4438
修改	-4439
参数	-4440
批量	-4441
登录	-4442
(20	-4443
10,	-4444
10;	-4445
21,	-4446
3),	-4447
4()	-4448
64(	-4449
>30	-4450
Adm	-4451
Bug	-4452
ICO	-4453
IDI	-4454
QUO	-4455
[8]	-4456
dur	-4457
mFr	-4458
mOw	-4459
mWh	-4460
rAg	-4461
rkO	-4462
umW	-4463
▁5:	-4464
▁MY	-4465
▁Mq	-4466
▁Ol	-4467
▁Ow	-4468
(0))	-4469
ANDS	-4470
BBBB	-4471
BILI	-4472
ESOL	-4473
JCud	-4474
SOAP	-4475
_1);	-4476
_148	-4477
lIfN	-4478
ldOu	-4479
llIm	-4480
▁'0'	-4481
▁((0	-4482
▁101	-4483
▁2.5	-4484
▁23,	-4485
▁CSV	-4486
▁DEN	-4487
▁EJB	-4488
▁Edm	-4489
▁LwM	-4490
▁}),	-4491
1_16_	-4492
69999	-4493
ADEUS	-4494
BAMWr	-4495
EDUCE	-4496
IPPED	-4497
NAMIC	-4498
▁IGNO	-4499
(".");	-4500
(45.0,	-4501
EXCLUS	-4502
OPCION	-4503
▁1.0);	-4504
▁24));	-4505
▁})));	-4506
PAYLOAD	-4507
WINDOWS	-4508
▁1024);	-4509
▁COMPLE	-4510
COMPONEN	-4511
ISBINDING	-4512
/:	-4513
5:	-4514
71	-4515
Dw	-4516
FP	-4517
XN	-4518
分类	-4519
查询	-4520
(1.	-4521
(9,	-4522
1/{	-4523
20.	-4524
ENG	-4525
OMA	-4526
OSC	-4527
OrB	-4528
PCS	-4529
PDF	-4530
Pdu	-4531
UMP	-4532
[];	-4533
__(	-4534
ffr	-4535
gID	-4536
glP	-4537
hOu	-4538
hmP	-4539
llK	-4540
lmN	-4541
|\\	-4542
▁',	-4543
▁']	-4544
▁50	-4545
▁AO	-4546
▁NV	-4547
▁rw	-4548
▁wC	-4549
(1))	-4550
2007	-4551
5").	-4552
8000	-4553
9");	-4554
:808	-4555
GGGP	-4556
GING	-4557
OWNE	-4558
PADD	-4559
SUPP	-4560
[4],	-4561
\">"	-4562
flum	-4563
lDAO	-4564
lNum	-4565
rdCh	-4566
▁"~"	-4567
▁//\	-4568
▁24;	-4569
▁88.	-4570
▁9);	-4571
▁=",	-4572
▁AES	-4573
▁CML	-4574
▁EDI	-4575
▁EOF	-4576
▁IGr	-4577
▁LAS	-4578
▁NAS	-4579
▁SOU	-4580
▁mId	-4581
▁mIm	-4582
(".")	-4583
01");	-4584
FLUSH	-4585
SCOPE	-4586
USING	-4587
WHILE	-4588
_256_	-4589
rumCh	-4590
▁973.	-4591
(2000,	-4592
DELIMI	-4593
▁"1411	-4594
▁LABEL	-4595
▁{0}",	-4596
ALLOWED	-4597
CALENDA	-4598
NEWLINE	-4599
PADDING	-4600
▁"\"");	-4601
▁CONNEC	-4602
MESSAGES	-4603
(">>>>>>>>	-4604
!\	-4605
)"	-4606
4]	-4607
IU	-4608
JW	-4609
Kr	-4610
UA	-4611
YA	-4612
ZN	-4613
]"	-4614
qd	-4615
zC	-4616
zF	-4617
内容	-4618
添加	-4619
("+	-4620
('#	-4621
01.	-4622
04-	-4623
20,	-4624
5.6	-4625
>10	-4626
Bru	-4627
CCL	-4628
DNS	-4629
ELL	-4630
ESH	-4631
GCM	-4632
KEK	-4633
NPC	-4634
PCl	-4635
PIN	-4636
VmK	-4637
WHE	-4638
_19	-4639
dBu	-4640
dKm	-4641
ddl	-4642
gFl	-4643
glB	-4644
hEm	-4645
kAf	-4646
lBr	-4647
lNu	-4648
ldW	-4649
rrC	-4650
umU	-4651
urD	-4652
▁32	-4653
▁FN	-4654
▁GA	-4655
▁PD	-4656
▁SQ	-4657
▁XW	-4658
▁wI	-4659
0485	-4660
ACLE	-4661
AllL	-4662
AllN	-4663
CLEA	-4664
DONE	-4665
LLAP	-4666
NANO	-4667
OBSE	-4668
OUPS	-4669
Purg	-4670
_2_,	-4671
mlSB	-4672
rumN	-4673
rumP	-4674
ullS	-4675
urrM	-4676
zzFP	-4677
▁%.2	-4678
▁0.4	-4679
▁20)	-4680
▁<",	-4681
▁>",	-4682
▁?>)	-4683
▁Arg	-4684
▁ICO	-4685
▁WAL	-4686
▁gru	-4687
▁mAg	-4688
(1000	-4689
(15);	-4690
(4));	-4691
...",	-4692
000",	-4693
02003	-4694
05000	-4695
5"));	-4696
CANCE	-4697
DBClu	-4698
GUIDP	-4699
IMXML	-4700
SNOMB	-4701
▁23);	-4702
▁<=",	-4703
▁<>",	-4704
▁>=",	-4705
▁LIKE	-4706
▁MINU	-4707
(')');	-4708
-01-01	-4709
99994,	-4710
PABILI	-4711
UALIZA	-4712
▁256);	-4713
(","));	-4714
CLASSES	-4715
EOPCION	-4716
\022\01	-4717
▁zzBuff	-4718
MFEEDBACK	-4719
SEQUENCES	-4720
▁11:22"),	-4721
................	-4722
(%	-4723
(.	-4724
6:	-4725
6\	-4726
70	-4727
FM	-4728
Gw	-4729
Ir	-4730
QO	-4731
Xf	-4732
fH	-4733
hg	-4734
uU	-4735
zm	-4736
'',	-4737
'],	-4738
12;	-4739
25,	-4740
258	-4741
859	-4742
99,	-4743
AGG	-4744
ANE	-4745
BED	-4746
CHO	-4747
DEK	-4748
DUP	-4749
EJB	-4750
IdM	-4751
OkH	-4752
Pwd	-4753
ULA	-4754
VmS	-4755
\">	-4756
_";	-4757
_1,	-4758
dAU	-4759
kIf	-4760
lmu	-4761
rmW	-4762
urF	-4763
wEm	-4764
▁)"	-4765
▁00	-4766
▁21	-4767
▁JW	-4768
▁OC	-4769
▁PU	-4770
▁[\	-4771
▁^=	-4772
▁mQ	-4773
▁wd	-4774
▁})	-4775
("["	-4776
().<	-4777
(18,	-4778
1"))	-4779
1();	-4780
2014	-4781
3\1\	-4782
4\1\	-4783
8));	-4784
<>()	-4785
>30]	-4786
AddS	-4787
CHES	-4788
COIJ	-4789
DIAN	-4790
EASE	-4791
GOLD	-4792
LOME	-4793
MINA	-4794
ONGO	-4795
OUCH	-4796
SQLC	-4797
SqlD	-4798
UrlE	-4799
XmlC	-4800
[5],	-4801
][0]	-4802
ldCh	-4803
lwPr	-4804
rAdS	-4805
rdBO	-4806
ughJ	-4807
uldG	-4808
▁"5"	-4809
▁(37	-4810
▁(53	-4811
▁10.	-4812
▁10:	-4813
▁4.0	-4814
▁60,	-4815
▁75.	-4816
▁Equ	-4817
▁FDB	-4818
▁GES	-4819
▁mOr	-4820
▁{0}	-4821
("/**	-4822
(12);	-4823
02000	-4824
11\1\	-4825
<>(),	-4826
DINAL	-4827
OPPED	-4828
Skull	-4829
[3]);	-4830
▁$("#	-4831
▁(!((	-4832
▁15);	-4833
▁1611	-4834
▁COMP	-4835
▁ENUM	-4836
▁JOIN	-4837
▁MASK	-4838
▁Suff	-4839
▁XSSF	-4840
00001,	-4841
ICIPAN	-4842
\">");	-4843
▁DEBUG	-4844
▁HEIGH	-4845
("/"));	-4846
MODIFIE	-4847
SHIPMEN	-4848
▁2848);	-4849
CALLBACK	-4850
PUBLISHE	-4851
'\	-4852
(@	-4853
-%	-4854
5]	-4855
BD	-4856
Cf	-4857
Lf	-4858
NN	-4859
VF	-4860
]*	-4861
uL	-4862
wg	-4863
}/	-4864
1__	-4865
2.5	-4866
255	-4867
85.	-4868
AGO	-4869
Cfg	-4870
EAu	-4871
EPC	-4872
FHI	-4873
HIN	-4874
ICH	-4875
IED	-4876
INH	-4877
IdV	-4878
IrS	-4879
Jum	-4880
LIO	-4881
MAC	-4882
NIL	-4883
ONS	-4884
OSE	-4885
OfN	-4886
PNO	-4887
VOK	-4888
_01	-4889
dAm	-4890
gAg	-4891
gSl	-4892
hru	-4893
rkB	-4894
rmE	-4895
udM	-4896
urP	-4897
▁'*	-4898
▁'2	-4899
▁6:	-4900
▁9)	-4901
▁AM	-4902
▁Nd	-4903
▁PV	-4904
▁ZE	-4905
▁dd	-4906
▁rm	-4907
▁{"	-4908
(11,	-4909
(16,	-4910
2020	-4911
4));	-4912
64);	-4913
ASCI	-4914
DOES	-4915
EMON	-4916
EMPO	-4917
EQUI	-4918
FIND	-4919
GINS	-4920
MANY	-4921
OKUP	-4922
PKCS	-4923
SAFE	-4924
SIDE	-4925
SWAP	-4926
hArg	-4927
llSh	-4928
ughC	-4929
uldE	-4930
▁25,	-4931
▁26,	-4932
▁28,	-4933
▁32;	-4934
▁CFA	-4935
▁CMM	-4936
▁Ell	-4937
▁SEA	-4938
▁SOF	-4939
▁UIM	-4940
02001	-4941
02002	-4942
08000	-4943
>>>()	-4944
CHAIN	-4945
FOLIO	-4946
HBASE	-4947
MAPPE	-4948
NAMED	-4949
PAUSE	-4950
▁"100	-4951
▁2");	-4952
▁MAIN	-4953
▁NODE	-4954
(200).	-4955
2007_0	-4956
ENDIAN	-4957
OUPING	-4958
▁255).	-4959
▁AllPr	-4960
▁JPAOD	-4961
UNSUPPO	-4962
CHANNELS	-4963
DOWNLOAD	-4964
IVILEGES	-4965
MODIFIED	-4966
00000001)	-4967
)[	-4968
94	-4969
IK	-4970
fU	-4971
hZ	-4972
zf	-4973
。"	-4974
开始	-4975
文件	-4976
服务	-4977
%",	-4978
(("	-4979
(\\	-4980
11:	-4981
13.	-4982
2")	-4983
204	-4984
232	-4985
3];	-4986
5()	-4987
80,	-4988
:30	-4989
ACI	-4990
APE	-4991
Agg	-4992
BAS	-4993
BDN	-4994
BOB	-4995
DIC	-4996
DOU	-4997
IdG	-4998
MIC	-4999
MUC	-5000
NAU	-5001
SAP	-5002
VIS	-5003
_5_	-5004
dMu	-5005
dOf	-5006
dSm	-5007
gSh	-5008
kwr	-5009
lfS	-5010
rrP	-5011
urC	-5012
▁"6	-5013
▁39	-5014
▁40	-5015
▁45	-5016
▁Km	-5017
▁NK	-5018
▁SK	-5019
▁mk	-5020
(5),	-5021
2().	-5022
AddC	-5023
EAMS	-5024
EVAL	-5025
EXAC	-5026
INNE	-5027
IPLE	-5028
MUCO	-5029
QUES	-5030
SSLE	-5031
SqlE	-5032
ULES	-5033
WSDL	-5034
gMul	-5035
glBl	-5036
kErr	-5037
ldPr	-5038
ldfl	-5039
lrCl	-5040
uffl	-5041
urfr	-5042
▁"10	-5043
▁%.1	-5044
▁0.7	-5045
▁19,	-5046
▁2))	-5047
▁64;	-5048
▁78.	-5049
▁GUI	-5050
▁SEN	-5051
▁mSu	-5052
▁zzE	-5053
("2",	-5054
<?>>>	-5055
ANCED	-5056
ASING	-5057
AddCh	-5058
CODED	-5059
EXCEL	-5060
IMPLE	-5061
MKOLU	-5062
OCEDU	-5063
SPIDE	-5064
rXOff	-5065
▁25);	-5066
▁?");	-5067
▁CALL	-5068
▁FUNC	-5069
▁mmgr	-5070
("0"))	-5071
<>(1);	-5072
======	-5073
DAEMON	-5074
▁1000)	-5075
LICENSE	-5076
▁APPLICA	-5077
▁COMMAND	-5078
({	-5079
0}	-5080
4[	-5081
52	-5082
7)	-5083
7\	-5084
=*	-5085
=0	-5086
PB	-5087
PX	-5088
VD	-5089
lZ	-5090
wJ	-5091
wX	-5092
ím	-5093
ве	-5094
客户	-5095
文庫	-5096
("3	-5097
,\"	-5098
0))	-5099
223	-5100
25;	-5101
33.	-5102
567	-5103
64,	-5104
6];	-5105
>>(	-5106
BOA	-5107
Ell	-5108
GFK	-5109
GID	-5110
IGI	-5111
JCh	-5112
Kuh	-5113
OOB	-5114
OOL	-5115
OPO	-5116
OfV	-5117
OrI	-5118
QLE	-5119
WAY	-5120
WEA	-5121
\\\	-5122
dCu	-5123
ffV	-5124
gCr	-5125
hqu	-5126
lOw	-5127
lrI	-5128
mgm	-5129
mlu	-5130
muk	-5131
rPh	-5132
rml	-5133
umH	-5134
urS	-5135
▁':	-5136
▁=>	-5137
▁DC	-5138
▁OK	-5139
▁wl	-5140
(9);	-5141
25);	-5142
2\1\	-5143
8601	-5144
ANAS	-5145
ASKS	-5146
AllO	-5147
BLOB	-5148
FINE	-5149
HEAL	-5150
HEME	-5151
IPAL	-5152
UEVO	-5153
WOOD	-5154
[11]	-5155
[12]	-5156
][1]	-5157
lUrl	-5158
llOf	-5159
lmAw	-5160
rEdg	-5161
ulld	-5162
▁"**	-5163
▁"{\	-5164
▁-0.	-5165
▁204	-5166
▁22,	-5167
▁404	-5168
▁AWS	-5169
▁Alg	-5170
▁Alw	-5171
▁BLA	-5172
▁mXW	-5173
▁wlI	-5174
'])",	-5175
(500,	-5176
..");	-5177
20140	-5178
ALLED	-5179
AllSu	-5180
CENIN	-5181
CHIVE	-5182
MONGO	-5183
OrErr	-5184
QUALI	-5185
_7808	-5186
▁0.0)	-5187
▁40);	-5188
▁50),	-5189
▁500;	-5190
▁MAND	-5191
▁guru	-5192
("0000	-5193
(',');	-5194
******	-5195
++)));	-5196
INDArr	-5197
UPLOAD	-5198
dArgum	-5199
rOrEqu	-5200
▁"/");	-5201
▁16));	-5202
ECEIVED	-5203
INCIPAL	-5204
qDOUBLE	-5205
▁...");	-5206
▁UNUSED	-5207
CAPABILI	-5208
CENINHAS	-5209
▁\001(\01	-5210
ffffffffffffffff	-5211
#>	-5212
CX	-5213
JK	-5214
MF	-5215
MV	-5216
Xl	-5217
^2	-5218
输入	-5219
ASM	-5220
EOL	-5221
Gru	-5222
ISE	-5223
NES	-5224
NFS	-5225
OMO	-5226
PLE	-5227
PPr	-5228
SIL	-5229
SLO	-5230
SMO	-5231
VMw	-5232
YOU	-5233
_2.	-5234
fgr	-5235
glL	-5236
hWr	-5237
rGu	-5238
udW	-5239
udl	-5240
▁-5	-5241
▁30	-5242
▁7)	-5243
▁<"	-5244
▁EJ	-5245
▁Ju	-5246
▁WC	-5247
▁]\	-5248
▁fw	-5249
▁gz	-5250
▁mJ	-5251
▁mY	-5252
▁ud	-5253
▁wS	-5254
%");	-5255
("("	-5256
(4).	-5257
0\0\	-5258
1_9_	-5259
2)).	-5260
2.0,	-5261
256.	-5262
2\0\	-5263
<>((	-5264
AllH	-5265
CHED	-5266
DAYS	-5267
ECDH	-5268
GACY	-5269
HEAP	-5270
HSHA	-5271
NumE	-5272
ONEY	-5273
PULL	-5274
SAME	-5275
SOLE	-5276
SSLH	-5277
SqlP	-5278
\022	-5279
dEff	-5280
hSHA	-5281
qNum	-5282
rEur	-5283
uldD	-5284
wErr	-5285
▁-2;	-5286
▁13;	-5287
▁21,	-5288
▁CUS	-5289
▁NPC	-5290
▁OVE	-5291
('.')	-5292
(403,	-5293
0[5],	-5294
:00",	-5295
ANGLE	-5296
ASCII	-5297
BACKG	-5298
EASON	-5299
IPAdd	-5300
LEMEN	-5301
NODES	-5302
NUEVO	-5303
PANEL	-5304
PlugN	-5305
SOCKE	-5306
SPEED	-5307
YIELD	-5308
mGuru	-5309
▁"/";	-5310
▁"0",	-5311
▁"1.0	-5312
▁("".	-5313
▁0.5)	-5314
▁JNAU	-5315
▁QAFE	-5316
▁SAML	-5317
("0");	-5318
("2015	-5319
(":");	-5320
("{");	-5321
('/');	-5322
DENIED	-5323
GENKEY	-5324
SIGNED	-5325
Shuffl	-5326
_10485	-5327
wArgum	-5328
▁0)));	-5329
▁CONDI	-5330
▁HEADE	-5331
201406.	-5332
CODELIS	-5333
COLUMNS	-5334
ENSIONS	-5335
INCLUDE	-5336
▁INVOKE	-5337
BULKLOAD	-5338
\030\002	-5339
▁2014");	-5340
$.	-5341
3}	-5342
73	-5343
95	-5344
DL	-5345
FB	-5346
Hl	-5347
JE	-5348
KF	-5349
Md	-5350
QI	-5351
UV	-5352
fA	-5353
fq	-5354
gX	-5355
kJ	-5356
增加	-5357
状态	-5358
结果	-5359
$$$	-5360
-08	-5361
/1/	-5362
/\"	-5363
02;	-5364
23;	-5365
=",	-5366
>(_	-5367
ABY	-5368
AUF	-5369
Cru	-5370
EPA	-5371
ISh	-5372
Juk	-5373
MED	-5374
MIE	-5375
MSE	-5376
NSO	-5377
OPH	-5378
OrM	-5379
OrS	-5380
VES	-5381
VOL	-5382
\"}	-5383
_18	-5384
dNB	-5385
ffu	-5386
ghS	-5387
hDu	-5388
llV	-5389
lóm	-5390
qDA	-5391
qVA	-5392
rdA	-5393
uGr	-5394
ulf	-5395
wCr	-5396
wPu	-5397
wdk	-5398
▁.5	-5399
▁AP	-5400
▁JI	-5401
▁ZV	-5402
▁kw	-5403
(404	-5404
(42,	-5405
.").	-5406
06",	-5407
250.	-5408
ASOU	-5409
CmdA	-5410
GErr	-5411
HHmm	-5412
KAUF	-5413
MAIL	-5414
NumF	-5415
SEED	-5416
SWIG	-5417
UNDA	-5418
UrlA	-5419
VOID	-5420
YIDA	-5421
YING	-5422
[6];	-5423
_201	-5424
fuzz	-5425
llAd	-5426
qCHA	-5427
rArg	-5428
rEff	-5429
rdAu	-5430
urrS	-5431
wChu	-5432
zuCl	-5433
▁"13	-5434
▁"19	-5435
▁0.3	-5436
▁12\	-5437
▁2",	-5438
▁2,"	-5439
▁24,	-5440
▁32)	-5441
▁33,	-5442
▁FIN	-5443
▁MIS	-5444
▁dur	-5445
▁{}.	-5446
"))),	-5447
("-",	-5448
-1"),	-5449
0[0],	-5450
0[2],	-5451
ADDED	-5452
ANSFE	-5453
ANSWE	-5454
BPACH	-5455
ECDSA	-5456
EELIF	-5457
ENAME	-5458
EPACH	-5459
ESUME	-5460
FLAKE	-5461
MODAL	-5462
PLAYE	-5463
SENSO	-5464
fffff	-5465
▁".";	-5466
▁"/",	-5467
▁"1";	-5468
▁((((	-5469
▁128,	-5470
▁18).	-5471
▁200;	-5472
▁4)).	-5473
▁AddC	-5474
▁Bulk	-5475
▁GLFW	-5476
▁SNOW	-5477
▁SqlS	-5478
(")");	-5479
("/"))	-5480
(':');	-5481
MIDDLE	-5482
▁255);	-5483
▁?")).	-5484
▁OFFSE	-5485
▁wYAML	-5486
(3000);	-5487
ANALYZE	-5488
LEASING	-5489
▁100));	-5490
▁LAUNCH	-5491
▁UNIQUE	-5492
99999999	-5493
FINISHED	-5494
qDECIMAL	-5495
00000002)	-5496
▁HIGHLIGH	-5497
UNSPECIFIED	-5498
SYSSEQUENCES	-5499
$|	-5500
7:	-5501
83	-5502
?)	-5503
DQ	-5504
Fm	-5505
Sq	-5506
WB	-5507
kf	-5508
(3)	-5509
03;	-5510
06.	-5511
101	-5512
12,	-5513
149	-5514
16;	-5515
22,	-5516
32_	-5517
35.	-5518
404	-5519
40_	-5520
ALK	-5521
EDE	-5522
Edm	-5523
Fur	-5524
GGP	-5525
GLC	-5526
IDX	-5527
IVO	-5528
IfC	-5529
KVM	-5530
NEB	-5531
ODD	-5532
OfH	-5533
OfJ	-5534
Pgm	-5535
SHE	-5536
SIN	-5537
SSH	-5538
SSS	-5539
UND	-5540
VmI	-5541
XSD	-5542
XXM	-5543
ZOO	-5544
[\\	-5545
\")	-5546
\00	-5547
_3.	-5548
duk	-5549
hMu	-5550
hug	-5551
mNB	-5552
rSw	-5553
rrd	-5554
▁**	-5555
▁9:	-5556
▁GP	-5557
▁IK	-5558
▁JU	-5559
▁dS	-5560
▁hC	-5561
▁hh	-5562
▁hm	-5563
▁wm	-5564
(1.5	-5565
(204	-5566
+");	-5567
1/{+	-5568
:"))	-5569
ALGO	-5570
ASSO	-5571
BufC	-5572
CMAP	-5573
ENUM	-5574
IGGE	-5575
IfEm	-5576
LASH	-5577
LAYE	-5578
OfPl	-5579
SqlS	-5580
[10]	-5581
[13]	-5582
[14]	-5583
[3].	-5584
[8];	-5585
][];	-5586
_2).	-5587
_2);	-5588
____	-5589
dClu	-5590
llPl	-5591
mJID	-5592
mdkA	-5593
rdCr	-5594
rkSu	-5595
zkCl	-5596
▁'/'	-5597
▁(!_	-5598
▁12)	-5599
▁37,	-5600
▁4),	-5601
▁4).	-5602
▁50,	-5603
▁EQU	-5604
▁MUL	-5605
▁Sdk	-5606
▁VEN	-5607
▁Wdk	-5608
▁mSw	-5609
▁}";	-5610
批量删除	-5611
(//*[	-5612
(10),	-5613
(1234	-5614
-1");	-5615
02004	-5616
04000	-5617
0[1],	-5618
0[3],	-5619
0[4],	-5620
ALIGN	-5621
ANSPA	-5622
AllGr	-5623
DECLA	-5624
ECDHE	-5625
IWXXM	-5626
MONEY	-5627
OrgId	-5628
dSurf	-5629
umNgr	-5630
▁0.5;	-5631
▁3)).	-5632
▁300;	-5633
▁6));	-5634
▁Azur	-5635
▁EXPI	-5636
▁LDAP	-5637
▁SCAL	-5638
▁SOAP	-5639
▁mBlu	-5640
']"));	-5641
("\"",	-5642
2\0\1\	-5643
ENGINE	-5644
GANIZA	-5645
LOOKUP	-5646
▁"}");	-5647
▁500);	-5648
▁EXECU	-5649
▁FXMLL	-5650
▁XMLGr	-5651
()))));	-5652
600002,	-5653
LAUNCHE	-5654
SUPPLIE	-5655
0000000;	-5656
FFFFFFFF	-5657
ZOOKEEPE	-5658
▁DECIMAL	-5659
▁DISPLAY	-5660
0123456789	-5661
▁\001(\005	-5662
%3	-5663
.@	-5664
/_	-5665
3|	-5666
6(	-5667
;&	-5668
BN	-5669
IH	-5670
LP	-5671
Lh	-5672
Mq	-5673
NL	-5674
Ug	-5675
XB	-5676
_%	-5677
dX	-5678
fO	-5679
ól	-5680
した	-5681
匹配	-5682
(")	-5683
("|	-5684
(18	-5685
08,	-5686
1))	-5687
16:	-5688
192	-5689
2("	-5690
329	-5691
432	-5692
8((	-5693
BAL	-5694
DIF	-5695
EAC	-5696
EDS	-5697
EFS	-5698
FXO	-5699
GBA	-5700
HEX	-5701
Hdr	-5702
IGr	-5703
IOS	-5704
IdC	-5705
UGC	-5706
dVl	-5707
gAm	-5708
gAr	-5709
gPl	-5710
kID	-5711
lEq	-5712
mOu	-5713
mlE	-5714
ruz	-5715
wEl	-5716
▁'3	-5717
▁59	-5718
▁7:	-5719
▁BG	-5720
▁CC	-5721
▁Eu	-5722
▁MM	-5723
▁PL	-5724
▁WO	-5725
▁WS	-5726
▁XE	-5727
▁gW	-5728
',",	-5729
(8),	-5730
-01.	-5731
-02.	-5732
6666	-5733
<>("	-5734
APPE	-5735
AllW	-5736
ESIS	-5737
IONA	-5738
MAJO	-5739
MBOL	-5740
PLAN	-5741
Surg	-5742
WEEN	-5743
[5];	-5744
\"},	-5745
\004	-5746
glPu	-5747
glfw	-5748
hClu	-5749
rClu	-5750
ullC	-5751
▁")"	-5752
▁39,	-5753
▁40;	-5754
▁65,	-5755
▁80,	-5756
▁99,	-5757
▁Cur	-5758
▁DEF	-5759
▁ICE	-5760
▁IOU	-5761
▁MOB	-5762
▁mgm	-5763
▁zzI	-5764
(1.0,	-5765
(6));	-5766
0000)	-5767
FullS	-5768
WHOLE	-5769
XMLGr	-5770
[0]),	-5771
▁"'";	-5772
▁",";	-5773
▁0.00	-5774
▁1").	-5775
▁3.14	-5776
▁6)).	-5777
▁CLUS	-5778
▁MQBr	-5779
▁SEPA	-5780
▁Sugg	-5781
▁glfw	-5782
("]");	-5783
(10000	-5784
9995);	-5785
COMPAC	-5786
EADING	-5787
ImgUrl	-5788
SUBSYS	-5789
VOLUME	-5790
▁EXPEC	-5791
▁IMAGE	-5792
▁SENSO	-5793
▁SHAPE	-5794
(1100);	-5795
CASSAND	-5796
CLICKED	-5797
COMPOSI	-5798
LOADING	-5799
PENDING	-5800
SPECIAL	-5801
IMPLEMEN	-5802
EXCLUSIVE	-5803
SUCCEEDED	-5804
00000001);	-5805
NANOSECONDS	-5806
------------	-5807
=1	-5808
BF	-5809
Bz	-5810
FJ	-5811
Mr	-5812
Pm	-5813
YM	-5814
hY	-5815
zM	-5816
、"	-5817
する	-5818
提交	-5819
是否	-5820
菜单	-5821
连接	-5822
(24	-5823
.")	-5824
.2.	-5825
0).	-5826
06_	-5827
11_	-5828
155	-5829
1];	-5830
295	-5831
37.	-5832
=2,	-5833
AAB	-5834
ALG	-5835
AVI	-5836
BIN	-5837
BOO	-5838
Dól	-5839
FON	-5840
LAF	-5841
LEA	-5842
MAB	-5843
MUS	-5844
NSI	-5845
OLA	-5846
UNK	-5847
Zhu	-5848
]+)	-5849
_5.	-5850
dfl	-5851
gOu	-5852
hzN	-5853
kAu	-5854
kur	-5855
lDr	-5856
mSl	-5857
mSu	-5858
mlP	-5859
rdV	-5860
rkH	-5861
udf	-5862
wFl	-5863
zzA	-5864
▁"7	-5865
▁">	-5866
▁'5	-5867
▁'6	-5868
▁';	-5869
▁64	-5870
▁8.	-5871
▁::	-5872
▁<%	-5873
▁AW	-5874
▁Cd	-5875
("##	-5876
("13	-5877
("[%	-5878
()",	-5879
(102	-5880
(12,	-5881
-1.0	-5882
00",	-5883
001:	-5884
2000	-5885
3116	-5886
CONG	-5887
DIFF	-5888
ELEC	-5889
ErrS	-5890
FFLE	-5891
GAIN	-5892
HANG	-5893
IFIC	-5894
INHL	-5895
INJP	-5896
NINJ	-5897
PIPE	-5898
SHEE	-5899
SLOW	-5900
SSHK	-5901
UrlF	-5902
VINJ	-5903
XSSF	-5904
[]::	-5905
\006	-5906
_0()	-5907
humm	-5908
kArr	-5909
ulkF	-5910
ulkS	-5911
urrA	-5912
wNum	-5913
wOff	-5914
▁"${	-5915
▁12:	-5916
▁21:	-5917
▁23:	-5918
▁27.	-5919
▁5),	-5920
▁60.	-5921
▁CBS	-5922
▁DBU	-5923
▁DEL	-5924
▁LDP	-5925
▁MIL	-5926
▁NLG	-5927
▁SAB	-5928
▁VmJ	-5929
▁WSA	-5930
▁duk	-5931
("").	-5932
("/",	-5933
('#',	-5934
(300,	-5935
(42);	-5936
(5000	-5937
01010	-5938
10");	-5939
APOLA	-5940
EPOSI	-5941
ESIZE	-5942
ESSED	-5943
ISGUA	-5944
NrOfH	-5945
VOKES	-5946
[1024	-5947
mgUrl	-5948
▁"301	-5949
▁-1),	-5950
▁10.0	-5951
▁12),	-5952
▁DIGI	-5953
▁SSLE	-5954
▁SUPE	-5955
▁mlCl	-5956
▁{});	-5957
('"');	-5958
(0.3);	-5959
306\0\	-5960
808301	-5961
<?>...	-5962
DEPLOY	-5963
MOBILE	-5964
ldBuff	-5965
▁180.0	-5966
▁25));	-5967
▁COMMA	-5968
▁GMSQu	-5969
▁IMXML	-5970
▁MYSQL	-5971
▁fullN	-5972
▁qdArr	-5973
("2011-	-5974
INSENSI	-5975
▁255));	-5976
▁SMGErr	-5977
<<<<<<<<	-5978
CONGLOME	-5979
HIGHLIGH	-5980
OCESSING	-5981
ELACIONES	-5982
("127.0.0.	-5983
SCHEMANAME	-5984
▁SNOWFLAKE	-5985
MILLISECOND	-5986
3=	-5987
63	-5988
9)	-5989
=<	-5990
DV	-5991
Lm	-5992
PY	-5993
VL	-5994
_6	-5995
qD	-5996
uF	-5997
zd	-5998
密码	-5999
方法	-6000
蓝牙	-6001
._2	-6002
104	-6003
1].	-6004
374	-6005
37_	-6006
6.2	-6007
AKA	-6008
APH	-6009
ASN	-6010
DBP	-6011
DHU	-6012
EXL	-6013
FAS	-6014
FUS	-6015
HOL	-6016
ILS	-6017
Irr	-6018
JVM	-6019
LML	-6020
LON	-6021
MAZ	-6022
MPP	-6023
MQV	-6024
MWA	-6025
OWL	-6026
PSE	-6027
WSP	-6028
\"/	-6029
_1(	-6030
_13	-6031
_4_	-6032
dPd	-6033
dQF	-6034
fSu	-6035
fdl	-6036
gWr	-6037
glf	-6038
hPh	-6039
hdd	-6040
kSm	-6041
mCu	-6042
mgr	-6043
rVm	-6044
rkZ	-6045
wOf	-6046
wSl	-6047
▁#{	-6048
▁-3	-6049
▁.1	-6050
▁28	-6051
▁8:	-6052
▁@@	-6053
▁AE	-6054
▁AF	-6055
▁GW	-6056
▁LC	-6057
▁OM	-6058
▁Pk	-6059
▁VF	-6060
▁XY	-6061
▁[1	-6062
▁dB	-6063
▁ff	-6064
▁qf	-6065
▁um	-6066
▁zh	-6067
('('	-6068
(13,	-6069
(25,	-6070
(30,	-6071
(32,	-6072
).//	-6073
-");	-6074
-2",	-6075
.{1}	-6076
/").	-6077
1.1.	-6078
101_	-6079
12);	-6080
2.3,	-6081
23",	-6082
3)).	-6083
={},	-6084
>20]	-6085
ADDI	-6086
ADSS	-6087
ALES	-6088
AddM	-6089
CKDF	-6090
EDOC	-6091
EMBE	-6092
FFMF	-6093
HDFS	-6094
HIJO	-6095
IFES	-6096
JEES	-6097
LIFE	-6098
MWAA	-6099
OBOL	-6100
OfGr	-6101
OrEm	-6102
PNPu	-6103
PdfN	-6104
PkgD	-6105
QAFE	-6106
QUAD	-6107
SQLP	-6108
SdkI	-6109
SumO	-6110
WIDE	-6111
[0][	-6112
[1])	-6113
_100	-6114
dChu	-6115
dIDF	-6116
gAlg	-6117
hAdd	-6118
mdrU	-6119
mumP	-6120
urGr	-6121
wMul	-6122
zArr	-6123
▁'.'	-6124
▁18:	-6125
▁1],	-6126
▁51,	-6127
▁60)	-6128
▁70,	-6129
▁?",	-6130
▁AEM	-6131
▁Cmd	-6132
▁Eur	-6133
▁Hmm	-6134
▁SSH	-6135
▁WID	-6136
▁YEA	-6137
(501,	-6138
/"));	-6139
25519	-6140
80000	-6141
AllPr	-6142
BASED	-6143
ICULA	-6144
IdOrK	-6145
MKOLS	-6146
Pulld	-6147
[][]>	-6148
dCurr	-6149
dYIDA	-6150
▁"#";	-6151
▁0.5,	-6152
▁14);	-6153
▁15),	-6154
▁40),	-6155
▁60);	-6156
▁800,	-6157
▁GONE	-6158
▁IDEN	-6159
▁LOCA	-6160
▁NEED	-6161
!!!");	-6162
("1111	-6163
("1234	-6164
1_9_3.	-6165
31169,	-6166
DELIVE	-6167
EQUALS	-6168
IfNull	-6169
OADCAS	-6170
glSurf	-6171
▁-1));	-6172
▁0.001	-6173
▁14));	-6174
▁Allur	-6175
▁COBOL	-6176
▁SBMLC	-6177
▁WINDO	-6178
ACHHANG	-6179
OVISION	-6180
(10000);	-6181
ABLENAME	-6182
UNSIGNED	-6183
▁{0}.{1}	-6184
%%	-6185
.$	-6186
/#	-6187
/.	-6188
Dm	-6189
GY	-6190
HC	-6191
QB	-6192
WF	-6193
WM	-6194
ZA	-6195
fK	-6196
hX	-6197
mX	-6198
zU	-6199
ри	-6200
没有	-6201
系统	-6202
返回	-6203
('-	-6204
('=	-6205
02/	-6206
022	-6207
04;	-6208
102	-6209
10:	-6210
196	-6211
1])	-6212
2.3	-6213
303	-6214
339	-6215
37:	-6216
52.	-6217
6).	-6218
AKE	-6219
AdS	-6220
BOM	-6221
BON	-6222
CML	-6223
DFB	-6224
EVI	-6225
EVS	-6226
JAX	-6227
JSO	-6228
LOL	-6229
LOS	-6230
OSD	-6231
OfU	-6232
OfY	-6233
PON	-6234
SPC	-6235
VIB	-6236
XYZ	-6237
[9]	-6238
[{}	-6239
_",	-6240
dAB	-6241
dGl	-6242
dPh	-6243
duH	-6244
fEd	-6245
fPr	-6246
gBr	-6247
gJU	-6248
hSz	-6249
lEl	-6250
mQu	-6251
rAS	-6252
ruC	-6253
uul	-6254
uzE	-6255
wPl	-6256
▁'8	-6257
▁-8	-6258
▁26	-6259
▁42	-6260
▁AB	-6261
▁GO	-6262
▁Hu	-6263
▁JP	-6264
▁Ld	-6265
▁Pm	-6266
▁_3	-6267
▁dh	-6268
▁fh	-6269
▁kf	-6270
▁lM	-6271
▁mr	-6272
(202	-6273
(80,	-6274
/1.1	-6275
2(),	-6276
3();	-6277
5"),	-6278
512.	-6279
5678	-6280
=\"0	-6281
ADOW	-6282
AddD	-6283
AddP	-6284
CHAP	-6285
CMDM	-6286
COFF	-6287
DIGO	-6288
EDIA	-6289
Emul	-6290
FFIC	-6291
FILA	-6292
FXML	-6293
ILLA	-6294
IMEN	-6295
IXED	-6296
LOAN	-6297
MINO	-6298
NGCu	-6299
QUIN	-6300
SAPu	-6301
SIVE	-6302
SUME	-6303
XMLS	-6304
[1]/	-6305
_196	-6306
_1_.	-6307
dShu	-6308
dXml	-6309
gChu	-6310
gUrl	-6311
hOff	-6312
hQLI	-6313
kMul	-6314
kSum	-6315
lSum	-6316
ldGr	-6317
llEm	-6318
llFr	-6319
rkdw	-6320
uDAO	-6321
umOf	-6322
urrC	-6323
▁(60	-6324
▁14;	-6325
▁25;	-6326
▁2];	-6327
▁409	-6328
▁42,	-6329
▁5.0	-6330
▁87.	-6331
▁AGG	-6332
▁ASK	-6333
▁BNO	-6334
▁EIS	-6335
▁LAN	-6336
▁WEB	-6337
▁\"%	-6338
▁{}\	-6339
增加财务	-6340
!"));	-6341
'],",	-6342
(11);	-6343
(13);	-6344
(40);	-6345
-15);	-6346
08001	-6347
<?>>(	-6348
>10],	-6349
>20],	-6350
ANIMA	-6351
CLAIM	-6352
COMPU	-6353
GIVEN	-6354
ILEAL	-6355
INFUS	-6356
QUICK	-6357
_000;	-6358
fullN	-6359
kNull	-6360
▁!");	-6361
▁"306	-6362
▁"]",	-6363
▁10).	-6364
▁200)	-6365
▁BLOB	-6366
▁LINE	-6367
▁SPEC	-6368
▁SWAP	-6369
▁YAML	-6370
。"));	-6371
(1)));	-6372
({})",	-6373
ABCDEF	-6374
CALLED	-6375
COFFEE	-6376
EMOVED	-6377
IALIAS	-6378
LOCKED	-6379
SBMLSB	-6380
SHADOW	-6381
SIGNIN	-6382
SYMBOL	-6383
SYSurf	-6384
dABDIA	-6385
rArgum	-6386
▁771);	-6387
▁CHECK	-6388
▁EMAIL	-6389
▁FALSE	-6390
▁FIXED	-6391
▁LEVEL	-6392
▁MEDIA	-6393
▁}"));	-6394
\"},{\"	-6395
▁1.0));	-6396
▁200));	-6397
▁HOADON	-6398
ADVANCED	-6399
▁100000000	-6400
UNAVAILABLE	-6401
)?	-6402
)]	-6403
3"	-6404
7-	-6405
>$	-6406
>&	-6407
Bg	-6408
EY	-6409
Fd	-6410
Hg	-6411
Kl	-6412
NM	-6413
Nl	-6414
uO	-6415
zw	-6416
ен	-6417
出错	-6418
调用	-6419
$",	-6420
('[	-6421
(13	-6422
(?<	-6423
/;"	-6424
02_	-6425
052	-6426
124	-6427
156	-6428
197	-6429
20;	-6430
362	-6431
37;	-6432
5.7	-6433
64_	-6434
=1,	-6435
CAA	-6436
CIA	-6437
COu	-6438
EGY	-6439
GEO	-6440
IDU	-6441
IMG	-6442
IOU	-6443
ImA	-6444
Jdk	-6445
OMP	-6446
OWS	-6447
OrF	-6448
SUS	-6449
VEC	-6450
XPr	-6451
XYD	-6452
_1;	-6453
_9_	-6454
__0	-6455
drl	-6456
ffS	-6457
gAf	-6458
gCM	-6459
glS	-6460
hAf	-6461
hBr	-6462
hID	-6463
hIm	-6464
hOr	-6465
lfI	-6466
mSr	-6467
mgB	-6468
rdr	-6469
rgN	-6470
rmr	-6471
udL	-6472
wDf	-6473
wDr	-6474
▁"`	-6475
▁'&	-6476
▁'4	-6477
▁34	-6478
▁FE	-6479
▁HA	-6480
▁HC	-6481
▁IH	-6482
▁Oz	-6483
▁US	-6484
▁VO	-6485
▁rr	-6486
(".*	-6487
("/"	-6488
(5).	-6489
,###	-6490
-01-	-6491
-03.	-6492
-04.	-6493
."),	-6494
/02/	-6495
01);	-6496
:").	-6497
ABDI	-6498
ACES	-6499
ALLE	-6500
ECOG	-6501
EDIS	-6502
EJEC	-6503
EPLY	-6504
IBAN	-6505
IMED	-6506
LAVA	-6507
POSE	-6508
SMOO	-6509
UEdg	-6510
VIEN	-6511
VmVO	-6512
Vmdk	-6513
\"",	-6514
\").	-6515
\\\\	-6516
_8),	-6517
ffId	-6518
mdkD	-6519
mumW	-6520
rAPI	-6521
rDAO	-6522
rOrg	-6523
rdAg	-6524
rldP	-6525
▁"#"	-6526
▁";"	-6527
▁0",	-6528
▁17;	-6529
▁27,	-6530
▁3",	-6531
▁48)	-6532
▁55,	-6533
▁56,	-6534
▁59,	-6535
▁6),	-6536
▁BUC	-6537
▁FSD	-6538
▁FdH	-6539
▁ICr	-6540
▁IId	-6541
▁NIC	-6542
▁OLD	-6543
▁ONE	-6544
▁fdI	-6545
▁hdf	-6546
▁ldA	-6547
("###	-6548
("[1,	-6549
(0)))	-6550
(128,	-6551
(25);	-6552
-8859	-6553
0"));	-6554
00");	-6555
2006_	-6556
2011-	-6557
9.163	-6558
DBCOu	-6559
IGNED	-6560
ILIDI	-6561
IOErr	-6562
LEADE	-6563
MANCE	-6564
OfArg	-6565
PIDFC	-6566
SOUND	-6567
UNION	-6568
[][])	-6569
_0_0.	-6570
_0_8.	-6571
▁!"".	-6572
▁-24,	-6573
▁360;	-6574
▁CLAY	-6575
▁DOMH	-6576
▁GZIP	-6577
▁HBMS	-6578
▁SAVE	-6579
▁SHIP	-6580
▁SIGN	-6581
▁SqlP	-6582
▁fdlI	-6583
▁kudu	-6584
▁wAdd	-6585
("====	-6586
('.');	-6587
(72.0,	-6588
:8080/	-6589
BIDDEN	-6590
CODIGO	-6591
EXPOSU	-6592
FFFFFF	-6593
IABLES	-6594
\":{\"	-6595
rumDAO	-6596
▁"1234	-6597
▁"2018	-6598
▁5000;	-6599
▁PIDFC	-6600
▁mSurf	-6601
("\"");	-6602
99995);	-6603
CHECKED	-6604
CONFLIC	-6605
DYNAMIC	-6606
HANVIEN	-6607
MANIFES	-6608
SAPLING	-6609
[1024];	-6610
rImgUrl	-6611
▁ELEMEN	-6612
▁MSPOIN	-6613
▁VALIDA	-6614
▁fullOu	-6615
▁hOADON	-6616
("\\.");	-6617
PIPELINE	-6618
("100%");	-6619
00000002;	-6620
\022\014\	-6621
CONFIGFILE	-6622
("192.168.1.	-6623
/\	-6624
3-	-6625
5"	-6626
>%	-6627
Gd	-6628
Gm	-6629
NU	-6630
Nd	-6631
SQ	-6632
YU	-6633
mQ	-6634
qA	-6635
uG	-6636
wk	-6637
}{	-6638
ár	-6639
中断	-6640
任务	-6641
保存	-6642
账号	-6643
$";	-6644
(']	-6645
('_	-6646
(36	-6647
014	-6648
159	-6649
214	-6650
2])	-6651
2].	-6652
365	-6653
5";	-6654
5).	-6655
502	-6656
535	-6657
60,	-6658
812	-6659
:01	-6660
=1;	-6661
AMY	-6662
BLA	-6663
BSC	-6664
DAG	-6665
DAS	-6666
HSV	-6667
ICr	-6668
IMO	-6669
INV	-6670
IdK	-6671
MDC	-6672
MSC	-6673
NID	-6674
Orm	-6675
SPr	-6676
UIN	-6677
UIS	-6678
UPS	-6679
VIA	-6680
\\-	-6681
_10	-6682
dDB	-6683
gBu	-6684
ghV	-6685
hPu	-6686
ldH	-6687
lfB	-6688
lfL	-6689
llY	-6690
llh	-6691
llr	-6692
mDr	-6693
mrg	-6694
rmN	-6695
uId	-6696
udI	-6697
ulm	-6698
umG	-6699
▁"8	-6700
▁$(	-6701
▁'+	-6702
▁([	-6703
▁Fd	-6704
▁NU	-6705
▁PK	-6706
▁fq	-6707
▁gf	-6708
▁hz	-6709
▁qH	-6710
("2.	-6711
(22,	-6712
(60,	-6713
(7),	-6714
-8",	-6715
04",	-6716
04()	-6717
0706	-6718
1(),	-6719
1().	-6720
1\",	-6721
4\0\	-6722
55);	-6723
>(),	-6724
ABSO	-6725
ACED	-6726
ACLS	-6727
AVES	-6728
BAND	-6729
CHOO	-6730
CONC	-6731
CmdI	-6732
INUM	-6733
MOCK	-6734
OOMS	-6735
OfCl	-6736
OfSl	-6737
OffP	-6738
PAIS	-6739
SSLS	-6740
UNCA	-6741
ZKNO	-6742
[7];	-6743
\003	-6744
_01.	-6745
_1",	-6746
_3);	-6747
gAgg	-6748
gDAO	-6749
ghPr	-6750
lImg	-6751
llGr	-6752
lumC	-6753
mOff	-6754
mumN	-6755
ughU	-6756
ulkA	-6757
umOu	-6758
uzzl	-6759
wAgg	-6760
▁"):	-6761
▁"0.	-6762
▁"|"	-6763
▁("-	-6764
▁(--	-6765
▁15)	-6766
▁202	-6767
▁29,	-6768
▁34,	-6769
▁35,	-6770
▁64,	-6771
▁85.	-6772
▁==>	-6773
▁Adm	-6774
▁BUG	-6775
▁EAS	-6776
▁EPS	-6777
▁Gru	-6778
▁ICC	-6779
▁MSG	-6780
▁SOL	-6781
▁[19	-6782
▁mOu	-6783
▁mSl	-6784
▁zzA	-6785
(""),	-6786
("---	-6787
:"));	-6788
ANSLA	-6789
BSCur	-6790
COLON	-6791
DOUGH	-6792
EDULE	-6793
GENDE	-6794
HESIS	-6795
IONED	-6796
IPSIS	-6797
IdEqu	-6798
LINES	-6799
SIGNA	-6800
]"));	-6801
_1525	-6802
_2295	-6803
kAggr	-6804
llFqd	-6805
llUrl	-6806
▁-1.0	-6807
▁0.05	-6808
▁28.7	-6809
▁32);	-6810
▁770,	-6811
▁INSE	-6812
▁KEYF	-6813
▁LOAD	-6814
▁MIME	-6815
▁PAGE	-6816
▁Pull	-6817
▁SQLD	-6818
▁XWPF	-6819
▁fArr	-6820
▁flum	-6821
(",").	-6822
-02-02	-6823
/2011-	-6824
<>()).	-6825
<>(2);	-6826
ABLADA	-6827
BOOKMA	-6828
ESUMED	-6829
OPICAL	-6830
PACKED	-6831
PHLINE	-6832
ZKNODE	-6833
▁0.8);	-6834
▁300);	-6835
▁400);	-6836
▁fullV	-6837
fffffff	-6838
▁1000.0	-6839
▁Shuffl	-6840
LANGUAGE	-6841
SCHEDULE	-6842
_000_000	-6843
▁SESSION	-6844
([	-6845
-\	-6846
.{	-6847
5-	-6848
7(	-6849
EZ	-6850
HP	-6851
HW	-6852
Hm	-6853
Oz	-6854
Wm	-6855
XM	-6856
Yu	-6857
ZV	-6858
ZW	-6859
[*	-6860
kY	-6861
qL	-6862
uE	-6863
║"	-6864
名称	-6865
超时	-6866
默认	-6867
'][	-6868
("=	-6869
("`	-6870
('0	-6871
(19	-6872
013	-6873
1.3	-6874
224	-6875
2:"	-6876
2_2	-6877
300	-6878
32,	-6879
4),	-6880
4).	-6881
474	-6882
63,	-6883
76,	-6884
>40	-6885
ADI	-6886
Aur	-6887
BPA	-6888
COD	-6889
COO	-6890
DSC	-6891
FAM	-6892
GPX	-6893
IOM	-6894
JMS	-6895
LwM	-6896
MQD	-6897
NCl	-6898
SEX	-6899
UNE	-6900
WIN	-6901
XIA	-6902
YSE	-6903
[--	-6904
]),	-6905
_00	-6906
_8;	-6907
dAf	-6908
gEB	-6909
glG	-6910
hSl	-6911
kOw	-6912
ldJ	-6913
lfF	-6914
mDB	-6915
mEm	-6916
rDB	-6917
rrI	-6918
ugr	-6919
ulV	-6920
umd	-6921
uzh	-6922
zzq	-6923
▁"!	-6924
▁"9	-6925
▁'#	-6926
▁'@	-6927
▁'{	-6928
▁-(	-6929
▁4]	-6930
▁5.	-6931
▁FI	-6932
▁FL	-6933
▁FX	-6934
▁IJ	-6935
▁Ir	-6936
▁Nh	-6937
▁Vm	-6938
▁XP	-6939
▁ZN	-6940
▁_8	-6941
▁fN	-6942
▁uu	-6943
不存在	-6944
!"),	-6945
(");	-6946
(-0.	-6947
(213	-6948
(300	-6949
(40,	-6950
(6),	-6951
);",	-6952
//*[	-6953
0111	-6954
0148	-6955
10.0	-6956
2016	-6957
21,9	-6958
3333	-6959
6-11	-6960
8979	-6961
=\"#	-6962
ALIS	-6963
AMEN	-6964
AllU	-6965
BzlE	-6966
CLIP	-6967
DINA	-6968
EFID	-6969
ENEW	-6970
IDAD	-6971
IVEN	-6972
IgPr	-6973
JEXL	-6974
LEVE	-6975
LOOP	-6976
LruC	-6977
MAKE	-6978
NumC	-6979
NumP	-6980
OUSE	-6981
OWSE	-6982
PINS	-6983
SCAL	-6984
SQLD	-6985
SSID	-6986
SqlL	-6987
XWPF	-6988
XmlE	-6989
ZOOM	-6990
[*].	-6991
[3][	-6992
[9];	-6993
\");	-6994
\"><	-6995
_16.	-6996
_199	-6997
_1_)	-6998
dImg	-6999
dPum	-7000
dSQL	-7001
dSum	-7002
hEqu	-7003
hudN	-7004
kPdu	-7005
mDAO	-7006
rdCu	-7007
rldS	-7008
uldW	-7009
umPr	-7010
wAll	-7011
════	-7012
▁({}	-7013
▁17,	-7014
▁176	-7015
▁22;	-7016
▁23.	-7017
▁30)	-7018
▁38,	-7019
▁53,	-7020
▁80;	-7021
▁CSS	-7022
▁Cru	-7023
▁ELL	-7024
▁FHI	-7025
▁IFh	-7026
▁JSl	-7027
▁JVM	-7028
▁MEN	-7029
▁OPE	-7030
▁SPC	-7031
▁VmD	-7032
▁VmO	-7033
▁mQu	-7034
▁rrd	-7035
▁uml	-7036
▁wPr	-7037
("*",	-7038
(".",	-7039
(1024	-7040
/1301	-7041
0002;	-7042
02005	-7043
07004	-7044
08004	-7045
08005	-7046
08008	-7047
1990.	-7048
2)");	-7049
65\1\	-7050
BUSIN	-7051
CAMEL	-7052
CASIm	-7053
CLEAN	-7054
CLICK	-7055
DISPA	-7056
ELEPH	-7057
FINGE	-7058
HODID	-7059
IBILI	-7060
IMPLN	-7061
JSONC	-7062
LINEA	-7063
MILYS	-7064
UNINI	-7065
[4]);	-7066
rDuff	-7067
umOfC	-7068
▁"...	-7069
▁"304	-7070
▁'.')	-7071
▁0.75	-7072
▁128;	-7073
▁256;	-7074
▁400,	-7075
▁400;	-7076
▁500)	-7077
▁982.	-7078
▁DIFF	-7079
▁DOMU	-7080
▁DOWN	-7081
▁MLAF	-7082
▁PACK	-7083
▁SSLH	-7084
▁SqlU	-7085
('(');	-7086
(1.0).	-7087
)))));	-7088
---");	-7089
014828	-7090
201704	-7091
232339	-7092
:00");	-7093
=\"0\"	-7094
ACHNID	-7095
ADDING	-7096
ANSIEN	-7097
ECAUSE	-7098
FACING	-7099
IDPAIS	-7100
LEGACY	-7101
LEVELS	-7102
[2]));	-7103
mCurrP	-7104
▁"10",	-7105
▁"\"",	-7106
▁"\"";	-7107
▁']');	-7108
▁SMALL	-7109
("10011	-7110
(100));	-7111
11:21,9	-7112
6-11-03	-7113
ALISMAN	-7114
CLOSING	-7115
CONSUME	-7116
DEFINED	-7117
FullUrl	-7118
OCESSES	-7119
SSIGNED	-7120
▁1024),	-7121
▁EMILYS	-7122
▁JDBCOu	-7123
("$.[*].	-7124
,###,###	-7125
0100310.	-7126
AMESPACE	-7127
CANCELED	-7128
ELEPHONY	-7129
FULLNAME	-7130
IGSYSurf	-7131
MISSIONS	-7132
▁'201704	-7133
00000001;	-7134
▁DISABLED	-7135
▁LANGUAGE	-7136
("========	-7137
▁2016-11-03	-7138
▁21:11:21,9	-7139
▁[192.168.1.	-7140
0100310.014828	-7141
-6	-7142
1$	-7143
9:	-7144
MC	-7145
Ng	-7146
Vk	-7147
XF	-7148
XO	-7149
YD	-7150
^/	-7151
fJ	-7152
uH	-7153
wY	-7154
}&	-7155
ある	-7156
して	-7157
上传	-7158
使用	-7159
单体	-7160
定时	-7161
属性	-7162
操作	-7163
正在	-7164
%02	-7165
("]	-7166
('}	-7167
((-	-7168
(4)	-7169
+",	-7170
-";	-7171
-1@	-7172
06-	-7173
07/	-7174
07;	-7175
08;	-7176
132	-7177
169	-7178
18.	-7179
26,	-7180
2__	-7181
32)	-7182
33,	-7183
34,	-7184
5),	-7185
56.	-7186
7).	-7187
78;	-7188
8),	-7189
837	-7190
99;	-7191
;</	-7192
=*/	-7193
ALF	-7194
AVC	-7195
BIL	-7196
CQL	-7197
DBD	-7198
EMY	-7199
FUL	-7200
GHI	-7201
GLU	-7202
IAl	-7203
IPA	-7204
IfM	-7205
Lum	-7206
MMI	-7207
NIO	-7208
NSV	-7209
PDP	-7210
POP	-7211
SUN	-7212
UGI	-7213
VOS	-7214
XLS	-7215
_16	-7216
_8.	-7217
dIf	-7218
ddd	-7219
fCh	-7220
ffL	-7221
hFl	-7222
kuf	-7223
lCu	-7224
lDu	-7225
lUr	-7226
ldu	-7227
llf	-7228
lmD	-7229
mEd	-7230
mHM	-7231
mSw	-7232
mfI	-7233
mlD	-7234
rJI	-7235
rUI	-7236
rdG	-7237
udg	-7238
wBl	-7239
При	-7240
вет	-7241
▁'7	-7242
▁LF	-7243
▁Ok	-7244
▁SS	-7245
▁VS	-7246
▁Vd	-7247
▁dE	-7248
▁dz	-7249
▁lf	-7250
▁lu	-7251
▁rk	-7252
▁zA	-7253
请输入	-7254
'');	-7255
('\\	-7256
(14,	-7257
))";	-7258
-08-	-7259
/100	-7260
01()	-7261
02);	-7262
03).	-7263
11);	-7264
12",	-7265
1305	-7266
1_11	-7267
2"))	-7268
22",	-7269
26);	-7270
56",	-7271
64()	-7272
7\1\	-7273
9));	-7274
=?";	-7275
CADE	-7276
DISK	-7277
DIUM	-7278
DOCS	-7279
EDAC	-7280
ELDS	-7281
FSMI	-7282
GULA	-7283
GZIP	-7284
HIDE	-7285
IBLE	-7286
ILES	-7287
JOBS	-7288
Kudu	-7289
MOBS	-7290
MONI	-7291
NDFD	-7292
NEVE	-7293
NrNC	-7294
OfOr	-7295
SAPr	-7296
SdkH	-7297
SdkJ	-7298
UrlS	-7299
UrlW	-7300
VING	-7301
YPED	-7302
[15]	-7303
[1][	-7304
_3_,	-7305
dBuf	-7306
dXML	-7307
gArr	-7308
gBlu	-7309
lASM	-7310
lArr	-7311
lGLC	-7312
llul	-7313
lluq	-7314
mumH	-7315
mumI	-7316
rIfN	-7317
rPIN	-7318
ughd	-7319
urrI	-7320
▁"<!	-7321
▁13.	-7322
▁18)	-7323
▁3))	-7324
▁41.	-7325
▁48;	-7326
▁500	-7327
▁6).	-7328
▁7))	-7329
▁APM	-7330
▁Aug	-7331
▁Dur	-7332
▁FAC	-7333
▁HEA	-7334
▁IAl	-7335
▁IPV	-7336
▁LAY	-7337
▁PDB	-7338
▁PDP	-7339
▁Pur	-7340
▁dgm	-7341
▁fld	-7342
▁mMu	-7343
▁mPh	-7344
▁{\"	-7345
信息异常	-7346
添加失败	-7347
']");	-7348
(10).	-7349
(15),	-7350
(7));	-7351
(770,	-7352
)[0];	-7353
0.0);	-7354
0004;	-7355
02006	-7356
02007	-7357
05003	-7358
07003	-7359
08003	-7360
08006	-7361
08007	-7362
08009	-7363
19999	-7364
2019.	-7365
32");	-7366
9999,	-7367
ADIUS	-7368
APPLY	-7369
AllAr	-7370
BANNE	-7371
BMLQu	-7372
EBASE	-7373
EMBED	-7374
ENIMI	-7375
EPOCH	-7376
GLASS	-7377
HALFO	-7378
INFLA	-7379
MAVEN	-7380
NOPAD	-7381
QLErr	-7382
SWALK	-7383
VICAL	-7384
_123"	-7385
_8)).	-7386
dXmlG	-7387
gBuff	-7388
rOfOu	-7389
rkOff	-7390
urOfD	-7391
▁"\2\	-7392
▁"|^/	-7393
▁'/')	-7394
▁1234	-7395
▁1]],	-7396
▁300)	-7397
▁BACK	-7398
▁IGAS	-7399
▁INNE	-7400
▁LILI	-7401
▁MOVE	-7402
▁SPLI	-7403
▁WALL	-7404
▁mUrl	-7405
")[0];	-7406
("*"))	-7407
("=");	-7408
()"));	-7409
()]));	-7410
(1.0);	-7411
(150);	-7412
(500).	-7413
000");	-7414
196304	-7415
999999	-7416
APPEND	-7417
CHOICE	-7418
DAMAGE	-7419
FOLLOW	-7420
MEDIUM	-7421
UNSAFE	-7422
WEBAPP	-7423
_123--	-7424
Привет	-7425
▁''{2}	-7426
▁BLADI	-7427
▁FINAL	-7428
▁NullL	-7429
▁OAArr	-7430
▁UNINI	-7431
▁[{}],	-7432
("\\.")	-7433
()[0]);	-7434
(1024);	-7435
(200));	-7436
(40000,	-7437
100002,	-7438
ALLBACK	-7439
ASSOCIA	-7440
BECAUSE	-7441
CONSOLE	-7442
ENIMIEN	-7443
ISMIXIN	-7444
KEYHOLE	-7445
MUCOSAL	-7446
SEGUNDA	-7447
SHUFFLE	-7448
\032\03	-7449
▁120));	-7450
▁ALWAYS	-7451
▁EQUALS	-7452
▁SIZEOF	-7453
▁fdlXML	-7454
00:00:00	-7455
BUSINESS	-7456
COMMANDS	-7457
▁10000);	-7458
("1.2.3",	-7459
▁00:00:00	-7460
▁FINISHED	-7461
BLOCKSWALK	-7462
DESCENDING	-7463
ELACIONADO	-7464
/?	-7465
2|	-7466
4-	-7467
6<	-7468
81	-7469
82	-7470
:0	-7471
;)	-7472
=>	-7473
AH	-7474
OH	-7475
XU	-7476
ZY	-7477
dQ	-7478
hq	-7479
qK	-7480
}]	-7481
те	-7482
▁]	-7483
▁đ	-7484
った	-7485
今天	-7486
地址	-7487
点击	-7488
类型	-7489
("!	-7490
(17	-7491
*",	-7492
--"	-7493
.$$	-7494
105	-7495
144	-7496
203	-7497
208	-7498
3("	-7499
312	-7500
364	-7501
3:"	-7502
4";	-7503
505	-7504
5];	-7505
64)	-7506
=2;	-7507
ACA	-7508
ASU	-7509
AVG	-7510
AdH	-7511
BDD	-7512
DBM	-7513
DDL	-7514
DFA	-7515
DSS	-7516
ECV	-7517
EPl	-7518
FAN	-7519
FqN	-7520
GDP	-7521
IKO	-7522
ILY	-7523
IQN	-7524
IUM	-7525
IfL	-7526
JSP	-7527
JUN	-7528
Ngr	-7529
ODE	-7530
ODY	-7531
OEM	-7532
OrN	-7533
PEE	-7534
PES	-7535
PNF	-7536
PWD	-7537
SMA	-7538
SPI	-7539
Sku	-7540
VmJ	-7541
WOO	-7542
WWW	-7543
_23	-7544
_24	-7545
gAd	-7546
gDu	-7547
gOf	-7548
ghm	-7549
glH	-7550
hAl	-7551
hBP	-7552
hCX	-7553
kAd	-7554
kBl	-7555
kHu	-7556
kSh	-7557
lAg	-7558
lBu	-7559
lfD	-7560
llG	-7561
mFl	-7562
mVO	-7563
rDO	-7564
rEP	-7565
rkV	-7566
uFu	-7567
wAr	-7568
wfm	-7569
zul	-7570
{1,	-7571
▁'[	-7572
▁43	-7573
▁5]	-7574
▁BI	-7575
▁CB	-7576
▁CI	-7577
▁CP	-7578
▁Cg	-7579
▁Fh	-7580
▁GF	-7581
▁Hg	-7582
▁JF	-7583
▁ND	-7584
▁Om	-7585
▁_2	-7586
▁qS	-7587
▁zI	-7588
!").	-7589
("'"	-7590
("(?	-7591
((((	-7592
-3",	-7593
-8";	-7594
/"),	-7595
/07/	-7596
010.	-7597
172.	-7598
1972	-7599
21);	-7600
24);	-7601
256(	-7602
5656	-7603
6-02	-7604
AABB	-7605
ACIA	-7606
AINS	-7607
AMAZ	-7608
BOLD	-7609
BOOL	-7610
CALC	-7611
COME	-7612
CONN	-7613
COVE	-7614
DEAD	-7615
DINS	-7616
DSHA	-7617
ECON	-7618
EQSu	-7619
FFEC	-7620
GGES	-7621
HINJ	-7622
HINS	-7623
HSSF	-7624
IClu	-7625
INVO	-7626
NGLE	-7627
NSDE	-7628
OCCO	-7629
OCCU	-7630
OCKE	-7631
OKPD	-7632
OLES	-7633
OYED	-7634
OffL	-7635
OldP	-7636
PNCh	-7637
PduS	-7638
SHAF	-7639
SILK	-7640
Slug	-7641
UNMA	-7642
UNSE	-7643
XMPP	-7644
XmlP	-7645
]{1,	-7646
_16,	-7647
_4);	-7648
dVmB	-7649
hIfN	-7650
kIdC	-7651
lArg	-7652
mBlu	-7653
rEqu	-7654
rKwh	-7655
rlAl	-7656
rldM	-7657
rmPl	-7658
ughu	-7659
ullL	-7660
wClu	-7661
{");	-7662
▁"),	-7663
▁"+"	-7664
▁"23	-7665
▁"],	-7666
▁"{"	-7667
▁((_	-7668
▁21;	-7669
▁41;	-7670
▁435	-7671
▁45,	-7672
▁84.	-7673
▁90,	-7674
▁90;	-7675
▁<<=	-7676
▁ALG	-7677
▁BIG	-7678
▁CAP	-7679
▁ECK	-7680
▁EPl	-7681
▁FXE	-7682
▁IID	-7683
▁IPU	-7684
▁ISB	-7685
▁MAS	-7686
▁MIX	-7687
▁ODS	-7688
▁PAY	-7689
▁PgO	-7690
▁SUP	-7691
▁SVN	-7692
▁WAI	-7693
▁flu	-7694
▁wOu	-7695
匹配内容	-7696
("0.0	-7697
("[3,	-7698
('.',	-7699
(12),	-7700
(204,	-7701
(60);	-7702
(8));	-7703
);");	-7704
-01",	-7705
/**",	-7706
0003;	-7707
0005;	-7708
0020;	-7709
03001	-7710
04001	-7711
05001	-7712
07001	-7713
11");	-7714
15926	-7715
20");	-7716
23:59	-7717
37418	-7718
64())	-7719
6537.	-7720
70000	-7721
89793	-7722
>[][]	-7723
AllCh	-7724
BASIC	-7725
BLANK	-7726
ECINS	-7727
ENEMA	-7728
FMLOu	-7729
FullD	-7730
GENIC	-7731
GHIJK	-7732
IMINA	-7733
INJEC	-7734
INJSP	-7735
JPAOD	-7736
MYSQL	-7737
NAGED	-7738
NDArr	-7739
OMOUS	-7740
ONMEN	-7741
OUNDS	-7742
SCALA	-7743
SILEN	-7744
UMINJ	-7745
[12];	-7746
[1]).	-7747
\"/>\	-7748
\"}";	-7749
_7884	-7750
dPlug	-7751
gNull	-7752
hPlug	-7753
mumFr	-7754
rGuru	-7755
rmOfW	-7756
uldPr	-7757
▁"}}\	-7758
▁'9')	-7759
▁0]],	-7760
▁1)).	-7761
▁1.0\	-7762
▁15.6	-7763
▁2.0\	-7764
▁21);	-7765
▁22);	-7766
▁2]],	-7767
▁7));	-7768
▁BLUE	-7769
▁BODY	-7770
▁DOMS	-7771
▁GMSM	-7772
▁HEAD	-7773
▁ICON	-7774
▁IMXC	-7775
▁MENU	-7776
▁NIKO	-7777
▁SEND	-7778
▁SSHK	-7779
▁SqlA	-7780
▁VMDK	-7781
▁mCur	-7782
('}');	-7783
(10)).	-7784
(16));	-7785
++]));	-7786
00"));	-7787
00000;	-7788
16());	-7789
37:19.	-7790
ACHINJ	-7791
ACHINS	-7792
AMAZON	-7793
CAPACI	-7794
CFAEdg	-7795
CHOOSE	-7796
DBCSQL	-7797
EVIOUS	-7798
FIELDS	-7799
PLAYED	-7800
SUGGES	-7801
WOODEN	-7802
YNAMIC	-7803
_19627	-7804
kPulld	-7805
lArgum	-7806
rmGUID	-7807
▁"!");	-7808
▁"2");	-7809
▁":");	-7810
▁">");	-7811
▁"\",\	-7812
▁0.0).	-7813
▁00:00	-7814
▁2000;	-7815
▁ANGLE	-7816
▁JSONP	-7817
▁SUBSC	-7818
▁fdAdd	-7819
('\'');	-7820
172.16.	-7821
699997,	-7822
7.0.0.1	-7823
DUPLICA	-7824
EMSOUND	-7825
HANDSHA	-7826
INVOKES	-7827
SIGNING	-7828
_1_0_0.	-7829
_2_0_0.	-7830
▁"123",	-7831
15926535	-7832
2007_05.	-7833
23:59:59	-7834
?,?,?,?,	-7835
EMBEDDED	-7836
MMddHHmm	-7837
MODIFICA	-7838
_123--";	-7839
▁LOADING	-7840
▁NIKOLAS	-7841
▁PACKAGE	-7842
▁mCurrXf	-7843
("2006-02	-7844
******");	-7845
00000004)	-7846
ASCENDING	-7847
CANCELLED	-7848
DBCSQLDBC	-7849
▁"2018-03	-7850
▁ELLIPSIS	-7851
00000002);	-7852
AMANIOFILA	-7853
▁NAMESPACE	-7854
▁\001(\0132	-7855
("2016-10-12	-7856
1592653589793	-7857
&*	-7858
)|	-7859
+)	-7860
0-	-7861
4"	-7862
:[	-7863
EH	-7864
GW	-7865
Jr	-7866
KA	-7867
MN	-7868
MW	-7869
OJ	-7870
QA	-7871
QC	-7872
_(	-7873
_:	-7874
fB	-7875
}|	-7876
ÃO	-7877
ая	-7878
ки	-7879
▁з	-7880
下载	-7881
启动	-7882
字段	-7883
实体	-7884
接收	-7885
支付	-7886
检查	-7887
渠道	-7888
病例	-7889
贼嗨	-7890
进入	-7891
选择	-7892
重新	-7893
,",	-7894
/")	-7895
/*/	-7896
0";	-7897
1")	-7898
12:	-7899
147	-7900
15,	-7901
21_	-7902
22;	-7903
23,	-7904
24_	-7905
2="	-7906
32:	-7907
35,	-7908
50,	-7909
514	-7910
62,	-7911
68,	-7912
784	-7913
8()	-7914
:";	-7915
=?,	-7916
BUF	-7917
Crd	-7918
DIM	-7919
ECB	-7920
ELS	-7921
EWA	-7922
FSD	-7923
FSu	-7924
GQO	-7925
IBL	-7926
IIm	-7927
IdL	-7928
IfI	-7929
JDK	-7930
LAV	-7931
MLE	-7932
MMM	-7933
NLS	-7934
PDU	-7935
POD	-7936
Pkg	-7937
QDN	-7938
Qml	-7939
SVN	-7940
UIU	-7941
VDS	-7942
VMP	-7943
ZEN	-7944
\2\	-7945
dEd	-7946
dJW	-7947
dlm	-7948
duq	-7949
ffB	-7950
fgh	-7951
gdd	-7952
gmf	-7953
hBu	-7954
hCM	-7955
hFu	-7956
hur	-7957
kdr	-7958
ldE	-7959
lfP	-7960
lkO	-7961
lrL	-7962
mAl	-7963
mPu	-7964
mWr	-7965
mdS	-7966
mff	-7967
mml	-7968
mur	-7969
rAf	-7970
rFk	-7971
rSq	-7972
rlS	-7973
wHL	-7974
}</	-7975
аяв	-7976
▁!_	-7977
▁'<	-7978
▁'=	-7979
▁'?	-7980
▁(3	-7981
▁-6	-7982
▁.3	-7983
▁EE	-7984
▁EF	-7985
▁HM	-7986
▁Hl	-7987
▁Jf	-7988
▁LY	-7989
▁MV	-7990
▁PH	-7991
▁PI	-7992
▁SL	-7993
▁Vl	-7994
▁YY	-7995
▁['	-7996
▁\\	-7997
▁gg	-7998
▁hS	-7999
▁hf	-8000
▁kg	-8001
▁kh	-8002
▁ml	-8003
();\	-8004
(11)	-8005
(42.	-8006
.*",	-8007
0").	-8008
0.0,	-8009
0200	-8010
0305	-8011
13",	-8012
2++;	-8013
2.2.	-8014
2.5,	-8015
2546	-8016
2}",	-8017
3"),	-8018
3306	-8019
384.	-8020
4();	-8021
45).	-8022
56);	-8023
:{},	-8024
="))	-8025
ALLY	-8026
ArgC	-8027
BILL	-8028
BOND	-8029
BlkO	-8030
DASH	-8031
DESK	-8032
DIAL	-8033
ENVI	-8034
GLFW	-8035
HWES	-8036
INUE	-8037
ISBN	-8038
IdFr	-8039
IdNu	-8040
ImgC	-8041
JMXP	-8042
LENE	-8043
MACH	-8044
MION	-8045
MISS	-8046
NumL	-8047
VSPl	-8048
[6],	-8049
_202	-8050
__("	-8051
dIDS	-8052
fulI	-8053
hAlg	-8054
hArr	-8055
lClu	-8056
lDum	-8057
lkCl	-8058
llGh	-8059
lmFl	-8060
lurM	-8061
mAEL	-8062
mArr	-8063
rIOC	-8064
rdID	-8065
rldE	-8066
rrWr	-8067
▁"1"	-8068
▁"1,	-8069
▁$$$	-8070
▁').	-8071
▁'-'	-8072
▁'1'	-8073
▁.5;	-8074
▁103	-8075
▁11)	-8076
▁13:	-8077
▁199	-8078
▁1]"	-8079
▁213	-8080
▁325	-8081
▁36,	-8082
▁3])	-8083
▁40)	-8084
▁44.	-8085
▁54,	-8086
▁57,	-8087
▁58,	-8088
▁89,	-8089
▁96,	-8090
▁Bud	-8091
▁COO	-8092
▁DSL	-8093
▁Dum	-8094
▁EXC	-8095
▁FAM	-8096
▁Hum	-8097
▁Idl	-8098
▁JDA	-8099
▁KMS	-8100
▁MID	-8101
▁MUS	-8102
▁Odf	-8103
▁PNS	-8104
▁SVG	-8105
▁Sud	-8106
▁WES	-8107
▁XPD	-8108
▁dfl	-8109
▁fEm	-8110
▁mSm	-8111
▁rlI	-8112
▁{}:	-8113
今天贼嗨	-8114
定时任务	-8115
'][1]	-8116
("%.2	-8117
("/")	-8118
("001	-8119
("1.0	-8120
('/',	-8121
(1)),	-8122
(16),	-8123
(201,	-8124
(4)).	-8125
/*");	-8126
04002	-8127
05002	-8128
07002	-8129
08002	-8130
1")),	-8131
1)");	-8132
1110.	-8133
8());	-8134
:1234	-8135
=*");	-8136
ABAND	-8137
AGAIN	-8138
AMOUN	-8139
AddGr	-8140
BlkCl	-8141
DABLE	-8142
EGULA	-8143
INVEN	-8144
LOADE	-8145
MIXED	-8146
MODID	-8147
NINGS	-8148
SHALL	-8149
SUMMA	-8150
SYNCH	-8151
VENDO	-8152
\001\	-8153
_1474	-8154
_1806	-8155
_2_0.	-8156
dAggr	-8157
fulAu	-8158
gPlug	-8159
hIfEm	-8160
lBuff	-8161
llAlg	-8162
llPul	-8163
mrkdw	-8164
rBufC	-8165
rCurr	-8166
rNull	-8167
rkEff	-8168
udAPI	-8169
ullWh	-8170
▁(0.5	-8171
▁-0.5	-8172
▁0.1;	-8173
▁0.25	-8174
▁0.8;	-8175
▁1.0)	-8176
▁1.5,	-8177
▁18);	-8178
▁2.0"	-8179
▁2000	-8180
▁3.0\	-8181
▁4");	-8182
▁500,	-8183
▁5]",	-8184
▁64);	-8185
▁:");	-8186
▁ANNO	-8187
▁AllI	-8188
▁BINA	-8189
▁EXAC	-8190
▁GBMP	-8191
▁LIGH	-8192
▁OPEN	-8193
▁PANE	-8194
▁PKCS	-8195
▁SINK	-8196
▁WAYS	-8197
▁hCur	-8198
▁})).	-8199
("*");	-8200
("----	-8201
("2");	-8202
(";");	-8203
('=');	-8204
(2019,	-8205
010102	-8206
4")));	-8207
CHECKS	-8208
DEPOSI	-8209
DFSClu	-8210
ESOLVE	-8211
HIDDEN	-8212
INLINE	-8213
LEAVED	-8214
OCESSO	-8215
SYNONY	-8216
[0-9]+	-8217
hPlugg	-8218
udSQLP	-8219
▁"/{2}	-8220
▁65535	-8221
▁BUCKE	-8222
▁CALLS	-8223
▁LAYOU	-8224
▁LYCAN	-8225
▁PlugN	-8226
▁Plugg	-8227
1972())	-8228
8083014	-8229
899998,	-8230
900002,	-8231
ABANDON	-8232
IBLINGS	-8233
INBOUND	-8234
_8)))).	-8235
▁"30329	-8236
▁1000),	-8237
▁1000).	-8238
▁MILLIS	-8239
▁SUBJEC	-8240
▁mAllSu	-8241
("123");	-8242
0\2\1\1\	-8243
201406",	-8244
AAAAAAAA	-8245
ADECIMAL	-8246
FALLBACK	-8247
KEYSPACE	-8248
▁WINDOWS	-8249
16:37:19.	-8250
SAMENAMES	-8251
SELECCION	-8252
▁VENOMOUS	-8253
UNASSIGNED	-8254
▁\001(\003	-8255
--------");	-8256
>>>>>>>>>>>	-8257
SYSCONGLOME	-8258
("127.0.0.1",	-8259
(">>>>>>>>>>>>	-8260
▁"2018-03-01",	-8261
SAMENAMESIBLINGS	-8262
&#	-8263
,%	-8264
,'	-8265
5}	-8266
:.	-8267
<_	-8268
JF	-8269
KS	-8270
Nr	-8271
Od	-8272
PQ	-8273
Pg	-8274
VB	-8275
YO	-8276
[-	-8277
zN	-8278
}:	-8279
ди	-8280
от	-8281
▁в	-8282
▁н	-8283
▁п	-8284
って	-8285
ない	-8286
もの	-8287
不符	-8288
列表	-8289
取消	-8290
图片	-8291
岩波	-8292
所有	-8293
执行	-8294
报警	-8295
数组	-8296
维修	-8297
路径	-8298
项目	-8299
('{	-8300
.1.	-8301
1".	-8302
12)	-8303
128	-8304
172	-8305
191	-8306
19;	-8307
1="	-8308
20_	-8309
355	-8310
39:	-8311
528	-8312
555	-8313
61,	-8314
66,	-8315
777	-8316
80)	-8317
994	-8318
:12	-8319
=\\	-8320
AVL	-8321
Arq	-8322
BLK	-8323
BQI	-8324
Bdd	-8325
CFG	-8326
CLF	-8327
Cdm	-8328
Clm	-8329
DBN	-8330
DCG	-8331
DON	-8332
FFL	-8333
FLE	-8334
FSM	-8335
FUN	-8336
GAL	-8337
GBM	-8338
HSL	-8339
INP	-8340
ISM	-8341
IdF	-8342
IfD	-8343
JQL	-8344
JSl	-8345
LOO	-8346
MEG	-8347
MLC	-8348
MUI	-8349
NIC	-8350
ODA	-8351
SPL	-8352
Srd	-8353
UDF	-8354
UDO	-8355
UIA	-8356
VAN	-8357
VFS	-8358
VmO	-8359
YPr	-8360
[0,	-8361
],\	-8362
_2,	-8363
_2;	-8364
_32	-8365
dDl	-8366
dSB	-8367
dVC	-8368
dXC	-8369
dkI	-8370
dmf	-8371
duS	-8372
ffE	-8373
gAu	-8374
gdg	-8375
glM	-8376
hmS	-8377
kGl	-8378
lPh	-8379
lfl	-8380
llX	-8381
lrF	-8382
mFu	-8383
mVm	-8384
mdE	-8385
mfm	-8386
mrS	-8387
rSk	-8388
rkm	-8389
rrB	-8390
uAd	-8391
urk	-8392
wID	-8393
wPh	-8394
wWr	-8395
zml	-8396
ÇÃO	-8397
▁#"	-8398
▁$%	-8399
▁1"	-8400
▁4.	-8401
▁48	-8402
▁="	-8403
▁IZ	-8404
▁MD	-8405
▁PW	-8406
▁Xl	-8407
▁_7	-8408
▁`%	-8409
▁dg	-8410
▁qr	-8411
▁zm	-8412
客户端	-8413
#");	-8414
''",	-8415
')";	-8416
'.",	-8417
("/?	-8418
()][	-8419
(23,	-8420
(24,	-8421
(26,	-8422
(34.	-8423
(35.	-8424
(41.	-8425
(46.	-8426
(48,	-8427
(64,	-8428
(7).	-8429
(90,	-8430
(99,	-8431
)").	-8432
))",	-8433
-12-	-8434
-435	-8435
/"))	-8436
0003	-8437
0013	-8438
1056	-8439
1418	-8440
16\"	-8441
2049	-8442
208.	-8443
3(),	-8444
32()	-8445
587.	-8446
6\0\	-8447
6]);	-8448
ADON	-8449
AddF	-8450
AllK	-8451
ArgA	-8452
ArmP	-8453
BErr	-8454
CONJ	-8455
COOK	-8456
COPY	-8457
Fuzz	-8458
GLES	-8459
GLOB	-8460
HDAY	-8461
HMAC	-8462
IDES	-8463
MONO	-8464
NumA	-8465
OBGr	-8466
ONCH	-8467
OPHA	-8468
OfOu	-8469
OldB	-8470
PICK	-8471
PMEN	-8472
SOME	-8473
SUBL	-8474
SUSP	-8475
ULIP	-8476
UMEN	-8477
VISO	-8478
WAFE	-8479
XMLM	-8480
YYYY	-8481
[100	-8482
[]>(	-8483
\000	-8484
_0_.	-8485
_3()	-8486
dEqu	-8487
duId	-8488
dulu	-8489
glSh	-8490
lAlM	-8491
lBlu	-8492
lBur	-8493
lIgu	-8494
ldAd	-8495
llQu	-8496
rDur	-8497
rMgr	-8498
rPlu	-8499
rdlu	-8500
rumS	-8501
uffW	-8502
uldP	-8503
umCl	-8504
zuul	-8505
|');	-8506
▁",\	-8507
▁"/?	-8508
▁"2.	-8509
▁"__	-8510
▁1,"	-8511
▁14:	-8512
▁19;	-8513
▁300	-8514
▁36.	-8515
▁43,	-8516
▁56.	-8517
▁62,	-8518
▁63,	-8519
▁72.	-8520
▁86.	-8521
▁Adl	-8522
▁BAD	-8523
▁BCr	-8524
▁BDD	-8525
▁CAL	-8526
▁CHO	-8527
▁CKM	-8528
▁CLO	-8529
▁COS	-8530
▁CPU	-8531
▁DEK	-8532
▁DEP	-8533
▁DIV	-8534
▁EVE	-8535
▁FOL	-8536
▁GBM	-8537
▁GEO	-8538
▁GOu	-8539
▁INV	-8540
▁ISh	-8541
▁IdC	-8542
▁JAX	-8543
▁LdA	-8544
▁MDC	-8545
▁OSC	-8546
▁Omm	-8547
▁PIN	-8548
▁PNC	-8549
▁QMU	-8550
▁SEP	-8551
▁SMS	-8552
▁SYN	-8553
▁Shr	-8554
▁Squ	-8555
▁UDP	-8556
▁WHI	-8557
▁ZKH	-8558
▁\"*	-8559
▁___	-8560
▁fgD	-8561
▁mUr	-8562
岩波文庫	-8563
!!");	-8564
("#00	-8565
(",")	-8566
("6",	-8567
("===	-8568
(22);	-8569
(3)).	-8570
)).//	-8571
0123.	-8572
08012	-8573
14");	-8574
3306/	-8575
43235	-8576
6250.	-8577
8"));	-8578
>(3);	-8579
ALIVE	-8580
AMOND	-8581
ANSPO	-8582
BELOW	-8583
BLEND	-8584
BOBOX	-8585
CLOCK	-8586
CODEC	-8587
CONCA	-8588
Cumul	-8589
DNNOr	-8590
EDICA	-8591
EFFEC	-8592
ELVEN	-8593
EMALE	-8594
EPLIC	-8595
HOLDE	-8596
IANAL	-8597
INEAL	-8598
ININS	-8599
LEDGE	-8600
NullS	-8601
SALES	-8602
SOLVE	-8603
SUBMI	-8604
SUBOP	-8605
VIEWS	-8606
[10];	-8607
[16];	-8608
[]>>.	-8609
\"></	-8610
\0\1\	-8611
kPINP	-8612
mAddB	-8613
rkACL	-8614
umOfP	-8615
▁"!",	-8616
▁"200	-8617
▁"5",	-8618
▁"\"\	-8619
▁'1')	-8620
▁'163	-8621
▁(1.0	-8622
▁-12.	-8623
▁120,	-8624
▁192,	-8625
▁2)).	-8626
▁32).	-8627
▁32.0	-8628
▁42);	-8629
▁5");	-8630
▁771,	-8631
▁998.	-8632
▁AEMH	-8633
▁AESK	-8634
▁BEAN	-8635
▁Bull	-8636
▁FSMI	-8637
▁FULL	-8638
▁JBBP	-8639
▁LINK	-8640
▁POWE	-8641
▁SKIP	-8642
("-");	-8643
("8");	-8644
('[');	-8645
(-2)).	-8646
(0.5);	-8647
(123),	-8648
(2014,	-8649
(2016,	-8650
(2017,	-8651
(4)));	-8652
-1.0-2	-8653
-43532	-8654
1404()	-8655
2.3,4.	-8656
2546()	-8657
ACKNOW	-8658
COMMON	-8659
COOKIE	-8660
LEAVES	-8661
MEGABY	-8662
NEEDED	-8663
OrmXml	-8664
PECIAL	-8665
PSEUDO	-8666
SAMPLE	-8667
SCOPES	-8668
SqlgGr	-8669
\")");	-8670
_000);	-8671
lrZkCl	-8672
uffPhr	-8673
umBuff	-8674
▁"*");	-8675
▁'.');	-8676
▁'/');	-8677
▁1003.	-8678
▁1009.	-8679
▁2.0);	-8680
▁30));	-8681
▁ALLOW	-8682
▁APNSV	-8683
▁BLOCK	-8684
▁CANCE	-8685
▁COLUM	-8686
▁COMPU	-8687
▁ICONS	-8688
▁MEMBE	-8689
▁QUEUE	-8690
▁SUPPO	-8691
▁XSSFW	-8692
▁mPlug	-8693
▁{})",	-8694
批量删除财务	-8695
("10111	-8696
("123",	-8697
("200",	-8698
(1403).	-8699
(2545).	-8700
0101012	-8701
199997,	-8702
3741824	-8703
69995);	-8704
899994,	-8705
<?>>();	-8706
=\"16\"	-8707
ANCHISE	-8708
EPLICAS	-8709
ESOLVED	-8710
HALFFIL	-8711
MACHINE	-8712
MANAGED	-8713
OLLBACK	-8714
\022\03	-8715
_199234	-8716
_230013	-8717
dYIDAPr	-8718
rkIDArr	-8719
▁","));	-8720
▁"1.0.0	-8721
▁180.0)	-8722
▁2000);	-8723
▁3000);	-8724
▁CHANGE	-8725
▁DAMAGE	-8726
▁DECODE	-8727
▁ENCODE	-8728
▁JPAIll	-8729
▁SqlgGr	-8730
/07/2020	-8731
08080808	-8732
19630409	-8733
COMBOBOX	-8734
VISIBILI	-8735
XmlPullP	-8736
\")."));	-8737
_1048576	-8738
▁ENDPOIN	-8739
▁MINIMUM	-8740
▁MISSING	-8741
▁PADDING	-8742
'][1]//*[	-8743
("2011-04	-8744
ASSIGNMEN	-8745
KHACHHANG	-8746
MANAGEMEN	-8747
▁1611))).	-8748
SUCCESSFUL	-8749
[][][][][]	-8750
ACKNOWLEDGE	-8751
PSEUDOCLASS	-8752
("2015-02-02	-8753
("2016-10-15	-8754
000000000000	-8755
16:37:19.192	-8756
▁"30/07/2020	-8757
MFEEDBACKBUFFE	-8758
%5	-8759
1+	-8760
2@	-8761
5<	-8762
6'	-8763
61	-8764
8\	-8765
:9	-8766
=$	-8767
??	-8768
@!	-8769
FG	-8770
LH	-8771
Wg	-8772
XG	-8773
XJ	-8774
Xd	-8775
ZM	-8776
_/	-8777
こと	-8778
され	-8779
ます	-8780
发送	-8781
支持	-8782
无法	-8783
记录	-8784
身份	-8785
%20	-8786
("}	-8787
('>	-8788
('?	-8789
('@	-8790
()\	-8791
(.*	-8792
(42	-8793
([^	-8794
),\	-8795
//@	-8796
00_	-8797
011	-8798
04,	-8799
051	-8800
06,	-8801
12/	-8802
129	-8803
14,	-8804
15.	-8805
150	-8806
16(	-8807
17,	-8808
1],	-8809
1_9	-8810
24.	-8811
24:	-8812
264	-8813
2>\	-8814
340	-8815
378	-8816
386	-8817
388	-8818
389	-8819
391	-8820
3])	-8821
420	-8822
5.0	-8823
597	-8824
65,	-8825
678	-8826
83.	-8827
876	-8828
961	-8829
:11	-8830
:17	-8831
=")	-8832
=[%	-8833
AAA	-8834
ADJ	-8835
AdM	-8836
Alu	-8837
BLP	-8838
BNO	-8839
BUI	-8840
CLI	-8841
CLU	-8842
COU	-8843
CPF	-8844
DBI	-8845
DIO	-8846
DIP	-8847
DOO	-8848
ECH	-8849
ELU	-8850
FID	-8851
FMD	-8852
GBK	-8853
HIE	-8854
ILA	-8855
IPS	-8856
ISw	-8857
IdH	-8858
IfS	-8859
JIS	-8860
JWS	-8861
LPD	-8862
Ldr	-8863
MIG	-8864
MSN	-8865
MYK	-8866
Mgm	-8867
OCU	-8868
OSS	-8869
OfF	-8870
OrA	-8871
POU	-8872
QMU	-8873
SEQ	-8874
Udf	-8875
VIE	-8876
VmA	-8877
Vuf	-8878
XXX	-8879
ZkI	-8880
\""	-8881
]\\	-8882
]];	-8883
`",	-8884
dfA	-8885
dmr	-8886
ffd	-8887
hIO	-8888
hSh	-8889
hWh	-8890
hgr	-8891
kgF	-8892
ldG	-8893
ldU	-8894
lkS	-8895
llg	-8896
llm	-8897
mMD	-8898
mgD	-8899
mgl	-8900
rfA	-8901
rmJ	-8902
rug	-8903
uAl	-8904
uAr	-8905
umV	-8906
{3}	-8907
▁6]	-8908
▁7.	-8909
▁CY	-8910
▁ED	-8911
▁FM	-8912
▁NC	-8913
▁QB	-8914
▁UM	-8915
▁VH	-8916
▁Wm	-8917
▁XD	-8918
▁[-	-8919
▁mg	-8920
▁rS	-8921
▁{&	-8922
である	-8923
的中断	-8924
");\	-8925
("..	-8926
(29.	-8927
(37.	-8928
(45,	-8929
(\""	-8930
--->	-8931
-05.	-8932
-256	-8933
.0";	-8934
0)",	-8935
03",	-8936
1005	-8937
14",	-8938
154,	-8939
16()	-8940
1999	-8941
20",	-8942
256;	-8943
32);	-8944
6").	-8945
64",	-8946
75);	-8947
>"),	-8948
APIV	-8949
AQUA	-8950
AdGr	-8951
AddN	-8952
AllV	-8953
BBLE	-8954
CAMB	-8955
CHEC	-8956
COPE	-8957
DEBI	-8958
DOMA	-8959
DUAL	-8960
DUMP	-8961
DdlS	-8962
ELLE	-8963
EPEA	-8964
HIVE	-8965
ICAS	-8966
IENE	-8967
IEVE	-8968
IMXC	-8969
IVAL	-8970
IdCl	-8971
JSEL	-8972
LEAF	-8973
MINI	-8974
ONAS	-8975
OfGl	-8976
OrAm	-8977
PCCh	-8978
POLY	-8979
WALL	-8980
XMLC	-8981
XmlU	-8982
[409	-8983
[5].	-8984
\013	-8985
\014	-8986
\016	-8987
\017	-8988
_");	-8989
_0);	-8990
_0_8	-8991
_188	-8992
_1_1	-8993
_225	-8994
_5()	-8995
_888	-8996
glCl	-8997
glCr	-8998
hCmd	-8999
hQLS	-9000
hugh	-9001
lfEm	-9002
lfPr	-9003
llSk	-9004
llSl	-9005
mIdB	-9006
qMAP	-9007
rJug	-9008
rPdf	-9009
rful	-9010
rmOr	-9011
ulCl	-9012
uldA	-9013
umDr	-9014
urCC	-9015
|");	-9016
}"),	-9017
})",	-9018
▁"[]	-9019
▁%.0	-9020
▁***	-9021
▁---	-9022
▁-1.	-9023
▁12.	-9024
▁124	-9025
▁128	-9026
▁17.	-9027
▁21)	-9028
▁30.	-9029
▁44,	-9030
▁47,	-9031
▁48,	-9032
▁52,	-9033
▁53;	-9034
▁78,	-9035
▁79.	-9036
▁80.	-9037
▁82.	-9038
▁90.	-9039
▁==:	-9040
▁>>=	-9041
▁ANY	-9042
▁BOX	-9043
▁BQI	-9044
▁EXP	-9045
▁FAS	-9046
▁ICh	-9047
▁JID	-9048
▁JOB	-9049
▁MUC	-9050
▁NGr	-9051
▁OLE	-9052
▁OMO	-9053
▁POL	-9054
▁SAM	-9055
▁lru	-9056
▁mAu	-9057
▁{}/	-9058
不能为空	-9059
报警设置	-9060
("#")	-9061
("%02	-9062
(4000	-9063
(\"/_	-9064
.3");	-9065
._2_0	-9066
//@*[	-9067
0006;	-9068
0007;	-9069
02");	-9070
08011	-9071
1());	-9072
10").	-9073
2")),	-9074
2());	-9075
20000	-9076
47\1\	-9077
48364	-9078
60000	-9079
:30",	-9080
:4567	-9081
=?;";	-9082
ACCES	-9083
ACHED	-9084
ACONS	-9085
APACE	-9086
AllBu	-9087
BYUSE	-9088
BulkL	-9089
CHUNK	-9090
DEKId	-9091
DIMEN	-9092
ECOVE	-9093
EPLAY	-9094
FINDE	-9095
HOULD	-9096
ICONS	-9097
ILLED	-9098
MEASU	-9099
NABLE	-9100
NumCh	-9101
PONDE	-9102
SBMLC	-9103
SKULL	-9104
SONAL	-9105
USPEC	-9106
[1]),	-9107
][0];	-9108
dOrCr	-9109
hAggr	-9110
hdrFl	-9111
kFQDN	-9112
llIQL	-9113
rAggr	-9114
rdEdg	-9115
rgMul	-9116
rkUrl	-9117
umOfW	-9118
urImg	-9119
wXmlC	-9120
▁".",	-9121
▁(100	-9122
▁0.85	-9123
▁1)))	-9124
▁10))	-9125
▁128)	-9126
▁8");	-9127
▁GPIO	-9128
▁HALF	-9129
▁HAVE	-9130
▁KEYS	-9131
▁LESS	-9132
▁MAPH	-9133
▁OCLF	-9134
▁UNSE	-9135
▁UrlE	-9136
▁WEAK	-9137
的中断状态	-9138
(']');	-9139
('|');	-9140
(1.5).	-9141
(100),	-9142
(2.0).	-9143
(300);	-9144
/2001/	-9145
10"));	-9146
3\1\1\	-9147
4_128_	-9148
FEMALE	-9149
INSIDE	-9150
LABELS	-9151
ONICAL	-9152
SIGNAL	-9153
VELOCI	-9154
[100];	-9155
▁"")).	-9156
▁"-");	-9157
▁'\\')	-9158
▁0.5);	-9159
▁360.0	-9160
▁CONFI	-9161
▁MANDA	-9162
▁OBDAS	-9163
▁SCALE	-9164
▁SQLSE	-9165
▁WHEEL	-9166
▁mBuff	-9167
▁{}:{}	-9168
("-1"))	-9169
()[1]);	-9170
(213169	-9171
(300000	-9172
2._2_0.	-9173
2007_05	-9174
299995,	-9175
800003,	-9176
99994);	-9177
9999999	-9178
CAMBIOS	-9179
DISPOSE	-9180
DOMAINS	-9181
EAKABLE	-9182
ELIMINA	-9183
EVALSOU	-9184
EXCLUDE	-9185
FUSIONS	-9186
GuruMgr	-9187
NullErr	-9188
OCESSED	-9189
OFFLINE	-9190
UNBOUND	-9191
▁"30104	-9192
▁25)));	-9193
▁5000);	-9194
▁65535)	-9195
▁CHOOSE	-9196
▁SHOULD	-9197
CHECKBOX	-9198
CHECKING	-9199
LOCKABLE	-9200
YPEACCES	-9201
\030\003	-9202
▁[{}].",	-9203
DISCONNEC	-9204
▁CANCELED	-9205
00000004);	-9206
HEXADECIMAL	-9207
▁2018083014	-9208
▁SPECIALIZA	-9209
("2016-10-13	-9210
!"	-9211
$"	-9212
)+	-9213
)/	-9214
+-	-9215
>{	-9216
BQ	-9217
EO	-9218
Gz	-9219
HU	-9220
Jd	-9221
KG	-9222
Kw	-9223
VY	-9224
YC	-9225
YE	-9226
Zh	-9227
]:	-9228
]<	-9229
hQ	-9230
qS	-9231
rQ	-9232
zP	-9233
|\	-9234
ка	-9235
ра	-9236
ру	-9237
▁и	-9238
▁с	-9239
その	-9240
なる	-9241
ージ	-9242
価値	-9243
入参	-9244
刷新	-9245
发生	-9246
古典	-9247
导出	-9248
开启	-9249
搜索	-9250
正确	-9251
结束	-9252
联系	-9253
页面	-9254
!--	-9255
'";	-9256
(!@	-9257
(23	-9258
),"	-9259
).\	-9260
*";	-9261
-10	-9262
-1:	-9263
-2.	-9264
.</	-9265
05,	-9266
1("	-9267
1->	-9268
11"	-9269
120	-9270
13,	-9271
139	-9272
145	-9273
14:	-9274
167	-9275
184	-9276
212	-9277
217	-9278
21;	-9279
22_	-9280
23.	-9281
26.	-9282
276	-9283
2<@	-9284
32>	-9285
688	-9286
81,	-9287
818	-9288
865	-9289
95.	-9290
96,	-9291
:")	-9292
:</	-9293
:\"	-9294
>>,	-9295
?\\	-9296
ADU	-9297
AZU	-9298
BOU	-9299
Dlg	-9300
EBY	-9301
EEE	-9302
EIN	-9303
ENO	-9304
EXE	-9305
Egg	-9306
GEA	-9307
Hql	-9308
IFl	-9309
III	-9310
INZ	-9311
IOP	-9312
IPl	-9313
ISK	-9314
JPY	-9315
KNN	-9316
MOr	-9317
MPA	-9318
NEA	-9319
ODL	-9320
OFL	-9321
OMY	-9322
OPA	-9323
PIG	-9324
SAM	-9325
SIA	-9326
UBE	-9327
UVW	-9328
VkM	-9329
VmV	-9330
Vmr	-9331
XAE	-9332
[3,	-9333
[64	-9334
\32	-9335
^2|	-9336
^3|	-9337
_02	-9338
_05	-9339
_4.	-9340
dlV	-9341
duE	-9342
duG	-9343
ffD	-9344
fgD	-9345
fud	-9346
gBl	-9347
gDB	-9348
kAh	-9349
klm	-9350
kul	-9351
lSl	-9352
ldh	-9353
ldm	-9354
ldw	-9355
mES	-9356
mPl	-9357
qlP	-9358
rCL	-9359
rEA	-9360
rGl	-9361
rIP	-9362
rJS	-9363
rdK	-9364
rff	-9365
rmG	-9366
uCl	-9367
ugm	-9368
urL	-9369
wAl	-9370
{0}	-9371
}],	-9372
▁"=	-9373
▁$"	-9374
▁%=	-9375
▁-7	-9376
▁."	-9377
▁33	-9378
▁44	-9379
▁6.	-9380
▁DP	-9381
▁EB	-9382
▁Eg	-9383
▁GH	-9384
▁HS	-9385
▁Md	-9386
▁NA	-9387
▁OL	-9388
▁SB	-9389
▁SD	-9390
▁Sr	-9391
▁Ug	-9392
▁XL	-9393
▁[2	-9394
▁gd	-9395
▁rC	-9396
▁zC	-9397
未登录	-9398
的価値	-9399
线程数	-9400
("#{	-9401
()):	-9402
(12.	-9403
(17,	-9404
(203	-9405
(54.	-9406
(76,	-9407
(808	-9408
(9),	-9409
**",	-9410
.0).	-9411
0();	-9412
02",	-9413
02()	-9414
0302	-9415
0416	-9416
08",	-9417
0948	-9418
1586	-9419
1755	-9420
180;	-9421
1\2\	-9422
2019	-9423
2213	-9424
256,	-9425
360.	-9426
8\0\	-9427
9000	-9428
=\"2	-9429
>10]	-9430
AMMA	-9431
ANIC	-9432
APAN	-9433
APIS	-9434
AVEN	-9435
AWSC	-9436
BBAd	-9437
BufS	-9438
CASH	-9439
CAVE	-9440
DENY	-9441
DHUw	-9442
DIAG	-9443
EMPL	-9444
ENCH	-9445
EVIC	-9446
GEAL	-9447
HELP	-9448
ICKE	-9449
INVE	-9450
IVES	-9451
KVMH	-9452
LADO	-9453
LEEP	-9454
LHIS	-9455
LIES	-9456
MALE	-9457
MANS	-9458
MAYA	-9459
MONA	-9460
MQVw	-9461
MUDA	-9462
NEJM	-9463
NOPQ	-9464
NumD	-9465
NumS	-9466
OUGH	-9467
OfSh	-9468
OrPr	-9469
OrSh	-9470
OrgB	-9471
PLUS	-9472
POLL	-9473
SECS	-9474
SKIN	-9475
UPSE	-9476
VkPh	-9477
WHEN	-9478
WIND	-9479
XMLU	-9480
YOff	-9481
YSIS	-9482
[2][	-9483
])).	-9484
_02,	-9485
_1()	-9486
_176	-9487
_212	-9488
_7()	-9489
__()	-9490
__0_	-9491
dAlg	-9492
dDml	-9493
dFSO	-9494
dIOP	-9495
dIdS	-9496
dMAP	-9497
dPDU	-9498
dVMI	-9499
dlWr	-9500
ffNS	-9501
gFQN	-9502
kArg	-9503
lChu	-9504
llFk	-9505
llOk	-9506
llOu	-9507
llPh	-9508
llUI	-9509
mErr	-9510
mMul	-9511
mQXX	-9512
rdCl	-9513
udOr	-9514
ullB	-9515
umCr	-9516
urrm	-9517
zrAd	-9518
}}";	-9519
▁"*"	-9520
▁".*	-9521
▁"2,	-9522
▁"25	-9523
▁"3,	-9524
▁":\	-9525
▁"]"	-9526
▁"}\	-9527
▁"║"	-9528
▁':'	-9529
▁'\'	-9530
▁'_'	-9531
▁(19	-9532
▁(29	-9533
▁++_	-9534
▁-5,	-9535
▁/>\	-9536
▁20.	-9537
▁23;	-9538
▁324	-9539
▁326	-9540
▁34.	-9541
▁34:	-9542
▁4",	-9543
▁4))	-9544
▁40.	-9545
▁42.	-9546
▁43.	-9547
▁46,	-9548
▁49,	-9549
▁59;	-9550
▁70;	-9551
▁76.	-9552
▁768	-9553
▁81,	-9554
▁83.	-9555
▁ABO	-9556
▁ABS	-9557
▁ACC	-9558
▁AGE	-9559
▁CDA	-9560
▁CKA	-9561
▁EPI	-9562
▁GBA	-9563
▁GSY	-9564
▁IDU	-9565
▁IDr	-9566
▁IES	-9567
▁IFl	-9568
▁IGE	-9569
▁ISE	-9570
▁IVC	-9571
▁IVI	-9572
▁JQL	-9573
▁NHS	-9574
▁PLA	-9575
▁QNM	-9576
▁SUM	-9577
▁Shu	-9578
▁Sum	-9579
▁UIW	-9580
▁VAG	-9581
▁VIB	-9582
▁VIS	-9583
▁VmI	-9584
▁XFr	-9585
▁[1,	-9586
▁[\"	-9587
▁dlg	-9588
▁fur	-9589
▁mBl	-9590
▁mdC	-9591
▁mkd	-9592
▁qSk	-9593
▁wlY	-9594
入参实体	-9595
更新失败	-9596
查询失败	-9597
("'",	-9598
(",",	-9599
(">>>	-9600
("_",	-9601
()[0]	-9602
(0)),	-9603
(10.0	-9604
(13),	-9605
(14),	-9606
(145,	-9607
(36.2	-9608
(77);	-9609
-0000	-9610
0000:	-9611
0008;	-9612
0011;	-9613
0016;	-9614
0023;	-9615
0025;	-9616
01").	-9617
1)));	-9618
105",	-9619
1056/	-9620
125\"	-9621
20004	-9622
2016-	-9623
3)));	-9624
44");	-9625
896);	-9626
://12	-9627
='").	-9628
ACING	-9629
ADSSM	-9630
AMNIO	-9631
ASIZE	-9632
AddID	-9633
AddVm	-9634
BBuff	-9635
BuffS	-9636
CALLE	-9637
CENAS	-9638
CHALL	-9639
COBOL	-9640
COMMA	-9641
DHUWI	-9642
ECurr	-9643
EGEXP	-9644
ENDEN	-9645
ENDIS	-9646
ENUME	-9647
GENCY	-9648
ILING	-9649
INCLU	-9650
IPlug	-9651
JDBCM	-9652
JSONP	-9653
LANDS	-9654
LIPOP	-9655
MQVWI	-9656
MUSIC	-9657
NumOf	-9658
ODUCE	-9659
OPDSA	-9660
QUEDA	-9661
SINUS	-9662
SLASH	-9663
SLEEP	-9664
VmMgr	-9665
]<---	-9666
][1];	-9667
_0_8;	-9668
_10()	-9669
_16()	-9670
_1_1,	-9671
dPduE	-9672
lImgY	-9673
llXYD	-9674
mumFl	-9675
rBlIm	-9676
rWSDL	-9677
rdNum	-9678
umOfS	-9679
zkAdd	-9680
}"));	-9681
▁""))	-9682
▁">";	-9683
▁"_00	-9684
▁$%.2	-9685
▁'-')	-9686
▁'0',	-9687
▁'1',	-9688
▁'6',	-9689
▁'8',	-9690
▁'9',	-9691
▁*/",	-9692
▁101,	-9693
▁101;	-9694
▁102,	-9695
▁150;	-9696
▁2.0)	-9697
▁2005	-9698
▁3276	-9699
▁3]],	-9700
▁55.7	-9701
▁59);	-9702
▁600,	-9703
▁70);	-9704
▁80);	-9705
▁995.	-9706
▁9]",	-9707
▁BPlu	-9708
▁CCGB	-9709
▁ELEC	-9710
▁EXPO	-9711
▁GOLD	-9712
▁HEMO	-9713
▁ILES	-9714
▁IOSS	-9715
▁ISBN	-9716
▁LOWE	-9717
▁OldB	-9718
▁PDON	-9719
▁POIN	-9720
▁QAFW	-9721
▁SHOO	-9722
▁SPAN	-9723
▁SqlM	-9724
▁fdOu	-9725
▁fulf	-9726
▁заяв	-9727
")).//	-9728
("")))	-9729
("#"))	-9730
("****	-9731
("."))	-9732
("0800	-9733
("1"))	-9734
("2009	-9735
("3");	-9736
('-');	-9737
(2015,	-9738
(3000,	-9739
(5000,	-9740
160706	-9741
9999);	-9742
:3306/	-9743
=\"").	-9744
ACACIA	-9745
ACHEAL	-9746
APPEAL	-9747
AWSCDK	-9748
EDULED	-9749
ESENCE	-9750
HOADON	-9751
INCOME	-9752
INSIGH	-9753
KSPACE	-9754
LOCALE	-9755
NUMPAD	-9756
SEQUEN	-9757
SPLINE	-9758
SUFFIC	-9759
ULMONA	-9760
UNKING	-9761
UVWXYZ	-9762
YNGEAL	-9763
][1]);	-9764
_2020_	-9765
_5_3()	-9766
kDBClu	-9767
ldCurr	-9768
llFull	-9769
mArgum	-9770
▁";");	-9771
▁"_004	-9772
▁(!"".	-9773
▁(((((	-9774
▁1")).	-9775
▁100),	-9776
▁100).	-9777
▁1017.	-9778
▁2)));	-9779
▁20)),	-9780
▁3000;	-9781
▁ACCEP	-9782
▁ADMIN	-9783
▁AWSCr	-9784
▁BLACK	-9785
▁BlurM	-9786
▁CHAIN	-9787
▁COMMI	-9788
▁CONVE	-9789
▁EXCEP	-9790
▁EdmPr	-9791
▁INVEN	-9792
▁IUINJ	-9793
▁IVASC	-9794
▁IVINJ	-9795
▁NASAL	-9796
▁OPDSA	-9797
▁PullS	-9798
▁SAMLV	-9799
▁SLEEP	-9800
▁SWISH	-9801
▁XmlCh	-9802
▁{2}",	-9803
▁{}");	-9804
当前入参实体	-9805
####");	-9806
("1"));	-9807
("11101	-9808
("911",	-9809
(2848);	-9810
0000");	-9811
1000036	-9812
19995);	-9813
ENCODED	-9814
GHIJKLM	-9815
NMEGABY	-9816
OPENDIS	-9817
PUBLISH	-9818
VSADSSM	-9819
YMPANIC	-9820
_176502	-9821
_225597	-9822
rCLBuff	-9823
wSBMLQu	-9824
▁"100",	-9825
▁-10000	-9826
▁973.4,	-9827
▁CANCEL	-9828
▁COMMEN	-9829
▁GOOGLE	-9830
▁IESOPH	-9831
▁IILEAL	-9832
▁VSADSS	-9833
▁YELLOW	-9834
▁wYAMLL	-9835
(",")));	-9836
(1000000	-9837
(1_000);	-9838
=\"125\"	-9839
BUSQUEDA	-9840
EPLAYING	-9841
INVOKEVI	-9842
LOLLIPOP	-9843
NHANVIEN	-9844
PACKAGES	-9845
SPECIFIC	-9846
\030\004	-9847
_196271_	-9848
▁"1.0");	-9849
▁"123");	-9850
▁"141118	-9851
▁"30104-	-9852
▁1000)).	-9853
▁2131755	-9854
▁CALENDA	-9855
▁PENDING	-9856
-01/2011-	-9857
160706812	-9858
CANCELADO	-9859
EXCLUSION	-9860
SUFFICIEN	-9861
("2006-02-	-9862
(123456789	-9863
DEVELOPMEN	-9864
_1048576()	-9865
▁"127.0.0.	-9866
▁1_000_000	-9867
▁SELECCION	-9868
▁VSADSSMINI	-9869
306\0\306\0\	-9870
▁COMMANDLINE	-9871
▁21:11:21,959	-9872
!=	-9873
(;	-9874
+.	-9875
4<	-9876
4>	-9877
5/	-9878
8/	-9879
9\	-9880
@#	-9881
Dl	-9882
HZ	-9883
LB	-9884
NF	-9885
WP	-9886
XI	-9887
fE	-9888
kX	-9889
uN	-9890
zq	-9891
{4	-9892
ám	-9893
ло	-9894
ши	-9895
回写	-9896
处理	-9897
已经	-9898
找到	-9899
插入	-9900
新增	-9901
权限	-9902
格式	-9903
消息	-9904
窗口	-9905
编号	-9906
节点	-9907
解析	-9908
认证	-9909
读取	-9910
配置	-9911
에러	-9912
']/	-9913
('%	-9914
('&	-9915
('*	-9916
(';	-9917
(2.	-9918
(29	-9919
(78	-9920
)._	-9921
-05	-9922
-1$	-9923
-16	-9924
.3.	-9925
/.*	-9926
033	-9927
07_	-9928
09.	-9929
09;	-9930
108	-9931
12_	-9932
148	-9933
166	-9934
1;&	-9935
206	-9936
207	-9937
22:	-9938
266	-9939
284	-9940
299	-9941
2:8	-9942
2;&	-9943
30,	-9944
30.	-9945
31;	-9946
34.	-9947
383	-9948
3;&	-9949
4;&	-9950
50.	-9951
52,	-9952
55,	-9953
559	-9954
56;	-9955
5;&	-9956
625	-9957
648	-9958
64:	-9959
685	-9960
7.0	-9961
78,	-9962
800	-9963
843	-9964
847	-9965
899	-9966
8::	-9967
9";	-9968
98,	-9969
99.	-9970
={"	-9971
?";	-9972
AID	-9973
ALB	-9974
AMZ	-9975
BBO	-9976
BEE	-9977
CHY	-9978
CPA	-9979
CPP	-9980
CPV	-9981
DEV	-9982
DFP	-9983
DIN	-9984
EID	-9985
FLU	-9986
FOU	-9987
Fru	-9988
GSI	-9989
ICC	-9990
INO	-9991
IdW	-9992
JES	-9993
JME	-9994
JOU	-9995
KID	-9996
LCV	-9997
LIF	-9998
MAG	-9999
Mkd	-10000
NEU	-10001
OAC	-10002
OAM	-10003
OVF	-10004
Odd	-10005
PCA	-10006
PCM	-10007
PEH	-10008
PNG	-10009
PPN	-10010
PVP	-10011
SVC	-10012
UIF	-10013
VAr	-10014
VmM	-10015
VmP	-10016
Vul	-10017
WNE	-10018
XMI	-10019
ZkC	-10020
_0,	-10021
_0.	-10022
_27	-10023
_6_	-10024
dGu	-10025
dUr	-10026
ffM	-10027
fmM	-10028
fur	-10029
gCA	-10030
gEm	-10031
ggg	-10032
hSw	-10033
hhf	-10034
hhh	-10035
hrz	-10036
lIO	-10037
lML	-10038
lmM	-10039
lím	-10040
mdL	-10041
mdd	-10042
uSh	-10043
uSu	-10044
ugu	-10045
ulL	-10046
umf	-10047
{}]	-10048
▁'$	-10049
▁'>	-10050
▁-4	-10051
▁.4	-10052
▁7]	-10053
▁9.	-10054
▁Af	-10055
▁BQ	-10056
▁Cq	-10057
▁DS	-10058
▁EP	-10059
▁Jd	-10060
▁MC	-10061
▁ML	-10062
▁Nf	-10063
▁PM	-10064
▁VB	-10065
▁XO	-10066
▁Yu	-10067
▁[3	-10068
▁_4	-10069
▁`"	-10070
▁dF	-10071
▁lr	-10072
▁qN	-10073
▁rD	-10074
▁rM	-10075
▁rP	-10076
▁wL	-10077
▁zM	-10078
("*.	-10079
("::	-10080
("[]	-10081
()";	-10082
()},	-10083
(107	-10084
(19,	-10085
(199	-10086
(38,	-10087
(53.	-10088
(;;)	-10089
({},	-10090
).",	-10091
*\"\	-10092
/*",	-10093
000-	-10094
01";	-10095
07",	-10096
0];"	-10097
112.	-10098
19);	-10099
24",	-10100
256)	-10101
344\	-10102
384)	-10103
384;	-10104
47",	-10105
5.6)	-10106
63);	-10107
7)).	-10108
8)).	-10109
8859	-10110
:%02	-10111
;1.0	-10112
?)\\	-10113
AESE	-10114
AILS	-10115
AMES	-10116
APPS	-10117
AWAI	-10118
AddB	-10119
AddE	-10120
BSON	-10121
CLOB	-10122
COLS	-10123
DEEP	-10124
DIFI	-10125
DVSP	-10126
EALM	-10127
EASY	-10128
ECBA	-10129
EFUN	-10130
ELIS	-10131
FLAK	-10132
HUND	-10133
ICKS	-10134
ICLE	-10135
IPFS	-10136
IPHl	-10137
IdCh	-10138
IfAu	-10139
JUMP	-10140
LEND	-10141
LICI	-10142
MISC	-10143
NIGH	-10144
NMSC	-10145
NOID	-10146
OCES	-10147
OMIC	-10148
OPBI	-10149
OSId	-10150
OVED	-10151
OfEm	-10152
OfGu	-10153
OffI	-10154
OrgD	-10155
SCPN	-10156
SDBu	-10157
SEMI	-10158
SEPE	-10159
SFLY	-10160
SKOS	-10161
SNOW	-10162
SQLF	-10163
UPMS	-10164
WIFI	-10165
WILD	-10166
XmlJ	-10167
XmlL	-10168
XmlM	-10169
ZhuD	-10170
[7],	-10171
[8],	-10172
[8].	-10173
\002	-10174
\020	-10175
_0_)	-10176
_10,	-10177
_704	-10178
__")	-10179
dDEK	-10180
dOfL	-10181
dOfS	-10182
dfPr	-10183
fulB	-10184
fulf	-10185
gAll	-10186
gPur	-10187
hAff	-10188
kEgl	-10189
kOfN	-10190
lIdF	-10191
lOrC	-10192
lSql	-10193
ldCl	-10194
rVMM	-10195
rdOu	-10196
rkQu	-10197
rldG	-10198
rmFd	-10199
rmGr	-10200
rmID	-10201
rmIO	-10202
uldV	-10203
ullM	-10204
urdu	-10205
wEdg	-10206
wPwd	-10207
},''	-10208
▁!((	-10209
▁"$"	-10210
▁"':	-10211
▁"./	-10212
▁#{%	-10213
▁'('	-10214
▁(",	-10215
▁(-1	-10216
▁(//	-10217
▁-1:	-10218
▁-7.	-10219
▁115	-10220
▁125	-10221
▁16:	-10222
▁17)	-10223
▁19:	-10224
▁21.	-10225
▁24.	-10226
▁2}"	-10227
▁305	-10228
▁35;	-10229
▁45.	-10230
▁59.	-10231
▁6",	-10232
▁7.0	-10233
▁71,	-10234
▁86,	-10235
▁92,	-10236
▁ALI	-10237
▁AVL	-10238
▁Arm	-10239
▁BEA	-10240
▁BEL	-10241
▁CIM	-10242
▁CMP	-10243
▁DDL	-10244
▁DFS	-10245
▁DNS	-10246
▁Fdf	-10247
▁HEL	-10248
▁IAB	-10249
▁IOr	-10250
▁MAC	-10251
▁MEG	-10252
▁MMM	-10253
▁MgU	-10254
▁NEG	-10255
▁OAF	-10256
▁PHO	-10257
▁PLC	-10258
▁POr	-10259
▁SPU	-10260
▁SQS	-10261
▁Sqr	-10262
▁UID	-10263
▁UIN	-10264
▁Udf	-10265
▁VDS	-10266
▁Vuf	-10267
▁\"-	-10268
▁kwh	-10269
▁mdq	-10270
▁mfd	-10271
▁rmC	-10272
▁rwd	-10273
▁ulP	-10274
删除失败	-10275
结果异常	-10276
超时时间	-10277
("/?{	-10278
("0",	-10279
("5",	-10280
('/')	-10281
().//	-10282
(11),	-10283
(3000	-10284
(33).	-10285
-1.0-	-10286
-1.2.	-10287
-2"),	-10288
-3"),	-10289
-8"),	-10290
/1/13	-10291
0.365	-10292
0009;	-10293
0040;	-10294
02505	-10295
14191	-10296
23");	-10297
23149	-10298
5")).	-10299
5.5);	-10300
66362	-10301
8601(	-10302
==");	-10303
ALBUM	-10304
ANNEL	-10305
AWSCr	-10306
AllCu	-10307
BlurM	-10308
CHIVO	-10309
DUBBO	-10310
ECOGN	-10311
EVIEW	-10312
FACES	-10313
FUSCA	-10314
FullB	-10315
FullH	-10316
IDINJ	-10317
ISINJ	-10318
ImUrl	-10319
JSONW	-10320
KFLOW	-10321
MANEN	-10322
NASAL	-10323
NullB	-10324
NullD	-10325
NumCl	-10326
OZONE	-10327
OfPur	-10328
PAggr	-10329
PkgId	-10330
Plugg	-10331
SANDS	-10332
SHELL	-10333
SWISH	-10334
UNIVE	-10335
VENSH	-10336
[15];	-10337
\"}",	-10338
\\.\\	-10339
]+?",	-10340
_8859	-10341
dDrCr	-10342
fulSh	-10343
hSurf	-10344
kUrlA	-10345
lIdPr	-10346
lZuul	-10347
mSurf	-10348
mlIdP	-10349
rAddL	-10350
rdErr	-10351
rdJum	-10352
rkClu	-10353
rumAr	-10354
uldCl	-10355
}}");	-10356
▁"7",	-10357
▁";";	-10358
▁'").	-10359
▁'2',	-10360
▁'3',	-10361
▁'4',	-10362
▁'5',	-10363
▁'7',	-10364
▁'=')	-10365
▁(").	-10366
▁-5.0	-10367
▁0)),	-10368
▁0.02	-10369
▁103,	-10370
▁11}"	-10371
▁120;	-10372
▁123,	-10373
▁153,	-10374
▁15}"	-10375
▁16),	-10376
▁176,	-10377
▁18.7	-10378
▁20).	-10379
▁20}"	-10380
▁2]",	-10381
▁35.0	-10382
▁3600	-10383
▁600;	-10384
▁ASSE	-10385
▁BLES	-10386
▁EISA	-10387
▁FAIL	-10388
▁HDFS	-10389
▁KEEP	-10390
▁LMSE	-10391
▁MEDI	-10392
▁NCDS	-10393
▁OWNE	-10394
▁PUSH	-10395
▁UPPE	-10396
▁XMLF	-10397
▁[");	-10398
▁fuzz	-10399
▁{");	-10400
▁}}";	-10401
("/**/	-10402
("=\""	-10403
("@"))	-10404
("{}",	-10405
('#');	-10406
('{');	-10407
()[0],	-10408
()[0].	-10409
../../	-10410
.000",	-10411
/**").	-10412
/02/01	-10413
/1.0.0	-10414
000));	-10415
01"));	-10416
02_));	-10417
164\1\	-10418
202\32	-10419
2_224_	-10420
59.163	-10421
64());	-10422
:4567/	-10423
ABPANE	-10424
AINING	-10425
AMNINJ	-10426
BACKWA	-10427
CHECKE	-10428
DEFINE	-10429
DIFIED	-10430
ECOGNI	-10431
INCLUS	-10432
ONIZED	-10433
OUNDUP	-10434
VIAJES	-10435
VICECA	-10436
VmGuru	-10437
WILDCA	-10438
])"));	-10439
dBECBA	-10440
ghSurr	-10441
rkBuff	-10442
{1}'',	-10443
▁","),	-10444
▁"2020	-10445
▁'_');	-10446
▁0.05;	-10447
▁7")).	-10448
▁BLEND	-10449
▁FILES	-10450
▁FOLDE	-10451
▁IZkCh	-10452
▁JONAS	-10453
▁MOUSE	-10454
▁SOUND	-10455
▁zkAdd	-10456
(10000,	-10457
(404));	-10458
))))));	-10459
000000;	-10460
0101009	-10461
0416391	-10462
1\1\11\	-10463
2"))));	-10464
2016-03	-10465
229.163	-10466
344\223	-10467
799995,	-10468
9000961	-10469
CHANGES	-10470
CLASSPA	-10471
CONSUMP	-10472
DIAMOND	-10473
EVISION	-10474
EXPENSE	-10475
IANGLES	-10476
IMEZONE	-10477
MODULES	-10478
OBFUSCA	-10479
OrAddCh	-10480
SECONDA	-10481
SKIPPED	-10482
VANILLA	-10483
ZENDESK	-10484
\0\1\1\	-10485
\1\0\1\	-10486
_180633	-10487
_188514	-10488
_190948	-10489
kEglErr	-10490
▁"...";	-10491
▁"1337_	-10492
▁"30621	-10493
▁-7.125	-10494
▁0.0));	-10495
▁0.0000	-10496
▁0.0001	-10497
▁27.7);	-10498
▁404");	-10499
▁BELONG	-10500
▁LEGACY	-10501
▁MEGABY	-10502
▁VISUAL	-10503
("...");	-10504
("000100	-10505
("000101	-10506
("011000	-10507
()]//@*[	-10508
/1/1337_	-10509
10050];"	-10510
14748364	-10511
23149022	-10512
66362784	-10513
699999);	-10514
86502505	-10515
ALINCOME	-10516
DEFENCES	-10517
EXCEEDED	-10518
SIGNIFIC	-10519
UPLOADED	-10520
▁"141117	-10521
▁####");	-10522
▁1000000	-10523
▁BLESSED	-10524
▁CASCADE	-10525
▁CHANNEL	-10526
▁COLUMNS	-10527
▁COMPOSI	-10528
("08003",	-10529
00000008)	-10530
='2016-03	-10531
BLOCKSFLY	-10532
IALIASING	-10533
INCLUSIVE	-10534
LANDSCAPE	-10535
rImgUrlSm	-10536
▁ENCODING	-10537
▁HALFCOUN	-10538
▁MODIFIED	-10539
0000000000	-10540
00000008);	-10541
DIMENSIONS	-10542
DOWNLOADED	-10543
MFEEDBACKS	-10544
SELECCIONA	-10545
(1073741824	-10546
GHIJKLMNOPQ	-10547
▁1000000000	-10548
("2015/02/01	-10549
▁27.699999);	-10550
("------------	-10551
▁\001(\0132\03	-10552
'-	-10553
*$	-10554
+"	-10555
+/	-10556
-5	-10557
/9	-10558
1@	-10559
:$	-10560
:2	-10561
=&	-10562
=(	-10563
=+	-10564
@"	-10565
Hz	-10566
Ik	-10567
Il	-10568
KD	-10569
Lw	-10570
MX	-10571
NV	-10572
Nh	-10573
Pw	-10574
QQ	-10575
SG	-10576
VH	-10577
Vf	-10578
WC	-10579
WX	-10580
Xr	-10581
YI	-10582
`"	-10583
hẩ	-10584
uV	-10585
wZ	-10586
wz	-10587
zg	-10588
во	-10589
да	-10590
ст	-10591
▁小	-10592
この	-10593
すべ	-10594
とも	-10595
には	-10596
ると	-10597
アマ	-10598
ゾン	-10599
关闭	-10600
创建	-10601
名单	-10602
启用	-10603
態度	-10604
手机	-10605
报错	-10606
按钮	-10607
收款	-10608
日期	-10609
暂无	-10610
板块	-10611
私は	-10612
第一	-10613
編入	-10614
送信	-10615
##\	-10616
$.3	-10617
'>"	-10618
'>\	-10619
(.+	-10620
(..	-10621
(4.	-10622
-07	-10623
-8"	-10624
._0	-10625
02,	-10626
02.	-10627
07,	-10628
082	-10629
09,	-10630
107	-10631
15;	-10632
1_0	-10633
1_2	-10634
20:	-10635
213	-10636
236	-10637
237	-10638
27,	-10639
31"	-10640
31,	-10641
35;	-10642
36.	-10643
3[]	-10644
4))	-10645
40.	-10646
416	-10647
42,	-10648
477	-10649
48,	-10650
49,	-10651
4];	-10652
51,	-10653
553	-10654
6),	-10655
616	-10656
644	-10657
7()	-10658
71,	-10659
8";	-10660
80;	-10661
897	-10662
90;	-10663
94,	-10664
:80	-10665
::"	-10666
='#	-10667
ACD	-10668
AEM	-10669
AKY	-10670
AMD	-10671
ANN	-10672
ANO	-10673
ASL	-10674
AUX	-10675
Ald	-10676
Alf	-10677
Ard	-10678
Bld	-10679
DAD	-10680
DAM	-10681
DBU	-10682
ECI	-10683
EDM	-10684
EDO	-10685
EEL	-10686
EEm	-10687
EMU	-10688
EZF	-10689
FEN	-10690
FKC	-10691
FXF	-10692
GBP	-10693
GUE	-10694
GlH	-10695
HMS	-10696
HUM	-10697
IAM	-10698
ICU	-10699
ICh	-10700
IFh	-10701
JMX	-10702
LIA	-10703
LIL	-10704
MSK	-10705
MXB	-10706
NEQ	-10707
ODM	-10708
OON	-10709
OrH	-10710
PIX	-10711
PKC	-10712
PNH	-10713
POO	-10714
PSK	-10715
QUI	-10716
SAC	-10717
SIZ	-10718
SKE	-10719
SSE	-10720
SSO	-10721
ShO	-10722
Sqr	-10723
UNO	-10724
VFD	-10725
VID	-10726
WSS	-10727
YMD	-10728
\"`	-10729
_04	-10730
_3,	-10731
_47	-10732
_5,	-10733
_7,	-10734
_7.	-10735
dIg	-10736
dSg	-10737
dVO	-10738
ddm	-10739
dgm	-10740
dkU	-10741
dlg	-10742
dlu	-10743
fVO	-10744
ffN	-10745
gVm	-10746
ggD	-10747
ghA	-10748
hPl	-10749
hVl	-10750
hrg	-10751
kBr	-10752
kFu	-10753
kIg	-10754
lVC	-10755
lkA	-10756
lmB	-10757
lrD	-10758
mlU	-10759
mmC	-10760
mmm	-10761
mrh	-10762
rBL	-10763
rDS	-10764
rUd	-10765
rdd	-10766
rfh	-10767
rfw	-10768
rgM	-10769
udC	-10770
udD	-10771
ugA	-10772
ugD	-10773
ugN	-10774
ulg	-10775
wlG	-10776
wru	-10777
zId	-10778
}".	-10779
ыло	-10780
▁#%	-10781
▁($	-10782
▁(4	-10783
▁.2	-10784
▁38	-10785
▁49	-10786
▁65	-10787
▁76	-10788
▁Cf	-10789
▁EU	-10790
▁GM	-10791
▁HW	-10792
▁IQ	-10793
▁Mm	-10794
▁PC	-10795
▁UE	-10796
▁Wk	-10797
▁_0	-10798
▁dM	-10799
▁hB	-10800
▁hK	-10801
▁uD	-10802
▁uf	-10803
▁wM	-10804
すべき	-10805
已存在	-10806
未找到	-10807
用户名	-10808
白名单	-10809
请重新	-10810
默认为	-10811
')))	-10812
("#>	-10813
("%1	-10814
("%9	-10815
("(<	-10816
("??	-10817
($1)	-10818
((-1	-10819
()].	-10820
(14.	-10821
(17.	-10822
(18.	-10823
(2))	-10824
(21,	-10825
(4))	-10826
(55,	-10827
)]);	-10828
-06.	-10829
.*},	-10830
.0",	-10831
.000	-10832
0019	-10833
001;	-10834
001\	-10835
022\	-10836
03);	-10837
05",	-10838
0825	-10839
0=\"	-10840
10);	-10841
100%	-10842
100.	-10843
1010	-10844
1212	-10845
14);	-10846
142.	-10847
15);	-10848
155,	-10849
164\	-10850
17",	-10851
18",	-10852
1887	-10853
19",	-10854
1];"	-10855
20);	-10856
2008	-10857
21",	-10858
2222	-10859
256"	-10860
28];	-10861
29",	-10862
301.	-10863
34",	-10864
3419	-10865
4"),	-10866
4)).	-10867
49);	-10868
4\3\	-10869
5.25	-10870
50);	-10871
512)	-10872
77);	-10873
8888	-10874
9)).	-10875
919,	-10876
9200	-10877
://%	-10878
<>(_	-10879
=\"1	-10880
>40]	-10881
>{{"	-10882
ABBI	-10883
ABCD	-10884
ABOU	-10885
ACCU	-10886
ACEN	-10887
ANAL	-10888
ANEL	-10889
APPA	-10890
AddH	-10891
AddI	-10892
AllF	-10893
BBCl	-10894
BFGS	-10895
CASC	-10896
CHAL	-10897
CMYK	-10898
CSSS	-10899
CmdP	-10900
CrmE	-10901
DBCl	-10902
DCur	-10903
DESE	-10904
DISC	-10905
EACH	-10906
EADW	-10907
EBAL	-10908
EMGE	-10909
ENDO	-10910
EXCE	-10911
GUES	-10912
HASE	-10913
HENG	-10914
IDAF	-10915
IESC	-10916
IESw	-10917
IGNS	-10918
INEA	-10919
IPLY	-10920
IfSu	-10921
JPAS	-10922
MAPS	-10923
MILK	-10924
MINE	-10925
MINS	-10926
MOBI	-10927
MOSS	-10928
MQCl	-10929
MUSH	-10930
NumI	-10931
OBLE	-10932
OGEN	-10933
OOCH	-10934
OPOS	-10935
OULD	-10936
OWID	-10937
OfSu	-10938
OffH	-10939
OrFl	-10940
PAPE	-10941
PINK	-10942
SAJE	-10943
SAMP	-10944
SEAG	-10945
SMEN	-10946
SdkV	-10947
UDIO	-10948
UIAS	-10949
UMBE	-10950
UOUS	-10951
UrlD	-10952
VDID	-10953
VOLA	-10954
WISE	-10955
XIAO	-10956
XMLF	-10957
XmlD	-10958
[256	-10959
[4].	-10960
[6].	-10961
[7].	-10962
[{}]	-10963
\"";	-10964
_0_,	-10965
_10.	-10966
_2_)	-10967
dIdI	-10968
drPl	-10969
fVLI	-10970
fulK	-10971
gPwd	-10972
gSql	-10973
hIdl	-10974
hOfY	-10975
hSql	-10976
lAmm	-10977
ldAm	-10978
ldFl	-10979
ldMu	-10980
ldQu	-10981
lfMu	-10982
lfUr	-10983
llCl	-10984
llPu	-10985
lrOr	-10986
lurk	-10987
mSQL	-10988
mumO	-10989
rAzP	-10990
rCur	-10991
rDFP	-10992
rIdO	-10993
rOSN	-10994
rPur	-10995
rSdk	-10996
rdPl	-10997
rkOr	-10998
rkPr	-10999
rmFu	-11000
rmUI	-11001
rrBl	-11002
ruru	-11003
uldI	-11004
ullP	-11005
umEm	-11006
umPh	-11007
urCl	-11008
urrD	-11009
urrN	-11010
▁"15	-11011
▁"2"	-11012
▁"20	-11013
▁"?"	-11014
▁"]\	-11015
▁'@'	-11016
▁(("	-11017
▁(?,	-11018
▁15.	-11019
▁15:	-11020
▁17:	-11021
▁234	-11022
▁24:	-11023
▁28;	-11024
▁32:	-11025
▁3}"	-11026
▁67,	-11027
▁77.	-11028
▁819	-11029
▁89.	-11030
▁8}"	-11031
▁9.0	-11032
▁97,	-11033
▁AdS	-11034
▁Alm	-11035
▁Amq	-11036
▁BAL	-11037
▁BUL	-11038
▁CCh	-11039
▁CEV	-11040
▁CLI	-11041
▁CMD	-11042
▁DBP	-11043
▁DUM	-11044
▁EOP	-11045
▁EzF	-11046
▁FEL	-11047
▁FLA	-11048
▁FOO	-11049
▁FSM	-11050
▁GEA	-11051
▁Glf	-11052
▁HEX	-11053
▁IDP	-11054
▁IDS	-11055
▁IdG	-11056
▁IdV	-11057
▁JCA	-11058
▁JGr	-11059
▁JMX	-11060
▁MMS	-11061
▁NON	-11062
▁PDF	-11063
▁PLU	-11064
▁PMD	-11065
▁SPI	-11066
▁Slf	-11067
▁VMS	-11068
▁WBM	-11069
▁XYS	-11070
▁ZIP	-11071
▁\"@	-11072
▁\\\	-11073
▁fdS	-11074
▁gDr	-11075
▁glC	-11076
▁hll	-11077
▁mBr	-11078
▁mSk	-11079
▁mfl	-11080
▁wOK	-11081
▁zkF	-11082
▁zzg	-11083
アマゾン	-11084
信息失败	-11085
密码错误	-11086
当前插入	-11087
项目分类	-11088
'')",	-11089
("(1.	-11090
("(2,	-11091
("0")	-11092
("3",	-11093
("999	-11094
("\">	-11095
()]),	-11096
(0.00	-11097
(32);	-11098
(401,	-11099
)'");	-11100
0)));	-11101
0010;	-11102
0037;	-11103
0043;	-11104
01015	-11105
08.23	-11106
08010	-11107
1))),	-11108
1000,	-11109
1_13_	-11110
30\1\	-11111
37\1\	-11112
40");	-11113
7-06-	-11114
8<>((	-11115
9.8);	-11116
>(2);	-11117
>40]"	-11118
?"));	-11119
ABOVE	-11120
ALICE	-11121
ALING	-11122
AMAYA	-11123
ANDLE	-11124
AddrB	-11125
BSSID	-11126
BldrC	-11127
CHING	-11128
EADME	-11129
EFINE	-11130
ENEMY	-11131
ESSES	-11132
FLAVO	-11133
GOING	-11134
HELPE	-11135
ICEVS	-11136
IDUAL	-11137
LINKS	-11138
MANDA	-11139
MINUS	-11140
NullN	-11141
NullP	-11142
OLLBA	-11143
OUNCE	-11144
PIXEL	-11145
PullS	-11146
SEAGr	-11147
SENGE	-11148
SIZES	-11149
SSAPI	-11150
UNWAY	-11151
VOICE	-11152
YAMLF	-11153
[10],	-11154
[]>>>	-11155
\"],\	-11156
\003\	-11157
_5_3,	-11158
dAllW	-11159
dNumS	-11160
dOrgu	-11161
dSumm	-11162
gSBML	-11163
hCurr	-11164
llOff	-11165
mAllB	-11166
mUrlW	-11167
mumAl	-11168
rBulk	-11169
rdArr	-11170
rkErr	-11171
rmJNI	-11172
uldCr	-11173
ullSu	-11174
urOff	-11175
wBuff	-11176
}")).	-11177
▁"--"	-11178
▁"10.	-11179
▁'"',	-11180
▁'*',	-11181
▁(");	-11182
▁)");	-11183
▁-0.0	-11184
▁-1))	-11185
▁0.9;	-11186
▁10),	-11187
▁108,	-11188
▁111,	-11189
▁116,	-11190
▁12.0	-11191
▁140,	-11192
▁190,	-11193
▁1]))	-11194
▁2.0;	-11195
▁250,	-11196
▁3.0,	-11197
▁48).	-11198
▁48);	-11199
▁55);	-11200
▁988.	-11201
▁996.	-11202
▁ABAP	-11203
▁AESE	-11204
▁Alum	-11205
▁BOOK	-11206
▁CLIC	-11207
▁CUDA	-11208
▁DECO	-11209
▁GLOB	-11210
▁NEGA	-11211
▁POSI	-11212
▁QPPr	-11213
▁XMLU	-11214
▁\003	-11215
▁fdlS	-11216
▁fwkI	-11217
▁mAdd	-11218
▁mSHA	-11219
▁},",	-11220
("$").	-11221
(","))	-11222
("-"))	-11223
("1101	-11224
("5");	-11225
("=").	-11226
(">");	-11227
("@");	-11228
("[").	-11229
("[");	-11230
('/').	-11231
('0');	-11232
('>');	-11233
('\\',	-11234
('_');	-11235
()))))	-11236
().");	-11237
(100).	-11238
(20));	-11239
(2020,	-11240
(255);	-11241
(5)));	-11242
/**");	-11243
/13002	-11244
/13004	-11245
/13005	-11246
/13006	-11247
/13007	-11248
/13008	-11249
/13009	-11250
1()));	-11251
3")));	-11252
32());	-11253
800000	-11254
99996,	-11255
===");	-11256
ACKING	-11257
AllErr	-11258
BASICO	-11259
BBBBBB	-11260
BOUGUE	-11261
EENSHO	-11262
EMEMBE	-11263
ESSING	-11264
FINISH	-11265
HALFPI	-11266
JSONOu	-11267
KILOME	-11268
NullFr	-11269
OFFICE	-11270
OPPING	-11271
PAUSED	-11272
SPEECH	-11273
SQLXML	-11274
SUNDAY	-11275
VISUAL	-11276
WEAPON	-11277
[128];	-11278
[256];	-11279
\"}");	-11280
_123",	-11281
_15258	-11282
___201	-11283
dAllCl	-11284
dYIDAF	-11285
mumIdl	-11286
rfulOk	-11287
rugPur	-11288
wIOErr	-11289
▁"\\\\	-11290
▁"]"))	-11291
▁"_000	-11292
▁"_002	-11293
▁"_005	-11294
▁"}}</	-11295
▁11));	-11296
▁:{}",	-11297
▁ASCII	-11298
▁BACKG	-11299
▁CANCh	-11300
▁CFACr	-11301
▁CODEC	-11302
▁EQUAL	-11303
▁HllSk	-11304
▁INDEN	-11305
▁MODIF	-11306
▁NJSON	-11307
▁PANEL	-11308
▁SCOPE	-11309
▁UNNES	-11310
▁VEVEN	-11311
▁VIDEO	-11312
▁XMLOu	-11313
▁YYEOF	-11314
▁____.	-11315
▁fOldP	-11316
▁fullP	-11317
当前插入数据	-11318
("%1$.3	-11319
("112",	-11320
('.'));	-11321
(204));	-11322
.2.1");	-11323
000"));	-11324
001"));	-11325
201208.	-11326
300001,	-11327
399994,	-11328
800001,	-11329
BLOCKED	-11330
CLEANUP	-11331
DASHBOA	-11332
DEVICES	-11333
EQUENCY	-11334
GEOHASH	-11335
IMMEDIA	-11336
MINIMUM	-11337
SCALING	-11338
WINDING	-11339
YPOLICY	-11340
[1]"));	-11341
[4096];	-11342
\":\"__	-11343
_05_02,	-11344
_212843	-11345
▁"'.");	-11346
▁"/{2}/	-11347
▁"30422	-11348
▁"30466	-11349
▁0.5));	-11350
▁200");	-11351
▁700));	-11352
▁AddMul	-11353
▁DELIMI	-11354
▁ENABLE	-11355
▁ESCAPE	-11356
▁HANDLE	-11357
▁MEDIUM	-11358
▁SPACES	-11359
▁fdYAML	-11360
▁wYAMLI	-11361
▁заявки	-11362
("0.0");	-11363
("111010	-11364
("???");	-11365
("\\|");	-11366
(1000));	-11367
+229.163	-11368
0000000)	-11369
1")))));	-11370
1\1\0\1\	-11371
202\323\	-11372
299995);	-11373
ANALYSIS	-11374
BUILDING	-11375
DEADZONE	-11376
DEPENDEN	-11377
EBALANCE	-11378
HACHHANG	-11379
INCLUDED	-11380
INDEFINI	-11381
ONENUMBE	-11382
PASSENGE	-11383
PULLDOWN	-11384
SMENSAJE	-11385
SYNONYMS	-11386
________	-11387
▁"141119	-11388
▁1611));	-11389
▁975.5);	-11390
▁989.8);	-11391
▁998.7);	-11392
▁CEVPlug	-11393
▁EOPPOSI	-11394
▁EXCLUDE	-11395
▁LEVENSH	-11396
▁{}/{}",	-11397
("2009-02	-11398
08.230825	-11399
123456789	-11400
20004001:	-11401
:00.000",	-11402
======");	-11403
CLOCKWISE	-11404
HANDSHAKE	-11405
SCHEDULED	-11406
SYSCHECKS	-11407
_1048576,	-11408
▁"\1\0\1\	-11409
▁10.1056/	-11410
("--------	-11411
("2017-06-	-11412
-43532"));	-11413
-8859-1"),	-11414
2.3,4.5.6)	-11415
7.0.0.1];"	-11416
AAAAAAAAAA	-11417
BBBBBBBBBB	-11418
NODECONFIG	-11419
▁'20170413	-11420
▁00:00")))	-11421
INSUFFICIEN	-11422
("2016-10-11	-11423
▁"192.168.1.	-11424
:127.0.0.1];"	-11425
INVOKESPECIAL	-11426
00000000000000	-11427
0100308.230825	-11428
202\323\344\223	-11429
567890123456789	-11430
("192.168.1.1");	-11431
0100310.014828",	-11432
>>>>>>>>>>>>>>>>	-11433
▁[192.168.1.1];"	-11434
$%	-11435
+2	-11436
-7	-11437
/>	-11438
0]	-11439
1'	-11440
6}	-11441
:*	-11442
<=	-11443
=2	-11444
=3	-11445
@%	-11446
Ah	-11447
Dh	-11448
GZ	-11449
HY	-11450
JJ	-11451
LU	-11452
MG	-11453
MH	-11454
Qr	-11455
Sz	-11456
WD	-11457
YV	-11458
mZ	-11459
qV	-11460
zI	-11461
zY	-11462
zr	-11463
}-	-11464
ко	-11465
ла	-11466
ダメ	-11467
供应	-11468
加载	-11469
可以	-11470
复制	-11471
已被	-11472
扫描	-11473
提示	-11474
收到	-11475
攻撃	-11476
未知	-11477
条件	-11478
模式	-11479
目录	-11480
等级	-11481
管理	-11482
編集	-11483
订单	-11484
访问	-11485
请求	-11486
邮箱	-11487
配对	-11488
"):	-11489
#",	-11490
')"	-11491
'-'	-11492
("5	-11493
("7	-11494
(--	-11495
(3.	-11496
(5)	-11497
(99	-11498
(?:	-11499
+\\	-11500
-",	-11501
-2-	-11502
015	-11503
03.	-11504
037	-11505
03_	-11506
045	-11507
089	-11508
097	-11509
0];	-11510
10)	-11511
109	-11512
114	-11513
117	-11514
138	-11515
13;	-11516
190	-11517
194	-11518
2".	-11519
20)	-11520
28;	-11521
29,	-11522
3.4	-11523
314	-11524
318	-11525
333	-11526
33;	-11527
379	-11528
40,	-11529
400	-11530
484	-11531
4_,	-11532
55;	-11533
577	-11534
58.	-11535
59,	-11536
6";	-11537
67,	-11538
69,	-11539
7";	-11540
7),	-11541
725	-11542
744	-11543
77.	-11544
783	-11545
86_	-11546
894	-11547
9).	-11548
9],	-11549
;")	-11550
;1.	-11551
=${	-11552
=50	-11553
===	-11554
={3	-11555
>.@	-11556
>\\	-11557
?,?	-11558
APr	-11559
ASP	-11560
AdF	-11561
BES	-11562
BLU	-11563
BSS	-11564
BUC	-11565
BWM	-11566
Bmu	-11567
Bum	-11568
CCW	-11569
CDI	-11570
CHF	-11571
CIB	-11572
CLS	-11573
CMP	-11574
COl	-11575
Cdr	-11576
DBG	-11577
DHw	-11578
DIE	-11579
DId	-11580
DWA	-11581
EED	-11582
ENA	-11583
EPS	-11584
Emf	-11585
Eul	-11586
FDB	-11587
FKA	-11588
FSF	-11589
FgB	-11590
GBS	-11591
GPQ	-11592
GUS	-11593
HAI	-11594
HQL	-11595
IAB	-11596
IGE	-11597
IId	-11598
IOF	-11599
IPH	-11600
IPV	-11601
ISC	-11602
ISu	-11603
IfJ	-11604
Ilk	-11605
Jug	-11606
KAN	-11607
KIE	-11608
LAD	-11609
LEO	-11610
LID	-11611
LLA	-11612
LNK	-11613
NAS	-11614
NED	-11615
NGS	-11616
OAU	-11617
OBO	-11618
OId	-11619
OOK	-11620
OfK	-11621
Omm	-11622
PDE	-11623
PFX	-11624
PGD	-11625
PHO	-11626
PNS	-11627
PPE	-11628
PUD	-11629
Prm	-11630
SAD	-11631
SEE	-11632
SEM	-11633
SHL	-11634
SLA	-11635
SPB	-11636
SVP	-11637
SrC	-11638
Sul	-11639
UGE	-11640
UPP	-11641
VEd	-11642
WHA	-11643
WIL	-11644
WOD	-11645
XEd	-11646
YCS	-11647
YNG	-11648
ZIE	-11649
ZKM	-11650
\";	-11651
\\{	-11652
_22	-11653
_25	-11654
_34	-11655
dDS	-11656
dDu	-11657
dOw	-11658
dPw	-11659
ddD	-11660
dfd	-11661
dlS	-11662
fDO	-11663
fEq	-11664
fhg	-11665
gEd	-11666
gNO	-11667
gPh	-11668
grz	-11669
hkF	-11670
hẩu	-11671
kAl	-11672
kEd	-11673
kVO	-11674
krm	-11675
kuh	-11676
lBl	-11677
lFS	-11678
lIf	-11679
lUV	-11680
lgr	-11681
mEL	-11682
mIg	-11683
mLD	-11684
mMB	-11685
mlA	-11686
mlB	-11687
mlN	-11688
mrw	-11689
muM	-11690
qCh	-11691
qDr	-11692
qlI	-11693
rCd	-11694
rdY	-11695
rdZ	-11696
rgh	-11697
rgr	-11698
rrS	-11699
ukw	-11700
ulI	-11701
ulK	-11702
umO	-11703
wAu	-11704
wCu	-11705
wSu	-11706
wWh	-11707
wlI	-11708
wmu	-11709
}]}	-11710
▁"°	-11711
▁);	-11712
▁-2	-11713
▁..	-11714
▁0"	-11715
▁57	-11716
▁63	-11717
▁96	-11718
▁AX	-11719
▁DN	-11720
▁EL	-11721
▁Eh	-11722
▁HI	-11723
▁KE	-11724
▁PG	-11725
▁SY	-11726
▁WE	-11727
▁],	-11728
▁_1	-11729
▁hk	-11730
▁hl	-11731
▁mK	-11732
▁mX	-11733
▁rI	-11734
▁异常	-11735
供应商	-11736
接收的	-11737
的数据	-11738
请检查	-11739
("".	-11740
("16	-11741
("^[	-11742
("}\	-11743
()::	-11744
(...	-11745
(0.6	-11746
(0.8	-11747
(0.9	-11748
(19.	-11749
(20.	-11750
(304	-11751
(36.	-11752
(39,	-11753
(40.	-11754
(400	-11755
(60.	-11756
(77,	-11757
(\01	-11758
);";	-11759
+)\\	-11760
..."	-11761
._43	-11762
/1",	-11763
/202	-11764
0005	-11765
0011	-11766
002\	-11767
09",	-11768
1.1:	-11769
10";	-11770
11,"	-11771
1101	-11772
1252	-11773
13);	-11774
197]	-11775
2-1@	-11776
200.	-11777
2018	-11778
252.	-11779
3,12	-11780
310.	-11781
32",	-11782
365.	-11783
4.0,	-11784
5]);	-11785
6000	-11786
65",	-11787
7804	-11788
7856	-11789
:/";	-11790
:}",	-11791
;").	-11792
<");	-11793
=*@!	-11794
ADMI	-11795
ADOS	-11796
ALIC	-11797
ASES	-11798
AWSU	-11799
AlfP	-11800
AmqC	-11801
ArgO	-11802
BIND	-11803
BINJ	-11804
BUSH	-11805
CELL	-11806
CHEN	-11807
CHEW	-11808
CLOU	-11809
COMB	-11810
COPI	-11811
CYAN	-11812
CfgB	-11813
Chuu	-11814
DEMO	-11815
DrId	-11816
EXPE	-11817
FAKE	-11818
FLOO	-11819
Fulf	-11820
GILS	-11821
HSUP	-11822
IDGE	-11823
IDPr	-11824
JINJ	-11825
LAND	-11826
LOSS	-11827
MADA	-11828
MSCC	-11829
MULA	-11830
NAIL	-11831
NESS	-11832
NumV	-11833
ODAY	-11834
ONIC	-11835
ONZE	-11836
OfQu	-11837
PDIF	-11838
PINJ	-11839
PLAC	-11840
PPhr	-11841
PUNC	-11842
PdfD	-11843
PdfW	-11844
SAGA	-11845
SDKV	-11846
SINJ	-11847
SKMS	-11848
SLAB	-11849
SNMP	-11850
SOLU	-11851
SUBA	-11852
SUCH	-11853
SUCU	-11854
SWAL	-11855
SWEE	-11856
SkuL	-11857
SqlC	-11858
SqlN	-11859
SrId	-11860
UNCO	-11861
UNNE	-11862
UrlI	-11863
UrlL	-11864
VINS	-11865
WSDD	-11866
WSPD	-11867
XMLD	-11868
YSES	-11869
\001	-11870
\007	-11871
]"))	-11872
_17.	-11873
_2",	-11874
_3",	-11875
_4_,	-11876
_8))	-11877
dCur	-11878
dGES	-11879
dVAL	-11880
dddd	-11881
fMul	-11882
fdfl	-11883
gNum	-11884
gVmI	-11885
gVmN	-11886
guru	-11887
hEff	-11888
hQLE	-11889
hudu	-11890
kEdg	-11891
kull	-11892
lEff	-11893
lODM	-11894
ldEm	-11895
lwIm	-11896
mAll	-11897
mCOl	-11898
rIDE	-11899
rdEd	-11900
rdFr	-11901
rdIP	-11902
rkBl	-11903
rkfu	-11904
rlId	-11905
rmJI	-11906
rqlM	-11907
rrOr	-11908
rumC	-11909
udBu	-11910
udCr	-11911
ughN	-11912
uldL	-11913
uldM	-11914
urGl	-11915
urPr	-11916
uulF	-11917
wAPI	-11918
wShu	-11919
веди	-11920
мыло	-11921
▁"&"	-11922
▁"&#	-11923
▁"*.	-11924
▁".\	-11925
▁"1|	-11926
▁"2|	-11927
▁"3|	-11928
▁"4|	-11929
▁"5|	-11930
▁"6|	-11931
▁"7|	-11932
▁"8|	-11933
▁"<"	-11934
▁"==	-11935
▁"[{	-11936
▁"}"	-11937
▁'${	-11938
▁'['	-11939
▁'\"	-11940
▁'\0	-11941
▁(1)	-11942
▁(1.	-11943
▁(2,	-11944
▁*/\	-11945
▁-3;	-11946
▁.25	-11947
▁//$	-11948
▁107	-11949
▁14.	-11950
▁155	-11951
▁180	-11952
▁19)	-11953
▁196	-11954
▁25.	-11955
▁26;	-11956
▁27;	-11957
▁2],	-11958
▁2][	-11959
▁31)	-11960
▁327	-11961
▁4.5	-11962
▁400	-11963
▁41,	-11964
▁45)	-11965
▁4}"	-11966
▁56)	-11967
▁64)	-11968
▁66,	-11969
▁7).	-11970
▁72,	-11971
▁75;	-11972
▁76,	-11973
▁808	-11974
▁81.	-11975
▁85,	-11976
▁96;	-11977
▁?>,	-11978
▁AMD	-11979
▁APU	-11980
▁BAS	-11981
▁CHE	-11982
▁Crm	-11983
▁DES	-11984
▁DIA	-11985
▁ENG	-11986
▁FGr	-11987
▁GCM	-11988
▁GEF	-11989
▁GEN	-11990
▁GIS	-11991
▁ICu	-11992
▁IOE	-11993
▁JWS	-11994
▁Juk	-11995
▁KNN	-11996
▁MAN	-11997
▁NIO	-11998
▁PAS	-11999
▁SDD	-12000
▁SGE	-12001
▁SII	-12002
▁SIL	-12003
▁SPA	-12004
▁Sur	-12005
▁USA	-12006
▁USD	-12007
▁VAS	-12008
▁VmS	-12009
▁[':	-12010
▁\"/	-12011
▁lum	-12012
▁zkH	-12013
▁zzL	-12014
▁zzP	-12015
▁{}"	-12016
ダメージ	-12017
系统异常	-12018
&#(!@	-12019
("***	-12020
("116	-12021
("4",	-12022
("=",	-12023
("[0,	-12024
("[\\	-12025
("\"\	-12026
('0',	-12027
('_',	-12028
(-1),	-12029
(-1).	-12030
(14);	-12031
(22),	-12032
(42).	-12033
(50.0	-12034
(600,	-12035
(9));	-12036
(90);	-12037
)(50,	-12038
).");	-12039
-01";	-12040
-10",	-12041
-1000	-12042
-2");	-12043
.0));	-12044
/90",	-12045
0015;	-12046
0021;	-12047
0022;	-12048
0024;	-12049
0026;	-12050
0027;	-12051
0030;	-12052
0031;	-12053
0032;	-12054
0033;	-12055
0038;	-12056
0041;	-12057
0042;	-12058
0044;	-12059
0049;	-12060
00805	-12061
01:01	-12062
0[6],	-12063
0[7],	-12064
1.0\"	-12065
1.1";	-12066
13");	-12067
1_0(0	-12068
1_10.	-12069
2")).	-12070
2").<	-12071
2)));	-12072
2012-	-12073
34");	-12074
5.0);	-12075
8.0);	-12076
86_64	-12077
911",	-12078
:197]	-12079
<>]+)	-12080
>(0);	-12081
ABBED	-12082
AGING	-12083
ALLUS	-12084
AMBLE	-12085
AMPLE	-12086
AMPOO	-12087
AddPu	-12088
AllCl	-12089
BENCH	-12090
BlurI	-12091
BuffP	-12092
CAMPA	-12093
CHEME	-12094
CHSIA	-12095
CLANG	-12096
DAOIm	-12097
DELIM	-12098
DENCE	-12099
DIAME	-12100
DINGS	-12101
DOMIm	-12102
EBINJ	-12103
EDIEN	-12104
EIDAS	-12105
ELOAD	-12106
EMIUM	-12107
ENCIA	-12108
EPIDU	-12109
ESINJ	-12110
FULLY	-12111
GAMMA	-12112
HEINZ	-12113
INHLC	-12114
IPLES	-12115
IPPLE	-12116
ISINS	-12117
ImgId	-12118
JSONM	-12119
LEAKY	-12120
LEGAL	-12121
LENGE	-12122
LONGI	-12123
MAGIC	-12124
MAXIM	-12125
MAÇÃO	-12126
MISOS	-12127
MLFLE	-12128
MOUSE	-12129
OBLEM	-12130
OCESO	-12131
ODINS	-12132
ONINJ	-12133
OPSWr	-12134
OSMOS	-12135
OSPEC	-12136
OWMAP	-12137
OXIMA	-12138
OfEdg	-12139
PACKE	-12140
PHASE	-12141
PJAVA	-12142
SCALP	-12143
SHAPE	-12144
SIGIL	-12145
SKELE	-12146
SNONE	-12147
SPAWN	-12148
SPUSH	-12149
UBINJ	-12150
UCMAB	-12151
ULINJ	-12152
UNNES	-12153
VAGIN	-12154
VmCmd	-12155
WHICH	-12156
WIDGE	-12157
XXXXX	-12158
XmlWr	-12159
YNINJ	-12160
\002\	-12161
]--->	-12162
][2];	-12163
_0();	-12164
_0_);	-12165
dAllP	-12166
dFull	-12167
dXMLP	-12168
hAllW	-12169
ldClu	-12170
mVmdk	-12171
mlAll	-12172
mlJNI	-12173
mumPl	-12174
rgOff	-12175
rldCl	-12176
rwdPr	-12177
uldAu	-12178
uldDr	-12179
ulfur	-12180
umOfI	-12181
▁"2";	-12182
▁"202	-12183
▁"_";	-12184
▁'"')	-12185
▁'*')	-12186
▁'+',	-12187
▁'../	-12188
▁'0')	-12189
▁'0';	-12190
▁'1':	-12191
▁'2':	-12192
▁'3':	-12193
▁'4':	-12194
▁'5':	-12195
▁'6':	-12196
▁(1),	-12197
▁(11,	-12198
▁(12,	-12199
▁(2))	-12200
▁*");	-12201
▁-10,	-12202
▁-2);	-12203
▁0.";	-12204
▁0.2;	-12205
▁0.9,	-12206
▁10}"	-12207
▁11.0	-12208
▁110,	-12209
▁130,	-12210
▁145,	-12211
▁16.0	-12212
▁180;	-12213
▁19);	-12214
▁1]).	-12215
▁2.0,	-12216
▁20))	-12217
▁2017	-12218
▁204,	-12219
▁220,	-12220
▁240,	-12221
▁25),	-12222
▁250;	-12223
▁254,	-12224
▁255.	-12225
▁44.7	-12226
▁512;	-12227
▁58.7	-12228
▁60.0	-12229
▁6]",	-12230
▁===>	-12231
▁AGEN	-12232
▁BEFO	-12233
▁BULK	-12234
▁CSSS	-12235
▁DAOM	-12236
▁EBML	-12237
▁EVAL	-12238
▁GBMS	-12239
▁GLES	-12240
▁JAVA	-12241
▁Khẩu	-12242
▁LEAP	-12243
▁MAJO	-12244
▁MDAG	-12245
▁MONI	-12246
▁PCHA	-12247
▁Plur	-12248
▁QMUI	-12249
▁SIDE	-12250
▁SQLF	-12251
▁SSLS	-12252
▁XmlE	-12253
▁[{0}	-12254
▁mdrU	-12255
▁异常发生	-12256
接收的参数	-12257
路径白名单	-12258
("#");	-12259
("&");	-12260
("0100	-12261
("100"	-12262
(":").	-12263
("<!--	-12264
("\\",	-12265
("\\\\	-12266
("]").	-12267
(':').	-12268
('?');	-12269
(1234.	-12270
(256);	-12271
(404).	-12272
(404);	-12273
(45000	-12274
(\"/\"	-12275
);"));	-12276
-8000-	-12277
00")).	-12278
01_));	-12279
030502	-12280
1")));	-12281
11,11,	-12282
184172	-12283
1\",\"	-12284
1\0\1\	-12285
2()));	-12286
201604	-12287
234567	-12288
383419	-12289
4()));	-12290
528");	-12291
666666	-12292
99999,	-12293
://10.	-12294
<>(0);	-12295
<>(3);	-12296
<>(4);	-12297
={3}";	-12298
={}]",	-12299
>()));	-12300
ACHMAB	-12301
ALLOCA	-12302
BOUNDS	-12303
BSSIDI	-12304
CASING	-12305
CHENWA	-12306
DINJSP	-12307
DOCIDS	-12308
DOUCHE	-12309
ECONDI	-12310
ENDINJ	-12311
EVALUA	-12312
GANISM	-12313
IDADES	-12314
IFINHL	-12315
INVOCA	-12316
ISCINJ	-12317
JUNGLE	-12318
JVMCIB	-12319
KILLED	-12320
LAPSED	-12321
MENINJ	-12322
MUCINJ	-12323
NSLING	-12324
NrOfOu	-12325
NumEff	-12326
OAMING	-12327
OBJLNK	-12328
ONINJP	-12329
OUDMAB	-12330
OffMul	-12331
SHOULD	-12332
SIGNUP	-12333
SININJ	-12334
SOLDIE	-12335
SPLASH	-12336
UMPINJ	-12337
WHEELS	-12338
YMPINJ	-12339
YMPINS	-12340
YNGINS	-12341
[0][0]	-12342
_1"));	-12343
_14814	-12344
_17804	-12345
_78837	-12346
hQLErr	-12347
llCurr	-12348
rmXmlN	-12349
ведите	-12350
▁"&");	-12351
▁"','"	-12352
▁")").	-12353
▁"1.0-	-12354
▁"\","	-12355
▁"\">"	-12356
▁"_001	-12357
▁'\'')	-12358
▁'{}',	-12359
▁0.01;	-12360
▁10.0,	-12361
▁10.0;	-12362
▁120);	-12363
▁128);	-12364
▁150);	-12365
▁2")).	-12366
▁3)));	-12367
▁31));	-12368
▁32));	-12369
▁360);	-12370
▁4919,	-12371
▁51));	-12372
▁56.86	-12373
▁70));	-12374
▁BLANK	-12375
▁BLINK	-12376
▁CAVOK	-12377
▁COLON	-12378
▁DUMMY	-12379
▁ENEMY	-12380
▁HBASE	-12381
▁HSSFW	-12382
▁LDAPF	-12383
▁PGDSL	-12384
▁POLIC	-12385
▁SPACE	-12386
▁SdkCl	-12387
▁USAGE	-12388
▁XPDLC	-12389
▁XWPFP	-12390
▁XmlAd	-12391
▁dBClu	-12392
▁glfwD	-12393
▁~((-1	-12394
&#(!@&*	-12395
("(2,1,	-12396
("**");	-12397
("*****	-12398
("100",	-12399
("\""))	-12400
()])));	-12401
(0.0));	-12402
(3))));	-12403
600006,	-12404
699999,	-12405
://1.1.	-12406
:01")),	-12407
ADMINIS	-12408
ALIASES	-12409
BALANCE	-12410
BINMODE	-12411
EADABLE	-12412
EPIDINJ	-12413
EPLACED	-12414
ESSIONS	-12415
EXPONEN	-12416
FINDING	-12417
INVOKED	-12418
IONALLY	-12419
KEYCODE	-12420
LLAMADA	-12421
MISSIVE	-12422
ONCHINS	-12423
PCAVINJ	-12424
PLACINJ	-12425
SECUNDA	-12426
SUBCONJ	-12427
[0]"));	-12428
\"`"));	-12429
_152584	-12430
_8888);	-12431
llArgum	-12432
▁"';");	-12433
▁"30005	-12434
▁"30531	-12435
▁10000)	-12436
▁128));	-12437
▁1611,"	-12438
▁180.0;	-12439
▁4352);	-12440
▁4354);	-12441
▁72.2);	-12442
▁75.6);	-12443
▁91.5);	-12444
▁CLOSED	-12445
▁COMPAC	-12446
▁CrudEd	-12447
▁DOMAIN	-12448
▁FullQu	-12449
▁PlugFl	-12450
▁QMUISw	-12451
▁WEBAPP	-12452
▁WINDOW	-12453
(2.0)));	-12454
80830144	-12455
;1.0"));	-12456
=\"1.0\"	-12457
BLACKLIS	-12458
BUNDLEID	-12459
BulkAdGr	-12460
CAMPAIGN	-12461
CHECKSUM	-12462
DISSOLVE	-12463
INCOMPLE	-12464
MLFLECHA	-12465
OSCALING	-12466
SIONABLE	-12467
UNIDADES	-12468
[0-9]{1,	-12469
\003\340	-12470
\030\006	-12471
_147411_	-12472
▁100000;	-12473
▁1611]",	-12474
▁DYNAMIC	-12475
▁INVOKES	-12476
▁LOCKING	-12477
当前插入数据字段	-12478
00000004;	-12479
CANONICAL	-12480
DISPLAYED	-12481
EPLACEMEN	-12482
IONALIDAD	-12483
MAXIMIZED	-12484
SEMICOLON	-12485
SUSPENDED	-12486
\022\024\	-12487
\022\025\	-12488
▁LOCALHOS	-12489
**********	-12490
----------	-12491
//////////	-12492
0706528");	-12493
1000036"))	-12494
1841720019	-12495
▁123456789	-12496
▁mIGSYSurf	-12497
-1000-8000-	-12498
://1.1.1.1:	-12499
://127.0.0.	-12500
=*@!&#(!@&*	-12501
\":\"1\",\"	-12502
▁PHONENUMBE	-12503
▁SUBMISSION	-12504
("2009-02-03	-12505
("2017-06-06	-12506
............	-12507
01:01:01")),	-12508
▁"1.0.0")));	-12509
("20180830144	-12510
▁'20170413'),	-12511
▁SELECCIONADO	-12512
▁FUNCIONALIDAD	-12513
-1000-8000-00805	-12514
<<<<<<<<<<<<<<<<	-12515
#"	-12516
$;	-12517
%.	-12518
&&	-12519
)*	-12520
)-	-12521
,-	-12522
,:	-12523
/[	-12524
2$	-12525
4=	-12526
6"	-12527
8"	-12528
:#	-12529
:'	-12530
:7	-12531
CJ	-12532
FQ	-12533
HL	-12534
KO	-12535
NZ	-12536
Nw	-12537
PJ	-12538
QX	-12539
Qk	-12540
Qq	-12541
UG	-12542
UK	-12543
VP	-12544
Vg	-12545
_|	-12546
dq	-12547
qE	-12548
qF	-12549
uK	-12550
uu	-12551
{1	-12552
}[	-12553
}}	-12554
ер	-12555
ет	-12556
ли	-12557
но	-12558
об	-12559
ть	-12560
▁大	-12561
、?	-12562
いた	-12563
いて	-12564
これ	-12565
なし	-12566
まで	-12567
よう	-12568
れて	-12569
一般	-12570
中国	-12571
事件	-12572
从未	-12573
仕事	-12574
会话	-12575
停车	-12576
允许	-12577
元素	-12578
出版	-12579
初始	-12580
动画	-12581
区块	-12582
句柄	-12583
号码	-12584
地点	-12585
备注	-12586
大小	-12587
完成	-12588
定义	-12589
布局	-12590
张三	-12591
必ず	-12592
意义	-12593
接口	-12594
支出	-12595
敵軍	-12596
显示	-12597
查找	-12598
确认	-12599
立即	-12600
自軍	-12601
购买	-12602
转换	-12603
返佣	-12604
重复	-12605
需要	-12606
#\\	-12607
$%^	-12608
%%\	-12609
%08	-12610
(-(	-12611
(50	-12612
+02	-12613
-09	-12614
-11	-12615
-20	-12616
-32	-12617
-6;	-12618
-9.	-12619
.).	-12620
.*)	-12621
.0.	-12622
.0;	-12623
.1=	-12624
01)	-12625
03)	-12626
044	-12627
057	-12628
05;	-12629
074	-12630
08_	-12631
0[1	-12632
0},	-12633
10(	-12634
10/	-12635
103	-12636
106	-12637
10_	-12638
14_	-12639
15)	-12640
158	-12641
175	-12642
179	-12643
17:	-12644
18,	-12645
187	-12646
18;	-12647
19,	-12648
1>>	-12649
210	-12650
225	-12651
24)	-12652
247	-12653
249	-12654
269	-12655
28,	-12656
288	-12657
29:	-12658
2<?	-12659
2{}	-12660
3))	-12661
3._	-12662
305	-12663
313	-12664
33:	-12665
345	-12666
349	-12667
34;	-12668
354	-12669
375	-12670
376	-12671
380	-12672
39)	-12673
39;	-12674
4")	-12675
40;	-12676
45.	-12677
48.	-12678
5.4	-12679
51.	-12680
56,	-12681
60;	-12682
63;	-12683
687	-12684
706	-12685
733	-12686
79,	-12687
80.	-12688
802	-12689
83,	-12690
870	-12691
87_	-12692
927	-12693
:./	-12694
:44	-12695
:[2	-12696
='+	-12697
=0,	-12698
=2"	-12699
=3;	-12700
=4;	-12701
>".	-12702
ABB	-12703
AFF	-12704
AIS	-12705
ASF	-12706
ASG	-12707
ASH	-12708
AXI	-12709
Amu	-12710
BCr	-12711
BSh	-12712
BXO	-12713
CPY	-12714
CfC	-12715
DBE	-12716
DVP	-12717
EEK	-12718
EGG	-12719
ELF	-12720
EWE	-12721
Elm	-12722
FAB	-12723
FEC	-12724
FFF	-12725
FPS	-12726
Fld	-12727
GCH	-12728
GDX	-12729
GOL	-12730
GON	-12731
GlC	-12732
HAP	-12733
HGB	-12734
HIA	-12735
HOM	-12736
HPO	-12737
HSB	-12738
IAu	-12739
IDC	-12740
IEC	-12741
IEd	-12742
IFF	-12743
IQu	-12744
ISA	-12745
JEU	-12746
KAg	-12747
LCP	-12748
LDA	-12749
LEE	-12750
MDG	-12751
MDH	-12752
MMO	-12753
MQP	-12754
MSB	-12755
MSX	-12756
NCH	-12757
NHS	-12758
NMA	-12759
NPE	-12760
NQu	-12761
OGA	-12762
OMS	-12763
ONA	-12764
OPI	-12765
OPN	-12766
OkP	-12767
PCH	-12768
PLI	-12769
PNM	-12770
PSU	-12771
QBD	-12772
QIU	-12773
SCI	-12774
SDD	-12775
SDO	-12776
SID	-12777
SIP	-12778
SMB	-12779
SNA	-12780
SUI	-12781
Sug	-12782
UCP	-12783
UDP	-12784
UFO	-12785
UNW	-12786
VLC	-12787
VLE	-12788
VMM	-12789
VmF	-12790
WIP	-12791
XEO	-12792
XPA	-12793
XWr	-12794
YUN	-12795
ZHI	-12796
ZkS	-12797
[((	-12798
])"	-12799
]][	-12800
_).	-12801
_2[	-12802
_6.	-12803
_9.	-12804
dLd	-12805
ddk	-12806
dfk	-12807
dkE	-12808
dlr	-12809
drg	-12810
fID	-12811
fId	-12812
fIm	-12813
ffO	-12814
fwk	-12815
gFX	-12816
gWh	-12817
glI	-12818
hhu	-12819
hlg	-12820
hll	-12821
hmN	-12822
hrw	-12823
hul	-12824
kAw	-12825
kBu	-12826
kOf	-12827
kUr	-12828
kdu	-12829
lCA	-12830
lPB	-12831
lVf	-12832
ldl	-12833
lfr	-12834
lqu	-12835
mUI	-12836
mdq	-12837
mgw	-12838
mhu	-12839
mlF	-12840
qdd	-12841
rEq	-12842
rFK	-12843
rMu	-12844
rUr	-12845
rdX	-12846
rdz	-12847
rlI	-12848
rmK	-12849
rwr	-12850
urK	-12851
urM	-12852
wAm	-12853
wIf	-12854
wlD	-12855
zOu	-12856
zql	-12857
▁(5	-12858
▁(:	-12859
▁(\	-12860
▁-9	-12861
▁.0	-12862
▁54	-12863
▁56	-12864
▁<-	-12865
▁AH	-12866
▁AV	-12867
▁CF	-12868
▁DH	-12869
▁DM	-12870
▁HP	-12871
▁KM	-12872
▁LS	-12873
▁MI	-12874
▁UL	-12875
▁UU	-12876
▁XV	-12877
▁[:	-12878
▁[<	-12879
▁fg	-12880
▁hg	-12881
▁kM	-12882
▁qm	-12883
▁ug	-12884
▁wE	-12885
▁wF	-12886
▁{[	-12887
▁}"	-12888
▁по	-12889
▁║"	-12890
▁是否	-12891
あった	-12892
ことに	-12893
るもの	-12894
不支持	-12895
值检查	-12896
场动画	-12897
无意义	-12898
服务器	-12899
次执行	-12900
者模式	-12901
该用户	-12902
$$$(	-12903
',['	-12904
("%4	-12905
("',	-12906
("(%	-12907
("/*	-12908
("0.	-12909
("10	-12910
("15	-12911
("22	-12912
(";\	-12913
("[^	-12914
("],	-12915
(0)[	-12916
(10)	-12917
(198	-12918
(23.	-12919
(3))	-12920
(30.	-12921
(31,	-12922
(326	-12923
(36,	-12924
(49,	-12925
(51,	-12926
(54,	-12927
(57.	-12928
(70,	-12929
(\"#	-12930
)(1,	-12931
):",	-12932
-1";	-12933
-5);	-12934
.0\\	-12935
0)).	-12936
0-9-	-12937
0-9_	-12938
00";	-12939
000)	-12940
00:4	-12941
0[0]	-12942
11";	-12943
11()	-12944
1187	-12945
1193	-12946
12()	-12947
1213	-12948
123.	-12949
13()	-12950
14()	-12951
141;	-12952
15%3	-12953
163:	-12954
1:1:	-12955
1>>>	-12956
2)))	-12957
2005	-12958
200;	-12959
22);	-12960
23),	-12961
23);	-12962
230;	-12963
26",	-12964
2[1]	-12965
32];	-12966
36),	-12967
36);	-12968
3753	-12969
3765	-12970
3999	-12971
48",	-12972
4_2.	-12973
54%3	-12974
55",	-12975
56";	-12976
6)).	-12977
78);	-12978
79);	-12979
8"),	-12980
80);	-12981
9.7,	-12982
96",	-12983
99",	-12984
:"),	-12985
:00:	-12986
:818	-12987
=3",	-12988
=?",	-12989
>.";	-12990
ACHA	-12991
APIC	-12992
APIG	-12993
AUGE	-12994
AWSA	-12995
AddA	-12996
BEHW	-12997
BPlu	-12998
Bldr	-12999
CMPr	-13000
COSN	-13001
CSSC	-13002
CSVP	-13003
CmdE	-13004
CurP	-13005
DDSU	-13006
DSAS	-13007
DUPS	-13008
EASU	-13009
ECAS	-13010
ECHO	-13011
ECMA	-13012
ELIN	-13013
EMFU	-13014
EWAY	-13015
EduD	-13016
FAMS	-13017
FAVO	-13018
FIVE	-13019
FMLI	-13020
GCPU	-13021
GCYM	-13022
GHOS	-13023
GLAu	-13024
GSYV	-13025
Gluu	-13026
HEAS	-13027
HELL	-13028
IAGE	-13029
IDOS	-13030
IFAS	-13031
IGAS	-13032
ILIA	-13033
IMPL	-13034
IPSE	-13035
ISON	-13036
IVEC	-13037
IdGr	-13038
IdIN	-13039
IdId	-13040
IdSu	-13041
JDOM	-13042
JMXC	-13043
JUKE	-13044
JdkM	-13045
MLPr	-13046
NumU	-13047
OSVO	-13048
OfAF	-13049
OfCu	-13050
OrBr	-13051
OrSu	-13052
PAWN	-13053
PHYS	-13054
PLDI	-13055
PLOY	-13056
POPU	-13057
POSS	-13058
PduM	-13059
SAXN	-13060
SECP	-13061
SErr	-13062
SHOO	-13063
SLUG	-13064
SONG	-13065
SQLI	-13066
SqlJ	-13067
SqlU	-13068
ULSA	-13069
UNSC	-13070
USGS	-13071
UVEC	-13072
UrlJ	-13073
VALO	-13074
VEGA	-13075
VFSL	-13076
WILL	-13077
XMLI	-13078
XOff	-13079
XmlF	-13080
YCLE	-13081
YCSQ	-13082
YLES	-13083
[101	-13084
\005	-13085
\010	-13086
\024	-13087
])",	-13088
]);\	-13089
]}";	-13090
_189	-13091
_1_;	-13092
_28.	-13093
_296	-13094
_3).	-13095
_30.	-13096
_3_)	-13097
_600	-13098
_8()	-13099
dArm	-13100
dIdN	-13101
dOrU	-13102
dPwd	-13103
frfl	-13104
fulD	-13105
gISO	-13106
gIfN	-13107
gOfW	-13108
hMLE	-13109
hNum	-13110
hOld	-13111
kArm	-13112
kClu	-13113
kDur	-13114
kNum	-13115
kudu	-13116
lCSV	-13117
lIdG	-13118
lOrN	-13119
ldAl	-13120
ldEl	-13121
ldFr	-13122
ldSh	-13123
lfGr	-13124
llAf	-13125
llOr	-13126
llOw	-13127
mArg	-13128
mChr	-13129
mOVF	-13130
mgId	-13131
mlId	-13132
mlWr	-13133
mumV	-13134
rAlg	-13135
rChr	-13136
rCmd	-13137
rGUI	-13138
rHum	-13139
rMul	-13140
rOfB	-13141
rSqI	-13142
rdfu	-13143
rkCh	-13144
rkFr	-13145
rllf	-13146
rmSu	-13147
udDr	-13148
ughS	-13149
ulCr	-13150
ulkC	-13151
umWr	-13152
urPh	-13153
urrE	-13154
▁"$$	-13155
▁"44	-13156
▁"``	-13157
▁%1$	-13158
▁%10	-13159
▁','	-13160
▁'19	-13161
▁("\	-13162
▁((1	-13163
▁((2	-13164
▁(1,	-13165
▁(\"	-13166
▁/**	-13167
▁02,	-13168
▁1.2	-13169
▁104	-13170
▁10]	-13171
▁110	-13172
▁134	-13173
▁26:	-13174
▁29;	-13175
▁2])	-13176
▁3.5	-13177
▁35)	-13178
▁36)	-13179
▁3},	-13180
▁42;	-13181
▁45;	-13182
▁46;	-13183
▁5",	-13184
▁5.5	-13185
▁52;	-13186
▁54.	-13187
▁61,	-13188
▁637	-13189
▁708	-13190
▁73,	-13191
▁79,	-13192
▁8),	-13193
▁8).	-13194
▁8.5	-13195
▁83,	-13196
▁87,	-13197
▁91,	-13198
▁93,	-13199
▁AAX	-13200
▁ALA	-13201
▁AdM	-13202
▁BUS	-13203
▁Bur	-13204
▁Cul	-13205
▁DBC	-13206
▁DBH	-13207
▁DBW	-13208
▁DIM	-13209
▁DUP	-13210
▁EVY	-13211
▁EXI	-13212
▁GPS	-13213
▁HgC	-13214
▁IAg	-13215
▁INF	-13216
▁IPl	-13217
▁ISu	-13218
▁IdM	-13219
▁IdP	-13220
▁JOr	-13221
▁KEK	-13222
▁KVM	-13223
▁LIB	-13224
▁LOC	-13225
▁LOL	-13226
▁LUD	-13227
▁LZW	-13228
▁MDI	-13229
▁MIO	-13230
▁MOr	-13231
▁MPC	-13232
▁NDC	-13233
▁NFS	-13234
▁NLS	-13235
▁OAK	-13236
▁OLA	-13237
▁Ord	-13238
▁PAX	-13239
▁PFN	-13240
▁Plu	-13241
▁Pql	-13242
▁SDK	-13243
▁Sug	-13244
▁UCS	-13245
▁UIU	-13246
▁VGL	-13247
▁XSD	-13248
▁[${	-13249
▁[{\	-13250
▁\"<	-13251
▁``"	-13252
▁dBV	-13253
▁fdC	-13254
▁flL	-13255
▁gCu	-13256
▁glu	-13257
▁llr	-13258
▁mCr	-13259
▁mEl	-13260
▁mPl	-13261
▁mWr	-13262
▁mgB	-13263
▁rwf	-13264
▁ulC	-13265
▁wIg	-13266
▁wlS	-13267
▁|-\	-13268
。");	-13269
修改失败	-13270
地点分类	-13271
复制属性	-13272
开始时间	-13273
开始调用	-13274
操作失败	-13275
更新财务	-13276
窗口句柄	-13277
身份认证	-13278
错误信息	-13279
").__	-13280
##");	-13281
("%")	-13282
("%09	-13283
("(\\	-13284
("000	-13285
("<--	-13286
("[1.	-13287
("[4,	-13288
("[5,	-13289
("\\.	-13290
("\\\	-13291
(')',	-13292
(1.3,	-13293
(150,	-13294
(153,	-13295
(19);	-13296
(250,	-13297
(256,	-13298
(30),	-13299
(3276	-13300
(50),	-13301
))");	-13302
++]);	-13303
-02",	-13304
-19",	-13305
._01_	-13306
0003'	-13307
0012;	-13308
0013;	-13309
0014;	-13310
0017;	-13311
0018;	-13312
0019;	-13313
0028;	-13314
0029;	-13315
0034;	-13316
0035;	-13317
0036;	-13318
0039;	-13319
0040.	-13320
0045;	-13321
0046;	-13322
0047;	-13323
0048;	-13324
03000	-13325
04-16	-13326
07000	-13327
0[8],	-13328
0[9],	-13329
1.3],	-13330
10'),	-13331
1000.	-13332
10\1\	-13333
11").	-13334
111",	-13335
12.16	-13336
1305_	-13337
15870	-13338
16();	-13339
18");	-13340
1_15_	-13341
1_9_3	-13342
2005,	-13343
22");	-13344
29");	-13345
3")),	-13346
30137	-13347
4());	-13348
4.17.	-13349
401",	-13350
404()	-13351
59:59	-13352
6")),	-13353
672);	-13354
67\1\	-13355
7"));	-13356
75");	-13357
8.201	-13358
8080/	-13359
8583.	-13360
88");	-13361
:[2:$	-13362
;1.1,	-13363
=2010	-13364
ABSEN	-13365
ACKED	-13366
ALLIC	-13367
AMBIG	-13368
ANGES	-13369
ASSIS	-13370
AUDSw	-13371
AddPr	-13372
AllPu	-13373
BADGE	-13374
BGAIN	-13375
BLADI	-13376
CAUSE	-13377
CHASE	-13378
CLAMP	-13379
COMBO	-13380
CSVOu	-13381
DECEP	-13382
DIFFE	-13383
DISCA	-13384
EFFIC	-13385
EFLEC	-13386
ELEPO	-13387
ENCED	-13388
EPASS	-13389
ESOLU	-13390
EVOKE	-13391
FMLPr	-13392
FSArr	-13393
FXMLL	-13394
GENDA	-13395
HAPLO	-13396
IENCY	-13397
IGNOF	-13398
ILENE	-13399
INOUS	-13400
IPLIE	-13401
ISCAL	-13402
JAPAN	-13403
JOINE	-13404
LEAVE	-13405
LILLI	-13406
MAGEN	-13407
MAJEU	-13408
MAZEN	-13409
MOVED	-13410
NUXEO	-13411
NullH	-13412
NullI	-13413
NullO	-13414
NumPh	-13415
ONOUS	-13416
PCION	-13417
PHENO	-13418
PICKE	-13419
PPING	-13420
SAMLM	-13421
SCAud	-13422
SENDE	-13423
SLAVE	-13424
SUMME	-13425
SdkCl	-13426
SqlSu	-13427
VABLE	-13428
XmlAd	-13429
XmlNS	-13430
YLESS	-13431
ZHENG	-13432
[0-9]	-13433
[0])]	-13434
[1000	-13435
[]...	-13436
\0224	-13437
])));	-13438
][1].	-13439
_000,	-13440
_1_);	-13441
dAllI	-13442
dAllM	-13443
dOfAg	-13444
dWNMA	-13445
dlUrl	-13446
gCurr	-13447
▁	-13448
.	-13449
r	-13450
l	-13451
(	-13452
)	-13453
;	-13454
u	-13455
m	-13456
d	-13457
f	-13458
,	-13459
"	-13460
h	-13461
=	-13462
g	-13463
{	-13464
}	-13465
S	-13466
C	-13467
I	-13468
A	-13469
E	-13470
_	-13471
P	-13472
w	-13473
D	-13474
N	-13475
O	-13476
k	-13477
M	-13478
0	-13479
L	-13480
F	-13481
B	-13482
1	-13483
>	-13484
U	-13485
<	-13486
+	-13487
G	-13488
H	-13489
2	-13490
V	-13491
W	-13492
:	-13493
-	-13494
[	-13495
]	-13496
z	-13497
K	-13498
!	-13499
3	-13500
J	-13501
/	-13502
\	-13503
&	-13504
Y	-13505
4	-13506
q	-13507
5	-13508
X	-13509
'	-13510
7	-13511
|	-13512
6	-13513
8	-13514
Q	-13515
*	-13516
9	-13517
?	-13518
Z	-13519
%	-13520
#	-13521
$	-13522
@	-13523
^	-13524
~	-13525
`	-13526
失	-13527
败	-13528
に	-13529
的	-13530
数	-13531
た	-13532
の	-13533
е	-13534
不	-13535
用	-13536
и	-13537
о	-13538
为	-13539
行	-13540
务	-13541
。	-13542
成	-13543
入	-13544
时	-13545
っ	-13546
ó	-13547
а	-13548
信	-13549
除	-13550
常	-13551
、	-13552
る	-13553
异	-13554
功	-13555
в	-13556
し	-13557
息	-13558
户	-13559
新	-13560
请	-13561
т	-13562
р	-13563
删	-13564
を	-13565
加	-13566
在	-13567
京	-13568
東	-13569
错	-13570
都	-13571
取	-13572
í	-13573
单	-13574
文	-13575
置	-13576
と	-13577
存	-13578
н	-13579
は	-13580
据	-13581
な	-13582
出	-13583
查	-13584
件	-13585
分	-13586
类	-13587
设	-13588
も	-13589
录	-13590
间	-13591
号	-13592
名	-13593
い	-13594
す	-13595
财	-13596
已	-13597
程	-13598
к	-13599
能	-13600
前	-13601
开	-13602
空	-13603
て	-13604
中	-13605
é	-13606
═	-13607
修	-13608
接	-13609
未	-13610
参	-13611
当	-13612
ñ	-13613
ú	-13614
收	-13615
误	-13616
配	-13617
д	-13618
是	-13619
法	-13620
á	-13621
л	-13622
更	-13623
有	-13624
定	-13625
获	-13626
с	-13627
量	-13628
で	-13629
回	-13630
大	-13631
改	-13632
无	-13633
点	-13634
线	-13635
码	-13636
结	-13637
内	-13638
发	-13639
始	-13640
м	-13641
が	-13642
れ	-13643
值	-13644
到	-13645
方	-13646
登	-13647
п	-13648
一	-13649
增	-13650
批	-13651
у	-13652
动	-13653
启	-13654
容	-13655
果	-13656
系	-13657
重	-13658
体	-13659
支	-13660
正	-13661
认	-13662
询	-13663
ま	-13664
或	-13665
提	-13666
服	-13667
添	-13668
こ	-13669
ー	-13670
下	-13671
了	-13672
返	-13673
║	-13674
人	-13675
输	-13676
上	-13677
客	-13678
小	-13679
か	-13680
字	-13681
实	-13682
庫	-13683
调	-13684
з	-13685
я	-13686
地	-13687
报	-13688
本	-13689
状	-13690
理	-13691
目	-13692
块	-13693
态	-13694
日	-13695
次	-13696
ы	-13697
交	-13698
今	-13699
付	-13700
任	-13701
天	-13702
标	-13703
页	-13704
П	-13705
ン	-13706
事	-13707
匹	-13708
合	-13709
否	-13710
复	-13711
あ	-13712
后	-13713
密	-13714
年	-13715
度	-13716
消	-13717
统	-13718
菜	-13719
蓝	-13720
表	-13721
证	-13722
超	-13723
连	-13724
ら	-13725
例	-13726
器	-13727
图	-13728
属	-13729
找	-13730
断	-13731
模	-13732
注	-13733
牙	-13734
确	-13735
者	-13736
载	-13737
ã	-13738
个	-13739
使	-13740
列	-13741
口	-13742
导	-13743
式	-13744
期	-13745
没	-13746
生	-13747
自	-13748
被	-13749
账	-13750
送	-13751
作	-13752
保	-13753
应	-13754
性	-13755
所	-13756
称	-13757
立	-13758
选	-13759
à	-13760
き	-13761
く	-13762
停	-13763
关	-13764
写	-13765
可	-13766
最	-13767
示	-13768
端	-13769
等	-13770
级	-13771
组	-13772
该	-13773
进	-13774
道	-13775
部	-13776
よ	-13777
会	-13778
传	-13779
典	-13780
型	-13781
子	-13782
月	-13783
知	-13784
私	-13785
第	-13786
默	-13787
Ç	-13788
б	-13789
ậ	-13790
さ	-13791
り	-13792
击	-13793
商	-13794
场	-13795
对	-13796
持	-13797
操	-13798
片	-13799
索	-13800
編	-13801
计	-13802
记	-13803
面	-13804
项	-13805
đ	-13806
й	-13807
ず	-13808
ス	-13809
你	-13810
公	-13811
制	-13812
化	-13813
址	-13814
我	-13815
敵	-13816
暂	-13817
现	-13818
符	-13819
Ã	-13820
ạ	-13821
う	-13822
そ	-13823
だ	-13824
以	-13825
位	-13826
嗨	-13827
备	-13828
工	-13829
建	-13830
执	-13831
择	-13832
检	-13833
段	-13834
渠	-13835
病	-13836
维	-13837
编	-13838
艦	-13839
贼	-13840
路	-13841
转	-13842
集	-13843
高	-13844
ь	-13845
め	-13846
义	-13847
份	-13848
初	-13849
区	-13850
古	-13851
处	-13852
完	-13853
寒	-13854
岩	-13855
径	-13856
意	-13857
波	-13858
白	-13859
经	-13860
解	-13861
警	-13862
话	-13863
軍	-13864
车	-13865
通	-13866
问	-13867
ç	-13868
ш	-13869
ア	-13870
マ	-13871
ラ	-13872
レ	-13873
与	-13874
受	-13875
必	-13876
换	-13877
撃	-13878
机	-13879
条	-13880
来	-13881
款	-13882
联	-13883
至	-13884
身	-13885
限	-13886
에	-13887
В	-13888
С	-13889
ん	-13890
ジ	-13891
価	-13892
値	-13893
刷	-13894
包	-13895
布	-13896
引	-13897
情	-13898
手	-13899
描	-13900
搜	-13901
权	-13902
束	-13903
板	-13904
此	-13905
版	-13906
电	-13907
种	-13908
节	-13909
订	-13910
过	-13911
降	-13912
预	-13913
题	-13914
ư	-13915
ẩ	-13916
ゾ	-13917
于	-13918
从	-13919
别	-13920
句	-13921
员	-13922
局	-13923
戦	-13924
按	-13925
插	-13926
攻	-13927
析	-13928
格	-13929
画	-13930
移	-13931
窗	-13932
色	-13933
要	-13934
读	-13935
需	-13936
러	-13937
°	-13938
ê	-13939
ا	-13940
د	-13941
ả	-13942
【	-13943
】	-13944
け	-13945
つ	-13946
べ	-13947
ッ	-13948
ド	-13949
メ	-13950
三	-13951
创	-13952
即	-13953
同	-13954
和	-13955
対	-13956
市	-13957
後	-13958
得	-13959
態	-13960
打	-13961
政	-13962
效	-13963
時	-13964
水	-13965
求	-13966
特	-13967
秋	-13968
签	-13969
算	-13970
装	-13971
试	-13972
运	-13973
钥	-13974
钮	-13975
门	-13976
闭	-13977
验	-13978
글	-13979
력	-13980
제	-13981
Á	-13982
É	-13983
ä	-13984
ö	-13985
г	-13986
ầ	-13987
“	-13988
”	-13989
お	-13990
わ	-13991
イ	-13992
ク	-13993
ダ	-13994
主	-13995
二	-13996
供	-13997
元	-13998
印	-13999
及	-14000
只	-14001
品	-14002
张	-14003
心	-14004
您	-14005
扫	-14006
指	-14007
暑	-14008
源	-14009
準	-14010
王	-14011
申	-14012
相	-14013
管	-14014
箱	-14015
网	-14016
考	-14017
角	-14018
触	-14019
访	-14020
购	-14021
邮	-14022
雪	-14023
非	-14024
생	-14025
정	-14026
ô	-14027
ü	-14028
Đ	-14029
ı	-14030
М	-14031
О	-14032
ه	-14033
ی	-14034
「	-14035
」	-14036
ど	-14037
书	-14038
买	-14039
产	-14040
仕	-14041
佣	-14042
允	-14043
全	-14044
切	-14045
刊	-14046
历	-14047
压	-14048
厳	-14049
去	-14050
反	-14051
变	-14052
国	-14053
報	-14054
填	-14055
家	-14056
尊	-14057
序	-14058
形	-14059
愛	-14060
播	-14061
放	-14062
教	-14063
整	-14064
明	-14065
春	-14066
显	-14067
柄	-14068
止	-14069
活	-14070
発	-14071
素	-14072
絶	-14073
终	-14074
续	-14075
聊	-14076
般	-14077
议	-14078
许	-14079
这	-14080
露	-14081
¥	-14082
ý	-14083
З	-14084
Н	-14085
ч	-14086
щ	-14087
ب	-14088
ش	-14089
و	-14090
ề	-14091
‚	-14092
→	-14093
コ	-14094
テ	-14095
ト	-14096
何	-14097
假	-14098
先	-14099
共	-14100
册	-14101
冬	-14102
力	-14103
勤	-14104
原	-14105
吃	-14106
圆	-14107
夏	-14108
多	-14109
如	-14110
山	-14111
师	-14112
库	-14113
待	-14114
总	-14115
敬	-14116
普	-14117
書	-14118
機	-14119
步	-14120
每	-14121
矩	-14122
禁	-14123
秒	-14124
稍	-14125
経	-14126
约	-14127
络	-14128
详	-14129
象	-14130
退	-14131
钟	-14132
际	-14133
雷	-14134
발	-14135
삭	-14136
성	-14137
요	-14138
을	-14139
일	-14140
출	-14141
Ó	-14142
ø	-14143
ă	-14144
ć	-14145
ł	-14146
ś	-14147
И	-14148
ж	-14149
ב	-14150
י	-14151
م	-14152
ن	-14153
ớ	-14154
ụ	-14155
ủ	-14156
ử	-14157
—	-14158
€	-14159
♖	-14160
♗	-14161
♘	-14162
♜	-14163
♝	-14164
♞	-14165
え	-14166
ち	-14167
ぬ	-14168
ば	-14169
み	-14170
む	-14171
や	-14172
ろ	-14173
エ	-14174
タ	-14175
パ	-14176
ム	-14177
ル	-14178
且	-14179
业	-14180
举	-14181
互	-14182
亚	-14183
亮	-14184
代	-14185
众	-14186
医	-14187
単	-14188
却	-14189
台	-14190
向	-14191
含	-14192
外	-14193
女	-14194
嬴	-14195
宝	-14196
実	-14197
影	-14198
往	-14199
従	-14200
思	-14201
感	-14202
托	-14203
拟	-14204
排	-14205
昼	-14206
根	-14207
業	-14208
毕	-14209
流	-14210
测	-14211
清	-14212
済	-14213
激	-14214
照	-14215
爱	-14216
班	-14217
男	-14218
療	-14219
秦	-14220
税	-14221
籍	-14222
继	-14223
脚	-14224
臨	-14225
芒	-14226
补	-14227
見	-14228
视	-14229
誠	-14230
請	-14231
评	-14232
费	-14233
込	-14234
速	-14235
達	-14236
選	-14237
針	-14238
链	-14239
锅	-14240
隊	-14241
雨	-14242
须	-14243
饭	-14244
驚	-14245
농	-14246
는	-14247
다	-14248
류	-14249
리	-14250
번	-14251
산	-14252
서	-14253
오	-14254
주	-14255
품	-14256
️	-14257
£	-14258
§	-14259
Í	-14260
Ö	-14261
Ø	-14262
è	-14263
ą	-14264
č	-14265
μ	-14266
σ	-14267
Д	-14268
х	-14269
ح	-14270
ر	-14271
ص	-14272
ل	-14273
ở	-14274
ợ	-14275
–	-14276
‘	-14277
’	-14278
》	-14279
せ	-14280
ィ	-14281
セ	-14282
フ	-14283
プ	-14284
ベ	-14285
企	-14286
低	-14287
備	-14288
其	-14289
剪	-14290
卡	-14291
命	-14292
响	-14293
四	-14294
土	-14295
域	-14296
場	-14297
夜	-14298
季	-14299
少	-14300
层	-14301
帖	-14302
恢	-14303
旧	-14304
易	-14305
李	-14306
架	-14307
样	-14308
標	-14309
権	-14310
残	-14311
永	-14312
滑	-14313
满	-14314
灣	-14315
热	-14316
物	-14317
环	-14318
甲	-14319
略	-14320
百	-14321
直	-14322
看	-14323
短	-14324
稿	-14325
章	-14326
終	-14327
纳	-14328
缩	-14329
而	-14330
藏	-14331
裁	-14332
规	-14333
言	-14334
計	-14335
読	-14336
论	-14337
豆	-14338
赋	-14339
走	-14340
远	-14341
述	-14342
释	-14343
金	-14344
関	-14345
霜	-14346
音	-14347
额	-14348
首	-14349
가	-14350
고	-14351
과	-14352
내	-14353
세	-14354
스	-14355
입	-14356
잉	-14357
자	-14358
째	-14359
파	-14360
항	-14361
해	-14362
¢	-14363
·	-14364
¿	-14365
â	-14366
ò	-14367
Ś	-14368
ż	-14369
ƒ	-14370
̳	-14371
Г	-14372
К	-14373
ф	-14374
э	-14375
ю	-14376
ד	-14377
ה	-14378
ע	-14379
ק	-14380
ר	-14381
ת	-14382
گ	-14383
ế	-14384
ễ	-14385
ồ	-14386
ộ	-14387
•	-14388
╔	-14389
╗	-14390
╚	-14391
╝	-14392
♔	-14393
♕	-14394
♚	-14395
♛	-14396
✔	-14397
々	-14398
〈	-14399
〉	-14400
《	-14401
『	-14402
』	-14403
〔	-14404
〕	-14405
〖	-14406
〗	-14407
ひ	-14408
へ	-14409
ほ	-14410
ァ	-14411
ェ	-14412
カ	-14413
キ	-14414
シ	-14415
チ	-14416
デ	-14417
ニ	-14418
ポ	-14419
ミ	-14420
ュ	-14421
万	-14422
之	-14423
乏	-14424
五	-14425
令	-14426
价	-14427
伯	-14428
便	-14429
候	-14430
储	-14431
再	-14432
农	-14433
冲	-14434
准	-14435
划	-14436
刚	-14437
励	-14438
動	-14439
北	-14440
千	-14441
卓	-14442
占	-14443
吗	-14444
哦	-14445
哪	-14446
善	-14447
囲	-14448
坐	-14449
坛	-14450
基	-14451
夹	-14452
好	-14453
委	-14454
姬	-14455
威	-14456
学	-14457
安	-14458
宜	-14459
审	-14460
射	-14461
就	-14462
屋	-14463
屏	-14464
希	-14465
带	-14466
幀	-14467
干	-14468
平	-14469
广	-14470
強	-14471
弹	-14472
归	-14473
循	-14474
志	-14475
恥	-14476
惊	-14477
想	-14478
慰	-14479
懇	-14480
截	-14481
房	-14482
才	-14483
技	-14484
拉	-14485
拒	-14486
拦	-14487
拿	-14488
捕	-14489
授	-14490
控	-14491
推	-14492
揮	-14493
敗	-14494
斐	-14495
既	-14496
昭	-14497
景	-14498
望	-14499
末	-14500
校	-14501
核	-14502
框	-14503
歇	-14504
歓	-14505
气	-14506
浏	-14507
温	-14508
港	-14509
演	-14510
潜	-14511
澳	-14512
火	-14513
烟	-14514
煩	-14515
爆	-14516
牌	-14517
玩	-14518
現	-14519
番	-14520
異	-14521
疑	-14522
痛	-14523
盛	-14524
睡	-14525
砲	-14526
確	-14527
社	-14528
福	-14529
種	-14530
穂	-14531
突	-14532
策	-14533
範	-14534
粛	-14535
美	-14536
群	-14537
翻	-14538
耗	-14539
聚	-14540
背	-14541
致	-14542
航	-14543
花	-14544
苦	-14545
范	-14546
草	-14547
营	-14548
著	-14549
蔽	-14550
虔	-14551
蛰	-14552
西	-14553
規	-14554
览	-14555
訂	-14556
訳	-14557
謙	-14558
護	-14559
讃	-14560
识	-14561
语	-14562
课	-14563
谷	-14564
豊	-14565
責	-14566
貴	-14567
費	-14568
質	-14569
越	-14570
跨	-14571
跳	-14572
蹤	-14573
輸	-14574
辉	-14575
辑	-14576
迎	-14577
还	-14578
适	-14579
途	-14580
遊	-14581
遜	-14582
遠	-14583
適	-14584
酬	-14585
醒	-14586
里	-14587
錯	-14588
钉	-14589
锁	-14590
開	-14591
阅	-14592
队	-14593
隔	-14594
際	-14595
響	-14596
频	-14597
风	-14598
飞	-14599
養	-14600
香	-14601
鼠	-14602
계	-14603
군	-14604
기	-14605
니	-14606
드	-14607
들	-14608
디	-14609
렉	-14610
로	-14611
료	-14612
를	-14613
만	-14614
목	-14615
보	-14616
수	-14617
습	-14618
실	-14619
알	-14620
어	-14621
완	-14622
용	-14623
의	-14624
이	-14625
작	-14626
전	-14627
줄	-14628
즘	-14629
지	-14630
체	-14631
케	-14632
토	-14633
특	-14634
판	-14635
패	-14636
평	-14637
하	-14638
했	-14639
😜	-14640
¡	-14641
©	-14642
±	-14643
Ä	-14644
Æ	-14645
Ê	-14646
Õ	-14647
Ü	-14648
ß	-14649
å	-14650
æ	-14651
ï	-14652
ð	-14653
ù	-14654
ę	-14655
ğ	-14656
Ł	-14657
ń	-14658
Œ	-14659
œ	-14660
ř	-14661
ş	-14662
Š	-14663
š	-14664
Ÿ	-14665
ź	-14666
Ż	-14667
Ž	-14668
ž	-14669
Ə	-14670
ơ	-14671
ə	-14672
ˆ	-14673
́	-14674
̃	-14675
Ѐ	-14676
А	-14677
Б	-14678
Ж	-14679
Л	-14680
Р	-14681
Т	-14682
У	-14683
Ф	-14684
Х	-14685
Ч	-14686
Ш	-14687
ц	-14688
ё	-14689
آ	-14690
ج	-14691
خ	-14692
ظ	-14693
ع	-14694
پ	-14695
چ	-14696
ژ	-14697
ک	-14698
ẞ	-14699
ặ	-14700
ể	-14701
ệ	-14702
ị	-14703
ứ	-14704
ự	-14705
„	-14706
†	-14707
‡	-14708
‰	-14709
‹	-14710
›	-14711
※	-14712
₡	-14713
₲	-14714
₺	-14715
₿	-14716
↻	-14717
└	-14718
◀	-14719
♀	-14720
♂	-14721
✗	-14722
✘	-14723
❄	-14724
ズ	-14725
ナ	-14726
ネ	-14727
バ	-14728
ヒ	-14729
ボ	-14730
モ	-14731
ャ	-14732
ョ	-14733
リ	-14734
ロ	-14735
东	-14736
丢	-14737
丽	-14738
也	-14739
乡	-14740
些	-14741
享	-14742
仅	-14743
他	-14744
们	-14745
休	-14746
伝	-14747
余	-14748
個	-14749
健	-14750
像	-14751
優	-14752
充	-14753
光	-14754
免	-14755
六	-14756
具	-14757
养	-14758
军	-14759
况	-14760
冷	-14761
冻	-14762
刘	-14763
则	-14764
別	-14765
刻	-14766
削	-14767
剩	-14768
割	-14769
办	-14770
助	-14771
努	-14772
午	-14773
半	-14774
华	-14775
南	-14776
厕	-14777
县	-14778
叫	-14779
史	-14780
右	-14781
叶	-14782
听	-14783
告	-14784
周	-14785
呼	-14786
售	-14787
啊	-14788
因	-14789
围	-14790
均	-14791
城	-14792
培	-14793
境	-14794
声	-14795
够	-14796
太	-14797
头	-14798
姓	-14799
娘	-14800
孙	-14801
寅	-14802
寝	-14803
寸	-14804
将	-14805
導	-14806
尾	-14807
履	-14808
岭	-14809
峰	-14810
川	-14811
差	-14812
己	-14813
币	-14814
幕	-14815
并	-14816
店	-14817
康	-14818
延	-14819
弾	-14820
御	-14821
德	-14822
忘	-14823
忽	-14824
急	-14825
戌	-14826
承	-14827
投	-14828
折	-14829
护	-14830
括	-14831
捉	-14832
援	-14833
摄	-14834
擎	-14835
故	-14836
早	-14837
昌	-14838
映	-14839
昵	-14840
术	-14841
松	-14842
某	-14843
树	-14844
桁	-14845
椒	-14846
歌	-14847
比	-14848
毫	-14849
汇	-14850
池	-14851
泛	-14852
泽	-14853
潭	-14854
為	-14855
熊	-14856
爬	-14857
父	-14858
率	-14859
珊	-14860
珠	-14861
璩	-14862
监	-14863
盒	-14864
真	-14865
磁	-14866
租	-14867
积	-14868
笑	-14869
粮	-14870
粽	-14871
紧	-14872
結	-14873
緯	-14874
繼	-14875
續	-14876
红	-14877
纬	-14878
细	-14879
绘	-14880
给	-14881
绿	-14882
缀	-14883
缓	-14884
缴	-14885
罗	-14886
罪	-14887
翅	-14888
習	-14889
翔	-14890
老	-14891
脑	-14892
膀	-14893
良	-14894
艾	-14895
荐	-14896
虫	-14897
補	-14898
覧	-14899
见	-14900
觉	-14901
訊	-14902
設	-14903
診	-14904
誤	-14905
让	-14906
说	-14907
负	-14908
责	-14909
货	-14910
赁	-14911
起	-14912
足	-14913
載	-14914
轿	-14915
辆	-14916
辖	-14917
辣	-14918
辰	-14919
辽	-14920
迟	-14921
逮	-14922
運	-14923
遍	-14924
避	-14925
邀	-14926
那	-14927
録	-14928
针	-14929
钱	-14930
铺	-14931
销	-14932
键	-14933
闹	-14934
防	-14935
附	-14936
陆	-14937
陣	-14938
随	-14939
隐	-14940
頃	-14941
顯	-14942
颗	-14943
马	-14944
驳	-14945
驻	-14946
鸟	-14947
鸡	-14948
鸵	-14949
鹅	-14950
鹰	-14951
값	-14952
게	-14953
결	-14954
공	-14955
까	-14956
닫	-14957
댓	-14958
도	-14959
래	-14960
록	-14961
말	-14962
매	-14963
문	-14964
받	-14965
비	-14966
선	-14967
시	-14968
쓰	-14969
업	-14970
없	-14971
연	-14972
원	-14973
유	-14974
으	-14975
음	-14976
장	-14977
저	-14978
조	-14979
족	-14980
중	-14981
차	-14982
최	-14983
추	-14984
클	-14985
택	-14986
형	-14987
호	-14988
회	-14989
︎	-14990
～	-14991
🍺	-14992
🎵	-14993
📃	-14994
🥒	-14995
🧀	-14996
