<unk>	0
<s>	0
</s>	0
String	0
java	0
org	0
assertEquals	0
com	0
springframework	0
util	0
android	0
IOException	0
ArrayList	0
List	0
Exception	0
Object	0
Integer	0
toString	0
System	0
result	0
value	0
annotation	0
context	0
equals	0
apache	0
append	0
javax	0
get	0
length	0
println	0
Assert	0
google	0
add	0
assertTrue	0
assertThat	0
junit	0
model	0
IllegalArgumentException	0
name	0
getName	0
size	0
request	0
printStackTrace	0
response	0
protobuf	0
out	0
builder	0
lwjgl3ApplicationConfiguration0	0
put	0
common	0
assertNotNull	0
Builder	0
data	0
findViewById	0
client	0
i	0
getString	0
getInstance	0
core	0
HashMap	0
message	0
StringBuilder	0
Map	0
io	0
index	0
Throwable	0
getValue	0
isEmpty	0
swing	0
lang	0
format	0
event	0
service	0
content	0
Collections	0
entity	0
id	0
RuntimeException	0
getMessage	0
savedInstanceState	0
type	0
Boolean	0
File	0
minecraft	0
config	0
persistence	0
annotations	0
contains	0
Collection	0
setText	0
api	0
build	0
net	0
Context	0
logger	0
view	0
GroupLayout	0
e	0
assertFalse	0
Long	0
InterruptedException	0
Logger	0
position	0
assertNull	0
LoggerFactory	0
getClass	0
View	0
stream	0
values	0
HttpServletRequest	0
concurrent	0
getId	0
valueOf	0
SQLException	0
UnsupportedOperationException	0
Arrays	0
Optional	0
input	0
JSONObject	0
Response	0
StringUtils	0
args	0
key	0
description	0
Lwjgl3ApplicationConfiguration	0
Criteria	0
info	0
InputStream	0
list	0
widget	0
Class	0
currentTimeMillis	0
thenReturn	0
create	0
IllegalStateException	0
BigDecimal	0
Double	0
error	0
NullPointerException	0
close	0
hashCode	0
equalsIgnoreCase	0
Serializable	0
TextView	0
factory	0
params	0
start	0
properties	0
configuration	0
setOnClickListener	0
query	0
exception	0
file	0
HttpServletResponse	0
Intent	0
other	0
substring	0
target	0
support	0
serialVersionUID	0
getLogger	0
repository	0
deploymentEntityManager0	0
debug	0
github	0
parent	0
player	0
security	0
extensionRegistry	0
log	0
node	0
item	0
instance	0
Date	0
InvalidProtocolBufferException	0
status	0
ResponseEntity	0
session	0
map	0
connection	0
user	0
server	0
listener	0
source	0
commons	0
servlet	0
addComponent	0
iterator	0
text	0
getProperty	0
state	0
path	0
Constants	0
Color	0
domain	0
Objects	0
element	0
string	0
elasticsearch	0
OnClickListener	0
count	0
layout	0
GeneratedMessageV3	0
SubLObject	0
next	0
eclipse	0
Configuration	0
execute	0
buffer	0
BufferedReader	0
Collectors	0
badlogic	0
Assertions	0
remove	0
getText	0
Bundle	0
write	0
setVisibility	0
addCriterion	0
containsKey	0
getType	0
entry	0
test	0
controller	0
field	0
SimpleDateFormat	0
collect	0
filter	0
Set	0
internal	0
isEqualTo	0
Math	0
lombok	0
HashSet	0
PREFERRED_SIZE	0
fasterxml	0
Iterator	0
utils	0
graphics	0
Properties	0
parameters	0
ByteArrayOutputStream	0
object	0
intent	0
addActionListener	0
height	0
GridBagConstraints	0
Connection	0
options	0
http	0
expected	0
method	0
address	0
ActionEvent	0
LayoutInflater	0
handler	0
Calendar	0
command	0
FuncionesSwing	0
stereotype	0
parseInt	0
example	0
container	0
hikariConfig1	0
asList	0
AppCompatActivity	0
jupiter	0
output	0
offset	0
bind	0
location	0
Mockito	0
obj	0
web	0
set	0
resource	0
R	0
FileNotFoundException	0
component	0
Thread	0
LinkedList	0
getContext	0
jackson	0
ItemStack	0
createParallelGroup	0
services	0
password	0
project	0
onCreate	0
username	0
world	0
parser	0
width	0
hikariConfig0	0
ByteBuffer	0
awt	0
runtime	0
slf4j	0
HttpConnection	0
framework	0
when	0
engine	0
writer	0
main	0
startsWith	0
action	0
ByteString	0
impl	0
logging	0
ExtensionRegistryLite	0
activity	0
mockito	0
protocol	0
getApplicationContext	0
FileInputStream	0
User	0
json	0
Log	0
drawable	0
bitField0_	0
InputStreamReader	0
intellij	0
function	0
LocalDateTime	0
sql	0
androidx	0
reader	0
Constantes	0
Element	0
getKey	0
Node	0
FileOutputStream	0
update	0
beans	0
StringBuffer	0
url	0
hasNext	0
getDefaultInstance	0
requireNonNull	0
getResources	0
sb	0
Test	0
app	0
table	0
Runnable	0
setName	0
Autowired	0
channel	0
ViewGroup	0
Component	0
current	0
newInstance	0
verify	0
TimeUnit	0
clear	0
fileName	0
T	0
database	0
LOGGER	0
callback	0
title	0
javafx	0
RecyclerView	0
time	0
Message	0
getSimpleName	0
setVisible	0
transaction	0
newBuilder	0
BigInteger	0
Button	0
MAX_VALUE	0
ParseException	0
property	0
version	0
ImmutableList	0
PreparedStatement	0
HttpStatus	0
line	0
base	0
toLowerCase	0
setValue	0
getAbsolutePath	0
JLabel	0
ImageView	0
ActionListener	0
parse	0
application	0
msg	0
replace	0
nestedInnerQueryParseSupport1	0
metadata	0
array	0
addAll	0
getDescription	0
CompletableFuture	0
createSequentialGroup	0
provider	0
token	0
Pattern	0
models	0
delete	0
ObjectMapper	0
getActivity	0
userId	0
startActivity	0
root	0
ClassNotFoundException	0
Type	0
validation	0
Function	0
setEnabled	0
ByteArrayInputStream	0
actionPerformed	0
results	0
jetbrains	0
helper	0
attributes	0
assertArrayEquals	0
unknownFields	0
x	0
setProperty	0
expression	0
split	0
print	0
Entry	0
color	0
ctx	0
getBytes	0
UnsupportedEncodingException	0
code	0
Document	0
lwjgl3WindowConfiguration0	0
Dimension	0
document	0
JOptionPane	0
settings	0
adapter	0
getAttribute	0
parseFrom	0
simpleIndexQueryParserTests0	0
forEach	0
Toast	0
mapper	0
exceptions	0
compareTo	0
setContentView	0
matcher	0
right	0
record	0
of	0
getParameter	0
JsonObject	0
fail	0
Path	0
register	0
manager	0
IllegalAccessException	0
getHeight	0
DialogInterface	0
ServletException	0
indexOf	0
HikariConfig	0
hash	0
JButton	0
cursor	0
LocalDate	0
onChanged	0
statement	0
res	0
plugin	0
onClick	0
group	0
StandardCharsets	0
ex	0
first	0
setAttribute	0
backends	0
SharedPreferences	0
getStatus	0
Preconditions	0
LayoutParams	0
Activity	0
headers	0
holder	0
registry	0
column	0
INSTANCE	0
UUID	0
run	0
Scanner	0
nextInt	0
str	0
body	0
OutputStream	0
s	0
LinkedHashMap	0
response1	0
sendMessage	0
setTitle	0
hadoop	0
block	0
minecraftforge	0
Descriptors	0
clazz	0
j	0
getInt	0
ResultSet	0
ConcurrentHashMap	0
resources	0
row	0
Alignment	0
className	0
JSONArray	0
header	0
CharSequence	0
pos	0
entrySet	0
cloud	0
getResource	0
getWidth	0
Result	0
contentType	0
condition	0
JPanel	0
Locale	0
reflect	0
cache	0
left	0
InvocationTargetException	0
MainActivity	0
mContext	0
image	0
DEFAULT_SIZE	0
prepareStatement	0
xml	0
from	0
success	0
init	0
entities	0
schema	0
c	0
template	0
charAt	0
commands	0
getConnection	0
collection	0
exists	0
addAttribute	0
JSONException	0
Method	0
Level	0
BufferedImage	0
transform	0
child	0
jsoup	0
lucene	0
Resource	0
bytes	0
jsonObject	0
NumberFormatException	0
accept	0
stack	0
addGroup	0
constraints	0
Expression	0
Random	0
Character	0
random	0
slimTableFactoryTest0	0
val	0
process	0
modules	0
read	0
JTextField	0
serializedObjectSupporter0	0
getData	0
date	0
replaceAll	0
getChildren	0
param	0
driver	0
getDescriptor	0
Comparator	0
in	0
defaultValue	0
components	0
thrift	0
apply	0
Player	0
LinearLayout	0
MediaType	0
filename	0
PrintWriter	0
tableName	0
RecognitionException	0
getPath	0
Field	0
singletonList	0
toArray	0
fragment	0
trim	0
namespace	0
inputStream	0
task	0
items	0
network	0
actual	0
matches	0
toIndentedString	0
Service	0
arguments	0
show	0
search	0
y	0
Entity	0
FieldAccessorTable	0
timestamp	0
cloudslang	0
label	0
fields	0
editor	0
attribute	0
setId	0
elements	0
NoSuchAlgorithmException	0
dialog	0
gdx	0
prefix	0
mock	0
Observable	0
events	0
save	0
interfaces	0
rs	0
Request	0
_jspx_page_context	0
compiler	0
scene	0
children	0
AtomicInteger	0
LOG	0
Status	0
email	0
authentication	0
temp	0
extension	0
bukkit	0
DEFAULT_INSTANCE	0
isPresent	0
TAG	0
page	0
delegate	0
getTime	0
ExecutorService	0
a	0
fieldName	0
is	0
pattern	0
ViewHolder	0
LENGTH_SHORT	0
b	0
Nullable	0
platform	0
types	0
graph	0
setBackground	0
storage	0
ExecutionException	0
ResourceLocation	0
number	0
Utils	0
module	0
Application	0
level	0
generator	0
initialize	0
lwjgl3	0
assertThrows	0
mergeFrom	0
edu	0
descriptor	0
showMessageDialog	0
equalTo	0
Location	0
setString	0
MalformedURLException	0
executor	0
intValue	0
validate	0
hamcrest	0
BorderLayout	0
executeQuery	0
conn	0
toList	0
isDebugEnabled	0
isInitialized	0
checkNotNull	0
startTime	0
keySet	0
setDescription	0
game	0
Timestamp	0
Config	0
ImmutableMap	0
Point	0
environment	0
getBoolean	0
emptyList	0
max	0
currentThread	0
control	0
nio	0
EditText	0
operation	0
RemoteException	0
HttpURLConnection	0
var	0
MouseEvent	0
makeText	0
Environment	0
URISyntaxException	0
andExpect	0
system	0
putExtra	0
messages	0
throwable	0
Vector	0
Float	0
methodName	0
buf	0
getParent	0
bean	0
slangImpl0	0
KeyEvent	0
spongepowered	0
AlertDialog	0
LinearLayoutManager	0
openapi	0
account	0
store	0
PARSER	0
resultSet	0
p	0
end	0
Duration	0
maybeForceBuilderInitialization	0
category	0
thread	0
call	0
ComponentPlacement	0
Predicate	0
microsoft	0
setLayout	0
setMessage	0
getResourceAsStream	0
getInputStream	0
Item	0
Iterable	0
gson	0
separator	0
order	0
criteria	0
ui	0
hibernate	0
tag	0
props	0
Files	0
readLine	0
port	0
gridBagConstraints	0
invoke	0
inflater	0
TextUtils	0
that	0
score	0
inventory	0
parameter	0
flush	0
converter	0
inject	0
statusCode	0
permission	0
Model	0
Consumer	0
Handler	0
nodes	0
amount	0
RequestMapping	0
identifier	0
Constantes2	0
parametroGeneralUsuario	0
os	0
uri	0
isAssignableFrom	0
setColor	0
dao	0
toUpperCase	0
assertSame	0
filePath	0
databind	0
onOptionsItemSelected	0
sleep	0
convertView	0
frame	0
t	0
consumer	0
ret	0
Statement	0
charset	0
newArrayList	0
handle	0
getLocation	0
newValue	0
AttributeSet	0
setStatus	0
product	0
de	0
CountDownLatch	0
bundle	0
evt	0
Property	0
Block	0
Bitmap	0
SimpleIndexQueryParserTests	0
BlockPos	0
Transaction	0
CodedInputStream	0
dto	0
insert	0
inflate	0
Direction	0
ref	0
Session	0
v	0
NoSuchElementException	0
runner	0
Pair	0
plugins	0
Void	0
userService	0
Label	0
mybatisplus	0
ModelAndView	0
setPreferredSize	0
Fragment	0
autoconfigure	0
itemView	0
swagger	0
tools	0
errorMessage	0
getStatusCode	0
subject	0
getProperties	0
URL	0
Material	0
parseDouble	0
getColor	0
duration	0
verifyException	0
payload	0
notifyDataSetChanged	0
propertyName	0
State	0
validator	0
counter	0
endsWith	0
getValorProporcion	0
compile	0
getSystemService	0
setState	0
resourceGroupName	0
CollectionUtils	0
JsonProcessingException	0
executeUpdate	0
getContent	0
clone	0
addPreferredGap	0
mapping	0
builderForValue	0
UNPROVIDED	0
ApiException	0
SpringApplication	0
getState	0
canvas	0
TreeNode	0
Stream	0
response0	0
packageName	0
dataSource	0
getCode	0
InetSocketAddress	0
BufferedWriter	0
commit	0
queue	0
destination	0
processor	0
VISIBLE	0
Value	0
MenuItem	0
requestCode	0
min	0
language	0
direction	0
PackageManager	0
DataSource	0
setType	0
Event	0
amazonaws	0
Attribute	0
n	0
HttpResponse	0
getClassLoader	0
userName	0
conf	0
getTitle	0
getSession	0
DateTimeFormatter	0
getContentPane	0
getConfiguration	0
seedu	0
findById	0
math	0
alibaba	0
sender	0
o	0
compare	0
convert	0
ISUSAEJBLOGICLAYER	0
notification	0
addContainerGap	0
hikari	0
boot	0
resolve	0
zaxxer	0
Person	0
Controller	0
getVersion	0
getUsername	0
animation	0
Matchers	0
calendar	0
match	0
getJSONObject	0
Settings	0
objectMapper	0
AtomicBoolean	0
tree	0
visitor	0
cluster	0
toByteArray	0
memoizedIsInitialized	0
proto	0
Command	0
MotionEvent	0
predicate	0
columns	0
setFont	0
empty	0
Rectangle	0
stringBuilder	0
Project	0
applicationContext	0
limit	0
outputStream	0
connect	0
db	0
getMethod	0
var1	0
getSupportFragmentManager	0
AllArgsConstructor	0
Short	0
Blocks	0
getPosition	0
objects	0
req	0
getSource	0
timeout	0
UnknownFieldSet	0
Token	0
select	0
CodedOutputStream	0
load	0
FileUtils	0
randomUUID	0
facebook	0
Number	0
testsystems	0
StringUtil	0
queryWhereSelectParameters	0
Annotation	0
getObject	0
netty	0
rest	0
Query	0
findElement	0
directory	0
Action	0
isNotEmpty	0
createStatement	0
attrs	0
getCount	0
binding	0
constants	0
warn	0
getItem	0
ServiceException	0
ImmutableSet	0
StringReader	0
HttpHeaders	0
r	0
cause	0
Table	0
distance	0
integration	0
renderer	0
getX	0
Matcher	0
errors	0
len	0
matrix	0
Instant	0
collections	0
setBounds	0
copy	0
lastIndexOf	0
setToolTipText	0
selenium	0
operator	0
APPLICATION_JSON	0
getDefault	0
exchange	0
Supplier	0
endpoint	0
getLength	0
RelativeLayout	0
getY	0
ChannelHandlerContext	0
host	0
findAll	0
actions	0
recyclerView	0
reference	0
NoSuchMethodException	0
addListener	0
files	0
setAdapter	0
setInitialBackgroundColor	0
menu	0
getAttributes	0
preparedStatement	0
Font	0
metrics	0
doubleValue	0
Messages	0
scanner	0
render	0
Notification	0
StringWriter	0
value1	0
Repository	0
netbeans	0
InstantiationException	0
d	0
ApplicationContext	0
NonNull	0
transport	0
isSelected	0
beginTransaction	0
getAddress	0
analysis	0
tokens	0
serializer	0
comment	0
getParameters	0
value2	0
setForeground	0
squareup	0
JsonNode	0
src	0
Identifier	0
management	0
Data	0
JScrollPane	0
owner	0
times	0
IndexOutOfBoundsException	0
InetAddress	0
JpaRepository	0
FileWriter	0
parseWithIOException	0
post	0
entries	0
parsedMessage	0
doc	0
EntityManager	0
getSelectedItem	0
SQLiteDatabase	0
LEADING	0
reset	0
setImageResource	0
monitor	0
any	0
visit	0
ChatColor	0
getColumnIndex	0
getSize	0
sort	0
Before	0
find	0
getDisplayName	0
DateTime	0
pageSize	0
keys	0
Future	0
AtomicReference	0
AdapterView	0
NoArgsConstructor	0
socket	0
definition	0
err	0
Descriptor	0
WindowManager	0
STIPO_TAMANIO_GENERAL	0
isDirectory	0
setParameter	0
scale	0
HttpMethod	0
getResult	0
QName	0
trace	0
button	0
putString	0
_localctx	0
identity	0
entityManager	0
check	0
WebElement	0
struct	0
it	0
Cursor	0
setDefaultCloseOperation	0
AssertionError	0
device	0
FileReader	0
baomidou	0
Operation	0
RestController	0
stmt	0
assertNotEquals	0
getConfig	0
OkHttpClient	0
progress	0
finish	0
userRepository	0
stringValue	0
checkArgument	0
Client	0
StringTokenizer	0
Column	0
listeners	0
columnIndex	0
arr	0
getAnnotation	0
regex	0
writeString	0
m	0
admin	0
JMenuItem	0
Category	0
javaCharStream0	0
enabled	0
pipeline	0
toCharArray	0
member	0
gov	0
ensureFieldAccessorsInitialized	0
unmodifiableList	0
profile	0
getSharedPreferences	0
cell	0
arraycopy	0
signature	0
auth	0
activiti	0
report	0
viewHolder	0
writeValueAsString	0
logic	0
Enumeration	0
Build	0
setUp	0
tables	0
internalGetFieldAccessorTable	0
now	0
LinkedHashSet	0
lastComparison	0
dispose	0
addProperty	0
Address	0
ImageIcon	0
testng	0
MILLISECONDS	0
LayoutStyle	0
configure	0
fromString	0
permissions	0
getOutputStream	0
ObjectOutputStream	0
Position	0
URI	0
stringArray0	0
style	0
LogManager	0
business	0
Comparable	0
packet	0
getPassword	0
stop	0
robot	0
connexion	0
ZonedDateTime	0
Product	0
nextToken	0
ContentValues	0
range	0
resultCode	0
spring	0
BufferedInputStream	0
declareFunction	0
NotFoundException	0
Parameter	0
f	0
Callback	0
FieldDescriptor	0
serialize	0
extensions	0
PrintStream	0
createQuery	0
methods	0
dest	0
getIdentifier	0
ClassLoader	0
firstName	0
setBorder	0
JsonProperty	0
nums	0
scheduler	0
setSelected	0
lock	0
ObjectInputStream	0
feature	0
ofNullable	0
executorService	0
connector	0
Account	0
retrofit	0
shape	0
functions	0
SAXException	0
jPanel1Layout	0
log4j	0
subscribe	0
isValid	0
getUser	0
Image	0
getPlayer	0
future	0
encode	0
Util	0
shared	0
second	0
Symbol	0
ListNode	0
getEntity	0
serialization	0
Lists	0
generated	0
loader	0
sdk	0
OutputStreamWriter	0
rules	0
board	0
total	0
BluetoothGattCharacteristic	0
grpc	0
classes	0
NotNull	0
selection	0
formatter	0
World	0
Transactional	0
perform	0
setBackgroundColor	0
SECONDS	0
Schema	0
person	0
flags	0
locale	0
getBody	0
env	0
MIN_VALUE	0
form	0
getUserId	0
fitnesse	0
UserService	0
head	0
k	0
region	0
TestCase	0
scope	0
butterknife	0
isEnabled	0
columnName	0
cn	0
evaluate	0
original	0
getDefaultInstanceForType	0
mode	0
point	0
join	0
longValue	0
isNotBlank	0
num	0
Graphics	0
Paths	0
vaadin	0
serviceName	0
names	0
Page	0
jboss	0
ArgumentCaptor	0
RequiredArgsConstructor	0
expect	0
window	0
responseObserver	0
flag	0
accessToken	0
BorderFactory	0
RunWith	0
ParserConfigurationException	0
wrapper	0
ContextCompat	0
NBTTagCompound	0
cancel	0
preferences	0
BitmapFactory	0
display	0
getLong	0
firebase	0
capacity	0
anyString	0
stage	0
isNull	0
material	0
lang3	0
col	0
getDefaultState	0
ArgumentMatchers	0
setPosition	0
shutdown	0
getModel	0
Text	0
v1	0
bitmap	0
nextLine	0
getResponse	0
onSuccess	0
sample	0
isNotNull	0
getSupportActionBar	0
constant	0
library	0
ResourceBundle	0
EntityPlayer	0
proxy	0
schedule	0
DecimalFormat	0
ArrayAdapter	0
ISWING_ANCHO_CONTROL	0
ConfigurationException	0
buildPartial	0
DataType	0
option	0
DocumentBuilderFactory	0
deserialize	0
HttpRequest	0
translate	0
var2	0
lines	0
GlStateManager	0
JAXBElement	0
panel	0
Task	0
SpringBootApplication	0
lastName	0
Executors	0
Constant	0
ButtonActionListener	0
gui	0
setAccessible	0
startActivityForResult	0
meta	0
vertx	0
Resources	0
points	0
readString	0
onDestroy	0
setBlock	0
v1beta1	0
setTextColor	0
elementAt	0
tmp	0
variables	0
kafka	0
price	0
getField	0
UnknownHostException	0
OnItemClickListener	0
TextField	0
getStringExtra	0
DeploymentEntityManager	0
resp	0
assertj	0
desc	0
unit	0
CENTER	0
orElse	0
ResponseBody	0
setHorizontalAlignment	0
getPackageName	0
parseDelimitedFrom	0
crypto	0
getHeader	0
rule	0
customer	0
ListView	0
NIL	0
getIndex	0
manageException	0
decode	0
ArrayIndexOutOfBoundsException	0
X509Certificate	0
isBlank	0
LogFactory	0
forName	0
ISWING_ANCHO_CONTROL_LABEL	0
getDouble	0
getArguments	0
execution	0
notNull	0
iter	0
PreferenceManager	0
DataOutputStream	0
displayName	0
BlockState	0
strategy	0
getIntent	0
br	0
azure	0
getElement	0
lib	0
credentials	0
setContentType	0
DefaultMutableTreeNode	0
onCreateOptionsMenu	0
idx	0
getEsGuardarRelacionado	0
printf	0
dir	0
send	0
sum	0
Container	0
algorithm	0
rows	0
parseDelimitedWithIOException	0
startDate	0
getComponent	0
LENGTH_LONG	0
BroadcastReceiver	0
var0	0
Customer	0
RepositoryException	0
release	0
TimeoutException	0
resolver	0
getContentResolver	0
homeEnvironment0	0
classLoader	0
fromJson	0
onError	0
backend	0
progressRequestListener	0
tags	0
reactivex	0
telemetry	0
getCanonicalName	0
uuid	0
ScheduledExecutorService	0
sharedPreferences	0
parseLong	0
endTime	0
VERSION	0
setData	0
getLocalizedMessage	0
records	0
addGap	0
ISWING_ALTO_CONTROL	0
createTime	0
Hashtable	0
getTimestamp	0
encoding	0
TestUtils	0
PendingIntent	0
ValidationException	0
TreeMap	0
getEmail	0
classWriter0	0
job	0
HttpSession	0
Charset	0
groupId	0
tasks	0
selected	0
open	0
getAction	0
Main	0
TypeReference	0
Drawable	0
arg	0
EventHandler	0
errorCode	0
handlers	0
Authentication	0
prime	0
Employee	0
PsiElement	0
opengamma	0
presenter	0
Callable	0
GregorianCalendar	0
sequence	0
Inject	0
onActivityResult	0
toBuilder	0
users	0
kubernetes	0
apiClient	0
mergeUnknownFields	0
Uri	0
JFrame	0
filters	0
radius	0
login	0
getDefaultSharedPreferences	0
features	0
GeneralPath	0
topic	0
SUCCESS	0
addElement	0
containsString	0
javaParserTokenManager0	0
Parser	0
software	0
writeInt	0
getMetadata	0
argument	0
parts	0
imageView	0
ClassWriter	0
ObservableList	0
sessionId	0
localVarHeaderParams	0
isNullOrEmpty	0
ws	0
MockMvcRequestBuilders	0
JComboBox	0
subBuilder	0
MethodDescriptor	0
getTransaction	0
done	0
controllers	0
preference	0
projectId	0
widgets	0
typeName	0
SingleFieldBuilderV3	0
l	0
role	0
program	0
presentation	0
retrofit2	0
readInt	0
Manifest	0
httpClient	0
invocation	0
SecurityException	0
Types	0
variable	0
getItemId	0
Listener	0
me	0
MessageDigest	0
Subscription	0
Modifier	0
toJson	0
setPower	0
onResume	0
getView	0
DataInputStream	0
TException	0
getService	0
appendChild	0
Strings	0
Graphics2D	0
openqa	0
onCreateView	0
readValue	0
RequestBody	0
getItems	0
assertNotSame	0
makeSymbol	0
verifyNoMoreInteractions	0
top	0
transformer	0
NONE	0
priority	0
Lwjgl3WindowListener	0
isTrue	0
attr	0
PostingsEnum	0
GONE	0
returnValue	0
mage	0
STRING	0
DateFormat	0
restTemplate	0
comparator	0
script	0
toolbar	0
getColumn	0
enums	0
JsonElement	0
okhttp3	0
interval	0
dataset	0
ApiResponse	0
extern	0
publisher	0
FragmentManager	0
Solution	0
setHorizontalGroup	0
hasMoreElements	0
grammarAccess	0
flink	0
constructor	0
Condition	0
getProject	0
getSelectionModel	0
MockMvcResultMatchers	0
DriverManager	0
getToken	0
weight	0
ch	0
getClassName	0
addParameter	0
incrementAndGet	0
MatcherAssert	0
Paint	0
Variable	0
setBackgroundResource	0
arg0	0
setResizable	0
var3	0
cdolist_list_var	0
Order	0
EventBus	0
demo	0
orElseThrow	0
setMinimumSize	0
progressListener	0
setUnfinishedMessage	0
CoreMatchers	0
receiver	0
push	0
OffsetDateTime	0
codec	0
Option	0
contents	0
Options	0
selector	0
spec	0
Parameters	0
getFile	0
memoizedHashCode	0
firstinspires	0
cmd	0
setLocation	0
BufferedOutputStream	0
repositories	0
onFailure	0
mongodb	0
stats	0
examples	0
intSelectedRow	0
DEFAULT	0
naiveBayesMultinomialText0	0
expr	0
g	0
VERSION_CODES	0
getItemCount	0
_Fields	0
before	0
setCellValue	0
SEVERE	0
UTF_8	0
getSerializedSize	0
setPositiveButton	0
ConnectivityManager	0
java_cup	0
Group	0
HttpServlet	0
nextDouble	0
answer	0
grid	0
word	0
jsonPath	0
errorPage0	0
Channel	0
robotcore	0
mutable_bitField0_	0
bouncycastle	0
AuthenticationException	0
geometry	0
setSize	0
character	0
getDeclaredField	0
tuple	0
structure	0
SwingConstants	0
ButterKnife	0
setup	0
Filter	0
GridBagLayout	0
GridConstraints	0
paint	0
hazelcast	0
Call	0
subscription	0
with	0
uk	0
netflix	0
operations	0
ordinal	0
quantity	0
Version	0
XMLStreamException	0
link	0
swigCPtr	0
setPassword	0
getUrl	0
IndexReader	0
bounds	0
getChannel	0
where	0
Gson	0
IOUtils	0
getCause	0
getRequest	0
getDrawable	0
batch	0
longitude	0
AtomicLong	0
Reference	0
generate	0
Registry	0
WeakReference	0
lineSeparator	0
Permission	0
Student	0
clientId	0
ParserRuleContext	0
getLabel	0
setOnItemClickListener	0
delta	0
producer	0
startIndex	0
getApplication	0
JsonArray	0
getWindow	0
FileDescriptor	0
contact	0
mAdapter	0
setWindowPosition	0
clients	0
addChild	0
styleable	0
dom	0
amazon	0
getGlobalValue	0
properties0	0
lookup	0
setIcon	0
Vector3f	0
getAttributeValue	0
exit	0
singleton	0
getDate	0
eventType	0
oracle	0
details	0
okhttp	0
kuromojiAnalysisTests0	0
setLayoutManager	0
recyclerview	0
RequestMethod	0
interceptor	0
TypeToken	0
INTERNAL_SERVER_ERROR	0
Matrix	0
to	0
Record	0
ModelRenderer	0
multiply	0
andReturn	0
dataType	0
setMaximumSize	0
ClassCastException	0
FileUtil	0
getFileName	0
JComponent	0
ProgressDialog	0
findFirst	0
EMPTY	0
HdpiMode	0
messaging	0
cards	0
setWindowedMode	0
chromium	0
principal	0
SlimTableFactory	0
initComponents	0
authorization	0
BitSet	0
Arguments	0
symbol	0
click	0
alias	0
setHeader	0
ExpectedException	0
returnType	0
strings	0
tearDown	0
setVerticalGroup	0
SecurityContextHolder	0
Insets	0
eventBus	0
partition	0
addMouseListener	0
media	0
z	0
setBlockState	0
MessageFormat	0
removeAll	0
utilities	0
Point2D	0
Composite	0
FloatingActionButton	0
GeneratedMessage	0
categories	0
folder	0
sourceforge	0
setContent	0
concat	0
abs	0
ISWING_ALTO_CONTROL_LABEL	0
PropertyDescriptor	0
executionContext	0
NotificationManager	0
__methodResult__	0
eq	0
orientation	0
getTarget	0
newBuilderForType	0
PERMISSION_GRANTED	0
step	0
Getter	0
con	0
html	0
icon	0
DateUtils	0
getNode	0
SpringBootTest	0
found	0
ImageButton	0
getBean	0
ERROR	0
setInt	0
Factory	0
fill	0
TreeSet	0
newUninitializedMessageException	0
UserRepository	0
Constructor	0
stringReader0	0
_errHandler	0
latitude	0
getImage	0
conditions	0
textView	0
V	0
previous	0
booleanValue	0
openConnection	0
getPort	0
workflow	0
TableColumn	0
country	0
appcompat	0
ResourceNotFoundException	0
Byte	0
observer	0
getOrDefault	0
begin	0
author	0
BaseActivity	0
ExecutionContext	0
agent	0
spi	0
dismiss	0
policy	0
DefaultTableModel	0
ids	0
hasSize	0
BAD_REQUEST	0
listFiles	0
onCreateViewHolder	0
httpResponse	0
atomic	0
nanoTime	0
constraint	0
resourceName	0
year	0
xmlbeans	0
Reader	0
setField	0
resourcemanager	0
chain	0
isChecked	0
ParameterizedType	0
SerializedObjectSupporter	0
EntityType	0
origin	0
vertices	0
datosCliente	0
doReturn	0
Canvas	0
Mono	0
MockitoAnnotations	0
groups	0
access	0
featureID	0
GeneralSecurityException	0
DcMotor	0
complete	0
jSONObject0	0
getReference	0
onBackPressed	0
ServiceResponse	0
timer	0
channels	0
testing	0
getInteger	0
Database	0
MultipartFile	0
getBlock	0
dateFormat	0
QueryOuterClass	0
freq	0
section	0
GeneratedValue	0
setWindowListener	0
solution	0
getHeaders	0
infinispan	0
getValues	0
check_orphaned	0
isInitializationFailFast	0
Animation	0
Range	0
dispatcher	0
getAsString	0
getNumber	0
ClassPathXmlApplicationContext	0
prop	0
accountId	0
addItem	0
flow	0
ApiModelProperty	0
collector	0
Description	0
samples	0
Base64	0
);	-0
▁{	-1
▁}	-2
▁=	-3
()	-4
▁(	-5
();	-6
("	-7
▁"	-8
▁+	-9
",	-10
).	-11
().	-12
");	-13
));	-14
▁0	-15
());	-16
00	-17
▁S	-18
▁==	-19
▁1	-20
▁!	-21
▁C	-22
))	-23
▁!=	-24
IN	-25
(),	-26
▁-	-27
[]	-28
▁A	-29
())	-30
ON	-31
Ch	-32
▁P	-33
▁I	-34
";	-35
▁:	-36
▁M	-37
▁&	-38
▁<	-39
ES	-40
),	-41
▁D	-42
ME	-43
▁&&	-44
AL	-45
▁w	-46
LE	-47
▁0;	-48
ID	-49
▁B	-50
▁_	-51
▁2	-52
Su	-53
▁E	-54
SE	-55
▁h	-56
(1	-57
▁G	-58
▁|	-59
▁F	-60
"));	-61
▁>	-62
CO	-63
▁(!	-64
EN	-65
++	-66
(0	-67
ION	-68
>();	-69
").	-70
NA	-71
\"	-72
DE	-73
▁*	-74
--	-75
Bu	-76
▁((	-77
2.	-78
PE	-79
AC	-80
▁J	-81
▁N	-82
()).	-83
▁?	-84
▁H	-85
▁u	-86
Qu	-87
▁L	-88
)).	-89
Au	-90
▁'	-91
▁||	-92
Sh	-93
qu	-94
▁->	-95
01	-96
AN	-97
▁W	-98
NAME	-99
Ou	-100
>>	-101
IS	-102
((	-103
OU	-104
1.	-105
▁U	-106
▁0)	-107
▁3	-108
++)	-109
IC	-110
];	-111
LA	-112
▁O	-113
DA	-114
MA	-115
▁});	-116
ED	-117
▁/	-118
PA	-119
Nu	-120
Cu	-121
"),	-122
.0	-123
<>();	-124
GE	-125
"))	-126
LO	-127
FI	-128
1,	-129
__	-130
CH	-131
..	-132
<?	-133
EC	-134
(2	-135
()));	-136
NO	-137
▁0,	-138
KE	-139
▁wh	-140
▁4	-141
ING	-142
EA	-143
▁+=	-144
0000	-145
UN	-146
▁",	-147
EX	-148
Pu	-149
.*	-150
//	-151
▁5	-152
PO	-153
▁1;	-154
YPE	-155
[0	-156
AB	-157
000	-158
==	-159
▁};	-160
COL	-161
SI	-162
.*;	-163
MO	-164
")	-165
US	-166
CON	-167
AS	-168
>(	-169
▁-1	-170
EL	-171
ML	-172
Mu	-173
0,	-174
Fu	-175
▁%	-176
2,	-177
.");	-178
▁K	-179
99	-180
IL	-181
SS	-182
UM	-183
KEY	-184
▁1,	-185
(0,	-186
[0]	-187
▁1);	-188
AD	-189
IG	-190
FO	-191
HO	-192
▁0);	-193
UE	-194
()))	-195
Sw	-196
::	-197
UL	-198
ESS	-199
▁>=	-200
")).	-201
▁{}	-202
▁X	-203
**	-204
="	-205
[1	-206
▁6	-207
3.	-208
CE	-209
',	-210
IM	-211
AP	-212
OP	-213
3,	-214
_1	-215
02	-216
▁\"	-217
(0);	-218
<?>	-219
uM	-220
OM	-221
(1,	-222
11	-223
].	-224
2);	-225
)));	-226
IP	-227
FF	-228
QL	-229
▁__	-230
CA	-231
ZE	-232
hu	-233
▁8	-234
5,	-235
▁1)	-236
----	-237
],	-238
DI	-239
ABLE	-240
4.	-241
0;	-242
0.	-243
BU	-244
".	-245
1",	-246
://	-247
▁IN	-248
▁<=	-249
0);	-250
("\	-251
2;	-252
4,	-253
DB	-254
++;	-255
▁},	-256
1);	-257
▁[	-258
Ph	-259
<>(	-260
▁"\	-261
MP	-262
("/	-263
]);	-264
0100	-265
12	-266
JI	-267
▁"/	-268
('	-269
Wh	-270
HE	-271
OL	-272
USE	-273
IME	-274
Sq	-275
AGE	-276
▁0.	-277
▁Ch	-278
▁"";	-279
BE	-280
▁7	-281
(3	-282
▁("	-283
SON	-284
▁2,	-285
Du	-286
MS	-287
MEN	-288
OPE	-289
SH	-290
32	-291
08	-292
OC	-293
1;	-294
LI	-295
▁q	-296
====	-297
...	-298
UI	-299
("<	-300
(_	-301
(1);	-302
(4	-303
UP	-304
▁0.0	-305
\\	-306
SC	-307
>()	-308
1\	-309
SIZE	-310
{}	-311
▁");	-312
(5	-313
##	-314
\":	-315
Equ	-316
SQL	-317
16	-318
wC	-319
OK	-320
25	-321
OB	-322
PU	-323
()),	-324
▁Z	-325
SA	-326
LEC	-327
▁Au	-328
▁100	-329
WO	-330
QU	-331
ND	-332
(0).	-333
▁".	-334
7.	-335
005	-336
ICE	-337
Gu	-338
▁Sh	-339
>)	-340
04	-341
2",	-342
▁-1;	-343
ULL	-344
▁2;	-345
9,	-346
_2	-347
COUN	-348
AM	-349
CU	-350
ALID	-351
MM	-352
▁//	-353
GL	-354
ACE	-355
ALUE	-356
IO	-357
[][]	-358
OW	-359
ACK	-360
2)	-361
SU	-362
8,	-363
wS	-364
6,	-365
WA	-366
OF	-367
INE	-368
▁Mu	-369
▁"<	-370
0\	-371
BO	-372
55	-373
LOC	-374
▁qu	-375
IF	-376
NS	-377
XML	-378
':	-379
AND	-380
▁{}",	-381
JEC	-382
IGH	-383
▁Su	-384
FIX	-385
:"	-386
ALL	-387
▁Cu	-388
EMA	-389
AX	-390
LIC	-391
▁1.0	-392
][	-393
INJ	-394
001	-395
FILE	-396
>");	-397
5.	-398
00,	-399
▁9	-400
ESSAGE	-401
23	-402
SP	-403
03	-404
Ow	-405
!");	-406
▁Y	-407
EM	-408
BA	-409
GU	-410
---	-411
LASS	-412
');	-413
CHA	-414
10	-415
")));	-416
1");	-417
7,	-418
EP	-419
=\"	-420
EAD	-421
.",	-422
****	-423
NE	-424
4;	-425
DES	-426
INI	-427
SO	-428
DAO	-429
NG	-430
hC	-431
(2,	-432
▁-1)	-433
(",	-434
1)	-435
SELEC	-436
MESSAGE	-437
▁GL	-438
())).	-439
JSON	-440
AU	-441
CODE	-442
▁1000	-443
IE	-444
(()	-445
8.	-446
wL	-447
FIG	-448
wI	-449
AME	-450
3;	-451
_0	-452
')	-453
---+	-454
PC	-455
64	-456
11.	-457
MODE	-458
])	-459
--------	-460
_.	-461
3);	-462
▁10	-463
78	-464
YS	-465
▁Pu	-466
201	-467
18	-468
Chu	-469
AI	-470
▁++	-471
9.	-472
▁"'	-473
00);	-474
SW	-475
▁").	-476
ELD	-477
14	-478
BLE	-479
LOCK	-480
▁"_	-481
▁SE	-482
▁4,	-483
▁2);	-484
BY	-485
OO	-486
IAL	-487
3",	-488
▁<<	-489
END	-490
▁Bu	-491
hA	-492
56	-493
FE	-494
IZ	-495
NUM	-496
_005	-497
5;	-498
5);	-499
CLASS	-500
▁DA	-501
LAY	-502
[2	-503
▁NO	-504
IONS	-505
ww	-506
▁"");	-507
EG	-508
OS	-509
▁2)	-510
.<	-511
INS	-512
▁16	-513
▁3,	-514
":	-515
▁Qu	-516
---+---+	-517
WE	-518
hS	-519
CONFIG	-520
EFIX	-521
wP	-522
LIS	-523
[1]	-524
(-	-525
SHA	-526
</	-527
DU	-528
\",	-529
MIN	-530
PI	-531
MAX	-532
='	-533
▁"-	-534
▁ID	-535
)");	-536
ESP	-537
[0];	-538
LINE	-539
DD	-540
JB	-541
IND	-542
hI	-543
13	-544
CL	-545
WI	-546
AY	-547
6.	-548
ADD	-549
>\	-550
OUP	-551
("");	-552
▁"",	-553
▁"--	-554
19	-555
ONG	-556
>,	-557
)))	-558
wM	-559
▁CON	-560
DS	-561
LENG	-562
UMN	-563
FIELD	-564
(((	-565
DIS	-566
EQU	-567
002	-568
OFF	-569
▁(_	-570
)",	-571
ESOU	-572
4);	-573
MY	-574
API	-575
2");	-576
OUND	-577
DEX	-578
▁"]	-579
INFO	-580
("[	-581
>",	-582
YP	-583
ONE	-584
05	-585
MAP	-586
▁";	-587
8;	-588
FLA	-589
)),	-590
LOB	-591
9999	-592
NOW	-593
MI	-594
2\	-595
wA	-596
(0));	-597
DF	-598
▁AS	-599
▁SW	-600
IDE	-601
(2);	-602
"))).	-603
BLOCK	-604
HOD	-605
34	-606
SB	-607
APP	-608
QUE	-609
========	-610
Aw	-611
FK	-612
▁3;	-613
▁":	-614
▁(!(	-615
IES	-616
▁'"	-617
▁5,	-618
▁10;	-619
CS	-620
wD	-621
hD	-622
09	-623
MQ	-624
ICA	-625
ISION	-626
_3	-627
_;	-628
("%	-629
(1).	-630
▁12	-631
▁USE	-632
0)	-633
HI	-634
COM	-635
▁}).	-636
DO	-637
EMO	-638
MSG	-639
2(	-640
LED	-641
hP	-642
IA	-643
▁""	-644
))).	-645
UC	-646
ELE	-647
AE	-648
JU	-649
OBJEC	-650
IBU	-651
._	-652
▁MAX	-653
AG	-654
BASE	-655
▁()	-656
▁Fu	-657
▁\	-658
ESUL	-659
BL	-660
SIG	-661
▁IC	-662
EMP	-663
▁Sq	-664
▁'\	-665
8);	-666
(1)).	-667
EQUES	-668
37	-669
07	-670
USH	-671
CHAN	-672
KNOW	-673
15	-674
("-	-675
[]>	-676
IMA	-677
POIN	-678
GB	-679
OLE	-680
NING	-681
ECISION	-682
<>	-683
▁AC	-684
▁{\	-685
KNOWN	-686
6;	-687
▁@	-688
[0]);	-689
24	-690
DEF	-691
INDEX	-692
EQ	-693
▁>>	-694
1_	-695
hM	-696
ENE	-697
\1\	-698
FLAG	-699
COLUMN	-700
38	-701
EE	-702
LOW	-703
PEC	-704
IGIN	-705
LF	-706
5",	-707
LY	-708
(3,	-709
▁EX	-710
ISO	-711
SCH	-712
SD	-713
wh	-714
▁KEY	-715
LS	-716
IMI	-717
▁4;	-718
POSI	-719
▁255	-720
▁NULL	-721
wG	-722
####	-723
/"	-724
06	-725
(6	-726
▁IS	-727
000);	-728
▁Ou	-729
EMAIL	-730
ENC	-731
▁$	-732
BUG	-733
PASS	-734
(1));	-735
[3	-736
LOBAL	-737
2_	-738
__.	-739
__).	-740
BC	-741
HA	-742
("#	-743
▁"\"	-744
0101	-745
NC	-746
SK	-747
4",	-748
]",	-749
OUBLE	-750
28	-751
▁;	-752
LIEN	-753
7;	-754
SEC	-755
OWN	-756
UME	-757
003	-758
▁ISO	-759
MB	-760
▁)	-761
004	-762
>>>>	-763
UPDA	-764
[0],	-765
CAL	-766
SYS	-767
OFFSE	-768
Eq	-769
ECK	-770
LOCA	-771
-8	-772
▁CO	-773
[0].	-774
ISS	-775
SUB	-776
DESC	-777
▁0));	-778
▁1]	-779
AIL	-780
NAL	-781
POS	-782
▁")	-783
▁-=	-784
<?>>	-785
COMP	-786
▁1));	-787
PK	-788
ESPON	-789
9;	-790
LL	-791
wF	-792
(".	-793
ECO	-794
0001	-795
FS	-796
NODE	-797
36	-798
OID	-799
ESPONSE	-800
>"	-801
ANS	-802
SHO	-803
[])	-804
▁18	-805
PASSWO	-806
hL	-807
ACH	-808
LOA	-809
▁"[	-810
(7	-811
22	-812
▁"3	-813
AEJB	-814
ISUS	-815
********	-816
ISUSAEJB	-817
ASE	-818
CAN	-819
DEBUG	-820
UNKNOWN	-821
17	-822
▁Q	-823
▁6,	-824
▁PA	-825
▁10,	-826
▁JB	-827
AA	-828
Hu	-829
NAM	-830
▁IP	-831
20	-832
MD	-833
▁15	-834
▁Sw	-835
("",	-836
]+	-837
NULL	-838
hN	-839
ILE	-840
\0\	-841
LOAD	-842
CHECK	-843
NUMBE	-844
IB	-845
EPO	-846
IEW	-847
DELE	-848
00000000	-849
MAL	-850
▁UN	-851
ACHE	-852
Lu	-853
200	-854
▁EC	-855
▁0.5	-856
.0,	-857
▁Ph	-858
▁^	-859
▁DB	-860
▁.	-861
LEF	-862
////	-863
▁5;	-864
▁MO	-865
....	-866
(0.	-867
(__	-868
▁"}	-869
wE	-870
DUM	-871
www	-872
▁AP	-873
▁hu	-874
GUID	-875
CLIEN	-876
BB	-877
NEC	-878
▁24	-879
HOS	-880
▁"%	-881
▁"{	-882
▁WHE	-883
59	-884
DOWN	-885
ICAL	-886
29	-887
256	-888
EF	-889
_,	-890
'",	-891
0));	-892
(4,	-893
?",	-894
EGE	-895
DBC	-896
SL	-897
hE	-898
▁|=	-899
DUMMY	-900
▁JSON	-901
SCHEMA	-902
33	-903
DED	-904
UAL	-905
:");	-906
())));	-907
▁25	-908
▁UI	-909
';	-910
ACC	-911
EADE	-912
PL	-913
SY	-914
▁3);	-915
<?,	-916
FAC	-917
INK	-918
▁MA	-919
")),	-920
PLAY	-921
▁COL	-922
6);	-923
▁"/"	-924
__);	-925
wH	-926
DEC	-927
▁--	-928
3");	-929
▁102	-930
88	-931
uh	-932
\",\	-933
▁XML	-934
...");	-935
(5,	-936
_0_	-937
}",	-938
")))	-939
1").	-940
▁2.0	-941
INF	-942
MUL	-943
SOU	-944
NUME	-945
LAB	-946
SIGN	-947
1:	-948
hF	-949
ALE	-950
▁["	-951
("\"	-952
▁}));	-953
[4	-954
PUB	-955
▁?>	-956
COMM	-957
100	-958
▁(((	-959
INSE	-960
MAN	-961
MEM	-962
ACCOUN	-963
0000000	-964
---+---+---+---+	-965
WHI	-966
▁1).	-967
----------------	-968
CP	-969
='"	-970
(!	-971
▁"0	-972
FFE	-973
▁8,	-974
▁SQL	-975
wN	-976
MISS	-977
35	-978
AF	-979
PN	-980
ELA	-981
▁Nu	-982
(100);	-983
CONNEC	-984
84	-985
XC	-986
\02	-987
BACK	-988
▁Du	-989
0800	-990
(",");	-991
--;	-992
ADA	-993
2));	-994
IFICA	-995
LABEL	-996
GA	-997
hB	-998
IZED	-999
]");	-1000
CACHE	-1001
OCESS	-1002
26	-1003
76	-1004
LICA	-1005
IMEOU	-1006
16.	-1007
OAD	-1008
NAGE	-1009
[1];	-1010
CM	-1011
32(	-1012
OCK	-1013
(10,	-1014
▁'{}	-1015
ASK	-1016
LONG	-1017
▁-1);	-1018
hCh	-1019
("\\	-1020
1));	-1021
=%	-1022
++]	-1023
0.0	-1024
DIA	-1025
▁BY	-1026
▁1];	-1027
COMPA	-1028
''	-1029
IGN	-1030
INA	-1031
▁"#	-1032
(3);	-1033
[1]);	-1034
wB	-1035
2()	-1036
ALSE	-1037
1"));	-1038
MODEL	-1039
:00	-1040
CEP	-1041
DAY	-1042
3)	-1043
BI	-1044
.";	-1045
00;	-1046
(4);	-1047
1(	-1048
NB	-1049
[^	-1050
IZE	-1051
[2]	-1052
HOME	-1053
MAIN	-1054
MEMBE	-1055
UES	-1056
()];	-1057
PAGE	-1058
}");	-1059
▁"."	-1060
▁COM	-1061
40	-1062
▁DE	-1063
▁EN	-1064
▁FO	-1065
.\	-1066
JC	-1067
EEN	-1068
SED	-1069
("</	-1070
▁0),	-1071
FOUND	-1072
!",	-1073
(0),	-1074
IMAL	-1075
DEFINI	-1076
AEL	-1077
▁100;	-1078
(8	-1079
21	-1080
CULA	-1081
▁5);	-1082
("$	-1083
(";	-1084
>>)	-1085
HOU	-1086
▁ME	-1087
▁-1,	-1088
失败	-1089
AMP	-1090
ASH	-1091
WID	-1092
(1),	-1093
FACE	-1094
(""))	-1095
GP	-1096
MON	-1097
USD	-1098
))));	-1099
AILED	-1100
EMPLA	-1101
77	-1102
(\"	-1103
LES	-1104
▁(1	-1105
▁1.	-1106
CONS	-1107
44	-1108
66	-1109
AW	-1110
>>>	-1111
AML	-1112
BUIL	-1113
85	-1114
_4	-1115
()[	-1116
CLO	-1117
("201	-1118
▁2));	-1119
-1	-1120
30	-1121
><	-1122
(0)	-1123
9);	-1124
\03	-1125
▁IO	-1126
ALUES	-1127
HEADE	-1128
PAN	-1129
UNI	-1130
[1],	-1131
FALSE	-1132
▁1000;	-1133
IZA	-1134
Shu	-1135
("__	-1136
GLOBAL	-1137
▁DOUBLE	-1138
XY	-1139
▁~	-1140
EFE	-1141
▁10);	-1142
II	-1143
UB	-1144
XA	-1145
▁("_	-1146
(2));	-1147
ZC	-1148
-01	-1149
▁8)	-1150
MODI	-1151
4)	-1152
YB	-1153
NEW	-1154
FULL	-1155
SBML	-1156
▁(__	-1157
▁ADD	-1158
\":\"	-1159
DC	-1160
wW	-1161
_);	-1162
("//	-1163
CALL	-1164
DULE	-1165
▁6;	-1166
ELEMEN	-1167
EI	-1168
LD	-1169
CAS	-1170
▁14	-1171
▁3)	-1172
▁Wh	-1173
▁[%	-1174
ENCE	-1175
▁[{}	-1176
LOCAL	-1177
75	-1178
96	-1179
JA	-1180
DEN	-1181
KEYS	-1182
("{	-1183
>";	-1184
CUS	-1185
IMES	-1186
__");	-1187
SM	-1188
7);	-1189
▁60	-1190
GUYB	-1191
OJEC	-1192
48	-1193
EAM	-1194
WEB	-1195
▁"$	-1196
{}",	-1197
▁31,	-1198
PUBLIC	-1199
▁10000	-1200
1).	-1201
4");	-1202
▁DAO	-1203
7816.	-1204
ABLED	-1205
SEPA	-1206
▁0))	-1207
▁NUM	-1208
>>();	-1209
COMPLE	-1210
CALCULA	-1211
CC	-1212
FX	-1213
wO	-1214
0),	-1215
ANG	-1216
__,	-1217
▁"&	-1218
▁\""	-1219
(100,	-1220
▁'\''	-1221
DP	-1222
1.0	-1223
\"\	-1224
hQL	-1225
▁99	-1226
>>()	-1227
▁"</	-1228
▁4);	-1229
▁AND	-1230
▁{},	-1231
SCALE	-1232
CEL	-1233
SSL	-1234
▁NS	-1235
(1.0	-1236
ICON	-1237
(0)).	-1238
LABLE	-1239
MEDIA	-1240
▁BIGIN	-1241
1[	-1242
:\	-1243
AES	-1244
2").	-1245
ANCH	-1246
FAIL	-1247
OKEN	-1248
▁EGL	-1249
================	-1250
;",	-1251
></	-1252
AIN	-1253
DEL	-1254
EDI	-1255
SUF	-1256
▁7;	-1257
EXEC	-1258
INAL	-1259
."));	-1260
JS	-1261
ISH	-1262
[^/	-1263
▁1),	-1264
.2	-1265
39	-1266
00)	-1267
▁20	-1268
BUFFE	-1269
[^/]+	-1270
234	-1271
CLE	-1272
▁8;	-1273
▁SH	-1274
_5	-1275
ILI	-1276
LEN	-1277
▁7,	-1278
(10);	-1279
MANAGE	-1280
▁1000);	-1281
2[	-1282
UG	-1283
("0	-1284
006	-1285
1()	-1286
ACL	-1287
OKE	-1288
▁'%	-1289
▁11	-1290
(2).	-1291
ESPACE	-1292
."	-1293
DY	-1294
HS	-1295
[5	-1296
SSF	-1297
▁19	-1298
FLOA	-1299
HAND	-1300
PACK	-1301
SECON	-1302
DECIMAL	-1303
LICY	-1304
SKIP	-1305
▁","	-1306
KEYWO	-1307
/[^/]+	-1308
POLICY	-1309
SUFFIX	-1310
▁IM	-1311
▁LONG	-1312
CLASSNAME	-1313
DN	-1314
>("	-1315
▁!(	-1316
▁ON	-1317
{"	-1318
)];	-1319
--)	-1320
/",	-1321
14.	-1322
DOC	-1323
YEA	-1324
▁"1	-1325
IZON	-1326
▁GLOBAL	-1327
-9	-1328
65	-1329
hG	-1330
JOB	-1331
SEN	-1332
▁OU	-1333
000,	-1334
<?>)	-1335
LINK	-1336
()");	-1337
INFINI	-1338
2:	-1339
87	-1340
FN	-1341
JO	-1342
hH	-1343
hh	-1344
SDK	-1345
▁1:	-1346
▁IF	-1347
▁MQ	-1348
(5);	-1349
0\1\	-1350
SING	-1351
:%	-1352
GO	-1353
BML	-1354
IFI	-1355
PKG	-1356
UNC	-1357
ANGE	-1358
YPES	-1359
ADMIN	-1360
LAYOU	-1361
FAILED	-1362
CI	-1363
DIG	-1364
EGL	-1365
▁CH	-1366
▁OB	-1367
ANCE	-1368
FFFF	-1369
▁-9,	-1370
▁100,	-1371
########	-1372
CK	-1373
0",	-1374
PAY	-1375
++);	-1376
ENCES	-1377
INDING	-1378
DISPLAY	-1379
ISUSAEJBHOME	-1380
6_	-1381
IX	-1382
uB	-1383
GED	-1384
LAS	-1385
▁}\	-1386
IONAL	-1387
DOUBLE	-1388
▁{"));	-1389
$$	-1390
3_	-1391
<<	-1392
PH	-1393
GUI	-1394
NEL	-1395
>());	-1396
ACCESS	-1397
▁MCOMPA	-1398
89	-1399
FP	-1400
QN	-1401
)";	-1402
COLO	-1403
PING	-1404
▁201	-1405
▁FILE	-1406
2).	-1407
▁OP	-1408
CLUS	-1409
BOOLE	-1410
0_	-1411
[],	-1412
▁13	-1413
'");	-1414
▁20;	-1415
(200,	-1416
2"));	-1417
BOOLEAN	-1418
(\	-1419
47	-1420
;\	-1421
ENS	-1422
IEN	-1423
SECOND	-1424
OA	-1425
("_	-1426
FIL	-1427
GEN	-1428
OUN	-1429
GAME	-1430
JDBC	-1431
NAMESPACE	-1432
29.	-1433
=");	-1434
LIGH	-1435
3(	-1436
HB	-1437
hK	-1438
▁#	-1439
ALI	-1440
SEL	-1441
▁PO	-1442
INPU	-1443
▁11,	-1444
3/	-1445
ASS	-1446
▁(-	-1447
▁AL	-1448
("--	-1449
(1000);	-1450
31	-1451
["	-1452
MAY	-1453
WES	-1454
(-1,	-1455
GENE	-1456
SPEC	-1457
YAML	-1458
SPACE	-1459
////////	-1460
6-	-1461
▁LA	-1462
(201	-1463
CAME	-1464
▁ALL	-1465
▁API	-1466
▁SSL	-1467
ENDPOIN	-1468
FA	-1469
("*	-1470
CEN	-1471
DOM	-1472
EPL	-1473
ESE	-1474
▁'}	-1475
▁JS	-1476
▁NE	-1477
BINA	-1478
▁200	-1479
\030\	-1480
ESSION	-1481
27	-1482
45	-1483
(25	-1484
202	-1485
▁IA	-1486
▁JM	-1487
IMUM	-1488
▁APIE	-1489
000000	-1490
CHANGE	-1491
.5	-1492
hO	-1493
808	-1494
:",	-1495
CBC	-1496
HAL	-1497
MOB	-1498
SUP	-1499
1"),	-1500
EXIS	-1501
POWE	-1502
COMMAND	-1503
PS	-1504
uu	-1505
wU	-1506
12.	-1507
▁2:	-1508
1234	-1509
ICES	-1510
IELD	-1511
ABASE	-1512
▁"]";	-1513
86	-1514
OLD	-1515
[3]	-1516
▁(2	-1517
LEAN	-1518
ONLY	-1519
IMAGE	-1520
ENCODE	-1521
▁ACCOUN	-1522
▁COLUMN	-1523
DH	-1524
},	-1525
FOO	-1526
Squ	-1527
▁0:	-1528
▁36	-1529
▁CA	-1530
▁UP	-1531
MINU	-1532
OPEN	-1533
OPIC	-1534
[1].	-1535
▁SBML	-1536
▁\001	-1537
▁")");	-1538
****************	-1539
(9	-1540
-0	-1541
OG	-1542
2),	-1543
FOL	-1544
ODU	-1545
EGIS	-1546
-8");	-1547
CHANNEL	-1548
1/	-1549
2<	-1550
2]	-1551
BP	-1552
[6	-1553
▁,	-1554
('\	-1555
(15	-1556
007	-1557
ESC	-1558
PED	-1559
▁GE	-1560
000;	-1561
▁":"	-1562
▁BOO	-1563
>>>>>>>>	-1564
2/	-1565
CN	-1566
XX	-1567
(//	-1568
MQP	-1569
▁PE	-1570
ANDA	-1571
SQLS	-1572
▁'{}'	-1573
▁0.0;	-1574
0:	-1575
NI	-1576
uI	-1577
("@	-1578
MIL	-1579
▁17	-1580
("11	-1581
▁MAP	-1582
EXECU	-1583
MAYBE	-1584
\022\	-1585
MODULE	-1586
▁100);	-1587
▁\001(\	-1588
▁BOOLEAN	-1589
Ju	-1590
uS	-1591
MOD	-1592
▁31	-1593
▁4)	-1594
1\1\	-1595
▁1))	-1596
▁>>>	-1597
▁MIN	-1598
BINDING	-1599
3:	-1600
PP	-1601
(":	-1602
6",	-1603
789	-1604
INC	-1605
]));	-1606
HEIGH	-1607
INDOW	-1608
(6,	-1609
CLU	-1610
JID	-1611
UNA	-1612
]))	-1613
▁"5	-1614
▁IB	-1615
UNCH	-1616
▁256	-1617
▁1024	-1618
PACKAGE	-1619
Eu	-1620
("1	-1621
(1)	-1622
1";	-1623
EDU	-1624
IDS	-1625
SAL	-1626
▁2).	-1627
▁"1",	-1628
▁'}';	-1629
IALIZED	-1630
-"	-1631
AXB	-1632
HIS	-1633
▁IG	-1634
(21)	-1635
DIGI	-1636
DING	-1637
EXPI	-1638
EXCEP	-1639
▁"'");	-1640
8(	-1641
?,	-1642
25.	-1643
ADE	-1644
ADO	-1645
PLE	-1646
[].	-1647
("1.	-1648
(500	-1649
*");	-1650
53	-1651
[(	-1652
("(	-1653
999	-1654
FQN	-1655
▁(;	-1656
▁NB	-1657
$");	-1658
(0.0	-1659
EXPEC	-1660
NAMES	-1661
▁CODE	-1662
▁DESC	-1663
SINGLE	-1664
▁""));	-1665
MISSION	-1666
OD	-1667
wCh	-1668
(100	-1669
/");	-1670
5");	-1671
SHOW	-1672
▁5));	-1673
GC	-1674
OI	-1675
WS	-1676
(10	-1677
DLE	-1678
YNC	-1679
]],	-1680
▁DI	-1681
▁XC	-1682
BLUE	-1683
PUSH	-1684
CLOSE	-1685
▁NAME	-1686
Ku	-1687
_)	-1688
DSA	-1689
PLA	-1690
}";	-1691
▁WI	-1692
(2),	-1693
ABUI	-1694
ALIDA	-1695
BLACK	-1696
MODIF	-1697
▁"]");	-1698
........	-1699
3[	-1700
4\	-1701
50	-1702
8)	-1703
:/	-1704
EB	-1705
[:	-1706
}"	-1707
(7,	-1708
SEA	-1709
WAI	-1710
▁Ku	-1711
HASH	-1712
(3));	-1713
010101	-1714
ENSION	-1715
hW	-1716
GES	-1717
GLE	-1718
▁*=	-1719
▁II	-1720
EXPO	-1721
MASK	-1722
ODUC	-1723
▁10)	-1724
▁16)	-1725
▁DOM	-1726
(-1);	-1727
ALLOW	-1728
▁OBJEC	-1729
0(	-1730
[8	-1731
]\	-1732
ANY	-1733
ASC	-1734
CSS	-1735
EAL	-1736
NON	-1737
▁9,	-1738
▁CU	-1739
SEQU	-1740
▁"',	-1741
▁"12	-1742
▁OSQLS	-1743
54	-1744
79	-1745
():	-1746
DEP	-1747
OAu	-1748
▁HH	-1749
▁DIS	-1750
▁},\	-1751
<>());	-1752
']	-1753
/%	-1754
/{	-1755
JM	-1756
MU	-1757
QS	-1758
3()	-1759
509	-1760
ECE	-1761
OLL	-1762
▁"4	-1763
▁"@	-1764
▁Lu	-1765
LIKE	-1766
LIMI	-1767
▁[[:	-1768
())))	-1769
CANCEL	-1770
1-	-1771
1]	-1772
Mw	-1773
_"	-1774
hw	-1775
uP	-1776
成功	-1777
1),	-1778
2.0	-1779
OUS	-1780
hCu	-1781
▁3:	-1782
EMEN	-1783
FILL	-1784
SAML	-1785
▁"'"	-1786
▁APP	-1787
▁"%");	-1788
▁INDEX	-1789
EU	-1790
XW	-1791
异常	-1792
FEA	-1793
▁"(	-1794
▁BU	-1795
ENCY	-1796
SHIP	-1797
[2];	-1798
▁"-"	-1799
("100	-1800
00002,	-1801
.1	-1802
FL	-1803
PB	-1804
("^	-1805
>[]	-1806
EAS	-1807
LOY	-1808
SCO	-1809
SIS	-1810
▁29	-1811
▁</	-1812
▁}.	-1813
ANNO	-1814
BODY	-1815
INED	-1816
INGS	-1817
▁?>>	-1818
▁{",	-1819
FOLDE	-1820
CHANGED	-1821
MAXIMUM	-1822
5)	-1823
CD	-1824
XP	-1825
wK	-1826
008	-1827
EGO	-1828
▁CS	-1829
▁"["	-1830
ANCHO	-1831
ECEIP	-1832
3\	-1833
[7	-1834
01,	-1835
IAN	-1836
▁"+	-1837
▁SU	-1838
▁|\	-1839
01000	-1840
DOMAIN	-1841
2>	-1842
/13	-1843
BCN	-1844
CAP	-1845
GIN	-1846
MIX	-1847
PAI	-1848
("12	-1849
.0.0	-1850
▁"{:	-1851
56789	-1852
ASYNC	-1853
▁'{}'",	-1854
▁CONFIG	-1855
OND	-1856
PAS	-1857
▁'/	-1858
▁'0	-1859
▁FS	-1860
MEMO	-1861
▁12,	-1862
▁20,	-1863
▁20);	-1864
WINDOW	-1865
00000001	-1866
;"	-1867
KW	-1868
hU	-1869
删除	-1870
').	-1871
EXI	-1872
ICK	-1873
hAu	-1874
▁SP	-1875
OCOL	-1876
▁31;	-1877
IMSON	-1878
▁"}";	-1879
▁COUN	-1880
▁SHIF	-1881
46	-1882
FC	-1883
LC	-1884
XE	-1885
_7	-1886
NAP	-1887
(200	-1888
EIID	-1889
USED	-1890
▁"\\	-1891
▁(++	-1892
▁INS	-1893
▁}",	-1894
01001	-1895
01003	-1896
01009	-1897
BUILD	-1898
CONFI	-1899
▁255,	-1900
MODIFY	-1901
/[^/]+/	-1902
ENABLED	-1903
49	-1904
BM	-1905
JP	-1906
('.	-1907
/";	-1908
10.	-1909
FIN	-1910
LIB	-1911
NEX	-1912
OBS	-1913
▁&=	-1914
DECO	-1915
[2],	-1916
▁QUE	-1917
0000;	-1918
USAGE	-1919
_1_0_	-1920
▁LOCK	-1921
DESIGN	-1922
APPLICA	-1923
MISSING	-1924
HM	-1925
Pw	-1926
uC	-1927
++,	-1928
CLA	-1929
SYN	-1930
[4]	-1931
▁"2	-1932
▁"^	-1933
▁HB	-1934
(8);	-1935
ESHO	-1936
▁SUB	-1937
COLUM	-1938
EGION	-1939
BUILDE	-1940
HANDLE	-1941
DEFINED	-1942
SESSION	-1943
58	-1944
9_	-1945
=?	-1946
GG	-1947
LG	-1948
uE	-1949
###	-1950
10-	-1951
CDA	-1952
DAP	-1953
DFS	-1954
EOF	-1955
▁AU	-1956
▁KW	-1957
▁LE	-1958
HIGH	-1959
IDEN	-1960
▁"%"	-1961
▁JCh	-1962
COMMI	-1963
__++)	-1964
▁FLOA	-1965
("}");	-1966
IGINAL	-1967
IW	-1968
032	-1969
EME	-1970
EXP	-1971
HAS	-1972
JNI	-1973
▁?,	-1974
▁BO	-1975
▁~0	-1976
("{}	-1977
EADY	-1978
FUNC	-1979
INCO	-1980
WING	-1981
_000	-1982
▁8);	-1983
)"));	-1984
SENSI	-1985
▁")";	-1986
▁[{}]	-1987
ASSIGN	-1988
EPLICA	-1989
ESHOLD	-1990
▁SELEC	-1991
ULLABLE	-1992
BASELINE	-1993
CF	-1994
Fq	-1995
信息	-1996
東京	-1997
2))	-1998
7",	-1999
FAM	-2000
IFY	-2001
ILY	-2002
ONY	-2003
QFN	-2004
JACK	-2005
MIME	-2006
▁2),	-2007
BIGIN	-2008
SUPPO	-2009
COLLEC	-2010
COMMEN	-2011
ENDING	-2012
/2	-2013
HH	-2014
]]	-2015
301	-2016
MQS	-2017
▁(%	-2018
▁SO	-2019
CAPE	-2020
SAFE	-2021
SNAP	-2022
▁"("	-2023
▁"-+	-2024
("1",	-2025
01006	-2026
01008	-2027
3"));	-2028
ABLES	-2029
▁HSSF	-2030
80	-2031
=[	-2032
MK	-2033
行っ	-2034
009	-2035
ALS	-2036
ANK	-2037
JDA	-2038
▁9;	-2039
.0);	-2040
NEGA	-2041
SHIF	-2042
▁CHA	-2043
▁OAu	-2044
01004	-2045
BOUND	-2046
SMALL	-2047
LAUNCH	-2048
93	-2049
GS	-2050
uA	-2051
("'	-2052
('/	-2053
(8,	-2054
-02	-2055
ILD	-2056
OOM	-2057
OUD	-2058
YES	-2059
_1_	-2060
▁"?	-2061
▁'.	-2062
HALF	-2063
MPLE	-2064
▁"].	-2065
▁16;	-2066
▁HOS	-2067
(20);	-2068
01005	-2069
01007	-2070
IALIZE	-2071
ISWING	-2072
UNIQUE	-2073
▁10));	-2074
3]	-2075
67	-2076
69	-2077
BS	-2078
KB	-2079
hq	-2080
▁`	-2081
500	-2082
BOX	-2083
JPA	-2084
SWI	-2085
ULO	-2086
WEE	-2087
▁ZK	-2088
▁ZZ	-2089
▁{0	-2090
0");	-2091
0801	-2092
CASE	-2093
CONF	-2094
ECEI	-2095
SBMP	-2096
UMEN	-2097
▁NEW	-2098
▁SHO	-2099
▁PASS	-2100
▁UPDA	-2101
AILABLE	-2102
NULLABLE	-2103
*[	-2104
0[	-2105
4(	-2106
CW	-2107
Fh	-2108
()]	-2109
2";	-2110
BIG	-2111
BUL	-2112
ELO	-2113
\\.	-2114
▁:=	-2115
2();	-2116
;");	-2117
=").	-2118
ESEN	-2119
▁12;	-2120
▁SEC	-2121
▁SHA	-2122
▁"\1\	-2123
▁INDA	-2124
)."));	-2125
▁0.0);	-2126
43	-2127
101	-2128
IBE	-2129
WSA	-2130
▁GI	-2131
▁SM	-2132
▁WA	-2133
(7);	-2134
>").	-2135
CLIC	-2136
IFIE	-2137
▁24)	-2138
▁6);	-2139
<?>[]	-2140
DELAY	-2141
OFILE	-2142
▁COLO	-2143
▁INFO	-2144
▁JAXB	-2145
▁MESSAGE	-2146
1}	-2147
2}	-2148
CB	-2149
CY	-2150
YY	-2151
hJ	-2152
125	-2153
8",	-2154
EMS	-2155
HEN	-2156
MAS	-2157
PID	-2158
PIN	-2159
_01	-2160
▁5)	-2161
▁hq	-2162
("**	-2163
8");	-2164
IGNO	-2165
SEND	-2166
WAYS	-2167
CONDI	-2168
▁"201	-2169
("1");	-2170
(500);	-2171
MODIFI	-2172
SCLASS	-2173
SNAPSHO	-2174
SCLASSWEB	-2175
!!	-2176
KI	-2177
("?	-2178
={}	-2179
UID	-2180
_0(	-2181
▁97	-2182
▁Gu	-2183
("==	-2184
2.16	-2185
3));	-2186
CMDB	-2187
ZONE	-2188
\">\	-2189
▁Chu	-2190
▁UIS	-2191
CHEMA	-2192
FINAL	-2193
IFIED	-2194
INDEN	-2195
▁1");	-2196
CODING	-2197
\""));	-2198
▁255.0	-2199
*)	-2200
98	-2201
Gh	-2202
KA	-2203
wX	-2204
(45	-2205
.__	-2206
304	-2207
512	-2208
ACO	-2209
EGA	-2210
GAS	-2211
?");	-2212
ADIX	-2213
BOOK	-2214
CION	-2215
▁50;	-2216
▁CAS	-2217
▁LOC	-2218
())),	-2219
7.0.0	-2220
▁16);	-2221
▁LENG	-2222
AILING	-2223
[][][]	-2224
COMPLEX	-2225
("&	-2226
("2	-2227
123	-2228
IBM	-2229
OME	-2230
QUA	-2231
]";	-2232
▁PN	-2233
東京都	-2234
=\""	-2235
AAAA	-2236
ABLA	-2237
BUCK	-2238
ONEN	-2239
▁"")	-2240
▁1][	-2241
▁END	-2242
▁OFF	-2243
6-10-	-2244
ELLOW	-2245
OOGLE	-2246
▁"3",	-2247
▁BASE	-2248
▁HASH	-2249
▁SIZE	-2250
▁}");	-2251
MANUAL	-2252
SUBJEC	-2253
UNNING	-2254
/[^/]+$");	-2255
-2	-2256
42	-2257
51	-2258
5_	-2259
68	-2260
FU	-2261
(14	-2262
-03	-2263
11;	-2264
70,	-2265
IPE	-2266
LAP	-2267
PAD	-2268
YLE	-2269
\01	-2270
wSh	-2271
▁NA	-2272
3").	-2273
AUDI	-2274
FLOW	-2275
SAND	-2276
▁18,	-2277
▁60;	-2278
()]);	-2279
0000,	-2280
FIXED	-2281
[2]);	-2282
▁0.0,	-2283
▁0.01	-2284
(""));	-2285
▁200);	-2286
▁LOCKI	-2287
IMELINE	-2288
("2016-10-	-2289
/*	-2290
0/	-2291
1<	-2292
4_	-2293
ZK	-2294
'),	-2295
1')	-2296
ABC	-2297
ALA	-2298
BUN	-2299
ICS	-2300
YID	-2301
[10	-2302
▁"*	-2303
▁98	-2304
11",	-2305
29);	-2306
BULK	-2307
LANG	-2308
MENU	-2309
▁3).	-2310
01002	-2311
ALOAD	-2312
CLOUD	-2313
GUMEN	-2314
PLACE	-2315
QUEUE	-2316
▁"").	-2317
2.168.	-2318
ESCAPE	-2319
($	-2320
0"	-2321
IJ	-2322
[9	-2323
[_	-2324
AFE	-2325
CHE	-2326
SEG	-2327
ZIP	-2328
_2_	-2329
▁(0	-2330
▁23	-2331
▁2]	-2332
▁BA	-2333
▁Eq	-2334
▁OS	-2335
("${	-2336
(0.5	-2337
(3).	-2338
001/	-2339
:///	-2340
EADS	-2341
_128	-2342
▁');	-2343
▁14,	-2344
▁304	-2345
00000	-2346
ACION	-2347
ANSFO	-2348
▁3));	-2349
▁CONS	-2350
DISABLED	-2351
(?	-2352
4:	-2353
6)	-2354
72	-2355
(""	-2356
163	-2357
DNN	-2358
UIM	-2359
[5]	-2360
_78	-2361
{\"	-2362
▁22	-2363
▁IL	-2364
()='	-2365
(3),	-2366
6");	-2367
<<<<	-2368
IDEO	-2369
SPAN	-2370
WEEK	-2371
▁0).	-2372
▁123	-2373
▁30,	-2374
▁POS	-2375
.2");	-2376
IABLE	-2377
_128_	-2378
ACHMEN	-2379
PAYMEN	-2380
▁{}.",	-2381
▁MODULE	-2382
▁PASSWO	-2383
▁UNKNOWN	-2384
CHECKPOIN	-2385
数据	-2386
财务	-2387
0()	-2388
00.	-2389
1_1	-2390
ALY	-2391
DHE	-2392
HAN	-2393
OAK	-2394
WSO	-2395
▁BE	-2396
▁DL	-2397
▁LI	-2398
▁OA	-2399
(6);	-2400
5\1\	-2401
AGES	-2402
DINJ	-2403
ELIF	-2404
HEAD	-2405
MAGE	-2406
NOMB	-2407
▁11:	-2408
▁30;	-2409
(5));	-2410
ELESS	-2411
FOCUS	-2412
▁1.0,	-2413
▁MEMO	-2414
("1.2.	-2415
()))).	-2416
(10));	-2417
=\"");	-2418
EPLACE	-2419
▁SCHEMA	-2420
23456789	-2421
################	-2422
60	-2423
={	-2424
GM	-2425
JD	-2426
16,	-2427
32.	-2428
DEG	-2429
LIN	-2430
OBJ	-2431
▁35	-2432
▁4:	-2433
▁AN	-2434
▁HO	-2435
EIGN	-2436
FEED	-2437
HING	-2438
[0])	-2439
▁"0"	-2440
▁SYS	-2441
(255,	-2442
ANSAC	-2443
CLUDE	-2444
▁200,	-2445
▁GENE	-2446
"))));	-2447
CLOSED	-2448
ENABLE	-2449
FAMILY	-2450
SBMLQu	-2451
DISABLE	-2452
EMANAGE	-2453
UNDEFINED	-2454
////////////////	-2455
62	-2456
<@	-2457
uD	-2458
时间	-2459
设置	-2460
("4	-2461
(':	-2462
024	-2463
055	-2464
11,	-2465
3).	-2466
9",	-2467
ABS	-2468
BUS	-2469
COS	-2470
EES	-2471
FML	-2472
IDP	-2473
SHU	-2474
▁'9	-2475
7");	-2476
ENSE	-2477
MKOL	-2478
POOL	-2479
SYNC	-2480
[0-9	-2481
].",	-2482
_123	-2483
▁"_"	-2484
▁ACC	-2485
>"));	-2486
FAILU	-2487
▁"\",	-2488
▁DELE	-2489
▁MAPI	-2490
-8"));	-2491
BUNDLE	-2492
[0]));	-2493
▁"1");	-2494
ACCESSO	-2495
0000000000000000	-2496
,"	-2497
.%	-2498
FM	-2499
LP	-2500
qq	-2501
'))	-2502
384	-2503
ECA	-2504
GUA	-2505
INY	-2506
LEA	-2507
▁('	-2508
▁MB	-2509
))),	-2510
01",	-2511
10",	-2512
ENDA	-2513
IFAC	-2514
LOWE	-2515
▁"//	-2516
▁3),	-2517
▁355	-2518
▁7);	-2519
CANNO	-2520
QNAME	-2521
BLOCKS	-2522
SIMPLE	-2523
CONFIGU	-2524
${	-2525
AZ	-2526
XS	-2527
uw	-2528
用户	-2529
11\	-2530
199	-2531
ABO	-2532
PEG	-2533
_1.	-2534
{2}	-2535
▁37	-2536
に行っ	-2537
ACID	-2538
ANSI	-2539
BEAN	-2540
EDED	-2541
EGEX	-2542
▁GLU	-2543
▁PUB	-2544
に行った	-2545
(50);	-2546
)))).	-2547
0001,	-2548
32();	-2549
:{}",	-2550
CHILD	-2551
IDDEN	-2552
ISSUE	-2553
▁"));	-2554
▁"2",	-2555
▁12);	-2556
▁EXIS	-2557
EMPLOY	-2558
▁",");	-2559
▁3042);	-2560
):	-2561
7_	-2562
90	-2563
LM	-2564
PD	-2565
[@	-2566
uH	-2567
!";	-2568
('"	-2569
(')	-2570
(16	-2571
-1.	-2572
:{}	-2573
EPE	-2574
IOD	-2575
PHA	-2576
_3_	-2577
▁JO	-2578
(123	-2579
?,?,	-2580
JPEG	-2581
LESS	-2582
OLLE	-2583
PLUG	-2584
[3];	-2585
_002	-2586
▁LIS	-2587
PLAIN	-2588
▁"4",	-2589
GOOGLE	-2590
INDICA	-2591
SCHEME	-2592
YELLOW	-2593
▁BUFFE	-2594
▁[{}]",	-2595
2.168.1.	-2596
->	-2597
91	-2598
FW	-2599
JW	-2600
(',	-2601
(12	-2602
-12	-2603
2];	-2604
BUC	-2605
HEA	-2606
PIC	-2607
SQS	-2608
WAL	-2609
▁CM	-2610
▁Gh	-2611
▁Jw	-2612
▁LN	-2613
▁SC	-2614
("")	-2615
(4),	-2616
<?>,	-2617
LDAP	-2618
▁0.1	-2619
▁;";	-2620
▁Kuh	-2621
▁UDA	-2622
')");	-2623
(16);	-2624
BEGIN	-2625
INYIN	-2626
ISHED	-2627
PHONE	-2628
YABLE	-2629
▁11);	-2630
▁255)	-2631
▁30);	-2632
0000);	-2633
010100	-2634
SIGNED	-2635
▁1024;	-2636
▁LOCAL	-2637
DOCUMEN	-2638
FILENAME	-2639
-3	-2640
5\	-2641
8_	-2642
92	-2643
GH	-2644
XO	-2645
当前	-2646
0.5	-2647
:\\	-2648
AMS	-2649
CHI	-2650
SAP	-2651
SUM	-2652
];"	-2653
{1}	-2654
▁"|	-2655
▁2.	-2656
▁:"	-2657
▁CE	-2658
▁Cq	-2659
▁Eu	-2660
▁Hu	-2661
(20,	-2662
AGEN	-2663
ENDE	-2664
KIND	-2665
LING	-2666
YPSH	-2667
[2].	-2668
▁101	-2669
▁11;	-2670
▁13,	-2671
={}",	-2672
ABUIA	-2673
ACCEP	-2674
HOUSE	-2675
IMONY	-2676
▁CONF	-2677
▁INPU	-2678
▁1000,	-2679
▁CLIEN	-2680
▁NUMBE	-2681
MAPPING	-2682
▁SECOND	-2683
ENCODING	-2684
SIZEPOLICY	-2685
,\	-2686
5(	-2687
74	-2688
Cq	-2689
KH	-2690
]{	-2691
08.	-2692
;";	-2693
AWS	-2694
BAM	-2695
CED	-2696
SPA	-2697
SPE	-2698
hMu	-2699
hSu	-2700
▁')	-2701
▁'-	-2702
▁XS	-2703
++],	-2704
2010	-2705
ADAP	-2706
ENGL	-2707
IDLE	-2708
ISDE	-2709
SUPE	-2710
[4];	-2711
▁91.	-2712
▁JPA	-2713
("200	-2714
AGMEN	-2715
\"");	-2716
\",\"	-2717
▁"{\"	-2718
▁COMM	-2719
▁LIMI	-2720
(0)));	-2721
FACILI	-2722
\":\""	-2723
▁".");	-2724
▁20));	-2725
COLUMNA	-2726
ELOPING	-2727
東京都に行った	-2728
EMPLOYEE	-2729
HD	-2730
OY	-2731
[%	-2732
══	-2733
错误	-2734
("9	-2735
(11	-2736
03,	-2737
32;	-2738
41.	-2739
598	-2740
CPU	-2741
EFO	-2742
HEL	-2743
IGA	-2744
ILL	-2745
NLG	-2746
SAB	-2747
[6]	-2748
hNu	-2749
uFK	-2750
wQu	-2751
▁''	-2752
▁'_	-2753
▁EM	-2754
▁MS	-2755
▁[]	-2756
))))	-2757
5));	-2758
BOSE	-2759
POLA	-2760
[3],	-2761
_1_,	-2762
▁"1.	-2763
▁1",	-2764
▁15,	-2765
▁15;	-2766
▁18;	-2767
▁32,	-2768
▁ICA	-2769
22"),	-2770
▁HIGH	-2771
99995,	-2772
EHOUSE	-2773
ENGLISH	-2774
SEQUENCE	-2775
000000"));	-2776
'"	-2777
2"	-2778
2=	-2779
4/	-2780
CX	-2781
YN	-2782
['	-2783
}\	-2784
存在	-2785
(*)	-2786
(2)	-2787
.//	-2788
21.	-2789
8.7	-2790
>20	-2791
MOS	-2792
OXY	-2793
SDL	-2794
[++	-2795
_12	-2796
▁!"	-2797
▁6)	-2798
("./	-2799
("01	-2800
://"	-2801
AINE	-2802
HOLE	-2803
IALS	-2804
KING	-2805
OCKE	-2806
SELF	-2807
UNAU	-2808
wMOB	-2809
}").	-2810
▁"##	-2811
▁"{}	-2812
▁-3,	-2813
▁1])	-2814
▁DEC	-2815
▁MON	-2816
.2"),	-2817
848);	-2818
ANALY	-2819
ILINE	-2820
MIXIN	-2821
▁""),	-2822
▁MOCK	-2823
(200);	-2824
FULLSC	-2825
PUBLIS	-2826
▁MAPPE	-2827
(5000);	-2828
SMALLIN	-2829
▁3553);	-2830
▁PUBLIC	-2831
▁SBMLQu	-2832
\030\001	-2833
("#000000"));	-2834
)\	-2835
-4	-2836
1"	-2837
8:	-2838
97	-2839
BG	-2840
FB	-2841
为空	-2842
获取	-2843
','	-2844
../	-2845
19.	-2846
BOL	-2847
CES	-2848
DBS	-2849
DSL	-2850
QAF	-2851
ULE	-2852
_15	-2853
wOu	-2854
▁(*	-2855
'));	-2856
("$.	-2857
(50,	-2858
++];	-2859
0808	-2860
2"),	-2861
8();	-2862
ACKE	-2863
AMAN	-2864
APDU	-2865
EDEN	-2866
GADO	-2867
IMPO	-2868
MESS	-2869
SCAN	-2870
XMLL	-2871
[]>>	-2872
▁((!	-2873
▁...	-2874
▁655	-2875
-001/	-2876
64();	-2877
6_005	-2878
CLICK	-2879
ECIPE	-2880
EQUAL	-2881
FLAGS	-2882
OADON	-2883
SUBSC	-2884
[0]))	-2885
wYAML	-2886
▁"305	-2887
▁0)).	-2888
▁255;	-2889
▁8));	-2890
▁_005	-2891
7.0.0.	-2892
99998,	-2893
:00:00	-2894
CONFIGS	-2895
▁FAILED	-2896
_0026_005	-2897
:4	-2898
Jw	-2899
Kh	-2900
OX	-2901
PW	-2902
WW	-2903
0-9	-2904
116	-2905
1_,	-2906
80_	-2907
ANA	-2908
AUD	-2909
BAN	-2910
IAS	-2911
IMU	-2912
MID	-2913
]).	-2914
▁/=	-2915
▁27	-2916
▁3.	-2917
▁3]	-2918
▁CD	-2919
▁CL	-2920
▁HE	-2921
1000	-2922
1_);	-2923
AXIS	-2924
BEFO	-2925
SPLI	-2926
WSDL	-2927
\032	-2928
▁0.9	-2929
▁1].	-2930
▁3.0	-2931
▁EPC	-2932
▁GMS	-2933
▁HOU	-2934
▁PID	-2935
("{\"	-2936
ANDOM	-2937
SLIDE	-2938
WEIGH	-2939
▁"'",	-2940
▁")",	-2941
▁0");	-2942
▁50);	-2943
▁MODE	-2944
")))).	-2945
▁"0");	-2946
▁"}").	-2947
▁1)));	-2948
▁18));	-2949
▁CLASS	-2950
▁FIELD	-2951
▁MODEL	-2952
1=	-2953
wu	-2954
不能	-2955
(-1	-2956
/**	-2957
/1.	-2958
AMQ	-2959
CMD	-2960
CSN	-2961
EXC	-2962
GAN	-2963
LIE	-2964
ODO	-2965
[7]	-2966
▁"~	-2967
▁'1	-2968
▁AI	-2969
▁JA	-2970
▁JD	-2971
▁PB	-2972
▁[{	-2973
▁wI	-2974
0\2\	-2975
2017	-2976
256_	-2977
BILI	-2978
PANE	-2979
]++;	-2980
▁"11	-2981
▁"14	-2982
▁-4,	-2983
▁0,"	-2984
▁0.8	-2985
▁40,	-2986
▁5).	-2987
▁INC	-2988
▁INI	-2989
(2)).	-2990
2006.	-2991
BUCKE	-2992
▁"0";	-2993
▁MAKE	-2994
()[0];	-2995
SEGMEN	-2996
▁255),	-2997
▁{}));	-2998
ELACION	-2999
▁2929);	-3000
▁COLLEC	-3001
SPECIFIED	-3002
1>	-3003
57	-3004
HG	-3005
IQ	-3006
NM	-3007
XN	-3008
更新	-3009
线程	-3010
8).	-3011
:59	-3012
DEM	-3013
PBH	-3014
PDF	-3015
▁BL	-3016
▁ES	-3017
▁SS	-3018
')",	-3019
("19	-3020
(2.0	-3021
1)).	-3022
4").	-3023
>().	-3024
ANGU	-3025
ENAN	-3026
HODS	-3027
ICIP	-3028
JOIN	-3029
QUAN	-3030
SOAP	-3031
▁"))	-3032
▁0.2	-3033
▁16,	-3034
▁FIL	-3035
▁LEF	-3036
("<==	-3037
(30);	-3038
,"));	-3039
1")).	-3040
4"));	-3041
AUDIO	-3042
UCENE	-3043
▁"\0\	-3044
("/");	-3045
ALWAYS	-3046
ELEASE	-3047
LOADED	-3048
▁100.0	-3049
▁CACHE	-3050
▁_2010	-3051
(2000);	-3052
▁10000;	-3053
▁ACCESS	-3054
▁UNSAFE	-3055
3<	-3056
DM	-3057
MC	-3058
_9	-3059
360	-3060
BIP	-3061
ECU	-3062
ELS	-3063
IID	-3064
KDF	-3065
OPS	-3066
SCM	-3067
SEP	-3068
SOF	-3069
▁$$	-3070
▁IU	-3071
▁MP	-3072
▁XA	-3073
("00	-3074
(15,	-3075
KEEP	-3076
SSLE	-3077
UPPE	-3078
▁-8,	-3079
▁0.6	-3080
▁1.5	-3081
▁50)	-3082
▁?";	-3083
▁DAY	-3084
▁LAB	-3085
▁PBH	-3086
("-->	-3087
10000	-3088
ALIAS	-3089
CYCLE	-3090
DINAL	-3091
ENDED	-3092
[0]).	-3093
_1598	-3094
▁"\""	-3095
▁1.0;	-3096
▁100)	-3097
▁24);	-3098
▁256)	-3099
IALIZA	-3100
PASSED	-3101
PLUGIN	-3102
[]>();	-3103
▁YIELD	-3104
▁LUCENE	-3105
AO	-3106
FD	-3107
ZZ	-3108
_8	-3109
'])	-3110
(">	-3111
(++	-3112
({}	-3113
);\	-3114
17.	-3115
20.	-3116
24,	-3117
3";	-3118
6()	-3119
ACY	-3120
BEA	-3121
EAK	-3122
HIN	-3123
LPC	-3124
MAC	-3125
ULA	-3126
UNS	-3127
YMP	-3128
▁50	-3129
▁77	-3130
-1",	-3131
ASSE	-3132
PLAN	-3133
_16_	-3134
▁"".	-3135
▁"="	-3136
▁'\\	-3137
▁(!"	-3138
▁ASC	-3139
▁CAN	-3140
▁UNI	-3141
▁{};	-3142
("==>	-3143
(0.0,	-3144
(400,	-3145
00));	-3146
0001;	-3147
ALPHA	-3148
FILES	-3149
KEEPE	-3150
▁13);	-3151
▁1]);	-3152
▁4));	-3153
▁GAME	-3154
("/").	-3155
(1000,	-3156
0001);	-3157
AMANIO	-3158
CEEDED	-3159
DECODE	-3160
MILLIS	-3161
[1]));	-3162
))."));	-3163
ANGUAGE	-3164
\022\02	-3165
FEEDBACK	-3166
▁1000));	-3167
41	-3168
GI	-3169
IU	-3170
LN	-3171
UD	-3172
修改	-3173
参数	-3174
批量	-3175
登录	-3176
(20	-3177
01.	-3178
10,	-3179
10;	-3180
4()	-3181
>30	-3182
GCM	-3183
IDI	-3184
JCu	-3185
QUO	-3186
[8]	-3187
▁5:	-3188
▁AD	-3189
▁MY	-3190
▁Mq	-3191
▁Ow	-3192
(0))	-3193
BAMW	-3194
BBBB	-3195
INDA	-3196
_1);	-3197
_148	-3198
▁'0'	-3199
▁((0	-3200
▁2.5	-3201
▁23,	-3202
▁DEN	-3203
▁EJB	-3204
▁LwM	-3205
▁}),	-3206
69999	-3207
ADEUS	-3208
EDUCE	-3209
IPPED	-3210
NAMIC	-3211
▁IGNO	-3212
(".");	-3213
(45.0,	-3214
OPCION	-3215
▁1.0);	-3216
▁24));	-3217
▁})));	-3218
PAYLOAD	-3219
WINDOWS	-3220
▁1024);	-3221
▁COMPLE	-3222
COMPONEN	-3223
ISBINDING	-3224
/:	-3225
2-	-3226
5:	-3227
71	-3228
Dw	-3229
GD	-3230
MN	-3231
分类	-3232
查询	-3233
(1.	-3234
(9,	-3235
21,	-3236
EJB	-3237
ENG	-3238
NPC	-3239
OMA	-3240
PCS	-3241
SOL	-3242
UMP	-3243
[];	-3244
__(	-3245
|\\	-3246
▁',	-3247
▁']	-3248
▁AW	-3249
▁GA	-3250
▁IE	-3251
▁LO	-3252
▁wC	-3253
(1))	-3254
2007	-3255
5").	-3256
8000	-3257
9");	-3258
:808	-3259
ESOL	-3260
OWNE	-3261
PADD	-3262
SUPP	-3263
[4],	-3264
\">"	-3265
▁"~"	-3266
▁//\	-3267
▁24;	-3268
▁88.	-3269
▁9);	-3270
▁=",	-3271
▁AES	-3272
▁CML	-3273
▁DEF	-3274
▁EDI	-3275
▁EOF	-3276
▁LAS	-3277
▁SOU	-3278
(".")	-3279
01");	-3280
CLUSI	-3281
FLUSH	-3282
SCOPE	-3283
USING	-3284
WHILE	-3285
_256_	-3286
▁973.	-3287
▁JDBC	-3288
(2000,	-3289
DELIMI	-3290
▁"1411	-3291
▁{0}",	-3292
ALLOWED	-3293
CALENDA	-3294
NEWLINE	-3295
PADDING	-3296
▁"\"");	-3297
▁CONNEC	-3298
MESSAGES	-3299
▁\001(\01	-3300
(">>>>>>>>	-3301
!\	-3302
)"	-3303
4]	-3304
70	-3305
BD	-3306
PF	-3307
QF	-3308
UA	-3309
ZN	-3310
]"	-3311
uq	-3312
内容	-3313
添加	-3314
("+	-3315
('#	-3316
012	-3317
01;	-3318
01_	-3319
04-	-3320
5.6	-3321
>10	-3322
AGG	-3323
CCL	-3324
DNS	-3325
ESH	-3326
KEK	-3327
LON	-3328
SIN	-3329
WHE	-3330
_19	-3331
▁FN	-3332
▁XW	-3333
0485	-3334
ACLE	-3335
CLEA	-3336
DONE	-3337
JAXB	-3338
LLAP	-3339
NANO	-3340
OBSE	-3341
OUPS	-3342
_2_,	-3343
▁%.2	-3344
▁0.4	-3345
▁20)	-3346
▁<",	-3347
▁>",	-3348
▁?>)	-3349
▁ICO	-3350
▁WAL	-3351
(1000	-3352
(15);	-3353
(4));	-3354
...",	-3355
000",	-3356
02003	-3357
05000	-3358
5"));	-3359
CANCE	-3360
IMXML	-3361
SNOMB	-3362
▁23);	-3363
▁<=",	-3364
▁<>",	-3365
▁>=",	-3366
▁LIKE	-3367
▁LOAD	-3368
▁MINU	-3369
(')');	-3370
-01-01	-3371
99994,	-3372
PABILI	-3373
UALIZA	-3374
▁256);	-3375
(","));	-3376
CLASSES	-3377
EOPCION	-3378
\022\01	-3379
MFEEDBACK	-3380
SEQUENCES	-3381
▁11:22"),	-3382
................	-3383
(%	-3384
(.	-3385
6:	-3386
7)	-3387
Gw	-3388
IK	-3389
PM	-3390
QO	-3391
uG	-3392
'',	-3393
'],	-3394
12;	-3395
20,	-3396
25,	-3397
258	-3398
99,	-3399
BED	-3400
CHO	-3401
DUP	-3402
ELL	-3403
ICH	-3404
OLA	-3405
\">	-3406
_";	-3407
_1,	-3408
▁)"	-3409
▁00	-3410
▁21	-3411
▁32	-3412
▁HA	-3413
▁JW	-3414
▁SQ	-3415
▁[\	-3416
▁^=	-3417
▁})	-3418
("["	-3419
().<	-3420
(18,	-3421
1"))	-3422
1();	-3423
2014	-3424
3\1\	-3425
4\1\	-3426
8));	-3427
<>()	-3428
>30]	-3429
CHES	-3430
COIJ	-3431
DIAN	-3432
EASE	-3433
GGGP	-3434
GING	-3435
GOLD	-3436
LOME	-3437
MINA	-3438
ONGO	-3439
OUCH	-3440
[5],	-3441
][0]	-3442
▁"5"	-3443
▁(37	-3444
▁(53	-3445
▁10.	-3446
▁10:	-3447
▁4.0	-3448
▁60,	-3449
▁75.	-3450
▁Equ	-3451
▁FDB	-3452
▁GES	-3453
▁{0}	-3454
("/**	-3455
(12);	-3456
02000	-3457
11\1\	-3458
<>(),	-3459
OPPED	-3460
[3]);	-3461
▁$("#	-3462
▁(!((	-3463
▁15);	-3464
▁1611	-3465
▁ENUM	-3466
▁JOIN	-3467
▁MASK	-3468
00001,	-3469
ICIPAN	-3470
\">");	-3471
▁DEBUG	-3472
▁HEIGH	-3473
("/"));	-3474
MODIFIE	-3475
SHIPMEN	-3476
▁2848);	-3477
CALLBACK	-3478
PUBLISHE	-3479
'\	-3480
(@	-3481
-%	-3482
5]	-3483
6\	-3484
HL	-3485
NN	-3486
SQ	-3487
]*	-3488
}/	-3489
(13	-3490
1__	-3491
2.5	-3492
255	-3493
85.	-3494
AGO	-3495
ANE	-3496
EAu	-3497
EPC	-3498
FHI	-3499
IED	-3500
LIO	-3501
OSE	-3502
▁'*	-3503
▁'2	-3504
▁6:	-3505
▁9)	-3506
▁EP	-3507
▁GB	-3508
▁IW	-3509
▁OC	-3510
▁PU	-3511
▁ZE	-3512
▁{"	-3513
(11,	-3514
(16,	-3515
2020	-3516
4));	-3517
64);	-3518
DOES	-3519
EMON	-3520
EMPO	-3521
EQUI	-3522
FIND	-3523
MANY	-3524
OKUP	-3525
PKCS	-3526
SIDE	-3527
SWAP	-3528
UNDE	-3529
YIDA	-3530
▁25,	-3531
▁26,	-3532
▁28,	-3533
▁32;	-3534
▁CMM	-3535
▁SEA	-3536
▁SOF	-3537
▁UIM	-3538
02001	-3539
02002	-3540
08000	-3541
>>>()	-3542
ASING	-3543
FOLIO	-3544
HBASE	-3545
IMPLE	-3546
MAPPE	-3547
NAMED	-3548
PAUSE	-3549
▁"100	-3550
▁2");	-3551
▁JPAO	-3552
▁MAIN	-3553
▁NODE	-3554
(200).	-3555
2007_0	-3556
ENDIAN	-3557
ILEGES	-3558
OUPING	-3559
▁255).	-3560
UNSUPPO	-3561
CHANNELS	-3562
DOWNLOAD	-3563
MODIFIED	-3564
▁COMMAND	-3565
00000001)	-3566
)[	-3567
52	-3568
94	-3569
MF	-3570
qw	-3571
。"	-3572
开始	-3573
文件	-3574
服务	-3575
%",	-3576
(("	-3577
(\\	-3578
11:	-3579
223	-3580
232	-3581
5()	-3582
80,	-3583
:30	-3584
ACI	-3585
APE	-3586
BDN	-3587
BOB	-3588
DIC	-3589
DOU	-3590
MIC	-3591
MIS	-3592
MUC	-3593
NAU	-3594
NSO	-3595
ONS	-3596
SAD	-3597
_5_	-3598
▁"6	-3599
▁39	-3600
▁40	-3601
▁45	-3602
▁JC	-3603
▁NK	-3604
▁PL	-3605
▁SK	-3606
(5),	-3607
2().	-3608
EAMS	-3609
EXAC	-3610
IMPL	-3611
INNE	-3612
IPLE	-3613
MUCO	-3614
QUES	-3615
ULES	-3616
▁"10	-3617
▁%.1	-3618
▁0.7	-3619
▁19,	-3620
▁2))	-3621
▁64;	-3622
▁78.	-3623
▁GUI	-3624
▁SEN	-3625
▁Shu	-3626
("2",	-3627
<?>>>	-3628
ANCED	-3629
CHAIN	-3630
CODED	-3631
ENAME	-3632
EXCEL	-3633
MKOLU	-3634
OCEDU	-3635
SPIDE	-3636
▁25);	-3637
▁?");	-3638
▁CALL	-3639
▁FUNC	-3640
("0"))	-3641
<>(1);	-3642
======	-3643
DAEMON	-3644
DEPLOY	-3645
MOBILE	-3646
▁1000)	-3647
▁LABEL	-3648
LICENSE	-3649
({	-3650
0}	-3651
4[	-3652
7\	-3653
=*	-3654
=0	-3655
DK	-3656
JE	-3657
QI	-3658
XF	-3659
uU	-3660
ве	-3661
客户	-3662
文庫	-3663
("3	-3664
,\"	-3665
0))	-3666
13.	-3667
2")	-3668
204	-3669
25;	-3670
306	-3671
567	-3672
64,	-3673
6];	-3674
>>(	-3675
BOA	-3676
GFK	-3677
GID	-3678
Kuh	-3679
OOB	-3680
OOL	-3681
OPO	-3682
OWE	-3683
WAY	-3684
WEA	-3685
YOU	-3686
\\\	-3687
hqu	-3688
▁':	-3689
▁=>	-3690
▁DC	-3691
▁DO	-3692
(9);	-3693
06",	-3694
2\1\	-3695
8601	-3696
ANAS	-3697
ASKS	-3698
BLOB	-3699
GAIN	-3700
HDFS	-3701
HEAL	-3702
HEME	-3703
IPAL	-3704
SCAL	-3705
WOOD	-3706
[11]	-3707
[12]	-3708
\022	-3709
][1]	-3710
▁"**	-3711
▁"{\	-3712
▁-0.	-3713
▁204	-3714
▁22,	-3715
▁404	-3716
▁BLA	-3717
▁SAX	-3718
'])",	-3719
(500,	-3720
..");	-3721
20140	-3722
ALLED	-3723
CENIN	-3724
EASON	-3725
MONGO	-3726
QUALI	-3727
_7808	-3728
▁0.0)	-3729
▁40);	-3730
▁50),	-3731
▁500;	-3732
▁MAND	-3733
▁XSSF	-3734
("0000	-3735
(',');	-3736
******	-3737
++)));	-3738
UPLOAD	-3739
▁"/");	-3740
▁16));	-3741
INCIPAL	-3742
▁...");	-3743
▁UNUSED	-3744
CAPABILI	-3745
CENINHAS	-3746
#>	-3747
73	-3748
JK	-3749
^2	-3750
输入	-3751
06.	-3752
3];	-3753
64;	-3754
ASM	-3755
EOL	-3756
NES	-3757
NUE	-3758
OMO	-3759
SAX	-3760
SLO	-3761
SMO	-3762
SSH	-3763
UDE	-3764
_2.	-3765
wSu	-3766
▁-5	-3767
▁30	-3768
▁7)	-3769
▁<"	-3770
▁CK	-3771
▁EJ	-3772
▁GP	-3773
▁WC	-3774
▁]\	-3775
▁wS	-3776
%");	-3777
("("	-3778
(4).	-3779
0\0\	-3780
1_9_	-3781
2)).	-3782
2.0,	-3783
256.	-3784
2\0\	-3785
<>((	-3786
CHED	-3787
DAYS	-3788
ECDH	-3789
GACY	-3790
HEAP	-3791
HSHA	-3792
ONEY	-3793
PULL	-3794
SAME	-3795
SOLE	-3796
SSLH	-3797
_201	-3798
▁-2;	-3799
▁13;	-3800
▁21,	-3801
▁CUS	-3802
▁GBM	-3803
▁NPC	-3804
▁WSA	-3805
('.')	-3806
(403,	-3807
0[5],	-3808
:00",	-3809
ANGLE	-3810
ASCII	-3811
BACKG	-3812
LEMEN	-3813
NODES	-3814
SOCKE	-3815
SPEED	-3816
YIELD	-3817
▁"/";	-3818
▁"0",	-3819
▁"1.0	-3820
▁("".	-3821
▁0.5)	-3822
▁JNAU	-3823
▁QAFE	-3824
▁SAML	-3825
("0");	-3826
("2015	-3827
(":");	-3828
("{");	-3829
('/');	-3830
DENIED	-3831
GENKEY	-3832
SCHEDU	-3833
_10485	-3834
▁0)));	-3835
▁CONDI	-3836
▁HEADE	-3837
201406.	-3838
CODELIS	-3839
COLUMNS	-3840
ENSIONS	-3841
INCLUDE	-3842
BULKLOAD	-3843
\030\002	-3844
▁2014");	-3845
$.	-3846
3}	-3847
9)	-3848
95	-3849
DL	-3850
DQ	-3851
NJ	-3852
SF	-3853
hQ	-3854
wJ	-3855
增加	-3856
状态	-3857
结果	-3858
$$$	-3859
-08	-3860
/1/	-3861
/\"	-3862
02;	-3863
12,	-3864
64.	-3865
=",	-3866
ABY	-3867
ACA	-3868
AUF	-3869
BAD	-3870
DFB	-3871
EAC	-3872
EPA	-3873
ICO	-3874
ISh	-3875
MED	-3876
MIE	-3877
MSE	-3878
OPH	-3879
SUC	-3880
SWE	-3881
UCE	-3882
UGC	-3883
\"}	-3884
_18	-3885
wMu	-3886
wPu	-3887
▁.5	-3888
▁JI	-3889
▁OK	-3890
▁qS	-3891
(404	-3892
(42,	-3893
.").	-3894
250.	-3895
ASOU	-3896
KAUF	-3897
MAIL	-3898
SEED	-3899
SWIG	-3900
UNDA	-3901
YING	-3902
[6];	-3903
wChu	-3904
▁"13	-3905
▁"19	-3906
▁0.3	-3907
▁12:	-3908
▁12\	-3909
▁2",	-3910
▁2,"	-3911
▁24,	-3912
▁32)	-3913
▁33,	-3914
▁DIG	-3915
▁FIN	-3916
▁MOD	-3917
▁{}.	-3918
"))),	-3919
("-",	-3920
-1"),	-3921
0[0],	-3922
0[2],	-3923
ADDED	-3924
ANSFE	-3925
ANSWE	-3926
BPACH	-3927
ECDSA	-3928
EELIF	-3929
EPACH	-3930
ESUME	-3931
FLAKE	-3932
MODAL	-3933
PANEL	-3934
PLAYE	-3935
SENSO	-3936
▁".";	-3937
▁"/",	-3938
▁"1";	-3939
▁((((	-3940
▁128,	-3941
▁18).	-3942
▁200;	-3943
▁4)).	-3944
▁SNOW	-3945
(")");	-3946
("/"))	-3947
(':');	-3948
MIDDLE	-3949
▁255);	-3950
▁?")).	-3951
▁OFFSE	-3952
▁wYAML	-3953
(3000);	-3954
ANALYZE	-3955
LEASING	-3956
▁100));	-3957
▁LAUNCH	-3958
▁UNIQUE	-3959
99999999	-3960
FINISHED	-3961
▁APPLICA	-3962
00000002)	-3963
▁HIGHLIGH	-3964
UNSPECIFIED	-3965
SYSSEQUENCES	-3966
$|	-3967
7:	-3968
83	-3969
?)	-3970
Hq	-3971
NP	-3972
PX	-3973
WB	-3974
qN	-3975
(3)	-3976
/{+	-3977
03;	-3978
16;	-3979
23;	-3980
295	-3981
32_	-3982
404	-3983
40_	-3984
ALK	-3985
GGP	-3986
IDX	-3987
JCh	-3988
NEB	-3989
ODD	-3990
SHE	-3991
SSS	-3992
UND	-3993
XSD	-3994
ZOO	-3995
[\\	-3996
\")	-3997
_3.	-3998
_88	-3999
wNu	-4000
▁**	-4001
▁9:	-4002
▁AM	-4003
▁IK	-4004
▁hC	-4005
▁hh	-4006
(1.5	-4007
(204	-4008
+");	-4009
0.01	-4010
25);	-4011
:"))	-4012
ALGO	-4013
CMAP	-4014
ENUM	-4015
IGGE	-4016
IWXX	-4017
LASH	-4018
LAYE	-4019
SSHK	-4020
[10]	-4021
[13]	-4022
[14]	-4023
[3].	-4024
[8];	-4025
][];	-4026
_2).	-4027
_2);	-4028
____	-4029
▁'/'	-4030
▁(!_	-4031
▁12)	-4032
▁37,	-4033
▁4),	-4034
▁4).	-4035
▁50,	-4036
▁BUC	-4037
▁EQU	-4038
▁MUL	-4039
▁WEB	-4040
▁}";	-4041
批量删除	-4042
(//*[	-4043
(10),	-4044
(1234	-4045
-1");	-4046
0"));	-4047
02004	-4048
04000	-4049
0[1],	-4050
0[3],	-4051
0[4],	-4052
ALIGN	-4053
ANSPA	-4054
DECLA	-4055
ECDHE	-4056
MILLI	-4057
MONEY	-4058
▁0.5;	-4059
▁3)).	-4060
▁300;	-4061
▁6));	-4062
▁EXPI	-4063
▁GLFW	-4064
▁LDAP	-4065
▁SCAL	-4066
']"));	-4067
("\"",	-4068
2\0\1\	-4069
ENGINE	-4070
GANIZA	-4071
LOOKUP	-4072
▁"}");	-4073
▁500);	-4074
▁EXECU	-4075
▁FXMLL	-4076
()))));	-4077
600002,	-4078
LAUNCHE	-4079
SUPPLIE	-4080
0000000;	-4081
FFFFFFFF	-4082
IMPLEMEN	-4083
OCESSING	-4084
ZOOKEEPE	-4085
▁DECIMAL	-4086
▁DISPLAY	-4087
0123456789	-4088
▁\001(\005	-4089
%3	-4090
.@	-4091
/_	-4092
3|	-4093
6(	-4094
;&	-4095
Lh	-4096
MX	-4097
Mq	-4098
WM	-4099
_%	-4100
した	-4101
匹配	-4102
(")	-4103
("|	-4104
(18	-4105
08,	-4106
149	-4107
16:	-4108
192	-4109
2("	-4110
35.	-4111
432	-4112
8((	-4113
BAL	-4114
CFA	-4115
DIF	-4116
DON	-4117
EDS	-4118
EFS	-4119
GBA	-4120
HEX	-4121
IOE	-4122
IOP	-4123
ISE	-4124
LOS	-4125
NFS	-4126
UNK	-4127
▁'3	-4128
▁7:	-4129
▁BG	-4130
▁CC	-4131
▁MM	-4132
▁SA	-4133
▁WO	-4134
▁XE	-4135
',",	-4136
(8),	-4137
-01.	-4138
6666	-4139
<>("	-4140
APPE	-4141
ESIS	-4142
FINE	-4143
IONA	-4144
MAJO	-4145
MBOL	-4146
OCIA	-4147
WEEN	-4148
[5];	-4149
\"},	-4150
\004	-4151
▁")"	-4152
▁39,	-4153
▁40;	-4154
▁65,	-4155
▁80,	-4156
▁99,	-4157
▁HAS	-4158
▁ICE	-4159
▁MOB	-4160
▁MQB	-4161
(1.0,	-4162
(6));	-4163
0000)	-4164
CODES	-4165
OLUME	-4166
WHOLE	-4167
[0]),	-4168
▁"'";	-4169
▁",";	-4170
▁0.00	-4171
▁1").	-4172
▁3.14	-4173
▁6)).	-4174
▁CLUS	-4175
▁SEPA	-4176
("]");	-4177
(10000	-4178
9995);	-4179
COMPAC	-4180
EADING	-4181
EQUALS	-4182
SUBSYS	-4183
▁EXPEC	-4184
▁IMAGE	-4185
▁SENSO	-4186
▁SHAPE	-4187
(1100);	-4188
CASSAND	-4189
CLICKED	-4190
COMPOSI	-4191
EXCLUSI	-4192
LOADING	-4193
PENDING	-4194
SPECIAL	-4195
SUCCEEDED	-4196
00000001);	-4197
------------	-4198
=1	-4199
BF	-4200
BN	-4201
Dó	-4202
FJ	-4203
PY	-4204
YU	-4205
uL	-4206
、"	-4207
する	-4208
提交	-4209
是否	-4210
菜单	-4211
连接	-4212
(24	-4213
.")	-4214
.2.	-4215
._2	-4216
0).	-4217
06_	-4218
1))	-4219
11_	-4220
1];	-4221
22,	-4222
37.	-4223
=2,	-4224
AAB	-4225
ALG	-4226
BIN	-4227
BOO	-4228
FON	-4229
GLC	-4230
LAF	-4231
MAB	-4232
MUS	-4233
NSI	-4234
PDU	-4235
Zhu	-4236
]+)	-4237
_5.	-4238
▁"7	-4239
▁">	-4240
▁'5	-4241
▁'6	-4242
▁';	-4243
▁-3	-4244
▁59	-4245
▁64	-4246
▁8.	-4247
▁::	-4248
▁<%	-4249
▁JU	-4250
▁OM	-4251
("##	-4252
("13	-4253
("[%	-4254
()",	-4255
(102	-4256
(12,	-4257
-02.	-4258
-1.0	-4259
00",	-4260
001:	-4261
001\	-4262
2000	-4263
3116	-4264
CONG	-4265
DIFF	-4266
ELEC	-4267
EMBE	-4268
FFLE	-4269
HANG	-4270
IFIC	-4271
INGE	-4272
INJP	-4273
OKES	-4274
SHEE	-4275
SLOW	-4276
[]::	-4277
\006	-4278
_0()	-4279
▁"${	-4280
▁21:	-4281
▁23:	-4282
▁27.	-4283
▁5),	-4284
▁60.	-4285
▁CBS	-4286
▁DEL	-4287
▁LDP	-4288
▁NLG	-4289
▁SAB	-4290
("").	-4291
("/",	-4292
('#',	-4293
(300,	-4294
(42);	-4295
(5000	-4296
01010	-4297
10");	-4298
APOLA	-4299
EPOSI	-4300
ESIZE	-4301
ESSED	-4302
IMPLN	-4303
ISGUA	-4304
[1024	-4305
▁"301	-4306
▁-1),	-4307
▁10.0	-4308
▁12),	-4309
▁DIGI	-4310
▁SMGE	-4311
▁SSLE	-4312
▁SUPE	-4313
▁{});	-4314
('"');	-4315
(0.3);	-4316
306\0\	-4317
808301	-4318
<?>...	-4319
▁180.0	-4320
▁25));	-4321
▁COMMA	-4322
▁GMSQu	-4323
▁IMXML	-4324
▁MYSQL	-4325
("2011-	-4326
INSENSI	-4327
▁255));	-4328
<<<<<<<<	-4329
CONGLOME	-4330
HIGHLIGH	-4331
ELACIONES	-4332
("127.0.0.	-4333
SCHEMANAME	-4334
▁SNOWFLAKE	-4335
MILLISECOND	-4336
3=	-4337
63	-4338
=<	-4339
EY	-4340
NL	-4341
YA	-4342
_6	-4343
密码	-4344
方法	-4345
蓝牙	-4346
(23	-4347
-88	-4348
104	-4349
1].	-4350
374	-4351
37_	-4352
6.2	-4353
>(_	-4354
AKA	-4355
APH	-4356
ASN	-4357
DBP	-4358
DHU	-4359
EXL	-4360
FUS	-4361
HOL	-4362
ILS	-4363
IOS	-4364
LML	-4365
MAZ	-4366
MWA	-4367
OSD	-4368
OWL	-4369
PSE	-4370
SIL	-4371
SSM	-4372
WSP	-4373
\"/	-4374
_1(	-4375
_13	-4376
_4_	-4377
hBu	-4378
▁#{	-4379
▁.1	-4380
▁8:	-4381
▁@@	-4382
▁AE	-4383
▁AF	-4384
▁GW	-4385
▁JP	-4386
▁LC	-4387
▁[1	-4388
('('	-4389
(13,	-4390
(25,	-4391
(30,	-4392
(32,	-4393
).//	-4394
-");	-4395
-2",	-4396
.{1}	-4397
/").	-4398
101_	-4399
2.3,	-4400
23",	-4401
3)).	-4402
={},	-4403
>20]	-4404
ADDI	-4405
CKDF	-4406
DELI	-4407
EDOC	-4408
FFMF	-4409
HIJO	-4410
IFES	-4411
JEES	-4412
LEEP	-4413
LIFE	-4414
MWAA	-4415
OBOL	-4416
PNPu	-4417
QAFE	-4418
QUAD	-4419
WIDE	-4420
[0][	-4421
[1])	-4422
_100	-4423
_1_.	-4424
▁'.'	-4425
▁18:	-4426
▁1],	-4427
▁51,	-4428
▁60)	-4429
▁70,	-4430
▁?",	-4431
▁AEM	-4432
▁JDB	-4433
▁SSH	-4434
▁WID	-4435
▁YEA	-4436
(501,	-4437
/"));	-4438
25519	-4439
80000	-4440
BASED	-4441
COMPU	-4442
ICULA	-4443
MKOLS	-4444
[][]>	-4445
▁"#";	-4446
▁0.5,	-4447
▁14);	-4448
▁15),	-4449
▁40),	-4450
▁60);	-4451
▁800,	-4452
▁IDEN	-4453
▁LOCA	-4454
▁NEED	-4455
!!!");	-4456
("1111	-4457
("1234	-4458
1_9_3.	-4459
31169,	-4460
OADCAS	-4461
SADSSM	-4462
SBMLSB	-4463
▁-1));	-4464
▁0.001	-4465
▁14));	-4466
▁COBOL	-4467
▁SBMLC	-4468
ACHHANG	-4469
▁WINDOW	-4470
(10000);	-4471
ABLENAME	-4472
UNSIGNED	-4473
▁{0}.{1}	-4474
%%	-4475
.$	-4476
/#	-4477
/.	-4478
FQ	-4479
GY	-4480
HW	-4481
QB	-4482
WF	-4483
WN	-4484
Yu	-4485
uO	-4486
ри	-4487
没有	-4488
系统	-4489
返回	-4490
('-	-4491
('=	-4492
-06	-4493
02/	-4494
04;	-4495
0\"	-4496
102	-4497
10:	-4498
196	-4499
1])	-4500
2.3	-4501
303	-4502
33.	-4503
339	-4504
37:	-4505
52.	-4506
6).	-4507
AKE	-4508
AMN	-4509
BOM	-4510
BON	-4511
CML	-4512
DEK	-4513
IDA	-4514
IPA	-4515
JSO	-4516
LOL	-4517
PON	-4518
SPI	-4519
UIS	-4520
XYZ	-4521
[9]	-4522
[{}	-4523
_",	-4524
▁'8	-4525
▁-8	-4526
▁26	-4527
▁28	-4528
▁42	-4529
▁AB	-4530
▁BI	-4531
▁FE	-4532
▁XY	-4533
▁_3	-4534
(202	-4535
(80,	-4536
/1.1	-4537
12);	-4538
2(),	-4539
3();	-4540
5"),	-4541
512.	-4542
5678	-4543
ADOW	-4544
ALLE	-4545
ASIC	-4546
AWSC	-4547
CHAP	-4548
CMDM	-4549
COFF	-4550
DIGO	-4551
EDIA	-4552
ENDO	-4553
FFIC	-4554
FILA	-4555
FXML	-4556
IXED	-4557
LOAN	-4558
MINO	-4559
NGCu	-4560
ODEN	-4561
PIPE	-4562
QUIN	-4563
SAPu	-4564
SUME	-4565
SYSu	-4566
[1]/	-4567
_196	-4568
hQLI	-4569
▁(60	-4570
▁14;	-4571
▁25;	-4572
▁2];	-4573
▁409	-4574
▁42,	-4575
▁5.0	-4576
▁87.	-4577
▁AGG	-4578
▁ASK	-4579
▁BNO	-4580
▁EIS	-4581
▁\"%	-4582
▁{}\	-4583
增加财务	-4584
!"));	-4585
'],",	-4586
(11);	-4587
(13);	-4588
(40);	-4589
-15);	-4590
08001	-4591
<?>>(	-4592
>10],	-4593
>20],	-4594
ABDIA	-4595
ANIMA	-4596
CLAIM	-4597
INFUS	-4598
IWXXM	-4599
QUICK	-4600
SIGNA	-4601
_000;	-4602
_2295	-4603
▁!");	-4604
▁"306	-4605
▁"]",	-4606
▁10).	-4607
▁200)	-4608
▁BLOB	-4609
▁EMIL	-4610
▁LINE	-4611
▁MISS	-4612
▁SPEC	-4613
▁SWAP	-4614
▁YAML	-4615
。"));	-4616
(1)));	-4617
({})",	-4618
ABCDEF	-4619
CALLED	-4620
COFFEE	-4621
IALIAS	-4622
LOCKED	-4623
SHADOW	-4624
SIGNIN	-4625
SYMBOL	-4626
▁771);	-4627
▁CHECK	-4628
▁EMAIL	-4629
▁FALSE	-4630
▁FIXED	-4631
▁MEDIA	-4632
▁}"));	-4633
\"},{\"	-4634
▁1.0));	-4635
▁200));	-4636
▁HOADON	-4637
▁100000000	-4638
)?	-4639
)]	-4640
3"	-4641
>$	-4642
>&	-4643
AK	-4644
HP	-4645
ен	-4646
出错	-4647
调用	-4648
$",	-4649
('[	-4650
(?<	-4651
/;"	-4652
022	-4653
02_	-4654
124	-4655
156	-4656
197	-4657
20;	-4658
362	-4659
37;	-4660
5.7	-4661
=1,	-4662
CAA	-4663
COu	-4664
CQL	-4665
EGY	-4666
IMG	-4667
JAX	-4668
MUI	-4669
OMP	-4670
OWS	-4671
PDP	-4672
POP	-4673
SPC	-4674
SUS	-4675
_1;	-4676
_9_	-4677
__0	-4678
hOu	-4679
▁"`	-4680
▁'&	-4681
▁'4	-4682
▁34	-4683
▁BP	-4684
▁FL	-4685
▁GO	-4686
▁US	-4687
▁WS	-4688
▁wA	-4689
(".*	-4690
("/"	-4691
(5).	-4692
,###	-4693
-01-	-4694
-03.	-4695
-04.	-4696
."),	-4697
/02/	-4698
55);	-4699
:").	-4700
ABDI	-4701
ACES	-4702
ECOG	-4703
EDIS	-4704
EJEC	-4705
EPLY	-4706
IBAN	-4707
IMED	-4708
POSE	-4709
SMOO	-4710
SSLS	-4711
XSSF	-4712
\"",	-4713
\").	-4714
\003	-4715
\\\\	-4716
_3_,	-4717
▁"#"	-4718
▁";"	-4719
▁0",	-4720
▁17;	-4721
▁27,	-4722
▁3",	-4723
▁48)	-4724
▁55,	-4725
▁56,	-4726
▁59,	-4727
▁6),	-4728
▁MIL	-4729
▁NIC	-4730
▁OLD	-4731
▁ONE	-4732
("###	-4733
("[1,	-4734
(0)))	-4735
(128,	-4736
(25);	-4737
-8859	-4738
00");	-4739
2006_	-4740
2011-	-4741
9.163	-4742
ILIDI	-4743
LEADE	-4744
MANCE	-4745
PIDFC	-4746
SOUND	-4747
UNION	-4748
[][])	-4749
_0_0.	-4750
_0_8.	-4751
▁!"".	-4752
▁-24,	-4753
▁360;	-4754
▁CLAY	-4755
▁DOMH	-4756
▁GZIP	-4757
▁HBMS	-4758
▁SHIP	-4759
("====	-4760
('.');	-4761
(72.0,	-4762
:8080/	-4763
BIDDEN	-4764
CODIGO	-4765
EXPOSU	-4766
FFFFFF	-4767
IABLES	-4768
\":{\"	-4769
▁"1234	-4770
▁"2018	-4771
▁5000;	-4772
▁PIDFC	-4773
("11101	-4774
("\"");	-4775
99995);	-4776
CHECKED	-4777
CONFLIC	-4778
DYNAMIC	-4779
MANIFES	-4780
SAPLING	-4781
[1024];	-4782
▁ELEMEN	-4783
▁MSPOIN	-4784
▁hOADON	-4785
("\\.");	-4786
("100%");	-4787
00000002;	-4788
\022\014\	-4789
CONFIGFILE	-4790
("192.168.1.	-4791
/\	-4792
3-	-4793
5"	-4794
>%	-4795
HC	-4796
IH	-4797
MH	-4798
NF	-4799
NU	-4800
YM	-4801
uF	-4802
}{	-4803
中断	-4804
任务	-4805
保存	-4806
账号	-4807
$";	-4808
(']	-4809
('_	-4810
(36	-4811
010	-4812
014	-4813
052	-4814
159	-4815
2])	-4816
2].	-4817
365	-4818
5";	-4819
5).	-4820
502	-4821
535	-4822
60,	-4823
64_	-4824
812	-4825
:01	-4826
=1;	-4827
AMY	-4828
BLA	-4829
DAG	-4830
DAS	-4831
EDE	-4832
EPI	-4833
GEO	-4834
GQO	-4835
Kwh	-4836
MPP	-4837
MSC	-4838
NID	-4839
UIN	-4840
UPS	-4841
XLS	-4842
\\-	-4843
_10	-4844
▁$(	-4845
▁'+	-4846
▁([	-4847
▁CF	-4848
▁FX	-4849
▁IZ	-4850
▁NU	-4851
▁PK	-4852
▁qH	-4853
("2.	-4854
(22,	-4855
(60,	-4856
(7),	-4857
-8",	-4858
0").	-4859
04",	-4860
04()	-4861
0706	-4862
1().	-4863
1.1.	-4864
2016	-4865
3333	-4866
4\0\	-4867
>(),	-4868
ABSO	-4869
ACED	-4870
ACLS	-4871
ALES	-4872
BAND	-4873
BSCu	-4874
CHOO	-4875
CONC	-4876
INUM	-4877
LAND	-4878
MOCK	-4879
OOMS	-4880
PAIS	-4881
QAFW	-4882
SQLC	-4883
UNCA	-4884
[7];	-4885
_1",	-4886
_16.	-4887
_1_)	-4888
_3);	-4889
▁"):	-4890
▁"0.	-4891
▁"|"	-4892
▁("-	-4893
▁(--	-4894
▁15)	-4895
▁202	-4896
▁29,	-4897
▁34,	-4898
▁35,	-4899
▁64,	-4900
▁85.	-4901
▁==>	-4902
▁BUG	-4903
▁EAS	-4904
▁ICC	-4905
▁MSG	-4906
▁SOL	-4907
▁[19	-4908
(""),	-4909
("---	-4910
:"));	-4911
ANSLA	-4912
COLON	-4913
DOUGH	-4914
GENDE	-4915
HESIS	-4916
IONED	-4917
IPSIS	-4918
ISUAL	-4919
LINES	-4920
]"));	-4921
_1525	-4922
▁0.05	-4923
▁28.7	-4924
▁32);	-4925
▁770,	-4926
▁INSE	-4927
▁KEYF	-4928
▁MIME	-4929
▁PAGE	-4930
▁SOAP	-4931
(",").	-4932
-02-02	-4933
/2011-	-4934
<>()).	-4935
<>(2);	-4936
ABLADA	-4937
BOOKMA	-4938
ESUMED	-4939
OPICAL	-4940
PACKED	-4941
PHLINE	-4942
ZKNODE	-4943
▁0.8);	-4944
▁300);	-4945
▁400);	-4946
\032\03	-4947
▁1000.0	-4948
LANGUAGE	-4949
SCHEDULE	-4950
_000_000	-4951
▁SESSION	-4952
([	-4953
-\	-4954
.{	-4955
5-	-4956
7(	-4957
9:	-4958
EZ	-4959
ZA	-4960
ZW	-4961
[*	-4962
║"	-4963
名称	-4964
超时	-4965
默认	-4966
'][	-4967
("=	-4968
("`	-4969
('0	-4970
(19	-4971
013	-4972
155	-4973
224	-4974
2:"	-4975
2_2	-4976
300	-4977
4),	-4978
4).	-4979
474	-4980
63,	-4981
76,	-4982
>40	-4983
ADI	-4984
BPA	-4985
COD	-4986
COO	-4987
DDL	-4988
GPX	-4989
IOC	-4990
IOM	-4991
IPH	-4992
JMS	-4993
LwM	-4994
MDC	-4995
MQD	-4996
SEX	-4997
UNE	-4998
WIN	-4999
XIA	-5000
YSE	-5001
[--	-5002
]),	-5003
_00	-5004
▁"!	-5005
▁"8	-5006
▁"9	-5007
▁'#	-5008
▁'@	-5009
▁'{	-5010
▁-(	-5011
▁4]	-5012
▁5.	-5013
▁Aw	-5014
▁EE	-5015
▁FI	-5016
▁IJ	-5017
▁JF	-5018
▁NG	-5019
▁Nh	-5020
▁ZN	-5021
▁_8	-5022
▁uu	-5023
▁wP	-5024
不存在	-5025
!"),	-5026
(");	-5027
(213	-5028
(300	-5029
(40,	-5030
(6),	-5031
);",	-5032
//*[	-5033
0111	-5034
10.0	-5035
21,9	-5036
4828	-5037
6-11	-5038
8979	-5039
=\"#	-5040
ALIS	-5041
ALLY	-5042
AMEN	-5043
CASI	-5044
CLIP	-5045
DINA	-5046
EFID	-5047
ICAS	-5048
IOUS	-5049
JEXL	-5050
LOOP	-5051
MAKE	-5052
OUSE	-5053
OWSE	-5054
PINS	-5055
SEAG	-5056
SSID	-5057
ZOOM	-5058
[*].	-5059
[3][	-5060
[9];	-5061
\");	-5062
\"><	-5063
\002	-5064
_199	-5065
════	-5066
▁({}	-5067
▁17,	-5068
▁176	-5069
▁22;	-5070
▁30)	-5071
▁38,	-5072
▁53,	-5073
▁80;	-5074
▁AWS	-5075
▁CSS	-5076
▁ELL	-5077
▁FHI	-5078
▁IFh	-5079
▁OPE	-5080
▁SPC	-5081
("*",	-5082
(".",	-5083
(1024	-5084
/1301	-5085
0.0);	-5086
0002;	-5087
02005	-5088
02006	-5089
07004	-5090
08004	-5091
08005	-5092
08008	-5093
1990.	-5094
2)");	-5095
65\1\	-5096
BUSIN	-5097
CAMEL	-5098
CLEAN	-5099
DISPA	-5100
ELEPH	-5101
FINGE	-5102
HODID	-5103
JSONC	-5104
LINEA	-5105
UNINI	-5106
[4]);	-5107
▁"...	-5108
▁"304	-5109
▁'.')	-5110
▁-1.0	-5111
▁0.75	-5112
▁128;	-5113
▁256;	-5114
▁400,	-5115
▁400;	-5116
▁500)	-5117
▁982.	-5118
▁COMP	-5119
▁DIFF	-5120
▁DOWN	-5121
▁MLAF	-5122
▁PACK	-5123
▁SSLH	-5124
('(');	-5125
(1.0).	-5126
)))));	-5127
---");	-5128
010031	-5129
201704	-5130
:00");	-5131
=\"0\"	-5132
ACHNID	-5133
ADDING	-5134
ANSIEN	-5135
ECAUSE	-5136
FACING	-5137
IDPAIS	-5138
IGSYSu	-5139
LEGACY	-5140
[2]));	-5141
▁"10",	-5142
▁"\"",	-5143
▁"\"";	-5144
▁']');	-5145
▁SMALL	-5146
("10011	-5147
(100));	-5148
11:21,9	-5149
6-11-03	-5150
ALISMAN	-5151
CLOSING	-5152
CLUSION	-5153
CONSUME	-5154
OCESSES	-5155
▁1024),	-5156
▁EMILYS	-5157
▁JDBCOu	-5158
("$.[*].	-5159
,###,###	-5160
0.014828	-5161
CANCELED	-5162
ELEPHONY	-5163
FULLNAME	-5164
MISSIONS	-5165
PIPELINE	-5166
▁'201704	-5167
00000001;	-5168
▁DISABLED	-5169
▁LANGUAGE	-5170
("========	-5171
▁2016-11-03	-5172
▁21:11:21,9	-5173
▁[192.168.1.	-5174
0100310.014828	-5175
-6	-5176
/?	-5177
1$	-5178
Dh	-5179
SN	-5180
YD	-5181
YO	-5182
^/	-5183
}&	-5184
ある	-5185
して	-5186
上传	-5187
使用	-5188
单体	-5189
定时	-5190
属性	-5191
操作	-5192
正在	-5193
%02	-5194
("]	-5195
('}	-5196
((-	-5197
(4)	-5198
+",	-5199
-";	-5200
-1@	-5201
.1.	-5202
07/	-5203
07;	-5204
08;	-5205
1.3	-5206
132	-5207
169	-5208
214	-5209
2__	-5210
32)	-5211
32,	-5212
5),	-5213
56.	-5214
7).	-5215
78;	-5216
8),	-5217
837	-5218
99;	-5219
;</	-5220
=*/	-5221
ALF	-5222
BIL	-5223
DFA	-5224
EMY	-5225
FUL	-5226
GHI	-5227
GLU	-5228
MMI	-5229
SSO	-5230
SUN	-5231
UGI	-5232
_16	-5233
hQu	-5234
При	-5235
вет	-5236
▁'7	-5237
▁33	-5238
▁BC	-5239
▁HC	-5240
▁IH	-5241
▁LF	-5242
请输入	-5243
'');	-5244
('\\	-5245
(14,	-5246
))";	-5247
-08-	-5248
/100	-5249
02);	-5250
03).	-5251
12",	-5252
1305	-5253
1_11	-5254
56",	-5255
6-02	-5256
7\1\	-5257
9));	-5258
=?";	-5259
CADE	-5260
DISK	-5261
DIUM	-5262
DOCS	-5263
EDAC	-5264
FSMI	-5265
GZIP	-5266
HIDE	-5267
JOBS	-5268
MOBS	-5269
MONI	-5270
NDFD	-5271
YPED	-5272
[15]	-5273
[1][	-5274
▁"<!	-5275
▁13.	-5276
▁18)	-5277
▁3))	-5278
▁41.	-5279
▁48;	-5280
▁500	-5281
▁6).	-5282
▁7))	-5283
▁FAC	-5284
▁HEA	-5285
▁LAY	-5286
▁MEN	-5287
▁OAA	-5288
▁PDB	-5289
▁PDP	-5290
▁{\"	-5291
信息异常	-5292
添加失败	-5293
']");	-5294
(10).	-5295
(15),	-5296
(7));	-5297
(770,	-5298
)[0];	-5299
0004;	-5300
02007	-5301
05003	-5302
07003	-5303
08003	-5304
08006	-5305
08007	-5306
08009	-5307
19999	-5308
2019.	-5309
32");	-5310
9999,	-5311
ACCES	-5312
ADIUS	-5313
APPLY	-5314
BANNE	-5315
EBASE	-5316
EMBED	-5317
ENIMI	-5318
EPOCH	-5319
GLASS	-5320
HALFO	-5321
INFLA	-5322
NOPAD	-5323
SWALK	-5324
_123"	-5325
▁"\2\	-5326
▁"|^/	-5327
▁'/')	-5328
▁1234	-5329
▁1]],	-5330
▁300)	-5331
▁BACK	-5332
▁IGAS	-5333
▁INNE	-5334
▁LILI	-5335
▁SPLI	-5336
▁WALL	-5337
")[0];	-5338
("*"))	-5339
("=");	-5340
()"));	-5341
()]));	-5342
(1.0);	-5343
(150);	-5344
(500).	-5345
000");	-5346
196304	-5347
999999	-5348
APPEND	-5349
CHOICE	-5350
DAMAGE	-5351
FOLLOW	-5352
MEDIUM	-5353
UNSAFE	-5354
WEBAPP	-5355
_123--	-5356
Привет	-5357
▁''{2}	-5358
▁BLADI	-5359
▁FINAL	-5360
▁UNINI	-5361
▁[{}],	-5362
("\\.")	-5363
()[0]);	-5364
(1024);	-5365
(200));	-5366
(40000,	-5367
100002,	-5368
ALLBACK	-5369
ASSOCIA	-5370
BECAUSE	-5371
CONSOLE	-5372
ENIMIEN	-5373
ISMIXIN	-5374
KEYHOLE	-5375
MUCOSAL	-5376
SCALING	-5377
SEGUNDA	-5378
SHUFFLE	-5379
▁120));	-5380
▁ALWAYS	-5381
▁EQUALS	-5382
▁SIZEOF	-5383
00:00:00	-5384
BUSINESS	-5385
COMMANDS	-5386
▁10000);	-5387
("1.2.3",	-5388
▁00:00:00	-5389
▁FINISHED	-5390
BLOCKSWALK	-5391
DESCENDING	-5392
ELACIONADO	-5393
000000000000	-5394
2|	-5395
4-	-5396
6<	-5397
81	-5398
82	-5399
;)	-5400
=>	-5401
AH	-5402
EH	-5403
LB	-5404
OH	-5405
XU	-5406
ZY	-5407
qK	-5408
}]	-5409
те	-5410
▁]	-5411
▁đ	-5412
った	-5413
今天	-5414
地址	-5415
点击	-5416
类型	-5417
("!	-5418
(17	-5419
*",	-5420
--"	-5421
.$$	-5422
0";	-5423
105	-5424
18.	-5425
3("	-5426
312	-5427
34,	-5428
3:"	-5429
4";	-5430
505	-5431
5];	-5432
8()	-5433
=2;	-5434
BBC	-5435
BDD	-5436
BQI	-5437
CFG	-5438
DBM	-5439
DIP	-5440
DSS	-5441
ENO	-5442
FAN	-5443
FAS	-5444
FqN	-5445
GDP	-5446
IDU	-5447
IKO	-5448
IQN	-5449
IUM	-5450
JSP	-5451
JUN	-5452
MDK	-5453
MLE	-5454
NDA	-5455
OEM	-5456
PEE	-5457
PES	-5458
PNF	-5459
PWD	-5460
SMA	-5461
SUG	-5462
UIA	-5463
WWW	-5464
YNG	-5465
Zuu	-5466
_23	-5467
_24	-5468
hDu	-5469
hPu	-5470
uFu	-5471
{1,	-5472
▁'[	-5473
▁43	-5474
▁5]	-5475
▁CB	-5476
▁CI	-5477
▁Fh	-5478
▁GF	-5479
▁Ju	-5480
▁ND	-5481
▁SL	-5482
▁XF	-5483
▁XP	-5484
▁_2	-5485
!").	-5486
("'"	-5487
("(?	-5488
((((	-5489
-3",	-5490
-8";	-5491
/"),	-5492
01()	-5493
010.	-5494
1(),	-5495
11);	-5496
172.	-5497
1972	-5498
1\",	-5499
22",	-5500
256(	-5501
26);	-5502
5656	-5503
AABB	-5504
ACIA	-5505
AINS	-5506
AMAZ	-5507
BOLD	-5508
BOOL	-5509
CFAE	-5510
COME	-5511
CONN	-5512
DEAD	-5513
DINS	-5514
ECON	-5515
ENEW	-5516
ENOM	-5517
EQSu	-5518
FFEC	-5519
GINS	-5520
HINJ	-5521
HINS	-5522
HSSF	-5523
INHL	-5524
JPAO	-5525
NGLE	-5526
NSDE	-5527
OCCO	-5528
OKPD	-5529
OLES	-5530
OYED	-5531
SHAF	-5532
SILK	-5533
SQLP	-5534
UNMA	-5535
UNSE	-5536
]{1,	-5537
_01.	-5538
_16,	-5539
_4);	-5540
hQLE	-5541
{");	-5542
▁"),	-5543
▁"+"	-5544
▁"23	-5545
▁"],	-5546
▁"{"	-5547
▁((_	-5548
▁21;	-5549
▁23.	-5550
▁41;	-5551
▁435	-5552
▁45,	-5553
▁84.	-5554
▁90,	-5555
▁90;	-5556
▁<<=	-5557
▁ALG	-5558
▁BIG	-5559
▁CAP	-5560
▁CFA	-5561
▁ECK	-5562
▁FXE	-5563
▁IID	-5564
▁IMX	-5565
▁IPU	-5566
▁ISB	-5567
▁MAS	-5568
▁MIX	-5569
▁ODS	-5570
▁PAY	-5571
▁SUP	-5572
▁WAI	-5573
▁WHI	-5574
▁wOu	-5575
匹配内容	-5576
("0.0	-5577
("[3,	-5578
('.',	-5579
(12),	-5580
(204,	-5581
(60);	-5582
(8));	-5583
);");	-5584
-01",	-5585
/**",	-5586
0003;	-5587
0005;	-5588
0020;	-5589
03001	-5590
04001	-5591
05001	-5592
07001	-5593
11");	-5594
15926	-5595
23:59	-5596
37418	-5597
64())	-5598
6537.	-5599
70000	-5600
89793	-5601
>[][]	-5602
BASIC	-5603
BLANK	-5604
ECINS	-5605
ENEMA	-5606
FMLOu	-5607
GENIC	-5608
GHIJK	-5609
ILEAL	-5610
IMINA	-5611
INJEC	-5612
INJSP	-5613
MYSQL	-5614
NAGED	-5615
ONMEN	-5616
SCALA	-5617
SILEN	-5618
UMINJ	-5619
[12];	-5620
[1]).	-5621
\"/>\	-5622
\"}";	-5623
_7884	-5624
▁"}}\	-5625
▁'9')	-5626
▁0]],	-5627
▁1)).	-5628
▁1.0\	-5629
▁15.6	-5630
▁2.0\	-5631
▁21);	-5632
▁22);	-5633
▁2]],	-5634
▁7));	-5635
▁BLUE	-5636
▁BODY	-5637
▁DOMS	-5638
▁GMSM	-5639
▁HEAD	-5640
▁ICON	-5641
▁MENU	-5642
▁NIKO	-5643
▁SEND	-5644
▁SIGN	-5645
▁SSHK	-5646
('}');	-5647
(10)).	-5648
(16));	-5649
++]));	-5650
00"));	-5651
00000;	-5652
16());	-5653
232339	-5654
37:19.	-5655
ACHINJ	-5656
ACHINS	-5657
AMAZON	-5658
CAPACI	-5659
CHOOSE	-5660
DBCSQL	-5661
FIELDS	-5662
PLAYED	-5663
SAMPLE	-5664
SUGGES	-5665
WOODEN	-5666
YNAMIC	-5667
_19627	-5668
▁"!");	-5669
▁"2");	-5670
▁":");	-5671
▁">");	-5672
▁"\",\	-5673
▁0.0).	-5674
▁00:00	-5675
▁2000;	-5676
▁ANGLE	-5677
▁SUBSC	-5678
('\'');	-5679
0101012	-5680
172.16.	-5681
699997,	-5682
7.0.0.1	-5683
DUPLICA	-5684
EMSOUND	-5685
ENOMOUS	-5686
HANDSHA	-5687
SIGNING	-5688
SSIGNED	-5689
_1_0_0.	-5690
_2_0_0.	-5691
▁"123",	-5692
15926535	-5693
2007_05.	-5694
23:59:59	-5695
?,?,?,?,	-5696
EMBEDDED	-5697
MODIFICA	-5698
_123--";	-5699
▁LOADING	-5700
▁NIKOLAS	-5701
▁PACKAGE	-5702
("2006-02	-5703
******");	-5704
00000004)	-5705
ASCENDING	-5706
CANCELLED	-5707
DBCSQLDBC	-5708
▁"2018-03	-5709
▁ELLIPSIS	-5710
00000002);	-5711
AMANIOFILA	-5712
▁NAMESPACE	-5713
▁\001(\0132	-5714
("2016-10-12	-5715
1592653589793	-5716
&*	-5717
)|	-5718
+)	-5719
0-	-5720
4"	-5721
:0	-5722
:5	-5723
:[	-5724
CQ	-5725
EO	-5726
GW	-5727
Iq	-5728
JF	-5729
MW	-5730
OJ	-5731
QA	-5732
WH	-5733
_(	-5734
_:	-5735
wZ	-5736
}|	-5737
ÃO	-5738
ая	-5739
ки	-5740
▁з	-5741
下载	-5742
启动	-5743
字段	-5744
实体	-5745
接收	-5746
支付	-5747
检查	-5748
渠道	-5749
病例	-5750
贼嗨	-5751
进入	-5752
选择	-5753
重新	-5754
(42	-5755
,",	-5756
/")	-5757
/*/	-5758
1")	-5759
12:	-5760
147	-5761
15,	-5762
21_	-5763
24_	-5764
2="	-5765
32:	-5766
364	-5767
50,	-5768
514	-5769
62,	-5770
64)	-5771
68,	-5772
777	-5773
784	-5774
:";	-5775
=?,	-5776
BUF	-5777
DIM	-5778
ECB	-5779
EGU	-5780
EWA	-5781
FLY	-5782
FSM	-5783
FSu	-5784
GBM	-5785
IBL	-5786
IMO	-5787
JDK	-5788
MMM	-5789
NLS	-5790
POD	-5791
POO	-5792
SIP	-5793
ZEN	-5794
\2\	-5795
hPh	-5796
wHL	-5797
}</	-5798
аяв	-5799
▁!_	-5800
▁'<	-5801
▁'=	-5802
▁'?	-5803
▁.3	-5804
▁HM	-5805
▁JG	-5806
▁LY	-5807
▁NC	-5808
▁YY	-5809
▁['	-5810
▁\\	-5811
▁hS	-5812
();\	-5813
(11)	-5814
(42.	-5815
-12-	-5816
.*",	-5817
0.0,	-5818
0305	-5819
0329	-5820
13",	-5821
2"))	-5822
2++;	-5823
2.2.	-5824
2.5,	-5825
24);	-5826
2546	-5827
2}",	-5828
3"),	-5829
3306	-5830
384.	-5831
4();	-5832
45).	-5833
56);	-5834
64()	-5835
:{},	-5836
="))	-5837
BILL	-5838
BOND	-5839
CALC	-5840
DASH	-5841
DESK	-5842
DFSC	-5843
DIAL	-5844
FQDN	-5845
GLFW	-5846
HWES	-5847
IMEN	-5848
INUE	-5849
ISBN	-5850
JMXP	-5851
MACH	-5852
MION	-5853
OCCU	-5854
OICE	-5855
SECU	-5856
[6],	-5857
_202	-5858
__("	-5859
▁"1"	-5860
▁"1,	-5861
▁$$$	-5862
▁').	-5863
▁'-'	-5864
▁'1'	-5865
▁.5;	-5866
▁103	-5867
▁11)	-5868
▁13:	-5869
▁199	-5870
▁1]"	-5871
▁213	-5872
▁325	-5873
▁36,	-5874
▁3])	-5875
▁40)	-5876
▁44.	-5877
▁54,	-5878
▁57,	-5879
▁58,	-5880
▁89,	-5881
▁96,	-5882
▁COO	-5883
▁DSL	-5884
▁EXC	-5885
▁FAM	-5886
▁JDA	-5887
▁KMS	-5888
▁MID	-5889
▁MUS	-5890
▁PNS	-5891
▁UNS	-5892
▁WES	-5893
▁XPD	-5894
▁___	-5895
▁hCu	-5896
▁{}:	-5897
今天贼嗨	-5898
定时任务	-5899
'][1]	-5900
("%.2	-5901
("/")	-5902
("001	-5903
("1.0	-5904
('/',	-5905
(1)),	-5906
(16),	-5907
(201,	-5908
(4)).	-5909
/*");	-5910
04002	-5911
05002	-5912
07002	-5913
08002	-5914
08012	-5915
1")),	-5916
1110.	-5917
20");	-5918
8());	-5919
:1234	-5920
=*");	-5921
ABAND	-5922
AGAIN	-5923
AMOUN	-5924
DABLE	-5925
EGULA	-5926
JSONW	-5927
LOADE	-5928
MIXED	-5929
MODID	-5930
NINGS	-5931
SHALL	-5932
SUMMA	-5933
SYNCH	-5934
SYNON	-5935
\001\	-5936
_1474	-5937
_1806	-5938
_2_0.	-5939
▁(0.5	-5940
▁-0.5	-5941
▁0.1;	-5942
▁0.25	-5943
▁0.8;	-5944
▁1.0)	-5945
▁1.5,	-5946
▁18);	-5947
▁2.0"	-5948
▁2000	-5949
▁3.0\	-5950
▁4");	-5951
▁500,	-5952
▁5]",	-5953
▁64);	-5954
▁:");	-5955
▁ANNO	-5956
▁APNS	-5957
▁BINA	-5958
▁EXAC	-5959
▁HAND	-5960
▁LIGH	-5961
▁OPEN	-5962
▁PANE	-5963
▁PKCS	-5964
▁SINK	-5965
▁WAYS	-5966
▁})).	-5967
("*");	-5968
("----	-5969
("2");	-5970
(";");	-5971
('=');	-5972
(2019,	-5973
010102	-5974
4")));	-5975
CHECKS	-5976
DEPOSI	-5977
HIDDEN	-5978
INLINE	-5979
OCESSO	-5980
[0-9]+	-5981
▁"/{2}	-5982
▁65535	-5983
▁BUCKE	-5984
▁CALLS	-5985
▁LAYOU	-5986
▁LYCAN	-5987
1972())	-5988
8083014	-5989
899998,	-5990
900002,	-5991
ABANDON	-5992
IBLINGS	-5993
INBOUND	-5994
▁"30329	-5995
▁1000),	-5996
▁1000).	-5997
▁MILLIS	-5998
▁SUBJEC	-5999
("123");	-6000
0\2\1\1\	-6001
201406",	-6002
AAAAAAAA	-6003
ADECIMAL	-6004
FALLBACK	-6005
KEYSPACE	-6006
▁WINDOWS	-6007
16:37:19.	-6008
SAMENAMES	-6009
SELECCION	-6010
UNASSIGNED	-6011
▁\001(\003	-6012
--------");	-6013
>>>>>>>>>>>	-6014
SYSCONGLOME	-6015
("127.0.0.1",	-6016
(">>>>>>>>>>>>	-6017
▁"2018-03-01",	-6018
SAMENAMESIBLINGS	-6019
&#	-6020
,%	-6021
,'	-6022
5}	-6023
8\	-6024
:.	-6025
EW	-6026
KS	-6027
PQ	-6028
[-	-6029
}:	-6030
ди	-6031
от	-6032
▁в	-6033
▁н	-6034
▁п	-6035
って	-6036
ない	-6037
もの	-6038
不符	-6039
列表	-6040
取消	-6041
图片	-6042
岩波	-6043
所有	-6044
执行	-6045
报警	-6046
数组	-6047
维修	-6048
路径	-6049
项目	-6050
('{	-6051
04,	-6052
12)	-6053
128	-6054
13,	-6055
172	-6056
191	-6057
19;	-6058
1="	-6059
203	-6060
208	-6061
20_	-6062
33,	-6063
355	-6064
61,	-6065
66,	-6066
80)	-6067
994	-6068
:12	-6069
=\\	-6070
BLK	-6071
CPF	-6072
DBN	-6073
DOO	-6074
FFL	-6075
FLE	-6076
FSC	-6077
FUN	-6078
GAL	-6079
HSL	-6080
IDO	-6081
III	-6082
ISM	-6083
JQL	-6084
LOO	-6085
MEG	-6086
MSN	-6087
NIC	-6088
ODA	-6089
SIA	-6090
[0,	-6091
],\	-6092
_2,	-6093
_2;	-6094
_32	-6095
hCM	-6096
wID	-6097
wPh	-6098
ÇÃO	-6099
▁#"	-6100
▁$%	-6101
▁(3	-6102
▁-6	-6103
▁1"	-6104
▁4.	-6105
▁48	-6106
▁="	-6107
▁CP	-6108
▁MD	-6109
▁OW	-6110
▁PC	-6111
▁PH	-6112
▁_7	-6113
▁`%	-6114
▁wE	-6115
客户端	-6116
#");	-6117
''",	-6118
')";	-6119
'.",	-6120
("/?	-6121
()][	-6122
(23,	-6123
(24,	-6124
(26,	-6125
(34.	-6126
(35.	-6127
(41.	-6128
(46.	-6129
(48,	-6130
(64,	-6131
(7).	-6132
(90,	-6133
(99,	-6134
)").	-6135
))",	-6136
-435	-6137
/"))	-6138
0003	-6139
0013	-6140
0200	-6141
1056	-6142
1418	-6143
16\"	-6144
2049	-6145
208.	-6146
21);	-6147
3(),	-6148
32()	-6149
587.	-6150
6\0\	-6151
6]);	-6152
ADON	-6153
ALUA	-6154
CONJ	-6155
COOK	-6156
COPY	-6157
DNNO	-6158
ELOP	-6159
GLES	-6160
GLOB	-6161
HDAY	-6162
HMAC	-6163
IDES	-6164
IEWS	-6165
ILES	-6166
ISIB	-6167
MONO	-6168
MXML	-6169
ONCH	-6170
OPHA	-6171
PICK	-6172
PINP	-6173
PSEU	-6174
SOME	-6175
SUBL	-6176
SUSP	-6177
ULIP	-6178
WAFE	-6179
XMLM	-6180
XMPP	-6181
XWPF	-6182
YYYY	-6183
[100	-6184
[]>(	-6185
\000	-6186
_0_.	-6187
_3()	-6188
|');	-6189
▁",\	-6190
▁"/?	-6191
▁"2.	-6192
▁"__	-6193
▁-1.	-6194
▁1,"	-6195
▁14:	-6196
▁19;	-6197
▁300	-6198
▁36.	-6199
▁43,	-6200
▁56.	-6201
▁62,	-6202
▁63,	-6203
▁72.	-6204
▁86.	-6205
▁BDD	-6206
▁CAL	-6207
▁CHO	-6208
▁CKM	-6209
▁CLO	-6210
▁CMP	-6211
▁CPU	-6212
▁DEP	-6213
▁EPS	-6214
▁FOL	-6215
▁GEO	-6216
▁GOu	-6217
▁ISh	-6218
▁MDC	-6219
▁OSC	-6220
▁PIN	-6221
▁SEP	-6222
▁SMS	-6223
▁SYN	-6224
▁Squ	-6225
▁UDP	-6226
▁ZKH	-6227
▁\"*	-6228
岩波文庫	-6229
!!");	-6230
("#00	-6231
(",")	-6232
("6",	-6233
("===	-6234
(22);	-6235
(3)).	-6236
)).//	-6237
0/07/	-6238
0123.	-6239
1)");	-6240
14");	-6241
3306/	-6242
43235	-6243
6250.	-6244
8"));	-6245
>(3);	-6246
AMOND	-6247
ANSPO	-6248
BELOW	-6249
BLEND	-6250
BOBOX	-6251
CHUNK	-6252
CLOCK	-6253
CODEC	-6254
CONCA	-6255
EDICA	-6256
EFFEC	-6257
EMALE	-6258
EPLIC	-6259
HOLDE	-6260
IANAL	-6261
INEAL	-6262
ININS	-6263
LEDGE	-6264
SALES	-6265
SUBMI	-6266
SUBOP	-6267
YIDAP	-6268
[10];	-6269
[16];	-6270
[]>>.	-6271
\"></	-6272
\0\1\	-6273
▁"!",	-6274
▁"5",	-6275
▁"\"\	-6276
▁'1')	-6277
▁'163	-6278
▁(1.0	-6279
▁-12.	-6280
▁120,	-6281
▁192,	-6282
▁2)).	-6283
▁32).	-6284
▁32.0	-6285
▁42);	-6286
▁5");	-6287
▁771,	-6288
▁998.	-6289
▁AEMH	-6290
▁AESK	-6291
▁BEAN	-6292
▁FSMI	-6293
▁FULL	-6294
▁JBBP	-6295
▁JPAI	-6296
▁LINK	-6297
▁POWE	-6298
▁SKIP	-6299
("-");	-6300
("8");	-6301
('[');	-6302
(-2)).	-6303
(0.5);	-6304
(123),	-6305
(2014,	-6306
(2016,	-6307
(2017,	-6308
(4)));	-6309
-1.0-2	-6310
-43532	-6311
1404()	-6312
2.3,4.	-6313
2546()	-6314
ACKNOW	-6315
COMMON	-6316
COOKIE	-6317
DEFINE	-6318
MEGABY	-6319
NEEDED	-6320
PECIAL	-6321
SCOPES	-6322
\")");	-6323
_000);	-6324
▁"*");	-6325
▁'.');	-6326
▁'/');	-6327
▁1003.	-6328
▁1009.	-6329
▁2.0);	-6330
▁30));	-6331
▁ALLOW	-6332
▁BLOCK	-6333
▁CANCE	-6334
▁COLUM	-6335
▁COMPU	-6336
▁ICONS	-6337
▁MEMBE	-6338
▁QUEUE	-6339
▁SUPPO	-6340
▁XSSFW	-6341
▁{})",	-6342
批量删除财务	-6343
("10111	-6344
("123",	-6345
("200",	-6346
(1403).	-6347
(2545).	-6348
199997,	-6349
3741824	-6350
69995);	-6351
899994,	-6352
<?>>();	-6353
=\"16\"	-6354
ANCHISE	-6355
DOCLASS	-6356
ELOPMEN	-6357
EPLICAS	-6358
HALFFIL	-6359
ISIBILI	-6360
MACHINE	-6361
MANAGED	-6362
OLLBACK	-6363
\022\03	-6364
_199234	-6365
_230013	-6366
▁","));	-6367
▁"1.0.0	-6368
▁180.0)	-6369
▁2000);	-6370
▁3000);	-6371
▁CHANGE	-6372
▁DAMAGE	-6373
▁DECODE	-6374
▁ENCODE	-6375
08080808	-6376
19630409	-6377
COMBOBOX	-6378
\")."));	-6379
_1048576	-6380
▁"30/07/	-6381
▁ENDPOIN	-6382
▁MINIMUM	-6383
▁MISSING	-6384
▁PADDING	-6385
'][1]//*[	-6386
("2011-04	-6387
ASSIGNMEN	-6388
KHACHHANG	-6389
MANAGEMEN	-6390
▁1611))).	-6391
OKESPECIAL	-6392
[][][][][]	-6393
ACKNOWLEDGE	-6394
PSEUDOCLASS	-6395
("2015-02-02	-6396
("2016-10-15	-6397
16:37:19.192	-6398
▁"30/07/2020	-6399
MFEEDBACKBUFFE	-6400
%5	-6401
2@	-6402
5<	-6403
6'	-6404
:9	-6405
=$	-6406
??	-6407
@!	-6408
LH	-6409
QC	-6410
XB	-6411
XG	-6412
XJ	-6413
ZM	-6414
_/	-6415
wY	-6416
こと	-6417
され	-6418
ます	-6419
发送	-6420
支持	-6421
无法	-6422
记录	-6423
身份	-6424
%20	-6425
("}	-6426
('>	-6427
('?	-6428
('@	-6429
()\	-6430
(.*	-6431
([^	-6432
),\	-6433
-05	-6434
//@	-6435
00_	-6436
011	-6437
05,	-6438
051	-6439
06,	-6440
129	-6441
14,	-6442
144	-6443
15.	-6444
150	-6445
16(	-6446
17,	-6447
1_9	-6448
22;	-6449
23,	-6450
24.	-6451
24:	-6452
26,	-6453
2>\	-6454
340	-6455
378	-6456
386	-6457
388	-6458
389	-6459
391	-6460
3])	-6461
420	-6462
5.0	-6463
597	-6464
65,	-6465
83.	-6466
876	-6467
961	-6468
:11	-6469
:17	-6470
=")	-6471
=[%	-6472
AAA	-6473
ADJ	-6474
ASU	-6475
BLP	-6476
BNO	-6477
BUI	-6478
CLF	-6479
CLI	-6480
CMP	-6481
COU	-6482
DFP	-6483
DIO	-6484
ECH	-6485
ELU	-6486
GBK	-6487
HIE	-6488
ILA	-6489
IMX	-6490
IQL	-6491
ISw	-6492
JIS	-6493
MFS	-6494
MIG	-6495
MXB	-6496
MYK	-6497
OCU	-6498
OSI	-6499
OSS	-6500
PFP	-6501
SAM	-6502
SEQ	-6503
XXX	-6504
]\\	-6505
]];	-6506
_05	-6507
_4.	-6508
`",	-6509
hBP	-6510
wBu	-6511
{3}	-6512
▁6]	-6513
▁7.	-6514
▁CY	-6515
▁ED	-6516
▁IQ	-6517
▁PD	-6518
▁PI	-6519
▁QB	-6520
▁UM	-6521
▁[-	-6522
▁{&	-6523
である	-6524
的中断	-6525
");\	-6526
("..	-6527
(29.	-6528
(37.	-6529
(45,	-6530
(\""	-6531
--->	-6532
-05.	-6533
-256	-6534
.0";	-6535
01);	-6536
03",	-6537
1005	-6538
14",	-6539
154,	-6540
16()	-6541
1999	-6542
20",	-6543
256;	-6544
6").	-6545
75);	-6546
>"),	-6547
AQUA	-6548
BBLE	-6549
CAMB	-6550
CHEC	-6551
COPE	-6552
DEBI	-6553
DEKI	-6554
DOMA	-6555
DUAL	-6556
DUMP	-6557
ELLE	-6558
ELOC	-6559
EPEA	-6560
IENE	-6561
JSEL	-6562
LEAF	-6563
MENS	-6564
ONAS	-6565
POLY	-6566
UNID	-6567
WALL	-6568
XMLI	-6569
[409	-6570
[5].	-6571
\013	-6572
\014	-6573
\016	-6574
\017	-6575
_");	-6576
_0);	-6577
_0_8	-6578
_188	-6579
_1_1	-6580
_225	-6581
_5()	-6582
_888	-6583
|");	-6584
}"),	-6585
})",	-6586
▁"30	-6587
▁"[]	-6588
▁%.0	-6589
▁***	-6590
▁---	-6591
▁12.	-6592
▁124	-6593
▁128	-6594
▁17.	-6595
▁21)	-6596
▁30.	-6597
▁326	-6598
▁44,	-6599
▁47,	-6600
▁48,	-6601
▁52,	-6602
▁53;	-6603
▁78,	-6604
▁79.	-6605
▁80.	-6606
▁82.	-6607
▁90.	-6608
▁==:	-6609
▁>>=	-6610
▁ANY	-6611
▁BOX	-6612
▁BQI	-6613
▁EXP	-6614
▁FAS	-6615
▁ICh	-6616
▁JID	-6617
▁JOB	-6618
▁MUC	-6619
▁OLE	-6620
▁OMO	-6621
▁POL	-6622
▁QAF	-6623
▁SAM	-6624
▁{}/	-6625
不能为空	-6626
报警设置	-6627
("#")	-6628
("%02	-6629
(4000	-6630
(\"/_	-6631
-0000	-6632
.3");	-6633
._2_0	-6634
//@*[	-6635
0006;	-6636
0007;	-6637
02");	-6638
08011	-6639
1());	-6640
10").	-6641
2());	-6642
20000	-6643
47\1\	-6644
48364	-6645
60000	-6646
:30",	-6647
:4567	-6648
=?;";	-6649
ACHED	-6650
ACONS	-6651
ALSOU	-6652
APACE	-6653
BYUSE	-6654
ELOCI	-6655
EPLAY	-6656
FINDE	-6657
HOULD	-6658
ICONS	-6659
ILLED	-6660
MEASU	-6661
MUISw	-6662
PONDE	-6663
SBMLC	-6664
SCAPE	-6665
SKULL	-6666
SONAL	-6667
USPEC	-6668
[1]),	-6669
][0];	-6670
▁".",	-6671
▁"200	-6672
▁(100	-6673
▁0.85	-6674
▁1)))	-6675
▁10))	-6676
▁128)	-6677
▁6553	-6678
▁8");	-6679
▁GPIO	-6680
▁HALF	-6681
▁KEYS	-6682
▁LESS	-6683
▁MAPH	-6684
▁OCLF	-6685
▁QMUI	-6686
▁UNSE	-6687
▁WEAK	-6688
的中断状态	-6689
(']');	-6690
('|');	-6691
(1.5).	-6692
(100),	-6693
(2.0).	-6694
(300);	-6695
/2001/	-6696
10"));	-6697
3\1\1\	-6698
4_128_	-6699
DIMENS	-6700
FEMALE	-6701
INSIDE	-6702
LABELS	-6703
LOCALE	-6704
ONICAL	-6705
SIGNAL	-6706
[100];	-6707
▁"")).	-6708
▁"-");	-6709
▁"3055	-6710
▁'\\')	-6711
▁0.5);	-6712
▁360.0	-6713
▁CONFI	-6714
▁MANDA	-6715
▁OBDAS	-6716
▁SCALE	-6717
▁SQLSE	-6718
▁WHEEL	-6719
▁{}:{}	-6720
("-1"))	-6721
()[1]);	-6722
(213169	-6723
(300000	-6724
2._2_0.	-6725
2007_05	-6726
299995,	-6727
800003,	-6728
99994);	-6729
9999999	-6730
CAMBIOS	-6731
DISPOSE	-6732
DOMAINS	-6733
EAKABLE	-6734
ELIMINA	-6735
EXCLUDE	-6736
FUSIONS	-6737
OCESSED	-6738
OFFLINE	-6739
UNBOUND	-6740
▁"30104	-6741
▁25)));	-6742
▁5000);	-6743
▁65535)	-6744
▁CHOOSE	-6745
▁SHOULD	-6746
CHECKBOX	-6747
CHECKING	-6748
LOCKABLE	-6749
YPEACCES	-6750
\030\003	-6751
▁[{}].",	-6752
DISCONNEC	-6753
▁CANCELED	-6754
00000004);	-6755
HEXADECIMAL	-6756
▁2018083014	-6757
▁SPECIALIZA	-6758
("2016-10-13	-6759
!"	-6760
$"	-6761
)+	-6762
)/	-6763
+-	-6764
1+	-6765
61	-6766
>{	-6767
KG	-6768
Zh	-6769
]:	-6770
]<	-6771
|\	-6772
ка	-6773
ра	-6774
ру	-6775
▁и	-6776
▁с	-6777
その	-6778
なる	-6779
ージ	-6780
価値	-6781
入参	-6782
刷新	-6783
发生	-6784
古典	-6785
导出	-6786
开启	-6787
搜索	-6788
正确	-6789
结束	-6790
联系	-6791
页面	-6792
!--	-6793
'";	-6794
(!@	-6795
),"	-6796
).\	-6797
*";	-6798
-10	-6799
-1:	-6800
-2.	-6801
.</	-6802
1".	-6803
1("	-6804
11"	-6805
120	-6806
139	-6807
145	-6808
167	-6809
184	-6810
21;	-6811
22_	-6812
23.	-6813
264	-6814
276	-6815
2<@	-6816
3),	-6817
32>	-6818
678	-6819
688	-6820
81,	-6821
818	-6822
865	-6823
95.	-6824
96,	-6825
:")	-6826
:</	-6827
:\"	-6828
>>,	-6829
?\\	-6830
ADU	-6831
BBA	-6832
BBu	-6833
BEC	-6834
BOU	-6835
DBU	-6836
DID	-6837
EBY	-6838
EEE	-6839
EIN	-6840
EXE	-6841
FID	-6842
FSO	-6843
GCP	-6844
GEA	-6845
INZ	-6846
IPO	-6847
ISK	-6848
JPY	-6849
JWS	-6850
KED	-6851
KNN	-6852
LAC	-6853
MPA	-6854
NEA	-6855
OCA	-6856
ODL	-6857
OFL	-6858
OMY	-6859
OPA	-6860
OSN	-6861
PIG	-6862
PLI	-6863
QXX	-6864
UBE	-6865
XAE	-6866
[3,	-6867
[64	-6868
\""	-6869
\32	-6870
^2|	-6871
^3|	-6872
_02	-6873
{0}	-6874
}],	-6875
▁"=	-6876
▁$"	-6877
▁%=	-6878
▁-2	-6879
▁."	-6880
▁44	-6881
▁6.	-6882
▁DP	-6883
▁EB	-6884
▁FG	-6885
▁GH	-6886
▁HS	-6887
▁MC	-6888
▁OL	-6889
▁SB	-6890
▁SD	-6891
▁XL	-6892
▁[2	-6893
未登录	-6894
的価値	-6895
线程数	-6896
("#{	-6897
()):	-6898
(-0.	-6899
(12.	-6900
(17,	-6901
(203	-6902
(54.	-6903
(76,	-6904
(808	-6905
(9),	-6906
**",	-6907
.0).	-6908
0();	-6909
02",	-6910
02()	-6911
0302	-6912
0416	-6913
08",	-6914
0948	-6915
1586	-6916
1755	-6917
180;	-6918
1\2\	-6919
2019	-6920
2213	-6921
256,	-6922
32);	-6923
360.	-6924
59_1	-6925
8\0\	-6926
9000	-6927
=\"2	-6928
>10]	-6929
ADES	-6930
AMMA	-6931
ANIC	-6932
APAN	-6933
APIS	-6934
CASH	-6935
CLBu	-6936
CLOB	-6937
DAOI	-6938
DENY	-6939
DIAG	-6940
EACH	-6941
EMPL	-6942
ENCH	-6943
FIED	-6944
FMLP	-6945
GEAL	-6946
HELP	-6947
ICKE	-6948
ILLA	-6949
LADO	-6950
MALE	-6951
MANS	-6952
MAYA	-6953
MONA	-6954
MUDA	-6955
NEJM	-6956
NHAN	-6957
NOPQ	-6958
OKED	-6959
OUGH	-6960
PLUS	-6961
POLL	-6962
SECS	-6963
SIGH	-6964
SKIN	-6965
UPSE	-6966
WHEN	-6967
WIND	-6968
WXYZ	-6969
YSIS	-6970
[2][	-6971
])).	-6972
_02,	-6973
_1()	-6974
_176	-6975
_212	-6976
_7()	-6977
__()	-6978
__0_	-6979
}}";	-6980
▁"*"	-6981
▁".*	-6982
▁"2,	-6983
▁"25	-6984
▁"3,	-6985
▁":\	-6986
▁"]"	-6987
▁"}\	-6988
▁"║"	-6989
▁':'	-6990
▁'\'	-6991
▁'_'	-6992
▁(19	-6993
▁(29	-6994
▁++_	-6995
▁-5,	-6996
▁/>\	-6997
▁20.	-6998
▁23;	-6999
▁324	-7000
▁34.	-7001
▁34:	-7002
▁4",	-7003
▁4))	-7004
▁40.	-7005
▁42.	-7006
▁43.	-7007
▁46,	-7008
▁49,	-7009
▁59;	-7010
▁70;	-7011
▁76.	-7012
▁768	-7013
▁81,	-7014
▁83.	-7015
▁ABO	-7016
▁ABS	-7017
▁AGE	-7018
▁CDA	-7019
▁CKA	-7020
▁COS	-7021
▁DBU	-7022
▁DOC	-7023
▁EPI	-7024
▁GBA	-7025
▁GCM	-7026
▁GSY	-7027
▁IDU	-7028
▁IES	-7029
▁IGE	-7030
▁ISE	-7031
▁JAX	-7032
▁JQL	-7033
▁NDC	-7034
▁NHS	-7035
▁PLA	-7036
▁QNM	-7037
▁SQS	-7038
▁SUM	-7039
▁UIW	-7040
▁[1,	-7041
▁[\"	-7042
入参实体	-7043
更新失败	-7044
查询失败	-7045
("'",	-7046
(",",	-7047
(">>>	-7048
("_",	-7049
()[0]	-7050
(0)),	-7051
(10.0	-7052
(13),	-7053
(14),	-7054
(145,	-7055
(36.2	-7056
(77);	-7057
0000:	-7058
0008;	-7059
0011;	-7060
0016;	-7061
0023;	-7062
0025;	-7063
01").	-7064
1)));	-7065
105",	-7066
1056/	-7067
125\"	-7068
2")),	-7069
20004	-7070
2016-	-7071
3)));	-7072
44");	-7073
896);	-7074
://12	-7075
='").	-7076
ACING	-7077
AMNIO	-7078
ASIZE	-7079
BMLQu	-7080
CALLE	-7081
CENAS	-7082
CHALL	-7083
COBOL	-7084
COMMA	-7085
DHUWI	-7086
EGEXP	-7087
ENDIS	-7088
ENUME	-7089
GENCY	-7090
INCLU	-7091
JDBCM	-7092
LIPOP	-7093
MUSIC	-7094
ODUCE	-7095
OPDSA	-7096
QUEDA	-7097
SILON	-7098
SINUS	-7099
SLASH	-7100
SLEEP	-7101
]<---	-7102
][1];	-7103
_0_8;	-7104
_10()	-7105
_16()	-7106
_1_1,	-7107
}"));	-7108
▁""))	-7109
▁">";	-7110
▁$%.2	-7111
▁'-')	-7112
▁'0',	-7113
▁'1',	-7114
▁'6',	-7115
▁'8',	-7116
▁'9',	-7117
▁*/",	-7118
▁101,	-7119
▁101;	-7120
▁102,	-7121
▁150;	-7122
▁2.0)	-7123
▁2005	-7124
▁3276	-7125
▁3]],	-7126
▁55.7	-7127
▁59);	-7128
▁600,	-7129
▁70);	-7130
▁80);	-7131
▁995.	-7132
▁9]",	-7133
▁AWSC	-7134
▁CCGB	-7135
▁ELEC	-7136
▁EXPO	-7137
▁GOLD	-7138
▁HEMO	-7139
▁ILES	-7140
▁IOSS	-7141
▁ISBN	-7142
▁LOWE	-7143
▁MXML	-7144
▁PDON	-7145
▁POIN	-7146
▁SHOO	-7147
▁SPAN	-7148
▁XWPF	-7149
▁заяв	-7150
")).//	-7151
("")))	-7152
("#"))	-7153
("****	-7154
("."))	-7155
("0800	-7156
("1"))	-7157
("2009	-7158
("2017	-7159
("3");	-7160
('-');	-7161
(2015,	-7162
(3000,	-7163
(5000,	-7164
160706	-7165
9999);	-7166
:3306/	-7167
=\"").	-7168
ACACIA	-7169
ACHEAL	-7170
APPEAL	-7171
AWSCDK	-7172
DEPEND	-7173
ESENCE	-7174
HOADON	-7175
INCOME	-7176
INSIGH	-7177
KSPACE	-7178
NUMPAD	-7179
SPLINE	-7180
SUFFIC	-7181
ULMONA	-7182
UNKING	-7183
YNGEAL	-7184
][1]);	-7185
_2020_	-7186
_5_3()	-7187
▁";");	-7188
▁"_004	-7189
▁(!"".	-7190
▁(((((	-7191
▁1")).	-7192
▁100),	-7193
▁100).	-7194
▁1017.	-7195
▁2)));	-7196
▁20)),	-7197
▁3000;	-7198
▁ACCEP	-7199
▁ADMIN	-7200
▁BLACK	-7201
▁CHAIN	-7202
▁COMMI	-7203
▁EXCEP	-7204
▁IUINJ	-7205
▁NASAL	-7206
▁NASIN	-7207
▁OPDSA	-7208
▁SLEEP	-7209
▁SWISH	-7210
▁{2}",	-7211
▁{}");	-7212
当前入参实体	-7213
####");	-7214
("1"));	-7215
("911",	-7216
(2848);	-7217
0000");	-7218
1000036	-7219
19995);	-7220
ENCODED	-7221
GHIJKLM	-7222
NMEGABY	-7223
OPENDIS	-7224
PUBLISH	-7225
YMPANIC	-7226
_176502	-7227
_225597	-7228
wSBMLQu	-7229
▁"100",	-7230
▁-10000	-7231
▁973.4,	-7232
▁CANCEL	-7233
▁COMMEN	-7234
▁GOOGLE	-7235
▁IESOPH	-7236
▁IILEAL	-7237
▁YELLOW	-7238
▁wYAMLL	-7239
(",")));	-7240
(1000000	-7241
(1_000);	-7242
=\"125\"	-7243
BUSQUEDA	-7244
EPLAYING	-7245
LOLLIPOP	-7246
PACKAGES	-7247
SPECIFIC	-7248
\030\004	-7249
▁"1.0");	-7250
▁"123");	-7251
▁"141118	-7252
▁"30104-	-7253
▁1000)).	-7254
▁2131755	-7255
▁CALENDA	-7256
▁PENDING	-7257
-01/2011-	-7258
160706812	-7259
CANCELADO	-7260
EXCLUSION	-7261
SADSSMINI	-7262
SUFFICIEN	-7263
("2006-02-	-7264
(123456789	-7265
_1048576()	-7266
▁"127.0.0.	-7267
▁1_000_000	-7268
▁SELECCION	-7269
306\0\306\0\	-7270
▁COMMANDLINE	-7271
▁21:11:21,959	-7272
!=	-7273
(;	-7274
+.	-7275
4<	-7276
4>	-7277
5/	-7278
8/	-7279
9\	-7280
@#	-7281
HZ	-7282
KY	-7283
MG	-7284
WP	-7285
XI	-7286
YI	-7287
hẩ	-7288
qC	-7289
{4	-7290
ло	-7291
ши	-7292
回写	-7293
处理	-7294
已经	-7295
找到	-7296
插入	-7297
新增	-7298
权限	-7299
格式	-7300
消息	-7301
窗口	-7302
编号	-7303
节点	-7304
解析	-7305
认证	-7306
读取	-7307
配置	-7308
에러	-7309
']/	-7310
('%	-7311
('&	-7312
('*	-7313
(';	-7314
(2.	-7315
(29	-7316
(78	-7317
)._	-7318
-07	-7319
-1$	-7320
-16	-7321
.3.	-7322
/.*	-7323
02,	-7324
02.	-7325
07_	-7326
1->	-7327
108	-7328
12_	-7329
166	-7330
1;&	-7331
1],	-7332
217	-7333
22:	-7334
266	-7335
284	-7336
299	-7337
2:8	-7338
2;&	-7339
30.	-7340
31;	-7341
329	-7342
383	-7343
3;&	-7344
400	-7345
4;&	-7346
50.	-7347
52,	-7348
528	-7349
55,	-7350
555	-7351
56;	-7352
5;&	-7353
625	-7354
64:	-7355
685	-7356
7.0	-7357
78,	-7358
800	-7359
843	-7360
899	-7361
8::	-7362
9";	-7363
98,	-7364
99.	-7365
={"	-7366
?";	-7367
AID	-7368
AIS	-7369
ALB	-7370
AMZ	-7371
BBO	-7372
BEE	-7373
CHY	-7374
CPA	-7375
CPP	-7376
DAD	-7377
EID	-7378
FLU	-7379
FOU	-7380
FSA	-7381
HAP	-7382
IAJ	-7383
ICC	-7384
IPS	-7385
JME	-7386
JMX	-7387
JOU	-7388
KID	-7389
LIF	-7390
MAG	-7391
MLC	-7392
NEU	-7393
OAC	-7394
OAM	-7395
ODE	-7396
ODK	-7397
PCA	-7398
PCM	-7399
PEH	-7400
PNG	-7401
QUI	-7402
XMI	-7403
_0,	-7404
_0.	-7405
_27	-7406
_6_	-7407
hSh	-7408
hhh	-7409
uSu	-7410
wPw	-7411
{}]	-7412
▁'$	-7413
▁'>	-7414
▁-4	-7415
▁-7	-7416
▁.4	-7417
▁7]	-7418
▁9.	-7419
▁BQ	-7420
▁DS	-7421
▁EF	-7422
▁HI	-7423
▁ML	-7424
▁OI	-7425
▁PF	-7426
▁PM	-7427
▁PW	-7428
▁XO	-7429
▁Yu	-7430
▁[3	-7431
▁_4	-7432
▁`"	-7433
▁qN	-7434
▁wL	-7435
("*.	-7436
("::	-7437
("[]	-7438
()";	-7439
()},	-7440
(107	-7441
(19,	-7442
(199	-7443
(38,	-7444
(53.	-7445
(;;)	-7446
({},	-7447
).",	-7448
*\"\	-7449
/*",	-7450
000-	-7451
01";	-7452
03);	-7453
07",	-7454
0];"	-7455
10);	-7456
112.	-7457
14);	-7458
19);	-7459
24",	-7460
256)	-7461
344\	-7462
384)	-7463
384;	-7464
47",	-7465
5.6)	-7466
63);	-7467
7)).	-7468
8)).	-7469
:%02	-7470
;1.0	-7471
?)\\	-7472
AESE	-7473
AILE	-7474
AILS	-7475
APPS	-7476
AWAI	-7477
BSON	-7478
COLS	-7479
COMB	-7480
DEEP	-7481
EALM	-7482
EASU	-7483
EASY	-7484
EFUN	-7485
ELIS	-7486
ENSH	-7487
EPID	-7488
HUND	-7489
ICKS	-7490
ICLE	-7491
IPFS	-7492
JUMP	-7493
LEND	-7494
LICI	-7495
LIES	-7496
MISC	-7497
NIGH	-7498
NMSC	-7499
NOID	-7500
OCES	-7501
OMIC	-7502
OPBI	-7503
SDBu	-7504
SEMI	-7505
SEPE	-7506
SKOS	-7507
SNOW	-7508
UPMS	-7509
WIFI	-7510
WILD	-7511
[7],	-7512
[8],	-7513
[8].	-7514
\020	-7515
_0_)	-7516
_10,	-7517
_704	-7518
__")	-7519
},''	-7520
▁!((	-7521
▁"$"	-7522
▁"':	-7523
▁"./	-7524
▁#{%	-7525
▁'('	-7526
▁(",	-7527
▁(-1	-7528
▁(//	-7529
▁-1:	-7530
▁-7.	-7531
▁115	-7532
▁125	-7533
▁16:	-7534
▁17)	-7535
▁19:	-7536
▁21.	-7537
▁24.	-7538
▁2}"	-7539
▁305	-7540
▁35;	-7541
▁45.	-7542
▁59.	-7543
▁6",	-7544
▁7.0	-7545
▁71,	-7546
▁86,	-7547
▁92,	-7548
▁ALI	-7549
▁BEA	-7550
▁BEL	-7551
▁CIM	-7552
▁DFS	-7553
▁DNS	-7554
▁FSM	-7555
▁HEL	-7556
▁IAB	-7557
▁IOE	-7558
▁MAC	-7559
▁MEG	-7560
▁MIS	-7561
▁MMM	-7562
▁NEG	-7563
▁PDF	-7564
▁PHO	-7565
▁PLC	-7566
▁SIG	-7567
▁UID	-7568
▁UIN	-7569
▁XSS	-7570
▁\"-	-7571
删除失败	-7572
结果异常	-7573
超时时间	-7574
("/?{	-7575
("0",	-7576
("5",	-7577
('/')	-7578
().//	-7579
(11),	-7580
(3000	-7581
(33).	-7582
-1.0-	-7583
-1.2.	-7584
-2"),	-7585
-3"),	-7586
-8"),	-7587
/1/13	-7588
0.365	-7589
0009;	-7590
0040;	-7591
02505	-7592
14191	-7593
23");	-7594
23149	-7595
5")).	-7596
5.5);	-7597
66362	-7598
8601(	-7599
==");	-7600
ALBUM	-7601
ANNEL	-7602
BECBA	-7603
DUBBO	-7604
ECOGN	-7605
ESINJ	-7606
FACES	-7607
FSCPN	-7608
FUSCA	-7609
IAJES	-7610
ICECA	-7611
ISINJ	-7612
KFLOW	-7613
MANEN	-7614
NABLE	-7615
NASAL	-7616
OZONE	-7617
SANDS	-7618
SHELL	-7619
SWISH	-7620
[15];	-7621
\\.\\	-7622
]+?",	-7623
}}");	-7624
▁"7",	-7625
▁";";	-7626
▁"_00	-7627
▁'").	-7628
▁'2',	-7629
▁'3',	-7630
▁'4',	-7631
▁'5',	-7632
▁'7',	-7633
▁'=')	-7634
▁(").	-7635
▁-5.0	-7636
▁0)),	-7637
▁0.02	-7638
▁103,	-7639
▁11}"	-7640
▁120;	-7641
▁123,	-7642
▁153,	-7643
▁15}"	-7644
▁16),	-7645
▁176,	-7646
▁18.7	-7647
▁20).	-7648
▁20}"	-7649
▁2]",	-7650
▁35.0	-7651
▁3600	-7652
▁600;	-7653
▁ASSE	-7654
▁BLES	-7655
▁EISA	-7656
▁FAIL	-7657
▁KEEP	-7658
▁LMSE	-7659
▁MEDI	-7660
▁MODI	-7661
▁NCDS	-7662
▁OWNE	-7663
▁PUSH	-7664
▁QAFW	-7665
▁UPPE	-7666
▁[");	-7667
▁{");	-7668
▁}}";	-7669
("/**/	-7670
("=\""	-7671
("@"))	-7672
("{}",	-7673
('#');	-7674
('{');	-7675
()[0],	-7676
()[0].	-7677
../../	-7678
.000",	-7679
/**").	-7680
/02/01	-7681
/1.0.0	-7682
000));	-7683
01"));	-7684
02_));	-7685
164\1\	-7686
202\32	-7687
2_224_	-7688
64());	-7689
:4567/	-7690
ABPANE	-7691
AINING	-7692
AMNINJ	-7693
BACKWA	-7694
CHECKE	-7695
ECOGNI	-7696
ONIZED	-7697
OUNDUP	-7698
WILDCA	-7699
])"));	-7700
{1}'',	-7701
▁","),	-7702
▁"2020	-7703
▁'_');	-7704
▁0.05;	-7705
▁7")).	-7706
▁BLEND	-7707
▁FILES	-7708
▁FOLDE	-7709
▁JONAS	-7710
▁MOUSE	-7711
▁SOUND	-7712
(10000,	-7713
(404));	-7714
))))));	-7715
000000;	-7716
0101009	-7717
0416391	-7718
1\1\11\	-7719
2"))));	-7720
2016-03	-7721
229.163	-7722
344\223	-7723
799995,	-7724
9000961	-7725
CHANGES	-7726
CLASSPA	-7727
CONSUMP	-7728
DIAMOND	-7729
EXPENSE	-7730
IANGLES	-7731
IMEZONE	-7732
INCLUSI	-7733
MODULES	-7734
OBFUSCA	-7735
SECONDA	-7736
SKIPPED	-7737
ZENDESK	-7738
\0\1\1\	-7739
\1\0\1\	-7740
_180633	-7741
_188514	-7742
_190948	-7743
▁"...";	-7744
▁"1337_	-7745
▁"30621	-7746
▁-7.125	-7747
▁0.0));	-7748
▁0.0000	-7749
▁0.0001	-7750
▁27.7);	-7751
▁404");	-7752
▁BELONG	-7753
▁LEGACY	-7754
▁MEGABY	-7755
("...");	-7756
("000100	-7757
("000101	-7758
("011000	-7759
()]//@*[	-7760
/1/1337_	-7761
10050];"	-7762
14748364	-7763
23149022	-7764
66362784	-7765
699999);	-7766
86502505	-7767
ALINCOME	-7768
DEFENCES	-7769
EXCEEDED	-7770
SIGNIFIC	-7771
UPLOADED	-7772
▁"141117	-7773
▁####");	-7774
▁1000000	-7775
▁BLESSED	-7776
▁CASCADE	-7777
▁CHANNEL	-7778
▁COLUMNS	-7779
▁COMPOSI	-7780
("08003",	-7781
00000008)	-7782
='2016-03	-7783
BLOCKSFLY	-7784
IALIASING	-7785
LANDSCAPE	-7786
▁ENCODING	-7787
▁HALFCOUN	-7788
▁MODIFIED	-7789
0000000000	-7790
00000008);	-7791
DIMENSIONS	-7792
DOWNLOADED	-7793
MFEEDBACKS	-7794
SELECCIONA	-7795
(1073741824	-7796
GHIJKLMNOPQ	-7797
▁1000000000	-7798
("2015/02/01	-7799
▁27.699999);	-7800
("------------	-7801
▁\001(\0132\03	-7802
'-	-7803
*$	-7804
+"	-7805
+/	-7806
-5	-7807
/9	-7808
1@	-7809
:$	-7810
:2	-7811
=&	-7812
=(	-7813
=+	-7814
@"	-7815
BQ	-7816
HU	-7817
Hw	-7818
JG	-7819
Kw	-7820
Nh	-7821
QQ	-7822
SG	-7823
UK	-7824
WC	-7825
WX	-7826
YE	-7827
ZO	-7828
`"	-7829
hZ	-7830
во	-7831
да	-7832
ст	-7833
▁小	-7834
この	-7835
すべ	-7836
とも	-7837
には	-7838
ると	-7839
アマ	-7840
ゾン	-7841
关闭	-7842
创建	-7843
名单	-7844
启用	-7845
態度	-7846
手机	-7847
报错	-7848
按钮	-7849
收款	-7850
日期	-7851
暂无	-7852
板块	-7853
私は	-7854
第一	-7855
編入	-7856
送信	-7857
##\	-7858
$.3	-7859
'>"	-7860
'>\	-7861
(.+	-7862
(..	-7863
(4.	-7864
-8"	-7865
._0	-7866
033	-7867
05;	-7868
07,	-7869
082	-7870
09,	-7871
107	-7872
148	-7873
14:	-7874
15;	-7875
1_0	-7876
20:	-7877
236	-7878
237	-7879
30,	-7880
31"	-7881
31,	-7882
36.	-7883
3[]	-7884
4))	-7885
40.	-7886
416	-7887
42,	-7888
477	-7889
48,	-7890
49,	-7891
4];	-7892
51,	-7893
559	-7894
6),	-7895
616	-7896
644	-7897
648	-7898
7()	-7899
71,	-7900
8";	-7901
80;	-7902
847	-7903
897	-7904
90;	-7905
94,	-7906
:80	-7907
::"	-7908
='#	-7909
AEM	-7910
AMD	-7911
ANN	-7912
ASL	-7913
AUX	-7914
CDI	-7915
CIP	-7916
CIS	-7917
DAM	-7918
DBB	-7919
DCG	-7920
DCu	-7921
ECI	-7922
ECu	-7923
EDM	-7924
EDO	-7925
EEL	-7926
ELY	-7927
EMU	-7928
ENA	-7929
EZF	-7930
FEN	-7931
FSL	-7932
FXF	-7933
GBP	-7934
GOS	-7935
GUE	-7936
HMS	-7937
HUM	-7938
IAM	-7939
ICU	-7940
ICh	-7941
IDC	-7942
IFh	-7943
LAN	-7944
LIA	-7945
LIL	-7946
MFu	-7947
MSK	-7948
NEQ	-7949
OON	-7950
OSC	-7951
PIX	-7952
PNH	-7953
PSK	-7954
SAC	-7955
SIZ	-7956
SKE	-7957
ShO	-7958
UDF	-7959
UNO	-7960
WSS	-7961
YMD	-7962
YMS	-7963
_04	-7964
_3,	-7965
_47	-7966
_5,	-7967
_7,	-7968
_7.	-7969
hID	-7970
hSq	-7971
hẩu	-7972
}".	-7973
ыло	-7974
▁#%	-7975
▁($	-7976
▁(4	-7977
▁.2	-7978
▁38	-7979
▁49	-7980
▁65	-7981
▁76	-7982
▁GM	-7983
▁HW	-7984
▁_0	-7985
▁hB	-7986
▁hK	-7987
▁uD	-7988
▁wM	-7989
すべき	-7990
已存在	-7991
未找到	-7992
用户名	-7993
白名单	-7994
请重新	-7995
默认为	-7996
')))	-7997
("#>	-7998
("%1	-7999
("%9	-8000
("(<	-8001
("??	-8002
($1)	-8003
((-1	-8004
()].	-8005
(14.	-8006
(17.	-8007
(18.	-8008
(2))	-8009
(21,	-8010
(4))	-8011
(55,	-8012
)]);	-8013
-06.	-8014
.*},	-8015
.0",	-8016
.000	-8017
0019	-8018
001;	-8019
022\	-8020
05",	-8021
0825	-8022
0=\"	-8023
100%	-8024
1212	-8025
142.	-8026
15);	-8027
155,	-8028
164\	-8029
17",	-8030
18",	-8031
1887	-8032
19",	-8033
1];"	-8034
2008	-8035
2018	-8036
2222	-8037
256"	-8038
28];	-8039
29",	-8040
301.	-8041
34",	-8042
3419	-8043
4"),	-8044
4)).	-8045
49);	-8046
4\3\	-8047
5.25	-8048
50);	-8049
512)	-8050
77);	-8051
8888	-8052
9)).	-8053
919,	-8054
9200	-8055
://%	-8056
<>(_	-8057
=\"1	-8058
>40]	-8059
>{{"	-8060
ABBI	-8061
ABCD	-8062
ABOU	-8063
ACCU	-8064
AMES	-8065
ANAL	-8066
ANEL	-8067
APPA	-8068
BASI	-8069
BFGS	-8070
CASC	-8071
CHAL	-8072
CMYK	-8073
CSSS	-8074
DESE	-8075
DISC	-8076
DOMI	-8077
EADW	-8078
EBAL	-8079
EMGE	-8080
EUSE	-8081
EXCE	-8082
FLAK	-8083
GUES	-8084
HASE	-8085
HENG	-8086
IBLE	-8087
IESC	-8088
IGNS	-8089
INEA	-8090
IPLY	-8091
JPAS	-8092
MAPS	-8093
MILK	-8094
MOSS	-8095
MUSH	-8096
NEGO	-8097
OBLE	-8098
ODES	-8099
OGEN	-8100
OOCH	-8101
OPOS	-8102
OULD	-8103
OWID	-8104
PAPE	-8105
PINK	-8106
SAJE	-8107
SAMP	-8108
SMEN	-8109
SQLD	-8110
UDIO	-8111
UIAS	-8112
UMBE	-8113
UOUS	-8114
WISE	-8115
XIAO	-8116
[256	-8117
[4].	-8118
[6].	-8119
[7].	-8120
[{}]	-8121
\"";	-8122
_0_,	-8123
_10.	-8124
_13_	-8125
_2_)	-8126
wIOE	-8127
▁"15	-8128
▁"2"	-8129
▁"?"	-8130
▁"]\	-8131
▁'@'	-8132
▁(("	-8133
▁(?,	-8134
▁15.	-8135
▁15:	-8136
▁17:	-8137
▁234	-8138
▁24:	-8139
▁28;	-8140
▁32:	-8141
▁3}"	-8142
▁67,	-8143
▁77.	-8144
▁819	-8145
▁89.	-8146
▁8}"	-8147
▁9.0	-8148
▁97,	-8149
▁BAL	-8150
▁BUL	-8151
▁CCh	-8152
▁CLI	-8153
▁CMD	-8154
▁DDL	-8155
▁DEK	-8156
▁DUM	-8157
▁ENG	-8158
▁EOP	-8159
▁FEL	-8160
▁FOO	-8161
▁GEA	-8162
▁HEX	-8163
▁IDP	-8164
▁IDS	-8165
▁INF	-8166
▁JCA	-8167
▁JMX	-8168
▁MMS	-8169
▁NON	-8170
▁PMD	-8171
▁QPP	-8172
▁SPI	-8173
▁WBM	-8174
▁XYS	-8175
▁\"@	-8176
▁\\\	-8177
▁wOK	-8178
アマゾン	-8179
信息失败	-8180
密码错误	-8181
当前插入	-8182
项目分类	-8183
'')",	-8184
("(1.	-8185
("(2,	-8186
("0")	-8187
("3",	-8188
("999	-8189
("\">	-8190
()]),	-8191
(0.00	-8192
(32);	-8193
(401,	-8194
)'");	-8195
0010;	-8196
0037;	-8197
0043;	-8198
01015	-8199
08.23	-8200
1))),	-8201
1000,	-8202
30\1\	-8203
37\1\	-8204
40");	-8205
8<>((	-8206
9.8);	-8207
>(2);	-8208
>40]"	-8209
?"));	-8210
ALICE	-8211
AMAYA	-8212
BSSID	-8213
CHING	-8214
EADME	-8215
EFINE	-8216
ENEMY	-8217
ESSES	-8218
GOING	-8219
HELPE	-8220
IDUAL	-8221
ILING	-8222
LINKS	-8223
MANDA	-8224
MINUS	-8225
OLLBA	-8226
OUNCE	-8227
PIXEL	-8228
SAMLM	-8229
SENGE	-8230
SIZES	-8231
SOAPB	-8232
UNWAY	-8233
YIDAF	-8234
[10],	-8235
[]>>>	-8236
\"],\	-8237
\"}",	-8238
\003\	-8239
_5_3,	-8240
}")).	-8241
▁"--"	-8242
▁"10.	-8243
▁'"',	-8244
▁'*',	-8245
▁(");	-8246
▁)");	-8247
▁-0.0	-8248
▁-1))	-8249
▁0.9;	-8250
▁10),	-8251
▁108,	-8252
▁111,	-8253
▁116,	-8254
▁12.0	-8255
▁140,	-8256
▁190,	-8257
▁1]))	-8258
▁2.0;	-8259
▁250,	-8260
▁3.0,	-8261
▁48).	-8262
▁48);	-8263
▁55);	-8264
▁988.	-8265
▁996.	-8266
▁ABAP	-8267
▁AESE	-8268
▁BOOK	-8269
▁CFAC	-8270
▁CLIC	-8271
▁CUDA	-8272
▁DECO	-8273
▁GLOB	-8274
▁NEGA	-8275
▁PLUG	-8276
▁POSI	-8277
▁\003	-8278
▁},",	-8279
("$").	-8280
(","))	-8281
("-"))	-8282
("1101	-8283
("5");	-8284
("=").	-8285
(">");	-8286
("@");	-8287
("[").	-8288
("[");	-8289
('/').	-8290
('0');	-8291
('>');	-8292
('\\',	-8293
('_');	-8294
()))))	-8295
().");	-8296
(100).	-8297
(20));	-8298
(2020,	-8299
(255);	-8300
(5)));	-8301
/**");	-8302
/13002	-8303
/13004	-8304
/13005	-8305
/13006	-8306
/13007	-8307
/13008	-8308
3")));	-8309
32());	-8310
800000	-8311
99996,	-8312
===");	-8313
ACKING	-8314
BASICO	-8315
BBBBBB	-8316
BOUGUE	-8317
EENSHO	-8318
EMEMBE	-8319
ESSING	-8320
FINISH	-8321
HALFPI	-8322
JSONOu	-8323
KILOME	-8324
OFFICE	-8325
OPPING	-8326
PAUSED	-8327
SAMLSu	-8328
SPEECH	-8329
SQLXML	-8330
SUNDAY	-8331
WEAPON	-8332
[128];	-8333
[256];	-8334
\"}");	-8335
_123",	-8336
_15258	-8337
___201	-8338
▁"\\\\	-8339
▁"]"))	-8340
▁"_000	-8341
▁"_002	-8342
▁"_005	-8343
▁"}}</	-8344
▁11));	-8345
▁:{}",	-8346
▁ASCII	-8347
▁BACKG	-8348
▁CODEC	-8349
▁EQUAL	-8350
▁INDEN	-8351
▁MODIF	-8352
▁NJSON	-8353
▁PANEL	-8354
▁SCOPE	-8355
▁UNNES	-8356
▁XMLOu	-8357
▁YYEOF	-8358
▁____.	-8359
当前插入数据	-8360
("%1$.3	-8361
("112",	-8362
('.'));	-8363
(204));	-8364
.2.1");	-8365
000"));	-8366
001"));	-8367
201208.	-8368
300001,	-8369
399994,	-8370
800001,	-8371
BLOCKED	-8372
CLEANUP	-8373
DASHBOA	-8374
EQUENCY	-8375
GEOHASH	-8376
IMMEDIA	-8377
MINIMUM	-8378
WINDING	-8379
YPOLICY	-8380
[1]"));	-8381
[4096];	-8382
\":\"__	-8383
_05_02,	-8384
_212843	-8385
▁"'.");	-8386
▁"/{2}/	-8387
▁"30422	-8388
▁"30466	-8389
▁0.5));	-8390
▁200");	-8391
▁700));	-8392
▁DELIMI	-8393
▁ENABLE	-8394
▁ESCAPE	-8395
▁HANDLE	-8396
▁MEDIUM	-8397
▁SPACES	-8398
▁wYAMLI	-8399
▁заявки	-8400
("0.0");	-8401
("???");	-8402
("\\|");	-8403
(1000));	-8404
+229.163	-8405
0000000)	-8406
1")))));	-8407
1\1\0\1\	-8408
202\323\	-8409
299995);	-8410
ANALYSIS	-8411
BUILDING	-8412
DEADZONE	-8413
EBALANCE	-8414
HACHHANG	-8415
INCLUDED	-8416
INDEFINI	-8417
ONENUMBE	-8418
PASSENGE	-8419
PULLDOWN	-8420
SMENSAJE	-8421
SYNONYMS	-8422
_196271_	-8423
________	-8424
▁"141119	-8425
▁1611));	-8426
▁975.5);	-8427
▁989.8);	-8428
▁998.7);	-8429
▁EOPPOSI	-8430
▁EXCLUDE	-8431
▁{}/{}",	-8432
("2009-02	-8433
("2017-06	-8434
08.230825	-8435
123456789	-8436
20004001:	-8437
:00.000",	-8438
======");	-8439
CLOCKWISE	-8440
HANDSHAKE	-8441
SCHEDULED	-8442
SYSCHECKS	-8443
_1048576,	-8444
▁"\1\0\1\	-8445
▁10.1056/	-8446
("--------	-8447
-43532"));	-8448
-8859-1"),	-8449
2.3,4.5.6)	-8450
7.0.0.1];"	-8451
AAAAAAAAAA	-8452
BBBBBBBBBB	-8453
NODECONFIG	-8454
▁'20170413	-8455
▁00:00")))	-8456
INSUFFICIEN	-8457
("2016-10-11	-8458
▁"192.168.1.	-8459
:127.0.0.1];"	-8460
00000000000000	-8461
0100308.230825	-8462
202\323\344\223	-8463
567890123456789	-8464
("192.168.1.1");	-8465
0100310.014828",	-8466
>>>>>>>>>>>>>>>>	-8467
▁[192.168.1.1];"	-8468
$%	-8469
+2	-8470
-7	-8471
/>	-8472
0]	-8473
1'	-8474
6}	-8475
:*	-8476
<=	-8477
=2	-8478
=3	-8479
@%	-8480
FG	-8481
JJ	-8482
QP	-8483
XM	-8484
YC	-8485
qL	-8486
}-	-8487
ко	-8488
ла	-8489
ダメ	-8490
供应	-8491
加载	-8492
可以	-8493
复制	-8494
已被	-8495
扫描	-8496
提示	-8497
收到	-8498
攻撃	-8499
未知	-8500
条件	-8501
模式	-8502
目录	-8503
等级	-8504
管理	-8505
編集	-8506
订单	-8507
访问	-8508
请求	-8509
邮箱	-8510
配对	-8511
"):	-8512
#",	-8513
')"	-8514
'-'	-8515
("5	-8516
("7	-8517
(--	-8518
(3.	-8519
(5)	-8520
(50	-8521
(99	-8522
(?:	-8523
+\\	-8524
-",	-8525
-09	-8526
-2-	-8527
.0.	-8528
._1	-8529
015	-8530
03.	-8531
045	-8532
089	-8533
097	-8534
0];	-8535
10)	-8536
109	-8537
114	-8538
117	-8539
126	-8540
138	-8541
13;	-8542
190	-8543
194	-8544
1_2	-8545
20)	-8546
207	-8547
213	-8548
27,	-8549
28;	-8550
29,	-8551
3.4	-8552
314	-8553
318	-8554
33;	-8555
34.	-8556
379	-8557
40,	-8558
484	-8559
4_,	-8560
55;	-8561
577	-8562
58.	-8563
59,	-8564
6";	-8565
67,	-8566
69,	-8567
7";	-8568
7),	-8569
725	-8570
744	-8571
77.	-8572
783	-8573
802	-8574
86_	-8575
894	-8576
9),	-8577
9).	-8578
9],	-8579
;")	-8580
;1.	-8581
=${	-8582
=50	-8583
===	-8584
={3	-8585
>.@	-8586
>\\	-8587
?,?	-8588
APC	-8589
BES	-8590
BLU	-8591
BSS	-8592
BWM	-8593
CCW	-8594
CHF	-8595
CLS	-8596
DBG	-8597
DDE	-8598
DIE	-8599
DWA	-8600
EED	-8601
EPS	-8602
FDB	-8603
FKA	-8604
FPS	-8605
FSF	-8606
GBS	-8607
GPI	-8608
GPQ	-8609
GSY	-8610
HAI	-8611
HLC	-8612
HQL	-8613
IAB	-8614
IGE	-8615
IOH	-8616
ISA	-8617
ISC	-8618
ISI	-8619
KAN	-8620
KIE	-8621
LEO	-8622
LLA	-8623
LNK	-8624
MPJ	-8625
NED	-8626
NGS	-8627
OAU	-8628
OBO	-8629
OOK	-8630
PBI	-8631
PFX	-8632
PGD	-8633
PHO	-8634
PJA	-8635
PNS	-8636
PPE	-8637
PPN	-8638
PPh	-8639
PUD	-8640
QFM	-8641
QLE	-8642
SEE	-8643
SEM	-8644
SHL	-8645
SLA	-8646
SMS	-8647
SPB	-8648
SSE	-8649
UGE	-8650
UPP	-8651
WHA	-8652
WIL	-8653
WOD	-8654
XIS	-8655
XSS	-8656
YCS	-8657
ZIE	-8658
ZKM	-8659
\";	-8660
\"`	-8661
\\{	-8662
_22	-8663
_25	-8664
_34	-8665
qCh	-8666
wWh	-8667
}]}	-8668
▁"°	-8669
▁);	-8670
▁..	-8671
▁0"	-8672
▁57	-8673
▁63	-8674
▁96	-8675
▁EL	-8676
▁Eh	-8677
▁KE	-8678
▁PG	-8679
▁SY	-8680
▁],	-8681
▁_1	-8682
▁wu	-8683
▁异常	-8684
供应商	-8685
接收的	-8686
的数据	-8687
请检查	-8688
("".	-8689
("16	-8690
("^[	-8691
("}\	-8692
()::	-8693
(...	-8694
(0.6	-8695
(0.8	-8696
(19.	-8697
(20.	-8698
(304	-8699
(36.	-8700
(39,	-8701
(40.	-8702
(400	-8703
(60.	-8704
(77,	-8705
(\01	-8706
);";	-8707
+)\\	-8708
..."	-8709
._43	-8710
/1",	-8711
/202	-8712
0005	-8713
0011	-8714
09",	-8715
1.1:	-8716
10";	-8717
11,"	-8718
1101	-8719
1252	-8720
13);	-8721
197]	-8722
2-1@	-8723
20);	-8724
200.	-8725
21",	-8726
252.	-8727
3,12	-8728
310.	-8729
32",	-8730
365.	-8731
4.0,	-8732
5]);	-8733
6000	-8734
65",	-8735
7804	-8736
7856	-8737
:/";	-8738
:}",	-8739
;").	-8740
<");	-8741
=*@!	-8742
ADMI	-8743
ADOS	-8744
AGIN	-8745
ALIC	-8746
APNS	-8747
ASES	-8748
BIND	-8749
BINJ	-8750
BUSH	-8751
CACH	-8752
CELL	-8753
CHEN	-8754
CHEW	-8755
CLAS	-8756
COPI	-8757
CYAN	-8758
Chuu	-8759
DEMO	-8760
EXPE	-8761
FAKE	-8762
FLOO	-8763
GILS	-8764
HSUP	-8765
IEND	-8766
IGAS	-8767
INES	-8768
LOSS	-8769
MADA	-8770
MCIB	-8771
MINE	-8772
MINS	-8773
MSCC	-8774
MULA	-8775
NAIL	-8776
NESS	-8777
NINJ	-8778
ODAY	-8779
ONIC	-8780
ONZE	-8781
OSIN	-8782
PDIF	-8783
PINJ	-8784
PLAC	-8785
PUNC	-8786
QMUI	-8787
SAGA	-8788
SINJ	-8789
SKMS	-8790
SLAB	-8791
SNEB	-8792
SOLU	-8793
SUBA	-8794
SUCH	-8795
SUCU	-8796
SWAL	-8797
SWEE	-8798
UNCO	-8799
UNNE	-8800
WSDD	-8801
WSPD	-8802
XMLC	-8803
XMLF	-8804
XMLW	-8805
YSES	-8806
\001	-8807
\007	-8808
\037	-8809
]"))	-8810
_2",	-8811
_3",	-8812
_4_,	-8813
wAPI	-8814
wShu	-8815
веди	-8816
мыло	-8817
▁"&"	-8818
▁"&#	-8819
▁"*.	-8820
▁".\	-8821
▁"1|	-8822
▁"20	-8823
▁"2|	-8824
▁"3|	-8825
▁"4|	-8826
▁"5|	-8827
▁"6|	-8828
▁"7|	-8829
▁"8|	-8830
▁"<"	-8831
▁"==	-8832
▁"[{	-8833
▁"}"	-8834
▁'${	-8835
▁'['	-8836
▁'\"	-8837
▁'\0	-8838
▁(1)	-8839
▁(1.	-8840
▁(2,	-8841
▁*/\	-8842
▁-3;	-8843
▁.25	-8844
▁//$	-8845
▁107	-8846
▁14.	-8847
▁155	-8848
▁180	-8849
▁19)	-8850
▁196	-8851
▁25.	-8852
▁26;	-8853
▁27;	-8854
▁2],	-8855
▁2][	-8856
▁31)	-8857
▁327	-8858
▁4.5	-8859
▁400	-8860
▁41,	-8861
▁45)	-8862
▁4}"	-8863
▁56)	-8864
▁64)	-8865
▁66,	-8866
▁7).	-8867
▁72,	-8868
▁75;	-8869
▁76,	-8870
▁808	-8871
▁81.	-8872
▁85,	-8873
▁96;	-8874
▁?>,	-8875
▁AMD	-8876
▁APU	-8877
▁CHE	-8878
▁DBW	-8879
▁DES	-8880
▁DIA	-8881
▁EXI	-8882
▁FLA	-8883
▁GEF	-8884
▁GEN	-8885
▁GIS	-8886
▁IOU	-8887
▁KNN	-8888
▁MAN	-8889
▁NIO	-8890
▁PAS	-8891
▁SDD	-8892
▁SGE	-8893
▁SII	-8894
▁SIL	-8895
▁SPA	-8896
▁SPU	-8897
▁SUC	-8898
▁UCS	-8899
▁USA	-8900
▁USD	-8901
▁[':	-8902
▁\"/	-8903
▁{}"	-8904
ダメージ	-8905
系统异常	-8906
&#(!@	-8907
("***	-8908
("116	-8909
("4",	-8910
("=",	-8911
("[0,	-8912
("[\\	-8913
("\"\	-8914
('0',	-8915
('_',	-8916
(-1),	-8917
(-1).	-8918
(14);	-8919
(22),	-8920
(42).	-8921
(50.0	-8922
(600,	-8923
(9));	-8924
(90);	-8925
)(50,	-8926
).");	-8927
-01";	-8928
-10",	-8929
-1000	-8930
-2");	-8931
.0));	-8932
/90",	-8933
0015;	-8934
0021;	-8935
0022;	-8936
0024;	-8937
0026;	-8938
0027;	-8939
0030;	-8940
0031;	-8941
0032;	-8942
0033;	-8943
0038;	-8944
0041;	-8945
0042;	-8946
0044;	-8947
0049;	-8948
00805	-8949
01:01	-8950
08010	-8951
0[6],	-8952
0[7],	-8953
1.0\"	-8954
13");	-8955
1_0(0	-8956
1_10.	-8957
2")).	-8958
2").<	-8959
2)));	-8960
2012-	-8961
2\002	-8962
34");	-8963
5.0);	-8964
8.0);	-8965
86_64	-8966
911",	-8967
:197]	-8968
<>]+)	-8969
>(0);	-8970
ABBED	-8971
ADING	-8972
AGING	-8973
AGINS	-8974
ALLUS	-8975
AMBLE	-8976
AMPOO	-8977
BENCH	-8978
CAMPA	-8979
CHSIA	-8980
CLANG	-8981
DELIM	-8982
DIAME	-8983
DINGS	-8984
EBINJ	-8985
EDIEN	-8986
EIDAS	-8987
ELOAD	-8988
EMIUM	-8989
ENCIA	-8990
FULLY	-8991
GAMMA	-8992
HEINZ	-8993
IPLES	-8994
IPPLE	-8995
ISINS	-8996
JSONM	-8997
LEAKY	-8998
LEGAL	-8999
LENGE	-9000
LONGI	-9001
MAGIC	-9002
MAXIM	-9003
MAÇÃO	-9004
MISOS	-9005
MLFLE	-9006
MOUSE	-9007
OBLEM	-9008
OCESO	-9009
ODINS	-9010
ONINJ	-9011
OSMOS	-9012
OSPEC	-9013
OUNDS	-9014
OWMAP	-9015
OXIMA	-9016
PACKE	-9017
PHASE	-9018
SCALP	-9019
SHAPE	-9020
SIBLE	-9021
SIGIL	-9022
SKELE	-9023
SOGAS	-9024
SPAWN	-9025
SPUSH	-9026
UBINJ	-9027
UCMAB	-9028
ULINJ	-9029
UNNES	-9030
WHICH	-9031
WIDGE	-9032
XXXXX	-9033
YNINJ	-9034
]--->	-9035
][2];	-9036
_0();	-9037
_0_);	-9038
▁"2";	-9039
▁"202	-9040
▁"_";	-9041
▁'"')	-9042
▁'*')	-9043
▁'+',	-9044
▁'../	-9045
▁'0')	-9046
▁'0';	-9047
▁'1':	-9048
▁'2':	-9049
▁'3':	-9050
▁'4':	-9051
▁'5':	-9052
▁'6':	-9053
▁(1),	-9054
▁(11,	-9055
▁(12,	-9056
▁(2))	-9057
▁*");	-9058
▁-10,	-9059
▁-2);	-9060
▁0.";	-9061
▁0.2;	-9062
▁0.9,	-9063
▁10}"	-9064
▁11.0	-9065
▁110,	-9066
▁130,	-9067
▁145,	-9068
▁16.0	-9069
▁180;	-9070
▁19);	-9071
▁1]).	-9072
▁2.0,	-9073
▁20))	-9074
▁2017	-9075
▁204,	-9076
▁220,	-9077
▁240,	-9078
▁25),	-9079
▁250;	-9080
▁254,	-9081
▁255.	-9082
▁44.7	-9083
▁512;	-9084
▁58.7	-9085
▁60.0	-9086
▁6]",	-9087
▁===>	-9088
▁AGEN	-9089
▁BEFO	-9090
▁BULK	-9091
▁CSSS	-9092
▁DAOM	-9093
▁EBML	-9094
▁GBMS	-9095
▁GLES	-9096
▁JWSA	-9097
▁KNOW	-9098
▁Khẩu	-9099
▁LEAP	-9100
▁MAJO	-9101
▁MDAG	-9102
▁MONI	-9103
▁PCHA	-9104
▁SIDE	-9105
▁SQLF	-9106
▁SSLS	-9107
▁XMLF	-9108
▁[{0}	-9109
▁异常发生	-9110
接收的参数	-9111
路径白名单	-9112
("#");	-9113
("&");	-9114
("0100	-9115
("100"	-9116
(":").	-9117
("<!--	-9118
("\\",	-9119
("\\\\	-9120
("]").	-9121
(':').	-9122
('?');	-9123
(1234.	-9124
(256);	-9125
(404).	-9126
(404);	-9127
(45000	-9128
(\"/\"	-9129
);"));	-9130
-8000-	-9131
00")).	-9132
01_));	-9133
030502	-9134
1")));	-9135
1()));	-9136
11,11,	-9137
184172	-9138
1\",\"	-9139
1\0\1\	-9140
2()));	-9141
201604	-9142
234567	-9143
383419	-9144
4()));	-9145
528");	-9146
666666	-9147
99999,	-9148
://10.	-9149
<>(0);	-9150
<>(3);	-9151
<>(4);	-9152
={3}";	-9153
={}]",	-9154
>()));	-9155
ACHMAB	-9156
AGINSI	-9157
ALIDAD	-9158
ALLOCA	-9159
ASCINJ	-9160
BOUNDS	-9161
BSSIDI	-9162
CASING	-9163
CHENWA	-9164
DINJSP	-9165
DISSOL	-9166
DOCIDS	-9167
DOUCHE	-9168
ECONDI	-9169
ENDINJ	-9170
GANISM	-9171
IFINHL	-9172
INJBOL	-9173
ISCINJ	-9174
JUNGLE	-9175
KILLED	-9176
LAPSED	-9177
MENINJ	-9178
MPJINJ	-9179
MUCINJ	-9180
NSLING	-9181
OAMING	-9182
OBJLNK	-9183
ONINJP	-9184
OUDMAB	-9185
QUENCE	-9186
SEQUEN	-9187
SHOULD	-9188
SIGNUP	-9189
SOLDIE	-9190
SPLASH	-9191
SSOCIA	-9192
UMPINJ	-9193
WHEELS	-9194
YMPINJ	-9195
YMPINS	-9196
YNGINS	-9197
[0][0]	-9198
_14814	-9199
_17804	-9200
_78837	-9201
ведите	-9202
▁"&");	-9203
▁"','"	-9204
▁")").	-9205
▁"1.0-	-9206
▁"\","	-9207
▁"\">"	-9208
▁"_001	-9209
▁'\'')	-9210
▁'{}',	-9211
▁0.01;	-9212
▁10.0,	-9213
▁10.0;	-9214
▁120);	-9215
▁128);	-9216
▁150);	-9217
▁2")).	-9218
▁3)));	-9219
▁31));	-9220
▁32));	-9221
▁360);	-9222
▁4919,	-9223
▁51));	-9224
▁56.86	-9225
▁70));	-9226
▁BLANK	-9227
▁BLINK	-9228
▁COLON	-9229
▁DUMMY	-9230
▁ENEMY	-9231
▁HBASE	-9232
▁HSSFW	-9233
▁LDAPF	-9234
▁PGDSL	-9235
▁POLIC	-9236
▁SOAPP	-9237
▁SPACE	-9238
▁USAGE	-9239
▁XPDLC	-9240
▁XWPFP	-9241
▁~((-1	-9242
&#(!@&*	-9243
("(2,1,	-9244
("**");	-9245
("*****	-9246
("100",	-9247
("\""))	-9248
()])));	-9249
(0.0));	-9250
(3))));	-9251
600006,	-9252
699999,	-9253
://1.1.	-9254
:01")),	-9255
ADMINIS	-9256
ALIASES	-9257
BALANCE	-9258
BINMODE	-9259
EADABLE	-9260
EPIDINJ	-9261
EPLACED	-9262
ESSIONS	-9263
EXPONEN	-9264
FINDING	-9265
IONALLY	-9266
IPELINE	-9267
KEYCODE	-9268
LLAMADA	-9269
ONCHINS	-9270
OSININJ	-9271
PLACINJ	-9272
SECUNDA	-9273
SUBCONJ	-9274
[0]"));	-9275
\"`"));	-9276
_152584	-9277
_8888);	-9278
▁"';");	-9279
▁"30005	-9280
▁"30531	-9281
▁10000)	-9282
▁128));	-9283
▁1611,"	-9284
▁180.0;	-9285
▁4352);	-9286
▁4354);	-9287
▁72.2);	-9288
▁75.6);	-9289
▁91.5);	-9290
▁CLOSED	-9291
▁COMPAC	-9292
▁DOMAIN	-9293
▁MOBILE	-9294
▁QMUISw	-9295
▁WEBAPP	-9296
(2.0)));	-9297
80830144	-9298
;1.0"));	-9299
=\"1.0\"	-9300
ASCINFUS	-9301
BLACKLIS	-9302
BUNDLEID	-9303
CAMPAIGN	-9304
CHECKSUM	-9305
INCOMPLE	-9306
MLFLECHA	-9307
OSCALING	-9308
SOGASINS	-9309
UNIDADES	-9310
[0-9]{1,	-9311
\003\340	-9312
\030\006	-9313
_147411_	-9314
▁100000;	-9315
▁1611]",	-9316
▁DYNAMIC	-9317
▁FUNCION	-9318
▁LOCKING	-9319
当前插入数据字段	-9320
00000004;	-9321
CANONICAL	-9322
DISPLAYED	-9323
EPLACEMEN	-9324
MAXIMIZED	-9325
SEMICOLON	-9326
SUSPENDED	-9327
\022\024\	-9328
\022\025\	-9329
▁LOCALHOS	-9330
**********	-9331
----------	-9332
-0000-1000	-9333
//////////	-9334
0706528");	-9335
1000036"))	-9336
1841720019	-9337
OKEDYNAMIC	-9338
▁123456789	-9339
-8000-00805	-9340
://1.1.1.1:	-9341
://127.0.0.	-9342
=*@!&#(!@&*	-9343
\":\"1\",\"	-9344
▁PHONENUMBE	-9345
▁SUBMISSION	-9346
("2009-02-03	-9347
("2017-06-06	-9348
............	-9349
01:01:01")),	-9350
▁"1.0.0")));	-9351
("20180830144	-9352
▁'20170413'),	-9353
▁SELECCIONADO	-9354
▁FUNCIONALIDAD	-9355
<<<<<<<<<<<<<<<<	-9356
#"	-9357
$;	-9358
%.	-9359
&&	-9360
)*	-9361
)-	-9362
,-	-9363
,:	-9364
/[	-9365
2$	-9366
4=	-9367
7-	-9368
8"	-9369
:#	-9370
:'	-9371
:7	-9372
CJ	-9373
HY	-9374
LU	-9375
Lw	-9376
NZ	-9377
Nw	-9378
Oh	-9379
PJ	-9380
QD	-9381
QX	-9382
Qq	-9383
_|	-9384
qS	-9385
uK	-9386
uN	-9387
{1	-9388
}[	-9389
}}	-9390
ер	-9391
ет	-9392
ли	-9393
но	-9394
об	-9395
ть	-9396
▁大	-9397
、?	-9398
いた	-9399
いて	-9400
これ	-9401
なし	-9402
まで	-9403
よう	-9404
れて	-9405
一般	-9406
中国	-9407
事件	-9408
从未	-9409
仕事	-9410
会话	-9411
停车	-9412
允许	-9413
元素	-9414
出版	-9415
初始	-9416
动画	-9417
区块	-9418
句柄	-9419
号码	-9420
地点	-9421
备注	-9422
大小	-9423
完成	-9424
定义	-9425
布局	-9426
张三	-9427
必ず	-9428
意义	-9429
接口	-9430
支出	-9431
敵軍	-9432
显示	-9433
查找	-9434
确认	-9435
立即	-9436
自軍	-9437
购买	-9438
转换	-9439
返佣	-9440
重复	-9441
需要	-9442
#\\	-9443
$%^	-9444
%%\	-9445
%08	-9446
(-(	-9447
+02	-9448
-11	-9449
-20	-9450
-28	-9451
-30	-9452
-32	-9453
-6;	-9454
-9.	-9455
.).	-9456
.*)	-9457
.0;	-9458
.1=	-9459
01)	-9460
03)	-9461
03_	-9462
044	-9463
057	-9464
074	-9465
08_	-9466
09;	-9467
0[1	-9468
0},	-9469
10(	-9470
10/	-9471
103	-9472
106	-9473
10_	-9474
146	-9475
14_	-9476
15)	-9477
158	-9478
175	-9479
17:	-9480
18,	-9481
18;	-9482
19,	-9483
1>>	-9484
212	-9485
225	-9486
247	-9487
249	-9488
269	-9489
28,	-9490
288	-9491
29:	-9492
2<?	-9493
2{}	-9494
3))	-9495
3._	-9496
305	-9497
313	-9498
333	-9499
33:	-9500
345	-9501
349	-9502
34;	-9503
354	-9504
35;	-9505
375	-9506
376	-9507
380	-9508
39:	-9509
4")	-9510
40;	-9511
45.	-9512
48.	-9513
5.4	-9514
51.	-9515
56,	-9516
60;	-9517
63;	-9518
655	-9519
687	-9520
733	-9521
79,	-9522
80.	-9523
807	-9524
83,	-9525
870	-9526
87_	-9527
927	-9528
:./	-9529
:44	-9530
:[2	-9531
='+	-9532
=0,	-9533
=2"	-9534
=3;	-9535
=4;	-9536
>".	-9537
AFF	-9538
ALO	-9539
ASF	-9540
ASG	-9541
AXI	-9542
BSh	-9543
BXO	-9544
CPY	-9545
DBE	-9546
DBI	-9547
EEK	-9548
EGG	-9549
ELC	-9550
ELF	-9551
FEC	-9552
FIE	-9553
FSD	-9554
GCH	-9555
GDX	-9556
GOL	-9557
GON	-9558
GSI	-9559
HGB	-9560
HIA	-9561
HOM	-9562
HPO	-9563
HSB	-9564
IAu	-9565
IEC	-9566
IQu	-9567
JEU	-9568
LCP	-9569
LDA	-9570
LEE	-9571
MDG	-9572
MDH	-9573
MLI	-9574
MLP	-9575
MMO	-9576
MSB	-9577
MSX	-9578
NCH	-9579
NEG	-9580
NHS	-9581
NPE	-9582
NQu	-9583
OGA	-9584
OMS	-9585
ONA	-9586
OPI	-9587
OPN	-9588
PCH	-9589
PNA	-9590
PNM	-9591
PSU	-9592
QBD	-9593
QFA	-9594
QIU	-9595
SCI	-9596
SDD	-9597
SDO	-9598
SMB	-9599
SNA	-9600
SqI	-9601
UCP	-9602
UDP	-9603
UFO	-9604
UNW	-9605
WIP	-9606
XEO	-9607
XPA	-9608
YUN	-9609
ZHI	-9610
[((	-9611
\\$	-9612
])"	-9613
]][	-9614
_).	-9615
_2[	-9616
_6.	-9617
_9.	-9618
hhu	-9619
wAu	-9620
▁(5	-9621
▁(:	-9622
▁(\	-9623
▁-9	-9624
▁.0	-9625
▁47	-9626
▁54	-9627
▁56	-9628
▁<-	-9629
▁AH	-9630
▁DH	-9631
▁FA	-9632
▁FB	-9633
▁FM	-9634
▁HP	-9635
▁KM	-9636
▁LS	-9637
▁MI	-9638
▁OD	-9639
▁Pq	-9640
▁UL	-9641
▁UU	-9642
▁[:	-9643
▁[<	-9644
▁qP	-9645
▁wF	-9646
▁{[	-9647
▁}"	-9648
▁по	-9649
▁║"	-9650
▁是否	-9651
あった	-9652
ことに	-9653
るもの	-9654
不支持	-9655
值检查	-9656
场动画	-9657
无意义	-9658
服务器	-9659
次执行	-9660
者模式	-9661
该用户	-9662
$$$(	-9663
',['	-9664
("%4	-9665
("',	-9666
("(%	-9667
("/*	-9668
("0.	-9669
("10	-9670
("15	-9671
("22	-9672
(";\	-9673
("[^	-9674
("],	-9675
(0)[	-9676
(0.9	-9677
(198	-9678
(23.	-9679
(3))	-9680
(30.	-9681
(31,	-9682
(326	-9683
(36,	-9684
(49,	-9685
(51,	-9686
(54,	-9687
(57.	-9688
(70,	-9689
(\"#	-9690
)(1,	-9691
):",	-9692
-1";	-9693
-5);	-9694
.0\\	-9695
0)).	-9696
0-9-	-9697
0-9_	-9698
00";	-9699
000)	-9700
00:4	-9701
0[0]	-9702
100.	-9703
11";	-9704
11()	-9705
1187	-9706
1193	-9707
12()	-9708
1213	-9709
123.	-9710
13()	-9711
14()	-9712
141;	-9713
15%3	-9714
163:	-9715
1:1:	-9716
1>>>	-9717
2005	-9718
200;	-9719
23),	-9720
230;	-9721
26",	-9722
2[1]	-9723
32];	-9724
36),	-9725
36);	-9726
3753	-9727
3765	-9728
3999	-9729
39:5	-9730
48",	-9731
4_2.	-9732
54%3	-9733
55",	-9734
56";	-9735
6)).	-9736
64",	-9737
78);	-9738
79);	-9739
8"),	-9740
80);	-9741
9.7,	-9742
96",	-9743
99",	-9744
:"),	-9745
:00:	-9746
:818	-9747
=3",	-9748
=?",	-9749
>.";	-9750
ACHA	-9751
ADGE	-9752
APIG	-9753
AUGE	-9754
AWSA	-9755
BEHW	-9756
CCGB	-9757
COSN	-9758
CSSC	-9759
DDSU	-9760
DSAS	-9761
DUPS	-9762
ECAS	-9763
ECED	-9764
ECHO	-9765
ECMA	-9766
EMFU	-9767
ESSO	-9768
EWAY	-9769
FAMS	-9770
FMLI	-9771
GCYM	-9772
GHOS	-9773
GLAu	-9774
HEAS	-9775
HELL	-9776
IAGE	-9777
IDEA	-9778
IDGE	-9779
IDOS	-9780
IFAS	-9781
ILIA	-9782
INDI	-9783
IOSD	-9784
IPSE	-9785
ISON	-9786
JDOM	-9787
JMXC	-9788
JUKE	-9789
MPPE	-9790
MUID	-9791
OWNS	-9792
PAWN	-9793
PHYS	-9794
PLDI	-9795
SAXN	-9796
SCAu	-9797
SECP	-9798
SHOO	-9799
SLUG	-9800
SMDG	-9801
SNMP	-9802
SONG	-9803
SQLF	-9804
SQLI	-9805
ULSA	-9806
UNSC	-9807
USCA	-9808
USGS	-9809
WILL	-9810
WNMA	-9811
YCLE	-9812
YCSQ	-9813
YLES	-9814
[101	-9815
\005	-9816
\010	-9817
\024	-9818
])",	-9819
]);\	-9820
]}";	-9821
_15_	-9822
_17.	-9823
_189	-9824
_1_;	-9825
_28.	-9826
_296	-9827
_3).	-9828
_30.	-9829
_3_)	-9830
_600	-9831
hMLE	-9832
▁"$$	-9833
▁"44	-9834
▁"``	-9835
▁%1$	-9836
▁%10	-9837
▁','	-9838
▁'19	-9839
▁("\	-9840
▁((1	-9841
▁((2	-9842
▁(1,	-9843
▁(\"	-9844
▁/**	-9845
▁02,	-9846
▁1.2	-9847
▁104	-9848
▁10]	-9849
▁110	-9850
▁134	-9851
▁26:	-9852
▁29;	-9853
▁2])	-9854
▁3.5	-9855
▁35)	-9856
▁36)	-9857
▁3},	-9858
▁42;	-9859
▁45;	-9860
▁46;	-9861
▁5",	-9862
▁5.5	-9863
▁52;	-9864
▁54.	-9865
▁61,	-9866
▁637	-9867
▁708	-9868
▁73,	-9869
▁79,	-9870
▁8),	-9871
▁8).	-9872
▁8.5	-9873
▁83,	-9874
▁87,	-9875
▁91,	-9876
▁93,	-9877
▁AAX	-9878
▁ALA	-9879
▁CFG	-9880
▁DBH	-9881
▁DIM	-9882
▁DUP	-9883
▁GPS	-9884
▁ICu	-9885
▁IPu	-9886
▁KEK	-9887
▁LIB	-9888
▁LOL	-9889
▁LUD	-9890
▁LZW	-9891
▁MDI	-9892
▁MIO	-9893
▁MPC	-9894
▁NDA	-9895
▁NFS	-9896
▁NLS	-9897
▁OAK	-9898
▁ODD	-9899
▁OLA	-9900
▁PAX	-9901
▁PFN	-9902
▁SDK	-9903
▁UEP	-9904
▁XSD	-9905
▁ZIP	-9906
▁[${	-9907
▁[{\	-9908
▁\"<	-9909
▁``"	-9910
▁|-\	-9911
。");	-9912
修改失败	-9913
地点分类	-9914
复制属性	-9915
开始时间	-9916
开始调用	-9917
操作失败	-9918
更新财务	-9919
窗口句柄	-9920
身份认证	-9921
错误信息	-9922
").__	-9923
##");	-9924
("%")	-9925
("%09	-9926
("(\\	-9927
("000	-9928
("002	-9929
("<--	-9930
("[1.	-9931
("[4,	-9932
("[5,	-9933
("\\.	-9934
("\\\	-9935
(')',	-9936
(1.3,	-9937
(150,	-9938
(153,	-9939
(19);	-9940
(250,	-9941
(256,	-9942
(30),	-9943
(3276	-9944
(50),	-9945
))");	-9946
++]);	-9947
-02",	-9948
-19",	-9949
._01_	-9950
0)));	-9951
0003'	-9952
0012;	-9953
0013;	-9954
0014;	-9955
0017;	-9956
0018;	-9957
0019;	-9958
0028;	-9959
0029;	-9960
0034;	-9961
0035;	-9962
0036;	-9963
0039;	-9964
0040.	-9965
0045;	-9966
0046;	-9967
0047;	-9968
0048;	-9969
03000	-9970
04-16	-9971
07000	-9972
0[8],	-9973
0[9],	-9974
1.3],	-9975
10'),	-9976
1000.	-9977
10\1\	-9978
11").	-9979
111",	-9980
12.16	-9981
1305_	-9982
15870	-9983
16();	-9984
18");	-9985
1_9_3	-9986
2005,	-9987
29");	-9988
3")),	-9989
30137	-9990
4());	-9991
4.17.	-9992
401",	-9993
404()	-9994
59:59	-9995
6")),	-9996
672);	-9997
67\1\	-9998
7"));	-9999
75");	-10000
8.201	-10001
8080/	-10002
8583.	-10003
88");	-10004
:[2:$	-10005
;1.1,	-10006
=2010	-10007
ABSEN	-10008
ACKED	-10009
ALIDI	-10010
ALLIC	-10011
AMBIG	-10012
ANGES	-10013
ASSIS	-10014
AUDSw	-10015
BADGE	-10016
BGAIN	-10017
BLADI	-10018
CAUSE	-10019
CHASE	-10020
CLAMP	-10021
COMBO	-10022
DECEP	-10023
DISCA	-10024
EFFIC	-10025
EFLEC	-10026
ELEPO	-10027
ENCED	-10028
EPASS	-10029
EPOIN	-10030
ESOLU	-10031
FXMLL	-10032
GENDA	-10033
HAPLO	-10034
ICEID	-10035
IENCY	-10036
IGNOF	-10037
IMENS	-10038
INDEL	-10039
INOUS	-10040
IPLIE	-10041
ISCAL	-10042
JAPAN	-10043
JOINE	-10044
LILLI	-10045
MAGEN	-10046
MAJEU	-10047
MAZEN	-10048
NUXEO	-10049
ONOUS	-10050
PASSI	-10051
PCION	-10052
PHENO	-10053
PICKE	-10054
SENDE	-10055
SUMME	-10056
YLESS	-10057
ZHENG	-10058
[0-9]	-10059
[0])]	-10060
[1000	-10061
[]...	-10062
\0224	-10063
])));	-10064
][1].	-10065
_000,	-10066
_1_);	-10067
},");	-10068
▁"###	-10069
▁"$",	-10070
▁"',"	-10071
▁".+/	-10072
▁"8",	-10073
▁":",	-10074
▁":";	-10075
▁"[{:	-10076
▁"]==	-10077
▁"}",	-10078
▁'(')	-10079
▁')')	-10080
▁'-',	-10081
▁']',	-10082
▁']';	-10083
▁(10,	-10084
▁+300	-10085
▁-");	-10086
▁0.1)	-10087
▁0.1,	-10088
▁0.18	-10089
▁0.4;	-10090
▁0.65	-10091
▁0.95	-10092
▁117,	-10093
▁125,	-10094
▁127,	-10095
▁134,	-10096
▁141,	-10097
▁144,	-10098
▁147,	-10099
▁150,	-10100
▁160,	-10101
▁180,	-10102
▁182,	-10103
▁1]",	-10104
▁2.1,	-10105
▁2.5,	-10106
▁20),	-10107
▁21),	-10108
▁251,	-10109
▁256,	-10110
▁29);	-10111
▁300,	-10112
▁3616	-10113
▁393,	-10114
▁3]",	-10115
▁403)	-10116
▁42).	-10117
▁55.6	-10118
▁90);	-10119
▁981.	-10120
▁99);	-10121
▁99.2	-10122
▁?)";	-10123
▁ASCI	-10124
▁AWSS	-10125
▁AXIS	-10126
▁BEEP	-10127
▁CAME	-10128
▁CANS	-10129
▁CFAE	-10130
▁CHES	-10131
▁CLIM	-10132
▁DAYS	-10133
▁DEPA	-10134
▁DESE	-10135
▁DOMI	-10136
▁DONE	-10137
▁EXPE	-10138
▁GUID	-10139
▁HEAL	-10140
▁HUGE	-10141
▁JSEL	-10142
▁LSPB	-10143
▁MHOM	-10144
▁PINK	-10145
▁PLAY	-10146
▁POOL	-10147
▁QUAN	-10148
▁SDBu	-10149
▁SHAF	-10150
▁SLOW	-10151
▁UDFA	-10152
▁WEEK	-10153
▁XPDL	-10154
▁ZOOM	-10155
▁[{2,	-10156
▁\"\\	-10157
▁{").	-10158
▁});\	-10159
访问者模式	-10160
'\");\	-10161
("####	-10162
("%"))	-10163
("(");	-10164
("10.0	-10165
(":"))	-10166
("[{}]	-10167
("_");	-10168
("{1.0	-10169
("|"))	-10170
('&');	-10171
('*');	-10172
()[2].	-10173
(-0.01	-10174
(-1));	-10175
(11));	-10176
(123);	-10177
(150),	-10178
(18.2,	-10179
(2018,	-10180
(30));	-10181
(360),	-10182
(400);	-10183
(50));	-10184
(\0132	-10185
._03._	-10186
/13009	-10187
/13016	-10188
/13017	-10189
0000',	-10190
0000).	-10191
001").	-10192
022\02	-10193
08.897	-10194
0[10],	-10195
0[11],	-10196
165\1\	-10197
3()));	-10198
3,120)	-10199
5()));	-10200
9.163'	-10201
://");	-10202
:30:17	-10203
=2012-	-10204
ANEOUS	-10205
APPING	-10206
CHACHA	-10207
DEMAND	-10208
ECMASC	-10209
EFUNDS	-10210
IANGLE	-10211
ICIPLE	-10212
IMINGS	-10213
IMXMLL	-10214
INKING	-10215
MACHIA	-10216
MEMCPY	-10217
MISSED	-10218
NAMESP	-10219
ODUCES	-10220
OPENGL	-10221
PABEHW	-10222
PUBSUB	-10223
WIBBLE	-10224
[1][1]	-10225
\");",	-10226
]')");	-10227
_78085	-10228
_78087	-10229
_78088	-10230
}")));	-10231
▁"'").	-10232
▁"0").	-10233
▁"4");	-10234
▁"6");	-10235
▁"].";	-10236
▁"_");	-10237
▁"_003	-10238
▁"{\""	-10239
▁'0');	-10240
▁'163:	-10241
▁'9'))	-10242
▁'9');	-10243
▁(1000	-10244
▁0.05)	-10245
▁12));	-10246
▁13.37	-10247
▁2"));	-10248
▁200",	-10249
▁2000)	-10250
▁50));	-10251
▁5000,	-10252
▁80));	-10253
▁ALIAS	-10254
▁AMOUN	-10255
▁ASYNC	-10256
▁CHUNK	-10257
▁CLICK	-10258
▁FLUSH	-10259
▁GLOBL	-10260
▁KEYWO	-10261
▁NCDSK	-10262
▁NMODE	-10263
▁SCENE	-10264
▁SLASH	-10265
▁{[{1,	-10266
▁}}");	-10267
▁的中断状态	-10268
复制属性失败	-10269
批量删除失败	-10270
维修地点分类	-10271
"))))))	-10272
")[0]);	-10273
("."));	-10274
("211",	-10275
("=====	-10276
("\"").	-10277
(1))));	-10278
(10)));	-10279
(100)).	-10280
(1500);	-10281
(2929);	-10282
(3042);	-10283
-08-31"	-10284
....");	-10285
.3.3");	-10286
000002,	-10287
00:42:8	-10288
0101000	-10289
022019.	-10290
1000,4,	-10291
3:0.365	-10292
6.20000	-10293
60004);	-10294
700005,	-10295
<>()));	-10296
BILLION	-10297
CASCADE	-10298
CHILDOP	-10299
CLIPBOA	-10300
COMPILA	-10301
COMPILE	-10302
DESIGNS	-10303
EMFUELS	-10304
ENDINGS	-10305
EPAYMEN	-10306
EXPLICI	-10307
INCOMPA	-10308
JUKEBOX	-10309
LEFIELD	-10310
LEGENDA	-10311
MALIZED	-10312
NINGUNO	-10313
OPENING	-10314
PEDIDOS	-10315
SYSKEYS	-10316
UISECON	-10317
UNSUBSC	-10318
[0][0];	-10319
_148124	-10320
_189876	-10321
_230137	-10322
Введите	-10323
▁"10");	-10324
▁"2001:	-10325
▁"30534	-10326
▁"]"));	-10327
▁"}]}";	-10328
▁0.8));	-10329
▁100.0,	-10330
▁100.0;	-10331
▁100000	-10332
▁153));	-10333
▁20)));	-10334
▁20000;	-10335
▁2005);	-10336
▁2896);	-10337
▁4919);	-10338
▁53)));	-10339
▁60000;	-10340
▁99.0);	-10341
▁999999	-10342
▁CACHED	-10343
▁DIMENS	-10344
▁FINISH	-10345
▁LOCALE	-10346
▁MISSED	-10347
▁PALLUS	-10348
▁PLUGIN	-10349
▁UNSPEC	-10350
("1000",	-10351
("2014",	-10352
("2015",	-10353
(-0.01);	-10354
(1024));	-10355
-12-01";	-10356
12345678	-10357
70-01-01	-10358
899994);	-10359
=\"\"></	-10360
BACKLIGH	-10361
BALANCED	-10362
CAMELLIA	-10363
CHANGING	-10364
DEPLOYED	-10365
EACHABLE	-10366
MOBILENE	-10367
UNDEPLOY	-10368
[11][12]	-10369
[13][14]	-10370
_152587_	-10371
▁"126");	-10372
▁"\":\""	-10373
▁+300%",	-10374
▁-12.125	-10375
▁0.85));	-10376
▁1024));	-10377
▁973.4);	-10378
▁COMPLEX	-10379
▁CONFIGU	-10380
▁MAXIMUM	-10381
▁SYSKEYS	-10382
▁{}:{}",	-10383
当前入参实体为空	-10384
("111")).	-10385
(10000));	-10386
(21316902	-10387
/2011-04-	-10388
000000000	-10389
20160408.	-10390
8.2014");	-10391
80000000)	-10392
999999977	-10393
ALIDACION	-10394
ECOGNIZED	-10395
EXCEPCION	-10396
MESSAGING	-10397
SUBSEQUEN	-10398
\0\306\0\	-10399
_000_000;	-10400
▁"172.16.	-10401
▁"\2\0\1\	-10402
▁1000000;	-10403
▁15:30:17	-10404
▁23:59:59	-10405
▁MOBILENE	-10406
▁SEQUENCE	-10407
0000:0000:	-10408
AUDIOFOCUS	-10409
DEPENDENCY	-10410
EFFICIENCY	-10411
PLACEHOLDE	-10412
_78837_0_.	-10413
▁"10.12.16	-10414
▁''{2}''",	-10415
▁213175524	-10416
▁UNCHANGED	-10417
("1.2.3"));	-10418
(36.299995,	-10419
(42.699997,	-10420
(53.199997,	-10421
=2012-04-16	-10422
HANDSHAKING	-10423
///////////\	-10424
080808080808	-10425
=2010-08-31"	-10426
▁"0123456789	-10427
▁91.299995);	-10428
▁99.299995);	-10429
▁UNSPECIFIED	-10430
[13][14][15];	-10431
▁'20170410'),	-10432
("127.0.0.1"),	-10433
=*@!&#(!@&*()\	-10434
▁"2020-12-01";	-10435
("10.08.2014");	-10436
,###,###,###,###	-10437
FFFFFFFFFFFFFFFF	-10438
!%	-10439
%'	-10440
&"	-10441
'.	-10442
)(	-10443
*.	-10444
*;	-10445
+4	-10446
+?	-10447
.3	-10448
/3	-10449
/<	-10450
0'	-10451
2?	-10452
8-	-10453
9]	-10454
;:	-10455
<%	-10456
=4	-10457
=:	-10458
>.	-10459
>]	-10460
>|	-10461
BK	-10462
DX	-10463
GF	-10464
GZ	-10465
PG	-10466
QW	-10467
UU	-10468
XD	-10469
XH	-10470
YH	-10471
YW	-10472
ZI	-10473
ZP	-10474
`)	-10475
qD	-10476
uá	-10477
{2	-10478
{3	-10479
}'	-10480
})	-10481
çã	-10482
Ми	-10483
ем	-10484
ие	-10485
ис	-10486
мя	-10487
ок	-10488
▁출	-10489
を発	-10490
ース	-10491
不到	-10492
与预	-10493
全部	-10494
公钥	-10495
去除	-10496
合计	-10497
圆角	-10498
实际	-10499
对象	-10500
山大	-10501
工种	-10502
情報	-10503
情页	-10504
我的	-10505
指定	-10506
收入	-10507
改变	-10508
最大	-10509
注册	-10510
电话	-10511
矩形	-10512
网络	-10513
考勤	-10514
触发	-10515
设备	-10516
请稍	-10517
超过	-10518
通知	-10519
部位	-10520
问题	-10521
降级	-10522
验证	-10523
발생	-10524
삭제	-10525
!!!	-10526
!")	-10527
!@#	-10528
$2,	-10529
%.5	-10530
%\"	-10531
'><	-10532
("6	-10533
("║	-10534
('!	-10535
('+	-10536
((1	-10537
()}	-10538
(-.	-10539
(.{	-10540
(43	-10541
(64	-10542
(8.	-10543
(9.	-10544
);"	-10545
***	-10546
*\\	-10547
-13	-10548
-24	-10549
-4.	-10550
-\\	-10551
.*}	-10552
/${	-10553
/01	-10554
/\\	-10555
/{}	-10556
0.2	-10557
029	-10558
034	-10559
037	-10560
046	-10561
048	-10562
05.	-10563
07.	-10564
084	-10565
08:	-10566
1',	-10567
1-1	-10568
1.4	-10569
1.5	-10570
11)	-10571
127	-10572
14;	-10573
152	-10574
153	-10575
165	-10576
179	-10577
187	-10578
2".	-10579
210	-10580
218	-10581
23_	-10582
241	-10583
277	-10584
3".	-10585
3.0	-10586
30;	-10587
336	-10588
35,	-10589
35:	-10590
366	-10591
392	-10592
395	-10593
397	-10594
39;	-10595
405	-10596
409	-10597
439	-10598
44,	-10599
464	-10600
475	-10601
53,	-10602
55.	-10603
58,	-10604
62;	-10605
64(	-10606
664	-10607
75,	-10608
769	-10609
774	-10610
77:	-10611
8('	-10612
8))	-10613
82,	-10614
833	-10615
85,	-10616
87,	-10617
888	-10618
9()	-10619
96)	-10620
97,	-10621
98.	-10622
:".	-10623
:[^	-10624
:]+	-10625
='%	-10626
>(2	-10627
?]{	-10628
ABB	-10629
ABE	-10630
ABU	-10631
AEP	-10632
AJD	-10633
ALD	-10634
ANI	-10635
ANO	-10636
AOC	-10637
AOS	-10638
ASA	-10639
ASP	-10640
ASY	-10641
AWA	-10642
AWE	-10643
AXA	-10644
BCC	-10645
BEK	-10646
BOI	-10647
CAD	-10648
CBI	-10649
CCC	-10650
CDM	-10651
CFM	-10652
CID	-10653
CKA	-10654
CLB	-10655
COA	-10656
CPD	-10657
CPS	-10658
CQK	-10659
CSP	-10660
CWD	-10661
DBD	-10662
DFC	-10663
DLA	-10664
DPC	-10665
DUL	-10666
DWO	-10667
ECL	-10668
EML	-10669
EOU	-10670
EZP	-10671
FAB	-10672
FBW	-10673
FDA	-10674
FFC	-10675
FFF	-10676
GAA	-10677
GIF	-10678
GIL	-10679
GIS	-10680
GPS	-10681
HAE	-10682
HCA	-10683
HEC	-10684
HOC	-10685
HUB	-10686
ICN	-10687
IDF	-10688
IDH	-10689
IFS	-10690
IMP	-10691
INO	-10692
IOA	-10693
IPC	-10694
IPD	-10695
ISY	-10696
IqL	-10697
JIP	-10698
JKS	-10699
KBM	-10700
LEU	-10701
LPA	-10702
LSC	-10703
MBC	-10704
MGB	-10705
MOU	-10706
MQN	-10707
MSq	-10708
NDM	-10709
NIO	-10710
NOu	-10711
ODS	-10712
OKH	-10713
OMH	-10714
OMU	-10715
OOD	-10716
PAL	-10717
PCN	-10718
PDE	-10719
PLO	-10720
POI	-10721
POM	-10722
PWM	-10723
QFS	-10724
QPu	-10725
SIX	-10726
SNS	-10727
SOM	-10728
SUI	-10729
UBS	-10730
UBU	-10731
UIP	-10732
UMO	-10733
UPG	-10734
USB	-10735
WBM	-10736
WEL	-10737
[7,	-10738
\".	-10739
\"@	-10740
][(	-10741
_07	-10742
_1)	-10743
_1:	-10744
_20	-10745
_29	-10746
_56	-10747
_8.	-10748
hFu	-10749
hSw	-10750
qqq	-10751
uSh	-10752
wCC	-10753
wCu	-10754
wFu	-10755
wSq	-10756
wuw	-10757
{5}	-10758
Мир	-10759
дин	-10760
мен	-10761
рав	-10762
▁${	-10763
▁%,	-10764
▁(7	-10765
▁.7	-10766
▁4"	-10767
▁67	-10768
▁85	-10769
▁8\	-10770
▁90	-10771
▁92	-10772
▁DN	-10773
▁GJ	-10774
▁GS	-10775
▁Gw	-10776
▁JJ	-10777
▁JL	-10778
▁LP	-10779
▁MK	-10780
▁MX	-10781
▁OG	-10782
▁PP	-10783
▁QD	-10784
▁WK	-10785
▁_5	-10786
▁_6	-10787
▁wG	-10788
▁wX	-10789
▁ww	-10790
▁не	-10791
▁에러	-10792
▁출력	-10793
不符或	-10794
不能为	-10795
与预期	-10796
初始化	-10797
找不到	-10798
病例详	-10799
管理员	-10800
")];	-10801
');\	-10802
("([	-10803
("."	-10804
("88	-10805
("99	-10806
("@"	-10807
("{"	-10808
(..)	-10809
(10)	-10810
(128	-10811
(28,	-10812
(33,	-10813
(34,	-10814
(37,	-10815
(4.0	-10816
(43.	-10817
(44,	-10818
(5.0	-10819
(56,	-10820
(62,	-10821
(655	-10822
(72,	-10823
(8).	-10824
(89,	-10825
(\\.	-10826
-07.	-10827
-7);	-10828
.$$$	-10829
...\	-10830
.1",	-10831
.1";	-10832
.105	-10833
._3_	-10834
0,1}	-10835
03()	-10836
0306	-10837
0368	-10838
056.	-10839
097,	-10840
0:0:	-10841
0[1]	-10842
0\3\	-10843
0}",	-10844
1++)	-10845
1-1@	-10846
1.2.	-10847
10()	-10848
100;	-10849
1047	-10850
1167	-10851
1202	-10852
1232	-10853
135.	-10854
15",	-10855
152;	-10856
1623	-10857
2)))	-10858
2.2:	-10859
2015	-10860
212.	-10861
23);	-10862
2403	-10863
250/	-10864
2582	-10865
2[0]	-10866
2_0(	-10867
2_1.	-10868
3478	-10869
3588	-10870
360(	-10871
40",	-10872
50",	-10873
500.	-10874
51("	-10875
511.	-10876
512,	-10877
512;	-10878
5432	-10879
559_	-10880
5808	-10881
6'><	-10882
6();	-10883
647.	-10884
67);	-10885
7").	-10886
7801	-10887
79",	-10888
8.7,	-10889
808.	-10890
808_	-10891
88",	-10892
8938	-10893
=1",	-10894
=\"/	-10895
>[])	-10896
ACIC	-10897
ACIS	-10898
ACON	-10899
ACSD	-10900
ADUC	-10901
AEPI	-10902
AESM	-10903
AGAS	-10904
ALLU	-10905
ALPH	-10906
ALUM	-10907
AMUS	-10908
ANKS	-10909
ANSC	-10910
ANSP	-10911
APIW	-10912
BANK	-10913
BEEP	-10914
BPMN	-10915
BUND	-10916
CHEM	-10917
CHID	-10918
CHOP	-10919
CLIJ	-10920
CLOU	-10921
CMIS	-10922
CNPJ	-10923
CUDA	-10924
DFSD	-10925
DHWI	-10926
DIAC	-10927
DIOX	-10928
DOMS	-10929
EDGE	-10930
EGIN	-10931
EGLE	-10932
EHIS	-10933
ELSE	-10934
EMPE	-10935
ENSI	-10936
EOFD	-10937
ESPI	-10938
ESSA	-10939
FMLC	-10940
GENI	-10941
GMEN	-10942
HADO	-10943
HALA	-10944
HOOK	-10945
HUMB	-10946
ICAO	-10947
IDAM	-10948
IEWE	-10949
INAC	-10950
INEU	-10951
IPAD	-10952
IXEL	-10953
JBUI	-10954
KEYF	-10955
LHIS	-10956
MEMB	-10957
MILA	-10958
MINI	-10959
MLAF	-10960
MOUN	-10961
MPHA	-10962
NEAL	-10963
NICK	-10964
OBIN	-10965
OBUL	-10966
OCSP	-10967
OFFE	-10968
OKEI	-10969
ONAL	-10970
OOLS	-10971
OPHO	-10972
OPSW	-10973
OSEC	-10974
OUNS	-10975
PDFB	-10976
PDFP	-10977
PIDL	-10978
QBCh	-10979
SHUM	-10980
SINK	-10981
SMSC	-10982
SPLA	-10983
SPLP	-10984
SQLA	-10985
SQLE	-10986
SYSS	-10987
UDEN	-10988
UDFB	-10989
UIEN	-10990
UPLE	-10991
WIKI	-10992
YBLA	-10993
[");	-10994
[1.0	-10995
[]{}	-10996
[^\\	-10997
\":2	-10998
\"}\	-10999
\023	-11000
\025	-11001
]*",	-11002
]{2,	-11003
_"))	-11004
_015	-11005
_06_	-11006
_11.	-11007
_12.	-11008
_13.	-11009
_14.	-11010
_15.	-11011
_18.	-11012
_19.	-11013
_193	-11014
_2()	-11015
_20.	-11016
_21.	-11017
_22.	-11018
_23.	-11019
_24.	-11020
_25.	-11021
_26.	-11022
_27.	-11023
_29.	-11024
_31.	-11025
_32.	-11026
_4",	-11027
_40_	-11028
_4_)	-11029
_5_,	-11030
_8()	-11031
_800	-11032
_90_	-11033
hQLS	-11034
}&({	-11035
}\")	-11036
║");	-11037
▁"/_	-11038
▁"4"	-11039
▁"<?	-11040
▁"@"	-11041
▁'"'	-11042
▁'='	-11043
▁(*.	-11044
▁(10	-11045
▁(3,	-11046
▁-->	-11047
▁-2)	-11048
▁-4;	-11049
▁-5;	-11050
▁05,	-11051
▁06,	-11052
▁0;\	-11053
▁1.3	-11054
▁13)	-11055
▁136	-11056
▁152	-11057
▁18.	-11058
▁186	-11059
▁2.2	-11060
▁20:	-11061
▁22:	-11062
▁238	-11063
▁25:	-11064
▁27)	-11065
▁275	-11066
▁33.	-11067
▁35:	-11068
▁360	-11069
▁36;	-11070
▁37.	-11071
▁37;	-11072
▁3];	-11073
▁43;	-11074
▁4],	-11075
▁4];	-11076
▁56;	-11077
▁6.0	-11078
▁61;	-11079
▁65;	-11080
▁66;	-11081
▁68,	-11082
▁7),	-11083
▁70)	-11084
▁737	-11085
▁74,	-11086
▁75,	-11087
▁84,	-11088
▁88,	-11089
▁9),	-11090
▁90)	-11091
▁94,	-11092
▁95,	-11093
▁95;	-11094
▁98,	-11095
▁='"	-11096
▁=="	-11097
▁AMN	-11098
▁ANO	-11099
▁BAM	-11100
▁BAN	-11101
▁BCh	-11102
▁BIL	-11103
▁BUS	-11104
▁CAM	-11105
▁COD	-11106
▁DBD	-11107
▁DBP	-11108
▁DOU	-11109
▁DSA	-11110
▁FLG	-11111
▁FLY	-11112
▁FON	-11113
▁FSC	-11114
▁GCY	-11115
▁GIN	-11116
▁HAI	-11117
▁IBU	-11118
▁IDA	-11119
▁III	-11120
▁ILY	-11121
▁IMD	-11122
▁IMZ	-11123
▁IOI	-11124
▁ION	-11125
▁IPE	-11126
▁IPL	-11127
▁JCu	-11128
▁JMS	-11129
▁JXE	-11130
▁LEA	-11131
▁LEM	-11132
▁LOA	-11133
▁MDD	-11134
▁NEB	-11135
▁OCD	-11136
▁OID	-11137
▁OJJ	-11138
▁OSM	-11139
▁PCA	-11140
▁PCM	-11141
▁PCS	-11142
▁PGD	-11143
▁POI	-11144
▁POP	-11145
▁QUO	-11146
▁SCM	-11147
▁SHL	-11148
▁SOM	-11149
▁SSE	-11150
▁SWI	-11151
▁USH	-11152
▁XIA	-11153
▁XXX	-11154
▁XYL	-11155
▁YOU	-11156
▁Zuu	-11157
▁[--	-11158
▁\"$	-11159
▁\"\	-11160
▁]";	-11161
▁^",	-11162
▁qCh	-11163
▁qHD	-11164
▁|$$	-11165
▁~(1	-11166
保存出错	-11167
修改成功	-11168
元素改变	-11169
删除成功	-11170
删除财务	-11171
去除圆角	-11172
工种分类	-11173
提交失败	-11174
提交成功	-11175
操作成功	-11176
支付成功	-11177
格式异常	-11178
结束时间	-11179
结果不符	-11180
维修部位	-11181
问题分类	-11182
!\",\	-11183
"))))	-11184
$$$()	-11185
$%^&*	-11186
'")).	-11187
'',''	-11188
')").	-11189
("*")	-11190
("...	-11191
("../	-11192
("011	-11193
("400	-11194
(">",	-11195
("[2,	-11196
("\\{	-11197
("{}:	-11198
('-',	-11199
()'>\	-11200
(-13,	-11201
(-2.5	-11202
(0.36	-11203
(0.5,	-11204
(1,2,	-11205
(120,	-11206
(1402	-11207
(17);	-11208
(184,	-11209
(203,	-11210
(23),	-11211
(24);	-11212
(26);	-11213
(3,1)	-11214
(32),	-11215
(4)),	-11216
(45),	-11217
(5.0,	-11218
(516,	-11219
(70);	-11220
(800,	-11221
(9)),	-11222
)|(\\	-11223
**");	-11224
++));	-11225
--");	-11226
-->",	-11227
.")).	-11228
.*");	-11229
...";	-11230
/.*";	-11231
/1999	-11232
/2004	-11233
0.1",	-11234
0.2",	-11235
005",	-11236
0050;	-11237
0051;	-11238
0052;	-11239
0053;	-11240
0054;	-11241
0055;	-11242
0056;	-11243
0057;	-11244
0058;	-11245
0059;	-11246
0080;	-11247
0095-	-11248
0101;	-11249
03");	-11250
040);	-11251
10-20	-11252
1000;	-11253
11\2\	-11254
12");	-11255
123",	-11256
14182	-11257
15");	-11258
2))).	-11259
2001.	-11260
2016,	-11261
2020_	-11262
2047.	-11263
21");	-11264
22");	-11265
24");	-11266
25:17	-11267
2[0],	-11268
2\",\	-11269
2_2")	-11270
30000	-11271
329",	-11272
34685	-11273
5")),	-11274
50");	-11275
6301.	-11276
65");	-11277
72)).	-11278
://")	-11279
=1").	-11280
=1");	-11281
=\"30	-11282
ABILI	-11283
ACAUD	-11284
ACQUI	-11285
ADISK	-11286
AGEAL	-11287
ALLEL	-11288
AMPLE	-11289
AOSSE	-11290
APICN	-11291
APLEU	-11292
APPID	-11293
APPLE	-11294
ASPEC	-11295
ASYNO	-11296
BEANS	-11297
BILIA	-11298
BOOKS	-11299
CECOS	-11300
CHEME	-11301
CIWSP	-11302
COPIA	-11303
COSAL	-11304
CPFBP	-11305
DAILY	-11306
DIFFE	-11307
DIGES	-11308
DISCO	-11309
DULLA	-11310
EABLE	-11311
EALCI	-11312
EBYME	-11313
EBYSI	-11314
EEMEN	-11315
EMLIS	-11316
ENOUS	-11317
EPIDU	-11318
ESEND	-11319
FLOWE	-11320
FLUID	-11321
GALLE	-11322
GAMEO	-11323
GAUGE	-11324
GCHIS	-11325
GEOME	-11326
GINGI	-11327
GPIOD	-11328
HECAL	-11329
HINGE	-11330
ICFLU	-11331
IDHIS	-11332
IDSAC	-11333
IGINA	-11334
IMIZA	-11335
INFOS	-11336
IODON	-11337
IONSE	-11338
ISING	-11339
ISSOL	-11340
JEJUN	-11341
LACEN	-11342
LEASE	-11343
MSqBA	-11344
NANOS	-11345
NEBUL	-11346
NOSAL	-11347
NOSUM	-11348
OFFIN	-11349
OKEIN	-11350
OLLED	-11351
OMAGS	-11352
ONEAL	-11353
OOLBA	-11354
OOSMO	-11355
OXIMI	-11356
PABLE	-11357
PAGES	-11358
PINCH	-11359
PUSCA	-11360
QMUID	-11361
SKILL	-11362
SOLID	-11363
SPELL	-11364
SUBCU	-11365
UBULA	-11366
UDINJ	-11367
UNDEF	-11368
UNDLE	-11369
UNNEC	-11370
USION	-11371
WALLE	-11372
WAYNE	-11373
XDIGI	-11374
XLESS	-11375
XMLNS	-11376
XMLOu	-11377
XSSFW	-11378
YAMLG	-11379
YAMLI	-11380
YPEID	-11381
YPING	-11382
ZEPPE	-11383
[0][(	-11384
[11].	-11385
[13];	-11386
[{}],	-11387
\"").	-11388
\\-]+	-11389
]")).	-11390
]+");	-11391
][0],	-11392
_0(2,	-11393
_0000	-11394
_1389	-11395
_2");	-11396
_3");	-11397
_90);	-11398
__();	-11399
}))",	-11400
▁"%",	-11401
▁"%";	-11402
▁"*",	-11403
▁"*";	-11404
▁"+";	-11405
▁"-";	-11406
▁"../	-11407
▁"/")	-11408
▁"000	-11409
▁"37.	-11410
▁"?";	-11411
▁"[",	-11412
▁"\":	-11413
▁"\03	-11414
▁%.09	-11415
▁'#')	-11416
▁'#';	-11417
▁'&')	-11418
▁'0':	-11419
▁'7':	-11420
▁'{\"	-11421
▁((!(	-11422
▁)").	-11423
▁+9",	-11424
▁-2.0	-11425
▁0.04	-11426
▁0.15	-11427
▁00),	-11428
▁1)];	-11429
▁1.5;	-11430
▁105:	-11431
▁11),	-11432
▁110:	-11433
▁112,	-11434
▁115,	-11435
▁124,	-11436
▁138,	-11437
▁150)	-11438
▁154,	-11439
▁161,	-11440
▁165,	-11441
▁166,	-11442
▁175,	-11443
▁20.0	-11444
▁2014	-11445
▁2016	-11446
▁203,	-11447
▁224,	-11448
▁270,	-11449
▁28);	-11450
▁3)),	-11451
▁30.0	-11452
▁35);	-11453
▁380,	-11454
▁42.3	-11455
▁4]",	-11456
▁5.0,	-11457
▁6)),	-11458
▁800;	-11459
▁9));	-11460
▁999.	-11461
▁?>>>	-11462
▁?>[]	-11463
▁ACID	-11464
▁ALGO	-11465
▁AMQP	-11466
▁APIU	-11467
▁BUCK	-11468
▁CHEW	-11469
▁CHOL	-11470
▁CLOB	-11471
▁Chuu	-11472
▁DEKI	-11473
▁EPID	-11474
▁FLAG	-11475
▁FLOO	-11476
▁GING	-11477
▁HDFS	-11478
▁HUND	-11479
▁IBAN	-11480
▁ICIS	-11481
▁IDUC	-11482
▁IEPI	-11483
▁ILUM	-11484
▁IMED	-11485
▁IMPO	-11486
▁IOSU	-11487
▁IPCA	-11488
▁IPPB	-11489
▁JBUI	-11490
▁JOYS	-11491
▁MINI	-11492
▁NAIL	-11493
▁ONLY	-11494
▁PFAX	-11495
▁SGDP	-11496
▁SKIN	-11497
▁SLES	-11498
▁SOAK	-11499
▁SQSU	-11500
▁SUBA	-11501
▁SUCK	-11502
▁SWAB	-11503
▁WAKE	-11504
▁XMLH	-11505
回写客户端	-11506
用户未登录	-11507
病例详情页	-11508
页面不符或	-11509
("("))	-11510
("(").	-11511
("(50,	-11512
("-2",	-11513
("2012	-11514
("4");	-11515
("9999	-11516
(";"))	-11517
("?"))	-11518
("\">\	-11519
("}").	-11520
(',').	-11521
()[1];	-11522
(0))).	-11523
(0.0);	-11524
(13));	-11525
(15));	-11526
(2)));	-11527
(20.0,	-11528
(2012,	-11529
(29.8,	-11530
(34.0,	-11531
(42));	-11532
(512);	-11533
-----\	-11534
-1"));	-11535
......	-11536
.10586	-11537
000").	-11538
0000",	-11539
00000,	-11540
1000);	-11541
2"))).	-11542
201408	-11543
2\",\"	-11544
40001,	-11545
5.43",	-11546
500");	-11547
559_1.	-11548
8")));	-11549
9200",	-11550
:1234/	-11551
:443";	-11552
AABDOM	-11553
AAMNIO	-11554
ABLEID	-11555
ACHEOS	-11556
AEPIDE	-11557
AESOPH	-11558
AGINAL	-11559
AILEAL	-11560
ALIYUN	-11561
ALLING	-11562
AMAÇÃO	-11563
ANASAL	-11564
ANYWHE	-11565
AOCULA	-11566
ASCULA	-11567
ASINAL	-11568
BACKUP	-11569
BODYSU	-11570
BUBBLE	-11571
BUCCAL	-11572
CHEMAS	-11573
CLAIMS	-11574
CLASSI	-11575
CONSEN	-11576
DIALEC	-11577
DIFFIE	-11578
DINALI	-11579
ECYCLE	-11580
ELAYOU	-11581
ENCHAN	-11582
ENCIES	-11583
ENDOCE	-11584
EQUALI	-11585
ESICLE	-11586
GINOUS	-11587
HADOOP	-11588
HALMIC	-11589
HELIAL	-11590
ICASSO	-11591
ILPAGE	-11592
IMAGES	-11593
IMPLAN	-11594
INCHES	-11595
INGEAL	-11596
INGUAL	-11597
INHALA	-11598
IPHONE	-11599
MBCLEN	-11600
MISSES	-11601
MUCOSA	-11602
MUCOUS	-11603
OBULBA	-11604
ODENAL	-11605
OLINFO	-11606
OMIZED	-11607
PLACED	-11608
POOLED	-11609
PULLSE	-11610
SHUMOU	-11611
SIMILA	-11612
SIZEOF	-11613
SUBLES	-11614
SUSPEC	-11615
UNLOAD	-11616
UNPACK	-11617
USBAND	-11618
[0][1]	-11619
[16]);	-11620
[{}]",	-11621
\":");	-11622
\":\"%	-11623
\0224\	-11624
\\10.0	-11625
]+"));	-11626
_002);	-11627
_1"));	-11628
_10_22	-11629
▁");";	-11630
▁"-1";	-11631
▁".1";	-11632
▁"1").	-11633
▁"1109	-11634
▁"2000	-11635
▁"3");	-11636
▁"5");	-11637
▁''{3}	-11638
▁')');	-11639
▁'\\',	-11640
▁("1".	-11641
▁-1)).	-11642
▁0.005	-11643
▁1)").	-11644
▁100))	-11645
▁1024)	-11646
▁1024,	-11647
▁2.5).	-11648
▁22));	-11649
▁28));	-11650
▁3"));	-11651
▁3.0);	-11652
▁40));	-11653
▁4000;	-11654
▁4096;	-11655
▁456",	-11656
▁5)));	-11657
▁512);	-11658
▁60)),	-11659
▁60.4,	-11660
▁88.3,	-11661
▁90));	-11662
▁ADDED	-11663
▁BADGE	-11664
▁BASIC	-11665
▁BEGIN	-11666
▁CLEAN	-11667
▁DISCA	-11668
▁ENEMA	-11669
▁FAILU	-11670
▁GBINJ	-11671
▁HELPE	-11672
▁IAINJ	-11673
▁IDINJ	-11674
▁ILESI	-11675
▁INSUF	-11676
▁IOINJ	-11677
▁IOINS	-11678
▁IOSSC	-11679
▁IPINJ	-11680
▁ISINJ	-11681
▁IUINS	-11682
▁JSONF	-11683
▁JSONP	-11684
▁LPINS	-11685
▁NODES	-11686
▁OLAPA	-11687
▁OPACI	-11688
▁PAINJ	-11689
▁PIXEL	-11690
▁PLACE	-11691
▁PNINJ	-11692
▁POSES	-11693
▁PULSA	-11694
▁SCALP	-11695
▁SCINJ	-11696
▁SUBMI	-11697
▁YYINI	-11698
▁\"/\"	-11699
▁{};",	-11700
单体查询失败	-11701
增加财务信息	-11702
报警设置信息	-11703
矩形去除圆角	-11704
维修部位分类	-11705
")))));	-11706
("$[0].	-11707
("/**",	-11708
("2014-	-11709
('\\');	-11710
()[2]);	-11711
()[3]);	-11712
(3000).	-11713
(4.5));	-11714
(500));	-11715
)[0]));	-11716
-256");	-11717
-8")));	-11718
010003,	-11719
030219.	-11720
1.2.3",	-11721
100001,	-11722
100006,	-11723
11\1\0\	-11724
25519);	-11725
3468599	-11726
5000");	-11727
6482582	-11728
678\",\	-11729
://2.2.	-11730
?,?,?,?	-11731
?]{0,1}	-11732
ACAUDAL	-11733
ACHNOID	-11734
ADISCAL	-11735
ALYMPHA	-11736
ASPINAL	-11737
AUXILIA	-11738
CEILING	-11739
COMBINE	-11740
COMPANY	-11741
DIOXIDE	-11742
DISCOUN	-11743
ECLIPSE	-11744
EPSILON	-11745
FUCHSIA	-11746
HELLMAN	-11747
JEJUNUM	-11748
LINGUAL	-11749
NONNULL	-11750
ONCHIAL	-11751
PLUGINS	-11752
PULMONA	-11753
SIGUIEN	-11754
SINUSES	-11755
SUPPOSI	-11756
SUSPEND	-11757
SYNONYM	-11758
UNICODE	-11759
WELCOME	-11760
XIAOHAN	-11761
YBLADDE	-11762
_104857	-11763
_148120	-11764
_152583	-11765
_193383	-11766
_193588	-11767
_78845_	-11768
_78847_	-11769
_8859_1	-11770
▁"")));	-11771
▁"-1");	-11772
▁"1.2",	-11773
▁"10").	-11774
▁"30368	-11775
▁"30620	-11776
▁"30622	-11777
▁"\")";	-11778
▁"\1\1\	-11779
▁---");	-11780
▁-1)));	-11781
▁0.001,	-11782
▁0.01);	-11783
▁0.05);	-11784
▁10000,	-11785
▁1611",	-11786
▁2.0));	-11787
▁20.0);	-11788
▁30000;	-11789
▁65535,	-11790
▁<<<");	-11791
▁AMNINJ	-11792
▁ASCIIE	-11793
▁BAMBOO	-11794
▁BILINJ	-11795
▁CECINS	-11796
▁CHECKS	-11797
▁COFFIN	-11798
▁DISSOL	-11799
▁DOUCHE	-11800
▁EPIINJ	-11801
▁HEMOPO	-11802
▁IAINJP	-11803
▁IPINHL	-11804
▁IUINJC	-11805
▁LOOKUP	-11806
▁MANUAL	-11807
▁MODIFY	-11808
▁NASNEB	-11809
▁PASSED	-11810
▁PAYMEN	-11811
▁PDPINJ	-11812
▁PDPINS	-11813
▁PNSINJ	-11814
▁PNSINS	-11815
▁SEGMEN	-11816
▁SIMPLE	-11817
▁SININS	-11818
▁UPLOAD	-11819
与预期结果不符	-11820
!@#$%^&*	-11821
"))))));	-11822
("0026",	-11823
("1.0");	-11824
("100");	-11825
("?"))).	-11826
("[0-9]+	-11827
("\">");	-11828
("\\\\",	-11829
((((((((	-11830
()...");	-11831
(10000).	-11832
(30000);	-11833
-12-23",	-11834
.....");	-11835
.099998,	-11836
0\2\5\1\	-11837
1234\",\	-11838
20170801	-11839
393,120)	-11840
404040);	-11841
5.255.25	-11842
700005);	-11843
:8080");	-11844
=======%	-11845
ALUMINAL	-11846
AMEDULLA	-11847
AMUSCULA	-11848
AOSSEOUS	-11849
APULMONA	-11850
CHEMICAL	-11851
ECEDENCE	-11852
ENDINOUS	-11853
IMALPUNC	-11854
INDELHIS	-11855
INFUSION	-11856
ISIONING	-11857
NEBULIZA	-11858
NICKNAME	-11859
OMUCOSAL	-11860
OOSMOSIS	-11861
POSSIBLE	-11862
SESSIONS	-11863
SYMBOLIC	-11864
UNLOCKED	-11865
ZEPPELIN	-11866
\030\005	-11867
\032\034	-11868
_152584_	-11869
_8559_1.	-11870
▁"###").	-11871
▁"...");	-11872
▁''{2}''	-11873
▁'{}'.",	-11874
▁65536),	-11875
▁====");	-11876
▁ALLOWED	-11877
▁BLADINJ	-11878
▁BLADINS	-11879
▁CAPDINS	-11880
▁CHOLINJ	-11881
▁DOCUMEN	-11882
▁ENABLED	-11883
▁EPINJSP	-11884
▁EPSILON	-11885
▁GINGINJ	-11886
▁IABDINJ	-11887
▁IAINJSP	-11888
▁IDIMPLN	-11889
▁ILESINJ	-11890
▁ILUMINJ	-11891
▁IOSSINJ	-11892
▁ISININS	-11893
▁ISYNINJ	-11894
▁KPABEHW	-11895
▁LAUNCHE	-11896
▁LONGIDS	-11897
▁NASINHL	-11898
▁PICASSO	-11899
▁SHAMPOO	-11900
▁SLESINJ	-11901
▁SMALLIN	-11902
▁SMUCMAB	-11903
▁SQIMPLN	-11904
▁SQINFUS	-11905
▁SUBCONJ	-11906
▁UNSUBSC	-11907
("\\\\");	-11908
(32672)).	-11909
(50.0)));	-11910
/1.0.0").	-11911
/2004/02/	-11912
03050000)	-11913
045383419	-11914
2.399994,	-11915
ADUODENAL	-11916
ALESIONAL	-11917
AMBIGUOUS	-11918
ANSPLACEN	-11919
CALLBACKS	-11920
CHALLENGE	-11921
DIFFUSION	-11922
DOWNLOADS	-11923
EOUSHUMOU	-11924
ILAGINOUS	-11925
LINKBENCH	-11926
UNNECESSA	-11927
\022\016\	-11928
\022\017\	-11929
\022\021\	-11930
\022\022\	-11931
\032\036.	-11932
_230013_1	-11933
▁"\\\"");	-11934
▁10000000	-11935
▁BULKLOAD	-11936
▁COMPONEN	-11937
▁HEMODIFF	-11938
▁ICAUDINJ	-11939
▁IDISCINJ	-11940
▁IDOUDMAB	-11941
▁IDUODINS	-11942
▁IEPIDINJ	-11943
▁IPUMPINJ	-11944
▁NASALINS	-11945
▁NASINHLC	-11946
▁NULLABLE	-11947
▁PIPELINE	-11948
▁POLICIES	-11949
▁SWISHSPI	-11950
回写客户端结果异常	-11951
页面不符或元素改变	-11952
.10586.0\\	-11953
00000002))	-11954
=======");	-11955
AABDOMINAL	-11956
AMENINGEAL	-11957
ANSMUCOSAL	-11958
ICFLUIDSAC	-11959
MUCOUSMEMB	-11960
NAMESPACES	-11961
OPICALABSO	-11962
SIGNIFICAN	-11963
SUBCONJUNC	-11964
SUBLINGUAL	-11965
SUBMISSION	-11966
SUBMUCOSAL	-11967
SYSSCHEMAS	-11968
▁"30104-04	-11969
▁0.00001);	-11970
▁CANCELLED	-11971
▁EXCLUSION	-11972
▁IESOPHINS	-11973
▁IILEALINJ	-11974
▁ILYMPJINJ	-11975
▁IMEDULINJ	-11976
▁SUBMUCINJ	-11977
▁SWISHSWAL	-11978
("000010").	-11979
("1.2.2"));	-11980
("1.2.4"));	-11981
("111101").	-11982
("\\.")[1],	-11983
://2.2.2.2:	-11984
AESOPHAGEAL	-11985
MUCOSALABSO	-11986
SUBLESIONAL	-11987
\":\"2\",\"	-11988
_1389_10_22	-11989
▁-123456789	-11990
▁ENDOSININJ	-11991
▁NASOGASINS	-11992
▁\001(\010\	-11993
("000010"));	-11994
("111101"));	-11995
("2014-10-20	-11996
("2016-10-14	-11997
11\1\1\1\11\	-11998
208000000000	-11999
BUCCALMUCOSA	-12000
▁SYSCONGLOME	-12001
2.3,4.5.6)").	-12002
ANASALSINUSES	-12003
DIFFIEHELLMAN	-12004
OPICALAPPLICA	-12005
▁"2000-12-23",	-12006
999999999999999	-12007
9999999776482582	-12008
SINUSUNSPECIFIED	-12009
\\10.0.10586.0\\	-12010
▁"10.12.165.43",	-12011
▁\001(\0132\032.	-12012
!:	-12013
![	-12014
%8	-12015
&.	-12016
'>	-12017
(/	-12018
(^	-12019
*,	-12020
+(	-12021
+5	-12022
+]	-12023
,<	-12024
-<	-12025
.`	-12026
/@	-12027
/|	-12028
0<	-12029
3+	-12030
3>	-12031
6]	-12032
7"	-12033
9-	-12034
:-	-12035
:6	-12036
;}	-12037
>0	-12038
>=	-12039
?"	-12040
?[	-12041
?\	-12042
BZ	-12043
Cw	-12044
DW	-12045
EJ	-12046
FY	-12047
Fw	-12048
JL	-12049
Jq	-12050
KO	-12051
Mậ	-12052
QM	-12053
Qw	-12054
SZ	-12055
YZ	-12056
ZS	-12057
]}	-12058
^(	-12059
qI	-12060
uX	-12061
wq	-12062
{%	-12063
|"	-12064
|;	-12065
Су	-12066
ай	-12067
ан	-12068
ап	-12069
ны	-12070
ол	-12071
ре	-12072
با	-12073
▁д	-12074
▁у	-12075
▁本	-12076
▁立	-12077
。。	-12078
かく	-12079
かに	-12080
から	-12081
き受	-12082
ため	-12083
とい	-12084
なか	-12085
など	-12086
にお	-12087
に対	-12088
の水	-12089
の絶	-12090
めて	-12091
よい	-12092
より	-12093
るに	-12094
る事	-12095
をも	-12096
を得	-12097
を見	-12098
クラ	-12099
下标	-12100
不可	-12101
举报	-12102
事業	-12103
互转	-12104
亚历	-12105
众号	-12106
会员	-12107
停止	-12108
典籍	-12109
出现	-12110
分钟	-12111
切换	-12112
刊行	-12113
别行	-12114
包含	-12115
単行	-12116
印件	-12117
厳選	-12118
发布	-12119
合同	-12120
名字	-12121
商品	-12122
商家	-12123
回调	-12124
场活	-12125
填写	-12126
大于	-12127
如果	-12128
嬴政	-12129
完毕	-12130
实现	-12131
导入	-12132
尊重	-12133
工程	-12134
従来	-12135
必须	-12136
或者	-12137
戦後	-12138
政区	-12139
教师	-12140
方块	-12141
方針	-12142
普及	-12143
来源	-12144
模块	-12145
模拟	-12146
每次	-12147
测试	-12148
準を	-12149
生成	-12150
申请	-12151
白露	-12152
目标	-12153
相关	-12154
确定	-12155
禁用	-12156
秦王	-12157
移除	-12158
等待	-12159
経済	-12160
芒种	-12161
视图	-12162
运算	-12163
运行	-12164
预约	-12165
高亮	-12166
농산	-12167
오류	-12168
"、?	-12169
$0,	-12170
%.4	-12171
'='	-12172
(!(	-12173
(''	-12174
('<	-12175
()"	-12176
(**	-12177
(21	-12178
(5.	-12179
(6)	-12180
(60	-12181
(65	-12182
)".	-12183
)][	-12184
+)?	-12185
-2,	-12186
-3.	-12187
-4,	-12188
.*"	-12189
.*?	-12190
.0/	-12191
//\	-12192
/0.	-12193
/04	-12194
/09	-12195
/2,	-12196
/>"	-12197
0.1	-12198
026	-12199
03+	-12200
05/	-12201
06"	-12202
067	-12203
06;	-12204
086	-12205
09.	-12206
095	-12207
1']	-12208
10\	-12209
122	-12210
13)	-12211
13:	-12212
141	-12213
157	-12214
16)	-12215
160	-12216
162	-12217
16_	-12218
18)	-12219
183	-12220
185	-12221
188	-12222
198	-12223
19:	-12224
1;\	-12225
2.\	-12226
206	-12227
22-	-12228
22.	-12229
238	-12230
26;	-12231
287	-12232
294	-12233
2],	-12234
30)	-12235
309	-12236
30:	-12237
31.	-12238
316	-12239
324	-12240
36,	-12241
38,	-12242
382	-12243
39'	-12244
39)	-12245
39,	-12246
4("	-12247
407	-12248
40}	-12249
43,	-12250
449	-12251
45,	-12252
457	-12253
46.	-12254
466	-12255
46;	-12256
486	-12257
489	-12258
495	-12259
49:	-12260
5.1	-12261
50;	-12262
53(	-12263
54,	-12264
54;	-12265
57,	-12266
575	-12267
58)	-12268
596	-12269
6.0	-12270
626	-12271
649	-12272
6_,	-12273
708	-12274
73,	-12275
738	-12276
750	-12277
753	-12278
763	-12279
779	-12280
785	-12281
788	-12282
8.0	-12283
806	-12284
819	-12285
828	-12286
85;	-12287
86,	-12288
883	-12289
8])	-12290
8];	-12291
9.0	-12292
910	-12293
92;	-12294
94.	-12295
965	-12296
991	-12297
992	-12298
998	-12299
9];	-12300
:27	-12301
<",	-12302
=".	-12303
=";	-12304
=''	-12305
=20	-12306
=4,	-12307
==1	-12308
=['	-12309
={4	-12310
>")	-12311
>.*	-12312
>{}	-12313
?>\	-12314
ABI	-12315
ACD	-12316
APO	-12317
ASu	-12318
AWL	-12319
AZU	-12320
AuI	-12321
AuS	-12322
BAC	-12323
BBB	-12324
BBD	-12325
BBL	-12326
BCD	-12327
BFS	-12328
BIO	-12329
BIS	-12330
BMC	-12331
CCh	-12332
CPI	-12333
CPN	-12334
DBA	-12335
DBW	-12336
DEB	-12337
DFF	-12338
DIN	-12339
DKG	-12340
DOE	-12341
DOu	-12342
DSC	-12343
ELB	-12344
ESA	-12345
ESI	-12346
EWE	-12347
FAQ	-12348
FKI	-12349
FND	-12350
FOC	-12351
FSU	-12352
FXC	-12353
GGE	-12354
GLL	-12355
HLY	-12356
HOP	-12357
HUE	-12358
HYP	-12359
IAC	-12360
ICu	-12361
IDG	-12362
IFF	-12363
IIN	-12364
IMC	-12365
IOU	-12366
IPF	-12367
ISu	-12368
JCC	-12369
JEL	-12370
KMS	-12371
KPI	-12372
LAX	-12373
LCC	-12374
LEI	-12375
MDM	-12376
MEL	-12377
MGM	-12378
MIB	-12379
MIO	-12380
NAN	-12381
NDC	-12382
NIK	-12383
NLL	-12384
NOA	-12385
NOO	-12386
Nhậ	-12387
OCE	-12388
OFS	-12389
OIS	-12390
OLU	-12391
OMB	-12392
PCF	-12393
PCP	-12394
PKM	-12395
PPY	-12396
QFH	-12397
QUD	-12398
SDC	-12399
SIM	-12400
SPX	-12401
SQU	-12402
SSD	-12403
SWA	-12404
SWC	-12405
UFF	-12406
UGH	-12407
UII	-12408
USP	-12409
WEN	-12410
WFN	-12411
WFS	-12412
WIG	-12413
XAA	-12414
XAC	-12415
XSL	-12416
YML	-12417
ZEB	-12418
ZKH	-12419
ZOL	-12420
ZYX	-12421
[%,	-12422
[(1	-12423
[1,	-12424
[15	-12425
[4,	-12426
\"]	-12427
\24	-12428
\25	-12429
\\_	-12430
\\|	-12431
\\}	-12432
]])	-12433
]]]	-12434
^',	-12435
^-2	-12436
^2+	-12437
_//	-12438
_03	-12439
_2(	-12440
_2:	-12441
_3(	-12442
_3;	-12443
_46	-12444
_5(	-12445
_50	-12446
_5;	-12447
_85	-12448
_8_	-12449
hOO	-12450
quu	-12451
wBQ	-12452
wOw	-12453
{4}	-12454
{}"	-12455
}/{	-12456
▁	-12457
.	-12458
(	-12459
)	-12460
;	-12461
u	-12462
,	-12463
"	-12464
=	-12465
{	-12466
}	-12467
S	-12468
h	-12469
I	-12470
E	-12471
A	-12472
_	-12473
C	-12474
P	-12475
w	-12476
D	-12477
N	-12478
M	-12479
O	-12480
0	-12481
L	-12482
B	-12483
1	-12484
F	-12485
>	-12486
<	-12487
+	-12488
U	-12489
H	-12490
2	-12491
G	-12492
W	-12493
:	-12494
-	-12495
[	-12496
]	-12497
!	-12498
K	-12499
3	-12500
J	-12501
/	-12502
\	-12503
&	-12504
Y	-12505
4	-12506
5	-12507
X	-12508
'	-12509
7	-12510
|	-12511
q	-12512
8	-12513
6	-12514
Q	-12515
*	-12516
9	-12517
?	-12518
Z	-12519
%	-12520
#	-12521
$	-12522
@	-12523
^	-12524
~	-12525
`	-12526
失	-12527
败	-12528
に	-12529
的	-12530
数	-12531
た	-12532
の	-12533
е	-12534
不	-12535
用	-12536
и	-12537
о	-12538
为	-12539
行	-12540
务	-12541
。	-12542
成	-12543
入	-12544
时	-12545
っ	-12546
ó	-12547
а	-12548
信	-12549
除	-12550
常	-12551
、	-12552
る	-12553
异	-12554
功	-12555
в	-12556
し	-12557
息	-12558
户	-12559
新	-12560
请	-12561
т	-12562
р	-12563
删	-12564
を	-12565
加	-12566
在	-12567
京	-12568
東	-12569
错	-12570
都	-12571
取	-12572
í	-12573
单	-12574
文	-12575
置	-12576
と	-12577
存	-12578
н	-12579
は	-12580
据	-12581
な	-12582
出	-12583
查	-12584
件	-12585
分	-12586
类	-12587
设	-12588
も	-12589
录	-12590
间	-12591
号	-12592
名	-12593
い	-12594
す	-12595
财	-12596
已	-12597
程	-12598
к	-12599
能	-12600
前	-12601
开	-12602
空	-12603
て	-12604
中	-12605
é	-12606
═	-12607
修	-12608
接	-12609
未	-12610
参	-12611
当	-12612
ñ	-12613
ú	-12614
收	-12615
误	-12616
配	-12617
д	-12618
是	-12619
法	-12620
á	-12621
л	-12622
更	-12623
有	-12624
定	-12625
获	-12626
с	-12627
量	-12628
で	-12629
回	-12630
大	-12631
改	-12632
无	-12633
点	-12634
线	-12635
码	-12636
结	-12637
内	-12638
发	-12639
始	-12640
м	-12641
が	-12642
れ	-12643
值	-12644
到	-12645
方	-12646
登	-12647
п	-12648
一	-12649
增	-12650
批	-12651
у	-12652
动	-12653
启	-12654
容	-12655
果	-12656
系	-12657
重	-12658
体	-12659
支	-12660
正	-12661
认	-12662
询	-12663
ま	-12664
或	-12665
提	-12666
服	-12667
添	-12668
こ	-12669
ー	-12670
下	-12671
了	-12672
返	-12673
║	-12674
人	-12675
输	-12676
上	-12677
客	-12678
小	-12679
か	-12680
字	-12681
实	-12682
庫	-12683
调	-12684
з	-12685
я	-12686
地	-12687
报	-12688
本	-12689
状	-12690
理	-12691
目	-12692
块	-12693
态	-12694
日	-12695
次	-12696
ы	-12697
交	-12698
今	-12699
付	-12700
任	-12701
天	-12702
标	-12703
页	-12704
П	-12705
ン	-12706
事	-12707
匹	-12708
合	-12709
否	-12710
复	-12711
あ	-12712
后	-12713
密	-12714
年	-12715
度	-12716
消	-12717
统	-12718
菜	-12719
蓝	-12720
表	-12721
证	-12722
超	-12723
连	-12724
ら	-12725
例	-12726
器	-12727
图	-12728
属	-12729
找	-12730
断	-12731
模	-12732
注	-12733
牙	-12734
确	-12735
者	-12736
载	-12737
ã	-12738
个	-12739
使	-12740
列	-12741
口	-12742
导	-12743
式	-12744
期	-12745
没	-12746
生	-12747
自	-12748
被	-12749
账	-12750
送	-12751
作	-12752
保	-12753
应	-12754
性	-12755
所	-12756
称	-12757
立	-12758
选	-12759
à	-12760
き	-12761
く	-12762
停	-12763
关	-12764
写	-12765
可	-12766
最	-12767
示	-12768
端	-12769
等	-12770
级	-12771
组	-12772
该	-12773
进	-12774
道	-12775
部	-12776
よ	-12777
会	-12778
传	-12779
典	-12780
型	-12781
子	-12782
月	-12783
知	-12784
私	-12785
第	-12786
默	-12787
Ç	-12788
б	-12789
ậ	-12790
さ	-12791
り	-12792
击	-12793
商	-12794
场	-12795
对	-12796
持	-12797
操	-12798
片	-12799
索	-12800
編	-12801
计	-12802
记	-12803
面	-12804
项	-12805
đ	-12806
й	-12807
ず	-12808
ス	-12809
你	-12810
公	-12811
制	-12812
化	-12813
址	-12814
我	-12815
敵	-12816
暂	-12817
现	-12818
符	-12819
Ã	-12820
ạ	-12821
う	-12822
そ	-12823
だ	-12824
以	-12825
位	-12826
嗨	-12827
备	-12828
工	-12829
建	-12830
执	-12831
择	-12832
检	-12833
段	-12834
渠	-12835
病	-12836
维	-12837
编	-12838
艦	-12839
贼	-12840
路	-12841
转	-12842
集	-12843
高	-12844
ь	-12845
め	-12846
义	-12847
份	-12848
初	-12849
区	-12850
古	-12851
处	-12852
完	-12853
寒	-12854
岩	-12855
径	-12856
意	-12857
波	-12858
白	-12859
经	-12860
解	-12861
警	-12862
话	-12863
軍	-12864
车	-12865
通	-12866
问	-12867
ç	-12868
ш	-12869
ア	-12870
マ	-12871
ラ	-12872
レ	-12873
与	-12874
受	-12875
必	-12876
换	-12877
撃	-12878
机	-12879
条	-12880
来	-12881
款	-12882
联	-12883
至	-12884
身	-12885
限	-12886
에	-12887
В	-12888
С	-12889
ん	-12890
ジ	-12891
価	-12892
値	-12893
刷	-12894
包	-12895
布	-12896
引	-12897
情	-12898
手	-12899
描	-12900
搜	-12901
权	-12902
束	-12903
板	-12904
此	-12905
版	-12906
电	-12907
种	-12908
节	-12909
订	-12910
过	-12911
降	-12912
预	-12913
题	-12914
ư	-12915
ẩ	-12916
ゾ	-12917
于	-12918
从	-12919
别	-12920
句	-12921
员	-12922
局	-12923
戦	-12924
按	-12925
插	-12926
攻	-12927
析	-12928
格	-12929
画	-12930
移	-12931
窗	-12932
色	-12933
要	-12934
读	-12935
需	-12936
러	-12937
°	-12938
ê	-12939
ا	-12940
د	-12941
ả	-12942
【	-12943
】	-12944
け	-12945
つ	-12946
べ	-12947
ッ	-12948
ド	-12949
メ	-12950
三	-12951
创	-12952
即	-12953
同	-12954
和	-12955
対	-12956
市	-12957
後	-12958
得	-12959
態	-12960
打	-12961
政	-12962
效	-12963
時	-12964
水	-12965
求	-12966
特	-12967
秋	-12968
签	-12969
算	-12970
装	-12971
试	-12972
运	-12973
钥	-12974
钮	-12975
门	-12976
闭	-12977
验	-12978
글	-12979
력	-12980
제	-12981
Á	-12982
É	-12983
ä	-12984
ö	-12985
г	-12986
ầ	-12987
“	-12988
”	-12989
お	-12990
わ	-12991
イ	-12992
ク	-12993
ダ	-12994
主	-12995
二	-12996
供	-12997
元	-12998
印	-12999
及	-13000
只	-13001
品	-13002
张	-13003
心	-13004
您	-13005
扫	-13006
指	-13007
暑	-13008
源	-13009
準	-13010
王	-13011
申	-13012
相	-13013
管	-13014
箱	-13015
网	-13016
考	-13017
角	-13018
触	-13019
访	-13020
购	-13021
邮	-13022
雪	-13023
非	-13024
생	-13025
정	-13026
ô	-13027
ü	-13028
Đ	-13029
ı	-13030
М	-13031
О	-13032
ه	-13033
ی	-13034
「	-13035
」	-13036
ど	-13037
书	-13038
买	-13039
产	-13040
仕	-13041
佣	-13042
允	-13043
全	-13044
切	-13045
刊	-13046
历	-13047
压	-13048
厳	-13049
去	-13050
反	-13051
变	-13052
国	-13053
報	-13054
填	-13055
家	-13056
尊	-13057
序	-13058
形	-13059
愛	-13060
播	-13061
放	-13062
教	-13063
整	-13064
明	-13065
春	-13066
显	-13067
柄	-13068
止	-13069
活	-13070
発	-13071
素	-13072
絶	-13073
终	-13074
续	-13075
聊	-13076
般	-13077
议	-13078
许	-13079
这	-13080
露	-13081
¥	-13082
ý	-13083
З	-13084
Н	-13085
ч	-13086
щ	-13087
ب	-13088
ش	-13089
و	-13090
ề	-13091
‚	-13092
→	-13093
コ	-13094
テ	-13095
ト	-13096
何	-13097
假	-13098
先	-13099
共	-13100
册	-13101
冬	-13102
力	-13103
勤	-13104
原	-13105
吃	-13106
圆	-13107
夏	-13108
多	-13109
如	-13110
山	-13111
师	-13112
库	-13113
待	-13114
总	-13115
敬	-13116
普	-13117
書	-13118
機	-13119
步	-13120
每	-13121
矩	-13122
禁	-13123
秒	-13124
稍	-13125
経	-13126
约	-13127
络	-13128
详	-13129
象	-13130
退	-13131
钟	-13132
际	-13133
雷	-13134
발	-13135
삭	-13136
성	-13137
요	-13138
을	-13139
일	-13140
출	-13141
Ó	-13142
ø	-13143
ă	-13144
ć	-13145
ł	-13146
ś	-13147
И	-13148
ж	-13149
ב	-13150
י	-13151
م	-13152
ن	-13153
ớ	-13154
ụ	-13155
ủ	-13156
ử	-13157
—	-13158
€	-13159
♖	-13160
♗	-13161
♘	-13162
♜	-13163
♝	-13164
♞	-13165
え	-13166
ち	-13167
ぬ	-13168
ば	-13169
み	-13170
む	-13171
や	-13172
ろ	-13173
エ	-13174
タ	-13175
パ	-13176
ム	-13177
ル	-13178
且	-13179
业	-13180
举	-13181
互	-13182
亚	-13183
亮	-13184
代	-13185
众	-13186
医	-13187
単	-13188
却	-13189
台	-13190
向	-13191
含	-13192
外	-13193
女	-13194
嬴	-13195
宝	-13196
実	-13197
影	-13198
往	-13199
従	-13200
思	-13201
感	-13202
托	-13203
拟	-13204
排	-13205
昼	-13206
根	-13207
業	-13208
毕	-13209
流	-13210
测	-13211
清	-13212
済	-13213
激	-13214
照	-13215
爱	-13216
班	-13217
男	-13218
療	-13219
秦	-13220
税	-13221
籍	-13222
继	-13223
脚	-13224
臨	-13225
芒	-13226
补	-13227
見	-13228
视	-13229
誠	-13230
請	-13231
评	-13232
费	-13233
込	-13234
速	-13235
達	-13236
選	-13237
針	-13238
链	-13239
锅	-13240
隊	-13241
雨	-13242
须	-13243
饭	-13244
驚	-13245
농	-13246
는	-13247
다	-13248
류	-13249
리	-13250
번	-13251
산	-13252
서	-13253
오	-13254
주	-13255
품	-13256
️	-13257
£	-13258
§	-13259
Í	-13260
Ö	-13261
Ø	-13262
è	-13263
ą	-13264
č	-13265
μ	-13266
σ	-13267
Д	-13268
х	-13269
ح	-13270
ر	-13271
ص	-13272
ل	-13273
ở	-13274
ợ	-13275
–	-13276
‘	-13277
’	-13278
》	-13279
せ	-13280
ィ	-13281
セ	-13282
フ	-13283
プ	-13284
ベ	-13285
企	-13286
低	-13287
備	-13288
其	-13289
剪	-13290
卡	-13291
命	-13292
响	-13293
四	-13294
土	-13295
域	-13296
場	-13297
夜	-13298
季	-13299
少	-13300
层	-13301
帖	-13302
恢	-13303
旧	-13304
易	-13305
李	-13306
架	-13307
样	-13308
標	-13309
権	-13310
残	-13311
永	-13312
滑	-13313
满	-13314
灣	-13315
热	-13316
物	-13317
环	-13318
甲	-13319
略	-13320
百	-13321
直	-13322
看	-13323
短	-13324
稿	-13325
章	-13326
終	-13327
纳	-13328
缩	-13329
而	-13330
藏	-13331
裁	-13332
规	-13333
言	-13334
計	-13335
読	-13336
论	-13337
豆	-13338
赋	-13339
走	-13340
远	-13341
述	-13342
释	-13343
金	-13344
関	-13345
霜	-13346
音	-13347
额	-13348
首	-13349
가	-13350
고	-13351
과	-13352
내	-13353
세	-13354
스	-13355
입	-13356
잉	-13357
자	-13358
째	-13359
파	-13360
항	-13361
해	-13362
¢	-13363
·	-13364
¿	-13365
â	-13366
ò	-13367
Ś	-13368
ż	-13369
ƒ	-13370
̳	-13371
Г	-13372
К	-13373
ф	-13374
э	-13375
ю	-13376
ד	-13377
ה	-13378
ע	-13379
ק	-13380
ר	-13381
ת	-13382
گ	-13383
ế	-13384
ễ	-13385
ồ	-13386
ộ	-13387
•	-13388
╔	-13389
╗	-13390
╚	-13391
╝	-13392
♔	-13393
♕	-13394
♚	-13395
♛	-13396
✔	-13397
々	-13398
〈	-13399
〉	-13400
《	-13401
『	-13402
』	-13403
〔	-13404
〕	-13405
〖	-13406
〗	-13407
ひ	-13408
へ	-13409
ほ	-13410
ァ	-13411
ェ	-13412
カ	-13413
キ	-13414
シ	-13415
チ	-13416
デ	-13417
ニ	-13418
ポ	-13419
ミ	-13420
ュ	-13421
万	-13422
之	-13423
乏	-13424
五	-13425
令	-13426
价	-13427
伯	-13428
便	-13429
候	-13430
储	-13431
再	-13432
农	-13433
冲	-13434
准	-13435
划	-13436
刚	-13437
励	-13438
動	-13439
北	-13440
千	-13441
卓	-13442
占	-13443
吗	-13444
哦	-13445
哪	-13446
善	-13447
囲	-13448
坐	-13449
坛	-13450
基	-13451
夹	-13452
好	-13453
委	-13454
姬	-13455
威	-13456
学	-13457
安	-13458
宜	-13459
审	-13460
射	-13461
就	-13462
屋	-13463
屏	-13464
希	-13465
带	-13466
幀	-13467
干	-13468
平	-13469
广	-13470
強	-13471
弹	-13472
归	-13473
循	-13474
志	-13475
恥	-13476
惊	-13477
想	-13478
慰	-13479
懇	-13480
截	-13481
房	-13482
才	-13483
技	-13484
拉	-13485
拒	-13486
拦	-13487
拿	-13488
捕	-13489
授	-13490
控	-13491
推	-13492
揮	-13493
敗	-13494
斐	-13495
既	-13496
昭	-13497
景	-13498
望	-13499
末	-13500
校	-13501
核	-13502
框	-13503
歇	-13504
歓	-13505
气	-13506
浏	-13507
温	-13508
港	-13509
演	-13510
潜	-13511
澳	-13512
火	-13513
烟	-13514
煩	-13515
爆	-13516
牌	-13517
玩	-13518
現	-13519
番	-13520
異	-13521
疑	-13522
痛	-13523
盛	-13524
睡	-13525
砲	-13526
確	-13527
社	-13528
福	-13529
種	-13530
穂	-13531
突	-13532
策	-13533
範	-13534
粛	-13535
美	-13536
群	-13537
翻	-13538
耗	-13539
聚	-13540
背	-13541
致	-13542
航	-13543
花	-13544
苦	-13545
范	-13546
草	-13547
营	-13548
著	-13549
蔽	-13550
虔	-13551
蛰	-13552
西	-13553
規	-13554
览	-13555
訂	-13556
訳	-13557
謙	-13558
護	-13559
讃	-13560
识	-13561
语	-13562
课	-13563
谷	-13564
豊	-13565
責	-13566
貴	-13567
費	-13568
質	-13569
越	-13570
跨	-13571
跳	-13572
蹤	-13573
輸	-13574
辉	-13575
辑	-13576
迎	-13577
还	-13578
适	-13579
途	-13580
遊	-13581
遜	-13582
遠	-13583
適	-13584
酬	-13585
醒	-13586
里	-13587
錯	-13588
钉	-13589
锁	-13590
開	-13591
阅	-13592
队	-13593
隔	-13594
際	-13595
響	-13596
频	-13597
风	-13598
飞	-13599
養	-13600
香	-13601
鼠	-13602
계	-13603
군	-13604
기	-13605
니	-13606
드	-13607
들	-13608
디	-13609
렉	-13610
로	-13611
료	-13612
를	-13613
만	-13614
목	-13615
보	-13616
수	-13617
습	-13618
실	-13619
알	-13620
어	-13621
완	-13622
용	-13623
의	-13624
이	-13625
작	-13626
전	-13627
줄	-13628
즘	-13629
지	-13630
체	-13631
케	-13632
토	-13633
특	-13634
판	-13635
패	-13636
평	-13637
하	-13638
했	-13639
😜	-13640
¡	-13641
©	-13642
±	-13643
Ä	-13644
Æ	-13645
Ê	-13646
Õ	-13647
Ü	-13648
ß	-13649
å	-13650
æ	-13651
ï	-13652
ð	-13653
ù	-13654
ę	-13655
ğ	-13656
Ł	-13657
ń	-13658
Œ	-13659
œ	-13660
ř	-13661
ş	-13662
Š	-13663
š	-13664
Ÿ	-13665
ź	-13666
Ż	-13667
Ž	-13668
ž	-13669
Ə	-13670
ơ	-13671
ə	-13672
ˆ	-13673
́	-13674
̃	-13675
Ѐ	-13676
А	-13677
Б	-13678
Ж	-13679
Л	-13680
Р	-13681
Т	-13682
У	-13683
Ф	-13684
Х	-13685
Ч	-13686
Ш	-13687
ц	-13688
ё	-13689
آ	-13690
ج	-13691
خ	-13692
ظ	-13693
ع	-13694
پ	-13695
چ	-13696
ژ	-13697
ک	-13698
ẞ	-13699
ặ	-13700
ể	-13701
ệ	-13702
ị	-13703
ứ	-13704
ự	-13705
„	-13706
†	-13707
‡	-13708
‰	-13709
‹	-13710
›	-13711
※	-13712
₡	-13713
₲	-13714
₺	-13715
₿	-13716
↻	-13717
└	-13718
◀	-13719
♀	-13720
♂	-13721
✗	-13722
✘	-13723
❄	-13724
ズ	-13725
ナ	-13726
ネ	-13727
バ	-13728
ヒ	-13729
ボ	-13730
モ	-13731
ャ	-13732
ョ	-13733
リ	-13734
ロ	-13735
东	-13736
丢	-13737
丽	-13738
也	-13739
乡	-13740
些	-13741
享	-13742
仅	-13743
他	-13744
们	-13745
休	-13746
伝	-13747
余	-13748
個	-13749
健	-13750
像	-13751
優	-13752
充	-13753
光	-13754
免	-13755
六	-13756
具	-13757
养	-13758
军	-13759
况	-13760
冷	-13761
冻	-13762
刘	-13763
则	-13764
別	-13765
刻	-13766
削	-13767
剩	-13768
割	-13769
办	-13770
助	-13771
努	-13772
午	-13773
半	-13774
华	-13775
南	-13776
厕	-13777
县	-13778
叫	-13779
史	-13780
右	-13781
叶	-13782
听	-13783
告	-13784
周	-13785
呼	-13786
售	-13787
啊	-13788
因	-13789
围	-13790
均	-13791
城	-13792
培	-13793
境	-13794
声	-13795
够	-13796
太	-13797
头	-13798
姓	-13799
娘	-13800
孙	-13801
寅	-13802
寝	-13803
寸	-13804
将	-13805
導	-13806
尾	-13807
履	-13808
岭	-13809
峰	-13810
川	-13811
差	-13812
己	-13813
币	-13814
幕	-13815
并	-13816
店	-13817
康	-13818
延	-13819
弾	-13820
御	-13821
德	-13822
忘	-13823
忽	-13824
急	-13825
戌	-13826
承	-13827
投	-13828
折	-13829
护	-13830
括	-13831
捉	-13832
援	-13833
摄	-13834
擎	-13835
故	-13836
早	-13837
昌	-13838
映	-13839
昵	-13840
术	-13841
松	-13842
某	-13843
树	-13844
桁	-13845
椒	-13846
歌	-13847
比	-13848
毫	-13849
汇	-13850
池	-13851
泛	-13852
泽	-13853
潭	-13854
為	-13855
熊	-13856
爬	-13857
父	-13858
率	-13859
珊	-13860
珠	-13861
璩	-13862
监	-13863
盒	-13864
真	-13865
磁	-13866
租	-13867
积	-13868
笑	-13869
粮	-13870
粽	-13871
紧	-13872
結	-13873
緯	-13874
繼	-13875
續	-13876
红	-13877
纬	-13878
细	-13879
绘	-13880
给	-13881
绿	-13882
缀	-13883
缓	-13884
缴	-13885
罗	-13886
罪	-13887
翅	-13888
習	-13889
翔	-13890
老	-13891
脑	-13892
膀	-13893
良	-13894
艾	-13895
荐	-13896
虫	-13897
補	-13898
覧	-13899
见	-13900
觉	-13901
訊	-13902
設	-13903
診	-13904
誤	-13905
让	-13906
说	-13907
负	-13908
责	-13909
货	-13910
赁	-13911
起	-13912
足	-13913
載	-13914
轿	-13915
辆	-13916
辖	-13917
辣	-13918
辰	-13919
辽	-13920
迟	-13921
逮	-13922
運	-13923
遍	-13924
避	-13925
邀	-13926
那	-13927
録	-13928
针	-13929
钱	-13930
铺	-13931
销	-13932
键	-13933
闹	-13934
防	-13935
附	-13936
陆	-13937
陣	-13938
随	-13939
隐	-13940
頃	-13941
顯	-13942
颗	-13943
马	-13944
驳	-13945
驻	-13946
鸟	-13947
鸡	-13948
鸵	-13949
鹅	-13950
鹰	-13951
값	-13952
게	-13953
결	-13954
공	-13955
까	-13956
닫	-13957
댓	-13958
도	-13959
래	-13960
록	-13961
말	-13962
매	-13963
문	-13964
받	-13965
비	-13966
선	-13967
시	-13968
쓰	-13969
업	-13970
없	-13971
연	-13972
원	-13973
유	-13974
으	-13975
음	-13976
장	-13977
저	-13978
조	-13979
족	-13980
중	-13981
차	-13982
최	-13983
추	-13984
클	-13985
택	-13986
형	-13987
호	-13988
회	-13989
︎	-13990
～	-13991
🍺	-13992
🎵	-13993
📃	-13994
🥒	-13995
🧀	-13996
