<unk>	0
<s>	0
</s>	0
String	0
java	0
org	0
assertEquals	0
com	0
springframework	0
util	0
android	0
IOException	0
ArrayList	0
List	0
Exception	0
Object	0
Integer	0
toString	0
System	0
result	0
value	0
annotation	0
context	0
equals	0
apache	0
append	0
javax	0
get	0
length	0
println	0
Assert	0
google	0
add	0
assertTrue	0
assertThat	0
junit	0
model	0
IllegalArgumentException	0
name	0
getName	0
size	0
request	0
printStackTrace	0
response	0
protobuf	0
out	0
builder	0
lwjgl3ApplicationConfiguration0	0
put	0
common	0
assertNotNull	0
Builder	0
data	0
findViewById	0
client	0
i	0
getString	0
getInstance	0
core	0
HashMap	0
message	0
StringBuilder	0
Map	0
io	0
index	0
Throwable	0
getValue	0
isEmpty	0
swing	0
lang	0
format	0
event	0
service	0
content	0
Collections	0
entity	0
id	0
RuntimeException	0
getMessage	0
savedInstanceState	0
type	0
Boolean	0
File	0
minecraft	0
config	0
persistence	0
annotations	0
contains	0
Collection	0
setText	0
api	0
build	0
net	0
Context	0
logger	0
view	0
GroupLayout	0
e	0
assertFalse	0
Long	0
InterruptedException	0
Logger	0
position	0
assertNull	0
LoggerFactory	0
getClass	0
View	0
stream	0
values	0
HttpServletRequest	0
concurrent	0
getId	0
valueOf	0
SQLException	0
UnsupportedOperationException	0
Arrays	0
Optional	0
input	0
JSONObject	0
Response	0
StringUtils	0
args	0
key	0
description	0
Lwjgl3ApplicationConfiguration	0
Criteria	0
info	0
InputStream	0
list	0
widget	0
Class	0
currentTimeMillis	0
thenReturn	0
create	0
IllegalStateException	0
BigDecimal	0
Double	0
error	0
NullPointerException	0
close	0
hashCode	0
equalsIgnoreCase	0
Serializable	0
TextView	0
factory	0
params	0
start	0
properties	0
configuration	0
setOnClickListener	0
query	0
exception	0
file	0
HttpServletResponse	0
Intent	0
other	0
substring	0
target	0
support	0
serialVersionUID	0
getLogger	0
repository	0
deploymentEntityManager0	0
debug	0
github	0
parent	0
player	0
security	0
extensionRegistry	0
log	0
node	0
item	0
instance	0
Date	0
InvalidProtocolBufferException	0
status	0
ResponseEntity	0
session	0
map	0
connection	0
user	0
server	0
listener	0
source	0
commons	0
servlet	0
addComponent	0
iterator	0
text	0
getProperty	0
state	0
path	0
Constants	0
Color	0
domain	0
Objects	0
element	0
string	0
elasticsearch	0
OnClickListener	0
count	0
layout	0
GeneratedMessageV3	0
SubLObject	0
next	0
eclipse	0
Configuration	0
execute	0
buffer	0
BufferedReader	0
Collectors	0
badlogic	0
Assertions	0
remove	0
getText	0
Bundle	0
write	0
setVisibility	0
addCriterion	0
containsKey	0
getType	0
entry	0
test	0
controller	0
field	0
SimpleDateFormat	0
collect	0
filter	0
Set	0
internal	0
isEqualTo	0
Math	0
lombok	0
HashSet	0
PREFERRED_SIZE	0
fasterxml	0
Iterator	0
utils	0
graphics	0
Properties	0
parameters	0
ByteArrayOutputStream	0
object	0
intent	0
addActionListener	0
height	0
GridBagConstraints	0
Connection	0
options	0
http	0
expected	0
method	0
address	0
ActionEvent	0
LayoutInflater	0
handler	0
Calendar	0
command	0
FuncionesSwing	0
stereotype	0
parseInt	0
example	0
container	0
hikariConfig1	0
asList	0
AppCompatActivity	0
jupiter	0
output	0
offset	0
bind	0
location	0
Mockito	0
obj	0
web	0
set	0
resource	0
R	0
FileNotFoundException	0
component	0
Thread	0
LinkedList	0
getContext	0
jackson	0
ItemStack	0
createParallelGroup	0
services	0
password	0
project	0
onCreate	0
username	0
world	0
parser	0
width	0
hikariConfig0	0
ByteBuffer	0
awt	0
runtime	0
slf4j	0
HttpConnection	0
framework	0
when	0
engine	0
writer	0
main	0
startsWith	0
action	0
ByteString	0
impl	0
logging	0
ExtensionRegistryLite	0
activity	0
mockito	0
protocol	0
getApplicationContext	0
FileInputStream	0
User	0
json	0
Log	0
drawable	0
bitField0_	0
InputStreamReader	0
intellij	0
function	0
LocalDateTime	0
sql	0
androidx	0
reader	0
Constantes	0
Element	0
getKey	0
Node	0
FileOutputStream	0
update	0
beans	0
StringBuffer	0
url	0
hasNext	0
getDefaultInstance	0
requireNonNull	0
getResources	0
sb	0
Test	0
app	0
table	0
Runnable	0
setName	0
Autowired	0
channel	0
ViewGroup	0
Component	0
current	0
newInstance	0
verify	0
TimeUnit	0
clear	0
fileName	0
T	0
database	0
LOGGER	0
callback	0
title	0
javafx	0
RecyclerView	0
time	0
Message	0
getSimpleName	0
setVisible	0
transaction	0
newBuilder	0
BigInteger	0
Button	0
MAX_VALUE	0
ParseException	0
property	0
version	0
ImmutableList	0
PreparedStatement	0
HttpStatus	0
line	0
base	0
toLowerCase	0
setValue	0
getAbsolutePath	0
JLabel	0
ImageView	0
ActionListener	0
parse	0
application	0
msg	0
replace	0
nestedInnerQueryParseSupport1	0
metadata	0
array	0
addAll	0
getDescription	0
CompletableFuture	0
createSequentialGroup	0
provider	0
token	0
Pattern	0
models	0
delete	0
ObjectMapper	0
getActivity	0
userId	0
startActivity	0
root	0
ClassNotFoundException	0
Type	0
validation	0
Function	0
setEnabled	0
ByteArrayInputStream	0
actionPerformed	0
results	0
jetbrains	0
helper	0
attributes	0
assertArrayEquals	0
unknownFields	0
x	0
setProperty	0
expression	0
split	0
print	0
Entry	0
color	0
ctx	0
getBytes	0
UnsupportedEncodingException	0
code	0
Document	0
lwjgl3WindowConfiguration0	0
Dimension	0
document	0
JOptionPane	0
settings	0
adapter	0
getAttribute	0
parseFrom	0
simpleIndexQueryParserTests0	0
forEach	0
Toast	0
mapper	0
exceptions	0
compareTo	0
setContentView	0
matcher	0
right	0
record	0
of	0
getParameter	0
JsonObject	0
fail	0
Path	0
register	0
manager	0
IllegalAccessException	0
getHeight	0
DialogInterface	0
ServletException	0
indexOf	0
HikariConfig	0
hash	0
JButton	0
cursor	0
LocalDate	0
onChanged	0
statement	0
res	0
plugin	0
onClick	0
group	0
StandardCharsets	0
ex	0
first	0
setAttribute	0
backends	0
SharedPreferences	0
getStatus	0
Preconditions	0
LayoutParams	0
Activity	0
headers	0
holder	0
registry	0
column	0
INSTANCE	0
UUID	0
run	0
Scanner	0
nextInt	0
str	0
body	0
OutputStream	0
s	0
LinkedHashMap	0
response1	0
sendMessage	0
setTitle	0
hadoop	0
block	0
minecraftforge	0
);	-0
or	-1
at	-2
▁{	-3
▁}	-4
▁p	-5
▁=	-6
nt	-7
al	-8
()	-9
bl	-10
mp	-11
an	-12
ro	-13
ort	-14
ar	-15
th	-16
ubl	-17
mport	-18
ur	-19
▁n	-20
▁publ	-21
▁(	-22
ac	-23
▁r	-24
ul	-25
on	-26
▁f	-27
();	-28
tur	-29
("	-30
▁c	-31
am	-32
▁"	-33
turn	-34
ag	-35
▁th	-36
nd	-37
ct	-38
tr	-39
ol	-40
tat	-41
▁v	-42
nal	-43
ng	-44
ch	-45
la	-46
Co	-47
▁pr	-48
▁+	-49
lo	-50
ull	-51
vat	-52
▁vo	-53
ad	-54
▁b	-55
",	-56
).	-57
In	-58
▁null	-59
▁m	-60
to	-61
tor	-62
().	-63
▁d	-64
um	-65
Pro	-66
ack	-67
nc	-68
ck	-69
");	-70
ty	-71
Nam	-72
));	-73
Id	-74
od	-75
ot	-76
▁0	-77
());	-78
row	-79
up	-80
ut	-81
rv	-82
▁S	-83
Con	-84
qu	-85
and	-86
abl	-87
ata	-88
ta	-89
ra	-90
▁throw	-91
Val	-92
Data	-93
00	-94
ld	-95
ool	-96
▁tr	-97
▁==	-98
▁1	-99
Par	-100
pt	-101
rt	-102
ult	-103
cat	-104
Ch	-105
ow	-106
▁!	-107
▁A	-108
atch	-109
))	-110
ll	-111
Valu	-112
IN	-113
po	-114
ON	-115
▁!=	-116
▁a	-117
Stat	-118
▁cla	-119
(),	-120
op	-121
▁-	-122
Man	-123
cr	-124
all	-125
▁l	-126
[]	-127
orm	-128
act	-129
Mod	-130
ackag	-131
mpl	-132
▁C	-133
▁bool	-134
▁pro	-135
▁for	-136
Lo	-137
())	-138
Int	-139
▁P	-140
rat	-141
Ut	-142
Manag	-143
▁M	-144
ff	-145
yt	-146
ok	-147
Cont	-148
▁w	-149
ay	-150
un	-151
Cl	-152
pl	-153
▁E	-154
cla	-155
fo	-156
▁B	-157
";	-158
ub	-159
▁:	-160
but	-161
▁D	-162
ang	-163
▁packag	-164
ord	-165
ach	-166
cal	-167
It	-168
ES	-169
Pr	-170
Qu	-171
ou	-172
At	-173
▁fal	-174
▁&	-175
▁h	-176
Conf	-177
▁<	-178
ud	-179
ma	-180
ap	-181
),	-182
art	-183
tory	-184
rr	-185
▁t	-186
Param	-187
anc	-188
Info	-189
con	-190
ong	-191
Ev	-192
Ar	-193
Ad	-194
mm	-195
cl	-196
LE	-197
ME	-198
ry	-199
om	-200
St	-201
▁&&	-202
du	-203
ork	-204
AL	-205
Ind	-206
andl	-207
Prov	-208
av	-209
▁g	-210
ID	-211
ctor	-212
ob	-213
ard	-214
▁F	-215
▁_	-216
Ap	-217
gn	-218
▁0;	-219
SE	-220
Po	-221
▁tru	-222
▁ca	-223
rom	-224
ab	-225
gh	-226
mb	-227
Act	-228
Cod	-229
▁2	-230
port	-231
▁try	-232
Un	-233
cc	-234
ran	-235
pr	-236
unt	-237
Ent	-238
lay	-239
▁G	-240
▁I	-241
▁ch	-242
Handl	-243
▁to	-244
ock	-245
Fac	-246
Count	-247
ak	-248
Str	-249
▁catch	-250
ram	-251
lock	-252
ator	-253
fa	-254
pro	-255
Or	-256
ft	-257
Comm	-258
▁prot	-259
▁V	-260
Attr	-261
▁j	-262
En	-263
ov	-264
DE	-265
Not	-266
fault	-267
rror	-268
roup	-269
▁J	-270
(1	-271
olum	-272
our	-273
ION	-274
▁|	-275
By	-276
arch	-277
Sp	-278
Op	-279
ph	-280
old	-281
ght	-282
Group	-283
▁do	-284
▁long	-285
ary	-286
ml	-287
Form	-288
LO	-289
"));	-290
Up	-291
Bu	-292
load	-293
▁>	-294
uth	-295
rm	-296
CO	-297
▁(!	-298
++	-299
Error	-300
EN	-301
ont	-302
(0	-303
nu	-304
Factory	-305
>();	-306
tom	-307
lat	-308
tt	-309
For	-310
").	-311
lu	-312
nk	-313
form	-314
ly	-315
On	-316
Sh	-317
ray	-318
rnal	-319
umb	-320
Prop	-321
NA	-322
▁H	-323
ound	-324
low	-325
\"	-326
Comp	-327
mag	-328
thod	-329
tanc	-330
bo	-331
lt	-332
Wr	-333
2.	-334
▁*	-335
loat	-336
--	-337
ual	-338
IS	-339
val	-340
ory	-341
▁((	-342
Add	-343
fac	-344
olumn	-345
ca	-346
PE	-347
par	-348
Opt	-349
AC	-350
()).	-351
▁?	-352
ann	-353
rty	-354
own	-355
An	-356
Produ	-357
▁con	-358
work	-359
▁N	-360
Command	-361
1.	-362
Call	-363
Stor	-364
)).	-365
Array	-366
AN	-367
ourc	-368
dat	-369
▁'	-370
▁||	-371
Pan	-372
Cr	-373
▁br	-374
Column	-375
▁->	-376
gr	-377
Sourc	-378
Lay	-379
Impl	-380
Ur	-381
Out	-382
▁on	-383
And	-384
01	-385
ptor	-386
Ba	-387
cu	-388
Block	-389
NAME	-390
>>	-391
Contro	-392
Of	-393
▁L	-394
▁W	-395
((	-396
ha	-397
no	-398
IC	-399
und	-400
Cach	-401
OU	-402
▁0)	-403
Fram	-404
Ma	-405
From	-406
lp	-407
LA	-408
▁byt	-409
Statu	-410
▁3	-411
Al	-412
++)	-413
arg	-414
rc	-415
ho	-416
labl	-417
▁at	-418
mplat	-419
Pag	-420
Byt	-421
Pa	-422
raph	-423
Proc	-424
Bo	-425
UL	-426
];	-427
All	-428
ron	-429
back	-430
VE	-431
▁doubl	-432
MA	-433
tru	-434
▁});	-435
Acc	-436
ING	-437
Var	-438
rag	-439
nv	-440
ync	-441
Chang	-442
Ob	-443
DA	-444
▁not	-445
PA	-446
Updat	-447
▁/	-448
cord	-449
▁o	-450
ED	-451
__	-452
1,	-453
ao	-454
▁y	-455
Load	-456
"),	-457
ant	-458
Sub	-459
do	-460
ral	-461
bu	-462
▁U	-463
Numb	-464
No	-465
apt	-466
.0	-467
cur	-468
CH	-469
<>();	-470
loud	-471
top	-472
"))	-473
GE	-474
ttp	-475
cut	-476
FI	-477
Format	-478
Start	-479
yn	-480
ark	-481
Off	-482
App	-483
Ho	-484
null	-485
▁wh	-486
Null	-487
Local	-488
Locat	-489
raw	-490
byt	-491
▁var	-492
pac	-493
Ord	-494
▁ma	-495
..	-496
md	-497
Job	-498
for	-499
<?	-500
lob	-501
rator	-502
local	-503
tch	-504
db	-505
Product	-506
play	-507
Ed	-508
Sch	-509
olv	-510
End	-511
Imag	-512
EC	-513
▁par	-514
(2	-515
Cur	-516
()));	-517
▁po	-518
▁float	-519
▁u	-520
Adapt	-521
co	-522
ragm	-523
war	-524
mpty	-525
rfac	-526
mat	-527
▁Data	-528
▁In	-529
▁0,	-530
NO	-531
Ca	-532
Url	-533
nat	-534
Auth	-535
CON	-536
KE	-537
atur	-538
▁la	-539
Part	-540
nS	-541
AD	-542
▁ac	-543
zat	-544
cy	-545
▁4	-546
mo	-547
▁attr	-548
FA	-549
gat	-550
Lab	-551
Proj	-552
my	-553
Sc	-554
ncy	-555
▁k	-556
br	-557
Proto	-558
LOG	-559
▁+=	-560
0000	-561
Controll	-562
cutor	-563
Play	-564
Fu	-565
rnalFram	-566
va	-567
fl	-568
US	-569
tant	-570
rg	-571
Buff	-572
Match	-573
UN	-574
rS	-575
Appl	-576
ucc	-577
PO	-578
mot	-579
▁",	-580
Char	-581
EX	-582
ngl	-583
Chann	-584
▁param	-585
Conta	-586
Enabl	-587
uld	-588
Work	-589
.*	-590
//	-591
▁5	-592
▁ab	-593
tl	-594
▁1;	-595
YPE	-596
mod	-597
loy	-598
SI	-599
[0	-600
lan	-601
Ac	-602
tyl	-603
Hold	-604
af	-605
AB	-606
000	-607
ampl	-608
andom	-609
La	-610
Bar	-611
ndow	-612
ton	-613
▁z	-614
Arg	-615
gory	-616
▁an	-617
cond	-618
==	-619
AS	-620
qual	-621
▁};	-622
round	-623
long	-624
▁ta	-625
fal	-626
num	-627
ql	-628
COL	-629
Pool	-630
aw	-631
.*;	-632
nap	-633
Sup	-634
hot	-635
▁op	-636
")	-637
▁O	-638
▁Con	-639
Fa	-640
Dao	-641
uct	-642
VAL	-643
how	-644
MO	-645
mary	-646
pc	-647
notat	-648
FAUL	-649
2,	-650
>(	-651
Do	-652
Pack	-653
az	-654
gm	-655
IL	-656
dul	-657
tag	-658
▁al	-659
▁-1	-660
0,	-661
▁K	-662
ML	-663
▁my	-664
Curr	-665
vo	-666
vm	-667
Modul	-668
3.	-669
cloud	-670
▁val	-671
▁%	-672
hort	-673
col	-674
ava	-675
.");	-676
EL	-677
word	-678
oo	-679
gg	-680
Clu	-681
Ab	-682
Callback	-683
tal	-684
ESS	-685
uto	-686
pa	-687
Back	-688
▁un	-689
mory	-690
Http	-691
99	-692
fy	-693
mock	-694
Fragm	-695
UM	-696
HO	-697
SS	-698
KEY	-699
UE	-700
mov	-701
▁1,	-702
ctory	-703
▁cont	-704
ado	-705
Cat	-706
ngth	-707
tall	-708
dS	-709
duct	-710
Gr	-711
tS	-712
(0,	-713
Enum	-714
Control	-715
[0]	-716
tack	-717
▁vm	-718
Graph	-719
rtual	-720
flow	-721
part	-722
▁from	-723
▁1);	-724
IG	-725
tamp	-726
oot	-727
FO	-728
EA	-729
▁0);	-730
MP	-731
Ag	-732
()))	-733
Sw	-734
SON	-735
bar	-736
rn	-737
▁row	-738
Mat	-739
lobal	-740
ody	-741
gnm	-742
Port	-743
::	-744
AG	-745
pack	-746
Compl	-747
Packag	-748
Annotat	-749
▁X	-750
Num	-751
cul	-752
Storag	-753
fact	-754
▁__	-755
Body	-756
lac	-757
uc	-758
oll	-759
uff	-760
var	-761
▁Ba	-762
pag	-763
CA	-764
▁>=	-765
proc	-766
")).	-767
dd	-768
rol	-769
Conv	-770
▁or	-771
lab	-772
▁{}	-773
mt	-774
12	-775
tran	-776
auth	-777
**	-778
rId	-779
▁local	-780
ullabl	-781
▁Pr	-782
ZE	-783
="	-784
▁num	-785
Cap	-786
▁6	-787
Down	-788
prov	-789
CE	-790
3,	-791
na	-792
',	-793
▁act	-794
Prog	-795
gy	-796
Ha	-797
yp	-798
from	-799
OP	-800
try	-801
11	-802
tF	-803
tud	-804
hould	-805
Bl	-806
AP	-807
▁Ev	-808
cator	-809
Vo	-810
nf	-811
tach	-812
QL	-813
pp	-814
ronm	-815
nD	-816
▁old	-817
lot	-818
ground	-819
02	-820
▁\"	-821
Pay	-822
Stack	-823
[1	-824
py	-825
▁and	-826
lag	-827
ount	-828
VO	-829
(0);	-830
▁Int	-831
Nullabl	-832
Mock	-833
gl	-834
<?>	-835
ynch	-836
▁Ab	-837
Futur	-838
zz	-839
(1,	-840
pan	-841
upl	-842
2);	-843
Pol	-844
].	-845
twork	-846
)));	-847
▁pag	-848
▁LOG	-849
roll	-850
Lock	-851
Comb	-852
Producto	-853
FF	-854
Cu	-855
bool	-856
ba	-857
grat	-858
book	-859
If	-860
dg	-861
ru	-862
4.	-863
Art	-864
▁mod	-865
torag	-866
▁proc	-867
da	-868
rack	-869
IM	-870
OM	-871
ynchron	-872
jo	-873
Cor	-874
Mo	-875
cop	-876
lug	-877
IP	-878
▁8	-879
Mano	-880
5,	-881
Conn	-882
▁arg	-883
Batch	-884
urat	-885
rD	-886
1",	-887
lta	-888
rval	-889
▁1)	-890
Env	-891
nn	-892
----	-893
0.	-894
Compat	-895
▁qu	-896
jInt	-897
not	-898
nM	-899
ABLE	-900
▁work	-901
],	-902
Strat	-903
param	-904
DEFAUL	-905
df	-906
acc	-907
Styl	-908
_1	-909
ymb	-910
ProduMano	-911
▁ha	-912
▁Http	-913
0;	-914
DI	-915
nary	-916
tool	-917
nP	-918
0);	-919
tml	-920
ymbol	-921
Gu	-922
".	-923
Dr	-924
▁Qu	-925
char	-926
nabl	-927
Empty	-928
://	-929
dk	-930
▁mock	-931
doubl	-932
rac	-933
clu	-934
▁ar	-935
OL	-936
Acl	-937
▁<=	-938
▁acc	-939
BU	-940
nId	-941
▁IN	-942
Compar	-943
▁load	-944
att	-945
mmu	-946
Vm	-947
1);	-948
rNam	-949
("\	-950
tra	-951
▁Un	-952
rImpl	-953
ById	-954
tCl	-955
cont	-956
4,	-957
float	-958
ploy	-959
++;	-960
Argum	-961
tD	-962
Scr	-963
▁},	-964
unk	-965
Mult	-966
gu	-967
▁[	-968
<>(	-969
dl	-970
▁cl	-971
▁"\	-972
▁bu	-973
2;	-974
mal	-975
go	-976
("/	-977
Non	-978
Combo	-979
DB	-980
HE	-981
gor	-982
gnor	-983
▁Block	-984
▁tran	-985
]);	-986
any	-987
mark	-988
FormProv	-989
Protocol	-990
0100	-991
Snap	-992
SIZE	-993
board	-994
▁cmd	-995
pu	-996
cach	-997
down	-998
chang	-999
▁cach	-1000
LI	-1001
Eng	-1002
tn	-1003
Icon	-1004
ntat	-1005
▁"/	-1006
('	-1007
tro	-1008
▁char	-1009
mploy	-1010
AGE	-1011
Cond	-1012
Support	-1013
ntS	-1014
▁call	-1015
cor	-1016
▁Valu	-1017
brary	-1018
Enc	-1019
nuIt	-1020
▁DE	-1021
Wh	-1022
JInt	-1023
▁Stat	-1024
Cal	-1025
USE	-1026
▁Ap	-1027
SU	-1028
uctor	-1029
IME	-1030
ONE	-1031
ka	-1032
nally	-1033
Aud	-1034
(_	-1035
Inv	-1036
Actual	-1037
Clo	-1038
▁0.	-1039
arn	-1040
▁"";	-1041
ank	-1042
man	-1043
▁7	-1044
Sock	-1045
dr	-1046
conn	-1047
BE	-1048
rFactory	-1049
Xml	-1050
ldr	-1051
Ov	-1052
ynam	-1053
DS	-1054
▁Cl	-1055
▁gr	-1056
(3	-1057
▁all	-1058
clar	-1059
▁can	-1060
▁("	-1061
Obj	-1062
Su	-1063
hall	-1064
nj	-1065
can	-1066
rform	-1067
JSON	-1068
uctur	-1069
Java	-1070
▁Ent	-1071
ranch	-1072
▁prov	-1073
Common	-1074
CU	-1075
Dto	-1076
▁At	-1077
Author	-1078
cov	-1079
way	-1080
ngS	-1081
olut	-1082
▁cr	-1083
conv	-1084
▁2,	-1085
Plug	-1086
Bound	-1087
unn	-1088
adm	-1089
thr	-1090
▁Po	-1091
oD	-1092
Cam	-1093
rong	-1094
1;	-1095
32	-1096
MEN	-1097
OPE	-1098
▁ho	-1099
cycl	-1100
▁handl	-1101
▁Op	-1102
attr	-1103
08	-1104
Sql	-1105
trac	-1106
Inval	-1107
Equal	-1108
SH	-1109
dM	-1110
▁Mod	-1111
Draw	-1112
Sum	-1113
UI	-1114
graph	-1115
otal	-1116
Card	-1117
anSw	-1118
mon	-1119
uag	-1120
====	-1121
dF	-1122
rul	-1123
ngJInt	-1124
...	-1125
nvok	-1126
▁Z	-1127
Edg	-1128
▁db	-1129
("<	-1130
mar	-1131
modul	-1132
1\	-1133
hap	-1134
(1);	-1135
(4	-1136
oc	-1137
tNam	-1138
▁clu	-1139
IVE	-1140
Atom	-1141
MS	-1142
SQL	-1143
▁0.0	-1144
▁cal	-1145
pm	-1146
16	-1147
IO	-1148
\\	-1149
Cha	-1150
SION	-1151
QU	-1152
>()	-1153
ract	-1154
td	-1155
rop	-1156
▁An	-1157
Endpo	-1158
▁co	-1159
latform	-1160
andard	-1161
▁auth	-1162
▁It	-1163
now	-1164
tachm	-1165
▁actual	-1166
annot	-1167
▁product	-1168
Mov	-1169
{}	-1170
aml	-1171
cha	-1172
ulat	-1173
▁");	-1174
▁fac	-1175
bound	-1176
▁Conf	-1177
(5	-1178
Mach	-1179
##	-1180
clud	-1181
arm	-1182
tId	-1183
▁Act	-1184
nH	-1185
\":	-1186
▁bo	-1187
▁Pag	-1188
CK	-1189
tw	-1190
Gam	-1191
vt	-1192
Flag	-1193
ubj	-1194
▁ob	-1195
pay	-1196
yValu	-1197
▁Attr	-1198
AX	-1199
DO	-1200
Jo	-1201
Uu	-1202
▁top	-1203
mum	-1204
nto	-1205
gur	-1206
Short	-1207
▁mu	-1208
Plan	-1209
Qual	-1210
25	-1211
Succ	-1212
2)	-1213
▁lo	-1214
▁tag	-1215
Arch	-1216
Auto	-1217
Matr	-1218
Global	-1219
▁numb	-1220
▁chang	-1221
OB	-1222
Stag	-1223
Mark	-1224
Found	-1225
El	-1226
wt	-1227
LEN	-1228
NotNull	-1229
NotNullabl	-1230
ato	-1231
nown	-1232
ntory	-1233
ComboBo	-1234
Bord	-1235
Sort	-1236
boot	-1237
Func	-1238
()),	-1239
LEC	-1240
▁lab	-1241
rap	-1242
▁100	-1243
parator	-1244
WO	-1245
▁q	-1246
bot	-1247
Scroll	-1248
Publ	-1249
PU	-1250
OK	-1251
▁Ch	-1252
Scal	-1253
▁pa	-1254
proto	-1255
▁cur	-1256
job	-1257
(0).	-1258
BLE	-1259
▁".	-1260
▁up	-1261
Float	-1262
▁part	-1263
7.	-1264
005	-1265
opt	-1266
ICE	-1267
partm	-1268
2",	-1269
mg	-1270
Mon	-1271
ummy	-1272
>)	-1273
Scop	-1274
patch	-1275
lca	-1276
lf	-1277
wn	-1278
▁Ar	-1279
▁total	-1280
04	-1281
UP	-1282
Only	-1283
▁-1;	-1284
warn	-1285
▁ord	-1286
▁DEFAUL	-1287
nIn	-1288
▁Co	-1289
ND	-1290
LIC	-1291
ULL	-1292
angl	-1293
ady	-1294
nta	-1295
▁wa	-1296
card	-1297
gram	-1298
ward	-1299
match	-1300
product	-1301
oy	-1302
▁2;	-1303
▁St	-1304
64	-1305
Charact	-1306
AM	-1307
dD	-1308
har	-1309
yy	-1310
▁port	-1311
▁prop	-1312
9,	-1313
Aft	-1314
▁conn	-1315
COUN	-1316
_2	-1317
Flow	-1318
▁ur	-1319
okup	-1320
gnatur	-1321
raft	-1322
road	-1323
▁//	-1324
ACE	-1325
car	-1326
tract	-1327
ond	-1328
[][]	-1329
unch	-1330
LAY	-1331
▁found	-1332
tM	-1333
ACK	-1334
uby	-1335
nch	-1336
8,	-1337
GL	-1338
rad	-1339
nval	-1340
rf	-1341
Blob	-1342
mount	-1343
6,	-1344
rok	-1345
▁dat	-1346
▁job	-1347
nB	-1348
WA	-1349
INE	-1350
ontal	-1351
▁conv	-1352
OF	-1353
rvat	-1354
thm	-1355
alth	-1356
XML	-1357
▁Pa	-1358
▁"<	-1359
rypt	-1360
10	-1361
▁ag	-1362
nInfo	-1363
alm	-1364
bug	-1365
zontal	-1366
NS	-1367
VA	-1368
Da	-1369
gam	-1370
▁Param	-1371
▁pay	-1372
workAcl	-1373
BO	-1374
Cla	-1375
uar	-1376
onth	-1377
tIn	-1378
nManag	-1379
55	-1380
rav	-1381
ular	-1382
dh	-1383
▁ro	-1384
orld	-1385
Ph	-1386
Zon	-1387
Full	-1388
▁rul	-1389
ntValu	-1390
Org	-1391
bat	-1392
▁back	-1393
INJ	-1394
Spac	-1395
▁match	-1396
0\	-1397
▁Command	-1398
nCod	-1399
tu	-1400
tar	-1401
▁Str	-1402
':	-1403
Stub	-1404
rM	-1405
▁zz	-1406
copy	-1407
IF	-1408
▁cu	-1409
Word	-1410
▁{}",	-1411
nar	-1412
rvl	-1413
rtualMach	-1414
IGH	-1415
Pop	-1416
ga	-1417
▁but	-1418
Inj	-1419
EMA	-1420
naly	-1421
Durat	-1422
kk	-1423
Stop	-1424
▁Atom	-1425
Sy	-1426
wa	-1427
CLA	-1428
Fold	-1429
FIX	-1430
AppCompat	-1431
:"	-1432
rd	-1433
cap	-1434
▁Al	-1435
plac	-1436
▁Ob	-1437
▁doc	-1438
JEC	-1439
ntId	-1440
▁thr	-1441
][	-1442
azon	-1443
grad	-1444
MM	-1445
Day	-1446
▁Gr	-1447
Shap	-1448
WN	-1449
ALL	-1450
nant	-1451
Volum	-1452
culat	-1453
JB	-1454
Ava	-1455
olr	-1456
Dato	-1457
▁1.0	-1458
tm	-1459
rConf	-1460
by	-1461
ocu	-1462
unc	-1463
FILE	-1464
alanc	-1465
▁Prop	-1466
>");	-1467
conf	-1468
▁Byt	-1469
VALUE	-1470
amazon	-1471
▁Ut	-1472
1");	-1473
Canc	-1474
Invo	-1475
DES	-1476
5.	-1477
▁Wrong	-1478
00,	-1479
olat	-1480
Wa	-1481
▁9	-1482
hrow	-1483
rStat	-1484
ESSAGE	-1485
cp	-1486
Mu	-1487
!");	-1488
Coll	-1489
draw	-1490
ormal	-1491
VALID	-1492
Adm	-1493
rabl	-1494
Hor	-1495
ntr	-1496
Import	-1497
▁Y	-1498
nNam	-1499
cro	-1500
gov	-1501
▁col	-1502
Background	-1503
SO	-1504
▁opt	-1505
Comparator	-1506
Own	-1507
ntD	-1508
thon	-1509
nF	-1510
Doc	-1511
ath	-1512
taData	-1513
---	-1514
Ema	-1515
Pow	-1516
Eval	-1517
batch	-1518
DataSourc	-1519
03	-1520
');	-1521
CHA	-1522
EMP	-1523
▁Bu	-1524
▁buf	-1525
atu	-1526
1)	-1527
")));	-1528
pha	-1529
AND	-1530
▁Sch	-1531
GU	-1532
Dt	-1533
lur	-1534
▁Cr	-1535
001	-1536
fmt	-1537
aly	-1538
7,	-1539
lap	-1540
bab	-1541
Upload	-1542
Coord	-1543
cm	-1544
=\"	-1545
uat	-1546
.",	-1547
****	-1548
mdr	-1549
MIN	-1550
Sampl	-1551
ASE	-1552
pow	-1553
foo	-1554
math	-1555
Plac	-1556
arCach	-1557
CESS	-1558
VI	-1559
vc	-1560
VICE	-1561
hard	-1562
Fn	-1563
▁fram	-1564
23	-1565
Can	-1566
▁Cont	-1567
EM	-1568
mak	-1569
oom	-1570
dbc	-1571
DAO	-1572
hor	-1573
ym	-1574
Parc	-1575
(2,	-1576
ploym	-1577
▁Immu	-1578
SC	-1579
ano	-1580
Payload	-1581
rOf	-1582
▁-1)	-1583
dBy	-1584
LENG	-1585
PI	-1586
Sl	-1587
(",	-1588
▁conf	-1589
button	-1590
Book	-1591
LOCK	-1592
SELEC	-1593
▁volum	-1594
MESSAGE	-1595
INI	-1596
PC	-1597
18	-1598
otat	-1599
Amount	-1600
▁GL	-1601
call	-1602
Suppl	-1603
AE	-1604
AME	-1605
())).	-1606
World	-1607
html	-1608
Compo	-1609
▁Form	-1610
clarat	-1611
day	-1612
Att	-1613
4;	-1614
CODE	-1615
tFor	-1616
rE	-1617
urfac	-1618
▁that	-1619
CLASS	-1620
▁1000	-1621
0)	-1622
numb	-1623
(()	-1624
pol	-1625
▁any	-1626
My	-1627
_0	-1628
Structur	-1629
ply	-1630
adow	-1631
prop	-1632
Analy	-1633
manag	-1634
EG	-1635
ood	-1636
python	-1637
▁cop	-1638
Cloud	-1639
ottom	-1640
▁Imag	-1641
▁random	-1642
3;	-1643
Buf	-1644
▁Not	-1645
▁graph	-1646
8.	-1647
Conc	-1648
▁argum	-1649
Eff	-1650
pal	-1651
11.	-1652
EAD	-1653
FIG	-1654
▁bl	-1655
3);	-1656
hav	-1657
Drawabl	-1658
14	-1659
mu	-1660
YS	-1661
pla	-1662
▁no	-1663
zar	-1664
pand	-1665
')	-1666
SA	-1667
mpt	-1668
---+	-1669
Font	-1670
Latch	-1671
nError	-1672
Immu	-1673
Lang	-1674
MODE	-1675
Summary	-1676
VM	-1677
])	-1678
▁copy	-1679
ju	-1680
nW	-1681
dom	-1682
▁gam	-1683
--------	-1684
▁art	-1685
▁Error	-1686
09	-1687
Au	-1688
_.	-1689
ja	-1690
▁Cach	-1691
AU	-1692
Fr	-1693
nK	-1694
cam	-1695
78	-1696
rBl	-1697
rnat	-1698
Show	-1699
wo	-1700
201	-1701
Mgr	-1702
VEN	-1703
nL	-1704
mator	-1705
▁++	-1706
utur	-1707
Encod	-1708
SECON	-1709
Bag	-1710
▁"'	-1711
00);	-1712
Guard	-1713
▁SE	-1714
▁cat	-1715
locat	-1716
Factor	-1717
roadca	-1718
WE	-1719
ncl	-1720
ncr	-1721
ntNam	-1722
Compound	-1723
▁").	-1724
rvabl	-1725
known	-1726
amount	-1727
▁Ma	-1728
▁Auth	-1729
▁JSON	-1730
▁Prov	-1731
Focu	-1732
Platform	-1733
dm	-1734
ctr	-1735
Chunk	-1736
Ignor	-1737
fr	-1738
rtD	-1739
mall	-1740
throw	-1741
uator	-1742
wh	-1743
flu	-1744
9.	-1745
Br	-1746
Subj	-1747
ndBy	-1748
dAttr	-1749
tty	-1750
ombr	-1751
hr	-1752
doc	-1753
Copy	-1754
nanc	-1755
Program	-1756
3",	-1757
▁My	-1758
rInfo	-1759
rHo	-1760
▁"_	-1761
Paym	-1762
▁Cu	-1763
EW	-1764
▁4,	-1765
▁2);	-1766
▁Nam	-1767
BY	-1768
rUt	-1769
Invocat	-1770
rnalError	-1771
Sam	-1772
rBy	-1773
mart	-1774
▁Local	-1775
SP	-1776
IAL	-1777
ouch	-1778
WI	-1779
random	-1780
ELD	-1781
▁<<	-1782
▁Vm	-1783
dNam	-1784
uppl	-1785
afka	-1786
Sav	-1787
pth	-1788
nclud	-1789
AEJB	-1790
ISUS	-1791
amag	-1792
▁tmp	-1793
ISUSAEJB	-1794
dE	-1795
5);	-1796
NUM	-1797
buck	-1798
Organ	-1799
Struct	-1800
56	-1801
_005	-1802
▁lock	-1803
kId	-1804
Span	-1805
twar	-1806
▁arr	-1807
▁cap	-1808
Spr	-1809
ndpo	-1810
5;	-1811
EP	-1812
FE	-1813
IZ	-1814
loc	-1815
plat	-1816
▁patt	-1817
duc	-1818
▁DA	-1819
▁Ind	-1820
craft	-1821
dao	-1822
au	-1823
dIt	-1824
Shar	-1825
▁Par	-1826
▁WrongAttr	-1827
bb	-1828
EQU	-1829
gator	-1830
▁draw	-1831
13	-1832
nUt	-1833
rant	-1834
dValu	-1835
[2	-1836
▁NO	-1837
OO	-1838
rl	-1839
▁Xml	-1840
lank	-1841
rManag	-1842
Guardar	-1843
Por	-1844
nvo	-1845
▁"");	-1846
ONG	-1847
Such	-1848
baba	-1849
llo	-1850
▁ad	-1851
Unabl	-1852
NotFound	-1853
Db	-1854
Hyp	-1855
▁2)	-1856
Attachm	-1857
.<	-1858
ww	-1859
publ	-1860
▁16	-1861
▁3,	-1862
▁Ac	-1863
adL	-1864
":	-1865
auto	-1866
---+---+	-1867
haz	-1868
▁ID	-1869
Dynam	-1870
Ip	-1871
▁Sp	-1872
nProv	-1873
han	-1874
Col	-1875
▁Appl	-1876
CONFIG	-1877
INS	-1878
EFIX	-1879
chAttr	-1880
▁abc	-1881
▁cannot	-1882
LIS	-1883
[1]	-1884
ono	-1885
undl	-1886
(-	-1887
Sk	-1888
pop	-1889
platform	-1890
rData	-1891
▁clazz	-1892
control	-1893
▁nat	-1894
dc	-1895
Loop	-1896
nStat	-1897
ngD	-1898
nBar	-1899
utdown	-1900
▁modul	-1901
▁Column	-1902
</	-1903
tab	-1904
▁Id	-1905
Algor	-1906
hboard	-1907
OS	-1908
▁Q	-1909
END	-1910
zon	-1911
cmd	-1912
ncod	-1913
mD	-1914
ront	-1915
ook	-1916
Symbol	-1917
Languag	-1918
MAX	-1919
DU	-1920
rp	-1921
Spl	-1922
\",	-1923
chor	-1924
▁aft	-1925
▁Buff	-1926
Contact	-1927
▁Mock	-1928
='	-1929
APP	-1930
▁"-	-1931
Formatt	-1932
1_	-1933
nEv	-1934
upt	-1935
▁No	-1936
rValu	-1937
cD	-1938
dW	-1939
Lat	-1940
Blank	-1941
amazonaw	-1942
19	-1943
[0];	-1944
Gap	-1945
SHA	-1946
bukk	-1947
tyManag	-1948
▁10	-1949
LINE	-1950
Mou	-1951
Nav	-1952
ould	-1953
oS	-1954
ESP	-1955
▁Sh	-1956
▁ov	-1957
ckBo	-1958
▁track	-1959
urn	-1960
)");	-1961
dIn	-1962
▁mat	-1963
playNam	-1964
▁flag	-1965
▁Wr	-1966
fram	-1967
Buck	-1968
Cata	-1969
▁Array	-1970
AY	-1971
Pt	-1972
olo	-1973
▁hav	-1974
6.	-1975
>\	-1976
ADD	-1977
__.	-1978
▁cn	-1979
▁fr	-1980
fh	-1981
Flu	-1982
OUP	-1983
nado	-1984
("");	-1985
cd	-1986
▁Proj	-1987
Car	-1988
tUt	-1989
nMod	-1990
▁"",	-1991
Allow	-1992
▁Group	-1993
tf	-1994
2");	-1995
▁mov	-1996
aPlay	-1997
Should	-1998
▁localVar	-1999
SW	-2000
IONS	-2001
agno	-2002
▁"--	-2003
Capac	-2004
flag	-2005
nflat	-2006
CAL	-2007
mult	-2008
bugEnabl	-2009
>,	-2010
cS	-2011
)))	-2012
Propo	-2013
DD	-2014
mS	-2015
▁Mult	-2016
ulator	-2017
ubm	-2018
▁CON	-2019
▁Play	-2020
rP	-2021
handl	-2022
bS	-2023
nE	-2024
nN	-2025
rB	-2026
▁ok	-2027
Entr	-2028
cutorS	-2029
corator	-2030
abr	-2031
▁Add	-2032
ldNam	-2033
track	-2034
Lookup	-2035
▁(_	-2036
packag	-2037
Any	-2038
ILE	-2039
jar	-2040
▁pu	-2041
wrap	-2042
tData	-2043
tE	-2044
UMN	-2045
Sync	-2046
tudy	-2047
▁gu	-2048
▁JPan	-2049
2\	-2050
▁pop	-2051
(((	-2052
ulk	-2053
DIS	-2054
▁by	-2055
ctangl	-2056
toArray	-2057
nb	-2058
OFF	-2059
plu	-2060
Marg	-2061
▁Mat	-2062
fragm	-2063
cto	-2064
▁VM	-2065
4);	-2066
API	-2067
Com	-2068
gnK	-2069
ESOU	-2070
▁rol	-2071
EQUES	-2072
aS	-2073
▁pack	-2074
8;	-2075
MY	-2076
dEv	-2077
non	-2078
INDE	-2079
tMod	-2080
Unknown	-2081
dStat	-2082
ndById	-2083
bc	-2084
dK	-2085
▁VAL	-2086
mob	-2087
▁form	-2088
▁batch	-2089
FIELD	-2090
nator	-2091
total	-2092
SECONDS	-2093
VIS	-2094
▁"]	-2095
ctur	-2096
aa	-2097
nut	-2098
INFO	-2099
▁card	-2100
charAt	-2101
▁Inval	-2102
("[	-2103
>",	-2104
flat	-2105
tock	-2106
)",	-2107
Nat	-2108
wValu	-2109
▁Annotat	-2110
aj	-2111
002	-2112
dto	-2113
Scan	-2114
MAP	-2115
utt	-2116
▁";	-2117
Hour	-2118
tL	-2119
8);	-2120
FLA	-2121
fol	-2122
Aggr	-2123
GroupNam	-2124
CL	-2125
)),	-2126
LOB	-2127
cogn	-2128
▁man	-2129
wr	-2130
9999	-2131
Produc	-2132
05	-2133
CS	-2134
azur	-2135
Board	-2136
rL	-2137
Employ	-2138
▁button	-2139
dL	-2140
OUND	-2141
abla	-2142
▁Acc	-2143
Motor	-2144
cValu	-2145
Mor	-2146
Put	-2147
tmt	-2148
mEnt	-2149
(0));	-2150
34	-2151
CEN	-2152
ghl	-2153
▁SW	-2154
▁mult	-2155
rou	-2156
▁AS	-2157
(2);	-2158
▁App	-2159
"))).	-2160
IDE	-2161
cho	-2162
rInd	-2163
pk	-2164
dData	-2165
urr	-2166
ycl	-2167
BLOCK	-2168
jm	-2169
HOD	-2170
SHO	-2171
Nu	-2172
rb	-2173
▁rang	-2174
nvocat	-2175
Gad	-2176
dQu	-2177
========	-2178
ctD	-2179
full	-2180
▁Job	-2181
Mar	-2182
Cook	-2183
Pu	-2184
Fam	-2185
▁PA	-2186
▁Ur	-2187
tIt	-2188
▁3;	-2189
▁Clu	-2190
Capab	-2191
INVALID	-2192
hm	-2193
dro	-2194
▁":	-2195
▁(!(	-2196
rarch	-2197
dback	-2198
oth	-2199
pat	-2200
rcl	-2201
cann	-2202
mpor	-2203
▁ava	-2204
▁Work	-2205
ntManag	-2206
dB	-2207
lS	-2208
mq	-2209
▁'"	-2210
▁5,	-2211
▁10;	-2212
toByt	-2213
author	-2214
IES	-2215
oolbar	-2216
Contract	-2217
tK	-2218
▁uk	-2219
jPan	-2220
▁Java	-2221
15	-2222
ham	-2223
nl	-2224
▁own	-2225
dImag	-2226
raS	-2227
▁wr	-2228
BagCon	-2229
▁control	-2230
FK	-2231
ICA	-2232
baz	-2233
hold	-2234
Chart	-2235
▁prog	-2236
Download	-2237
DF	-2238
("%	-2239
orr	-2240
▁cond	-2241
_;	-2242
mId	-2243
(1).	-2244
room	-2245
▁non	-2246
adabl	-2247
▁12	-2248
wall	-2249
▁Enum	-2250
archParam	-2251
_3	-2252
agg	-2253
▁mS	-2254
▁USE	-2255
COM	-2256
Pat	-2257
rIn	-2258
▁}).	-2259
ummary	-2260
2(	-2261
MSG	-2262
▁ph	-2263
rang	-2264
EMO	-2265
lop	-2266
aranc	-2267
▁Count	-2268
▁Updat	-2269
▁dummy	-2270
BlockData	-2271
NONE	-2272
canc	-2273
tAdd	-2274
Month	-2275
argar	-2276
ndAll	-2277
vtool	-2278
▁tool	-2279
orum	-2280
hutdown	-2281
Cmd	-2282
nom	-2283
▁""	-2284
))).	-2285
nantId	-2286
Jar	-2287
abb	-2288
ngM	-2289
▁du	-2290
curr	-2291
fg	-2292
rH	-2293
ncrypt	-2294
▁Common	-2295
KNO	-2296
▁payload	-2297
DownLatch	-2298
._	-2299
Inn	-2300
▁Cod	-2301
nHandl	-2302
MQ	-2303
ntW	-2304
grpc	-2305
▁Gam	-2306
rA	-2307
ktop	-2308
OBJEC	-2309
Captur	-2310
rAdapt	-2311
GB	-2312
IBU	-2313
▁CO	-2314
▁mak	-2315
▁allow	-2316
ntA	-2317
jdbc	-2318
▁Lab	-2319
▁MAX	-2320
▁Cloud	-2321
▁author	-2322
▁Standard	-2323
bm	-2324
buf	-2325
▁Ag	-2326
BASE	-2327
Watch	-2328
▁Float	-2329
▁canva	-2330
Workflow	-2331
LS	-2332
▁()	-2333
▁Val	-2334
Encrypt	-2335
NotEmpty	-2336
37	-2337
oF	-2338
▁\	-2339
ESUL	-2340
SIG	-2341
moval	-2342
ckNotNull	-2343
rF	-2344
tA	-2345
Empl	-2346
rrupt	-2347
patt	-2348
▁pol	-2349
fc	-2350
▁Cor	-2351
Popup	-2352
dp	-2353
tB	-2354
JUn	-2355
Stud	-2356
▁Pro	-2357
▁down	-2358
nV	-2359
nam	-2360
▁'\	-2361
udad	-2362
ntHandl	-2363
24	-2364
Go	-2365
tH	-2366
Cov	-2367
acy	-2368
(1)).	-2369
tConf	-2370
yncHandl	-2371
Html	-2372
rlay	-2373
▁Numb	-2374
faultValu	-2375
OLE	-2376
USH	-2377
CHAN	-2378
▁Call	-2379
cod	-2380
got	-2381
Choo	-2382
anup	-2383
dPan	-2384
ISION	-2385
arLay	-2386
("-	-2387
[]>	-2388
ghtValu	-2389
EQ	-2390
IMA	-2391
▁On	-2392
POIN	-2393
quar	-2394
▁Art	-2395
Commun	-2396
bum	-2397
lar	-2398
HI	-2399
WS	-2400
Mvc	-2401
NING	-2402
ECISION	-2403
<>	-2404
Em	-2405
LF	-2406
tc	-2407
ENE	-2408
\1\	-2409
rpr	-2410
▁{\	-2411
ongo	-2412
KNOWN	-2413
actor	-2414
BL	-2415
LOCA	-2416
▁Opt	-2417
07	-2418
▁@	-2419
Hom	-2420
hoto	-2421
plan	-2422
tApp	-2423
tworkAcl	-2424
38	-2425
YP	-2426
▁pan	-2427
[0]);	-2428
▁Card	-2429
6;	-2430
Cau	-2431
Und	-2432
▁AC	-2433
cNam	-2434
▁Sql	-2435
ByNam	-2436
INDEX	-2437
Quant	-2438
LY	-2439
InM	-2440
andy	-2441
tInd	-2442
▁cau	-2443
UC	-2444
ctF	-2445
nac	-2446
otl	-2447
▁>>	-2448
forc	-2449
Unpack	-2450
BlockStat	-2451
▁Ca	-2452
Camb	-2453
hamc	-2454
▁tab	-2455
▁Char	-2456
▁full	-2457
tp	-2458
MIL	-2459
Cycl	-2460
FINI	-2461
FLAG	-2462
rmat	-2463
found	-2464
robot	-2465
▁pool	-2466
COLUMN	-2467
actual	-2468
NE	-2469
PEC	-2470
dOp	-2471
IGIN	-2472
vanc	-2473
rProv	-2474
▁Proc	-2475
▁Statu	-2476
Bad	-2477
NAL	-2478
opo	-2479
atom	-2480
rLay	-2481
nConf	-2482
ntVar	-2483
rarchy	-2484
tChann	-2485
condary	-2486
30	-2487
hu	-2488
5",	-2489
IND	-2490
tmp	-2491
conc	-2492
▁Ord	-2493
(3,	-2494
LOW	-2495
alk	-2496
hal	-2497
thS	-2498
▁EX	-2499
Chat	-2500
▁adm	-2501
17	-2502
mf	-2503
▁Mu	-2504
loop	-2505
▁canc	-2506
▁mark	-2507
Backup	-2508
rov	-2509
Phon	-2510
ffff	-2511
thodV	-2512
tooth	-2513
Includ	-2514
OrNull	-2515
wS	-2516
ayb	-2517
hop	-2518
ngE	-2519
IBLE	-2520
▁KEY	-2521
ckAttr	-2522
IMI	-2523
▁4;	-2524
▁dr	-2525
POSI	-2526
▁255	-2527
▁btn	-2528
croll	-2529
rough	-2530
▁NULL	-2531
▁play	-2532
global	-2533
CP	-2534
Ct	-2535
Gat	-2536
QUE	-2537
SCH	-2538
####	-2539
nAct	-2540
▁Graph	-2541
Formular	-2542
Standard	-2543
/"	-2544
tU	-2545
▁pc	-2546
nowl	-2547
phon	-2548
(6	-2549
HA	-2550
rG	-2551
Quot	-2552
tAct	-2553
cK	-2554
ggl	-2555
000);	-2556
nav	-2557
▁UI	-2558
LAYE	-2559
▁now	-2560
EMAIL	-2561
▁arch	-2562
Bottom	-2563
tUpdat	-2564
LL	-2565
zy	-2566
SYS	-2567
Jack	-2568
▁Out	-2569
▁Chann	-2570
▁$	-2571
BUG	-2572
blu	-2573
PASS	-2574
(1));	-2575
nData	-2576
▁auto	-2577
2_	-2578
km	-2579
Boot	-2580
▁cha	-2581
▁low	-2582
▁mag	-2583
▁mou	-2584
LOBAL	-2585
analy	-2586
mybat	-2587
Balanc	-2588
HttpCl	-2589
▁Short	-2590
rV	-2591
ful	-2592
__).	-2593
▁bundl	-2594
EE	-2595
[3	-2596
("#	-2597
gwt	-2598
tub	-2599
▁"\"	-2600
▁Var	-2601
locator	-2602
ELE	-2603
cant	-2604
adValu	-2605
longValu	-2606
Drop	-2607
Slot	-2608
▁Sort	-2609
Evaluat	-2610
YN	-2611
uk	-2612
lda	-2613
▁Ad	-2614
0101	-2615
Camp	-2616
ollow	-2617
▁volat	-2618
Fl	-2619
Pl	-2620
4",	-2621
]",	-2622
LICA	-2623
oogl	-2624
park	-2625
▁Fac	-2626
OUBLE	-2627
▁Mono	-2628
▁chunk	-2629
turnValu	-2630
Emp	-2631
▁Vo	-2632
LOAD	-2633
ntWr	-2634
▁hor	-2635
Analyz	-2636
AI	-2637
▁;	-2638
BML	-2639
awn	-2640
clo	-2641
LIEN	-2642
MPLE	-2643
▁dtm	-2644
lator	-2645
▁analy	-2646
▁thrown	-2647
20	-2648
Don	-2649
SUB	-2650
jbo	-2651
Av	-2652
rK	-2653
UME	-2654
arr	-2655
dAt	-2656
agram	-2657
maryK	-2658
ScrollPan	-2659
ANCH	-2660
dInd	-2661
▁ISO	-2662
▁Und	-2663
Branch	-2664
VISIBLE	-2665
rk	-2666
▁)	-2667
003	-2668
004	-2669
Upp	-2670
ldD	-2671
>>>>	-2672
UPDA	-2673
[0],	-2674
Alarm	-2675
ANS	-2676
aud	-2677
btn	-2678
rth	-2679
poch	-2680
▁tra	-2681
Invok	-2682
OFFSE	-2683
gradl	-2684
kafka	-2685
▁jLab	-2686
allocat	-2687
SK	-2688
rW	-2689
ECK	-2690
ENC	-2691
ntM	-2692
▁MO	-2693
Clock	-2694
amb	-2695
hom	-2696
ntF	-2697
▁fragm	-2698
-8	-2699
bon	-2700
Angl	-2701
[0].	-2702
Shard	-2703
rawabl	-2704
7;	-2705
Pur	-2706
adC	-2707
DESC	-2708
▁0));	-2709
▁Vmwar	-2710
mav	-2711
yEv	-2712
▁1]	-2713
Corr	-2714
onym	-2715
▁Spr	-2716
▁upload	-2717
Low	-2718
Damag	-2719
▁Locat	-2720
Calculat	-2721
▁")	-2722
▁-=	-2723
▁Gu	-2724
<?>>	-2725
AndG	-2726
Warn	-2727
ntal	-2728
▁1));	-2729
▁Match	-2730
POS	-2731
tac	-2732
Subm	-2733
nfra	-2734
ryParam	-2735
CM	-2736
PK	-2737
100	-2738
cau	-2739
▁Ed	-2740
▁Arg	-2741
chart	-2742
▁Global	-2743
gnal	-2744
ESPON	-2745
factId	-2746
36	-2747
OW	-2748
dH	-2749
(".	-2750
LOA	-2751
ndStat	-2752
Zk	-2753
hl	-2754
buff	-2755
clon	-2756
▁curr	-2757
launch	-2758
9;	-2759
dPr	-2760
ndB	-2761
Cart	-2762
EVEN	-2763
▁cloud	-2764
ESPONSE	-2765
22	-2766
>"	-2767
FS	-2768
hy	-2769
CAN	-2770
[])	-2771
rSp	-2772
▁18	-2773
▁mM	-2774
ckpo	-2775
rawl	-2776
clazz	-2777
▁Modul	-2778
OC	-2779
hn	-2780
rgy	-2781
ula	-2782
PASSWO	-2783
Shadow	-2784
rpc	-2785
▁"[	-2786
▁DB	-2787
cata	-2788
gInt	-2789
Could	-2790
ntConf	-2791
▁global	-2792
▁Product	-2793
(7	-2794
oB	-2795
509	-2796
aga	-2797
nPo	-2798
▁IS	-2799
dSnap	-2800
▁jPan	-2801
rGroup	-2802
********	-2803
nFactory	-2804
ACH	-2805
ECO	-2806
DEBUG	-2807
▁HttpS	-2808
▁Manag	-2809
BC	-2810
ky	-2811
thD	-2812
▁don	-2813
▁raw	-2814
ntStr	-2815
▁buck	-2816
UNKNOWN	-2817
Blu	-2818
ISO	-2819
▁6,	-2820
▁Ha	-2821
▁Sw	-2822
▁VK	-2823
Yaml	-2824
pond	-2825
tVal	-2826
▁10,	-2827
LOGIC	-2828
localho	-2829
tv	-2830
200	-2831
NAM	-2832
▁jj	-2833
Poly	-2834
WING	-2835
▁bound	-2836
rN	-2837
dPo	-2838
▁jo	-2839
▁Cal	-2840
arrow	-2841
\0\	-2842
gal	-2843
luc	-2844
▁15	-2845
("",	-2846
]+	-2847
oG	-2848
cry	-2849
ynX	-2850
Cour	-2851
NULL	-2852
cart	-2853
▁jar	-2854
cloak	-2855
adOnly	-2856
valuat	-2857
▁Handl	-2858
MB	-2859
Arr	-2860
Emb	-2861
LAB	-2862
ump	-2863
CHECK	-2864
NUMBE	-2865
▁book	-2866
Dc	-2867
Alt	-2868
EPO	-2869
rbo	-2870
ACHE	-2871
DELE	-2872
tOpt	-2873
▁lat	-2874
Alpha	-2875
ISWING	-2876
Hot	-2877
MIS	-2878
▁Fa	-2879
▁Ho	-2880
▁hyp	-2881
Sound	-2882
rPack	-2883
▁Stack	-2884
00000000	-2885
jComboBo	-2886
torm	-2887
hyp	-2888
NODE	-2889
▁0.5	-2890
.0,	-2891
SUC	-2892
hdf	-2893
jpa	-2894
nBy	-2895
tAr	-2896
toJ	-2897
▁pl	-2898
0));	-2899
Surfac	-2900
oolBar	-2901
contract	-2902
▁^	-2903
Equ	-2904
ntE	-2905
▁ba	-2906
LONG	-2907
qCall	-2908
tInfo	-2909
tandard	-2910
▁NoSuch	-2911
LOGICLAYE	-2912
og	-2913
▁.	-2914
pdf	-2915
ally	-2916
pool	-2917
▁amount	-2918
cM	-2919
jb	-2920
qa	-2921
uu	-2922
wL	-2923
LEF	-2924
lav	-2925
////	-2926
allow	-2927
nValu	-2928
▁plot	-2929
Broadca	-2930
Locator	-2931
BA	-2932
▁5;	-2933
▁Sy	-2934
....	-2935
▁day	-2936
Callabl	-2937
Evaluator	-2938
NB	-2939
SD	-2940
(0.	-2941
(__	-2942
Phy	-2943
▁"}	-2944
▁ru	-2945
olar	-2946
orEl	-2947
▁Flu	-2948
ctraS	-2949
tParam	-2950
mL	-2951
DUM	-2952
Ifc	-2953
Oth	-2954
www	-2955
nStr	-2956
coord	-2957
Cannot	-2958
mdrOpt	-2959
dt	-2960
OID	-2961
GUID	-2962
mant	-2963
CLIEN	-2964
▁jarg	-2965
▁word	-2966
ntProc	-2967
ErrorCod	-2968
MAL	-2969
NEC	-2970
tEv	-2971
▁24	-2972
Bond	-2973
wagg	-2974
NoSuch	-2975
NonNull	-2976
▁Storag	-2977
▁dummyAud	-2978
_,	-2979
HOS	-2980
ada	-2981
rrn	-2982
▁"%	-2983
▁"{	-2984
▁mv	-2985
▁WHE	-2986
▁corr	-2987
▁html	-2988
▁Argum	-2989
contact	-2990
Now	-2991
aft	-2992
dId	-2993
Brok	-2994
Stmt	-2995
▁cam	-2996
andra	-2997
mulat	-2998
▁vmMo	-2999
nStatu	-3000
ntStat	-3001
rParam	-3002
▁board	-3003
throwIt	-3004
29	-3005
59	-3006
AA	-3007
Ok	-3008
hau	-3009
oDb	-3010
▁mo	-3011
DOWN	-3012
tValu	-3013
▁Dynam	-3014
256	-3015
GONE	-3016
ntro	-3017
▁gov	-3018
LABEL	-3019
Captor	-3020
dParam	-3021
nParam	-3022
tP	-3023
'",	-3024
rCl	-3025
uch	-3026
ngUt	-3027
▁Curr	-3028
dA	-3029
(4,	-3030
?",	-3031
EGE	-3032
onD	-3033
qIN	-3034
▁cc	-3035
hadow	-3036
tractor	-3037
dP	-3038
nFa	-3039
pon	-3040
rod	-3041
ttl	-3042
3");	-3043
llat	-3044
▁paym	-3045
Hand	-3046
▁SQL	-3047
▁rad	-3048
000000	-3049
▁|=	-3050
fabr	-3051
▁alr	-3052
DUMMY	-3053
SCHEMA	-3054
WorkJob	-3055
▁Author	-3056
88	-3057
jp	-3058
tV	-3059
yS	-3060
CLO	-3061
DED	-3062
UAL	-3063
:");	-3064
())));	-3065
Normal	-3066
▁durat	-3067
▁Control	-3068
ug	-3069
▁25	-3070
argum	-3071
nCount	-3072
';	-3073
EADE	-3074
ICAL	-3075
IdPa	-3076
Larg	-3077
▁Blob	-3078
▁Load	-3079
▁fold	-3080
rHandl	-3081
▁VALUE	-3082
▁attrD	-3083
▁calculat	-3084
IA	-3085
FAC	-3086
Fal	-3087
orc	-3088
Grad	-3089
dByt	-3090
rand	-3091
▁3);	-3092
drool	-3093
▁Comp	-3094
▁Fram	-3095
▁Plug	-3096
<?,	-3097
INK	-3098
Plu	-3099
crypt	-3100
ngMod	-3101
▁Sourc	-3102
lD	-3103
Lng	-3104
Mob	-3105
Mot	-3106
alt	-3107
dan	-3108
tPr	-3109
1").	-3110
ador	-3111
pong	-3112
ynta	-3113
▁API	-3114
▁clon	-3115
▁rotat	-3116
▁attachm	-3117
JSONArray	-3118
MI	-3119
Inf	-3120
unW	-3121
")),	-3122
▁font	-3123
Forward	-3124
6);	-3125
Saf	-3126
▁MA	-3127
▁pt	-3128
rEnt	-3129
▁"/"	-3130
▁COL	-3131
▁und	-3132
ANCHO	-3133
Valor	-3134
Launch	-3135
ntCount	-3136
cab	-3137
ndV	-3138
Cant	-3139
Suff	-3140
__);	-3141
▁plan	-3142
nPropo	-3143
▁futur	-3144
SUCCESS	-3145
IntOrNull	-3146
ny	-3147
cmp	-3148
ctM	-3149
hat	-3150
nUn	-3151
ntH	-3152
▁--	-3153
Bool	-3154
ngQu	-3155
▁102	-3156
▁Aud	-3157
Nombr	-3158
▁bottom	-3159
GuardarCamb	-3160
dV	-3161
▁El	-3162
Brow	-3163
SING	-3164
\",\	-3165
hCod	-3166
▁Inv	-3167
...");	-3168
Inbound	-3169
▁CountDownLatch	-3170
06	-3171
33	-3172
EF	-3173
dy	-3174
nh	-3175
(5,	-3176
_0_	-3177
}",	-3178
")))	-3179
aggr	-3180
▁2.0	-3181
DataS	-3182
▁Back	-3183
Franch	-3184
▁chart	-3185
GroupId	-3186
tW	-3187
zh	-3188
Agr	-3189
MUL	-3190
NUME	-3191
yyyy	-3192
anD	-3193
mCl	-3194
nth	-3195
tCh	-3196
▁Db	-3197
Awar	-3198
SIGN	-3199
rFor	-3200
▁Off	-3201
mprov	-3202
1:	-3203
Cnt	-3204
SOU	-3205
rCa	-3206
▁["	-3207
("\"	-3208
rMod	-3209
▁XML	-3210
HttpS	-3211
ckNam	-3212
▁Solr	-3213
▁}));	-3214
tCount	-3215
tControll	-3216
[4	-3217
nX	-3218
IVI	-3219
PUB	-3220
▁?>	-3221
COMM	-3222
lAnd	-3223
▁aggr	-3224
ShouldB	-3225
Btn	-3226
nIt	-3227
acon	-3228
adoB	-3229
dAct	-3230
▁(((	-3231
Canva	-3232
▁plac	-3233
mporary	-3234
▁platform	-3235
28	-3236
nY	-3237
MAN	-3238
cId	-3239
gon	-3240
▁gl	-3241
INSE	-3242
▁Employ	-3243
▁UN	-3244
cPart	-3245
tProto	-3246
▁Compl	-3247
payload	-3248
▁program	-3249
1/	-3250
awa	-3251
bor	-3252
gSp	-3253
oggl	-3254
troG	-3255
▁Sub	-3256
Dummy	-3257
lProv	-3258
ACCOUN	-3259
0000000	-3260
Outbound	-3261
---+---+---+---+	-3262
tC	-3263
▁bb	-3264
▁mD	-3265
func	-3266
Small	-3267
alData	-3268
balanc	-3269
▁Compo	-3270
nchmark	-3271
35	-3272
SL	-3273
Aff	-3274
MEM	-3275
dur	-3276
jor	-3277
nor	-3278
rIt	-3279
raf	-3280
▁JM	-3281
▁cp	-3282
▁1).	-3283
▁matr	-3284
ngInfo	-3285
program	-3286
----------------	-3287
='"	-3288
Img	-3289
ngr	-3290
▁Bo	-3291
▁tv	-3292
andE	-3293
ndar	-3294
ngam	-3295
▁All	-3296
rotat	-3297
▁Conta	-3298
▁coord	-3299
aryCall	-3300
rFormat	-3301
(!	-3302
wd	-3303
DEN	-3304
INA	-3305
bDr	-3306
▁"0	-3307
hook	-3308
prog	-3309
▁Cat	-3310
Strok	-3311
▁Yaml	-3312
dBlock	-3313
▁Fragm	-3314
ckArgum	-3315
AF	-3316
Hr	-3317
FFE	-3318
Pau	-3319
Sdk	-3320
ooq	-3321
▁8,	-3322
2));	-3323
Nano	-3324
zard	-3325
▁mor	-3326
LOCAL	-3327
gd	-3328
Hav	-3329
Pla	-3330
nCl	-3331
▁uu	-3332
0800	-3333
Forc	-3334
nInt	-3335
▁rat	-3336
▁Bord	-3337
▁quot	-3338
bottom	-3339
cargar	-3340
26	-3341
PL	-3342
ELA	-3343
Sal	-3344
tval	-3345
▁dao	-3346
▁mar	-3347
Front	-3348
kInfo	-3349
tomat	-3350
ngamma	-3351
▁month	-3352
▁BlockPo	-3353
▁nullValu	-3354
SV	-3355
glD	-3356
font	-3357
Epoch	-3358
toryS	-3359
▁Book	-3360
(100);	-3361
CONNEC	-3362
upload	-3363
dru	-3364
BACK	-3365
Pull	-3366
rtPr	-3367
▁flu	-3368
tManag	-3369
▁normal	-3370
yPa	-3371
PLAY	-3372
nano	-3373
rOpt	-3374
CACHE	-3375
thodD	-3376
(",");	-3377
workAclNo	-3378
84	-3379
MD	-3380
kS	-3381
nr	-3382
--;	-3383
ADA	-3384
\02	-3385
uhn	-3386
Dupl	-3387
dFor	-3388
▁Edg	-3389
▁car	-3390
IFICA	-3391
vatar	-3392
▁QNam	-3393
▁flow	-3394
mor	-3395
▁EN	-3396
▁IO	-3397
IZED	-3398
]");	-3399
OCESS	-3400
▁Part	-3401
▁blob	-3402
▁only	-3403
Anchor	-3404
forNam	-3405
▁oldInd	-3406
3)	-3407
16.	-3408
Luc	-3409
nOp	-3410
1));	-3411
colB	-3412
vaad	-3413
Actor	-3414
IMEOU	-3415
adInt	-3416
Allocator	-3417
76	-3418
nG	-3419
Cop	-3420
tHo	-3421
▁Dr	-3422
▁pd	-3423
Barr	-3424
NAGE	-3425
[1];	-3426
obot	-3427
▁branch	-3428
▁charact	-3429
▁JSONArray	-3430
tN	-3431
DEC	-3432
(10,	-3433
▁'{}	-3434
PN	-3435
wp	-3436
32(	-3437
ASK	-3438
aAu	-3439
trl	-3440
▁au	-3441
▁yy	-3442
Incr	-3443
Look	-3444
▁mon	-3445
▁you	-3446
Andro	-3447
▁-1);	-3448
▁Stru	-3449
playData	-3450
2()	-3451
ntL	-3452
("\\	-3453
Star	-3454
jooq	-3455
▁hom	-3456
1"));	-3457
Photo	-3458
lookup	-3459
▁capac	-3460
notNull	-3461
=%	-3462
cf	-3463
++]	-3464
IGN	-3465
amp	-3466
cad	-3467
dOn	-3468
rtj	-3469
▁BY	-3470
▁1];	-3471
ADING	-3472
COMPA	-3473
BatchS	-3474
▁Charact	-3475
▁Comparator	-3476
''	-3477
lv	-3478
two	-3479
ulo	-3480
▁"#	-3481
▁dp	-3482
(3);	-3483
GENE	-3484
nInd	-3485
[1]);	-3486
▁Func	-3487
▁Publ	-3488
▁background	-3489
OG	-3490
_8	-3491
0.0	-3492
pot	-3493
▁jm	-3494
ALSE	-3495
Clau	-3496
quot	-3497
▁Mov	-3498
MODEL	-3499
Stamp	-3500
rflow	-3501
tProc	-3502
▁Sock	-3503
▁loop	-3504
thodNam	-3505
So	-3506
za	-3507
:00	-3508
Bot	-3509
CEP	-3510
DAY	-3511
aho	-3512
▁Or	-3513
▁av	-3514
MILLI	-3515
ardwar	-3516
.";	-3517
CAS	-3518
(4);	-3519
MAIN	-3520
VIEW	-3521
rook	-3522
▁Env	-3523
Arrow	-3524
unmod	-3525
21	-3526
[^	-3527
IZE	-3528
[2]	-3529
Addr	-3530
HOME	-3531
wGad	-3532
MEMBE	-3533
▁Font	-3534
rookly	-3535
wGadPo	-3536
MockMvc	-3537
▁FormAttachm	-3538
BI	-3539
Cho	-3540
FIN	-3541
UES	-3542
jud	-3543
▁Fl	-3544
()];	-3545
PAGE	-3546
dMod	-3547
prot	-3548
}");	-3549
▁"."	-3550
Confl	-3551
mazon	-3552
▁Durat	-3553
ColumnNam	-3554
1(	-3555
PP	-3556
ana	-3557
odo	-3558
drop	-3559
mumS	-3560
taff	-3561
▁Stor	-3562
dFutur	-3563
tHandl	-3564
allback	-3565
BB	-3566
mF	-3567
Pha	-3568
CULA	-3569
▁Hor	-3570
ntMod	-3571
▁Pack	-3572
40	-3573
JC	-3574
Src	-3575
ngH	-3576
png	-3577
uru	-3578
utu	-3579
▁FO	-3580
▁fd	-3581
nOpt	-3582
Synta	-3583
bundl	-3584
butor	-3585
tBody	-3586
▁drop	-3587
▁backup	-3588
.\	-3589
Sn	-3590
zu	-3591
EEN	-3592
hak	-3593
rMa	-3594
("</	-3595
ctId	-3596
▁0),	-3597
FOUND	-3598
Googl	-3599
ldAcc	-3600
optFn	-3601
LEADING	-3602
!",	-3603
(0),	-3604
Good	-3605
IMAL	-3606
JobD	-3607
dEnt	-3608
nVar	-3609
▁Scr	-3610
▁bad	-3611
Unava	-3612
nalQu	-3613
volum	-3614
▁Auto	-3615
▁forc	-3616
▁phon	-3617
AEL	-3618
LED	-3619
OVE	-3620
SED	-3621
nPr	-3622
alon	-3623
gacy	-3624
dCach	-3625
toInd	-3626
▁100;	-3627
ldValu	-3628
normal	-3629
▁Sound	-3630
attachm	-3631
(8	-3632
IfN	-3633
rra	-3634
tyD	-3635
▁"3	-3636
▁dc	-3637
ILED	-3638
gnIn	-3639
tLab	-3640
▁5);	-3641
portal	-3642
Country	-3643
▁mFragm	-3644
oJ	-3645
("$	-3646
(";	-3647
>>)	-3648
AIN	-3649
HOU	-3650
nqa	-3651
paym	-3652
▁-1,	-3653
▁Mar	-3654
▁alt	-3655
yStor	-3656
▁Chang	-3657
oL	-3658
失败	-3659
Ack	-3660
WHI	-3661
WID	-3662
ndF	-3663
(1),	-3664
FACE	-3665
barr	-3666
▁Pay	-3667
(""))	-3668
workb	-3669
oActual	-3670
9);	-3671
DBC	-3672
LES	-3673
MON	-3674
USD	-3675
gra	-3676
artm	-3677
blob	-3678
▁Cam	-3679
))));	-3680
EMPLA	-3681
mpAtt	-3682
▁Flow	-3683
NotBlank	-3684
66	-3685
gc	-3686
vp	-3687
(\"	-3688
pho	-3689
▁(1	-3690
▁1.	-3691
▁Gl	-3692
CONS	-3693
Plat	-3694
Solr	-3695
curv	-3696
canva	-3697
futur	-3698
wStat	-3699
Upgrad	-3700
▁contact	-3701
pd	-3702
>>>	-3703
gar	-3704
▁Do	-3705
▁go	-3706
BUIL	-3707
ntPo	-3708
rProp	-3709
▁Arch	-3710
▁Conv	-3711
onymou	-3712
77	-3713
_4	-3714
jk	-3715
oE	-3716
()[	-3717
Imp	-3718
PAN	-3719
ndD	-3720
tbl	-3721
yId	-3722
▁Sl	-3723
Bulk	-3724
SECU	-3725
ngBo	-3726
ntag	-3727
ralS	-3728
tCon	-3729
("201	-3730
watch	-3731
▁2));	-3732
▁qual	-3733
▁trac	-3734
DEFINI	-3735
▁Batch	-3736
NotEqual	-3737
ntFactory	-3738
44	-3739
><	-3740
GP	-3741
(0)	-3742
AML	-3743
AMP	-3744
Utf	-3745
gnE	-3746
rar	-3747
▁ME	-3748
cryp	-3749
ralU	-3750
HEADE	-3751
fully	-3752
Patron	-3753
crypto	-3754
▁manag	-3755
ntCaptor	-3756
Comparabl	-3757
background	-3758
Ga	-3759
Na	-3760
cF	-3761
lM	-3762
00;	-3763
You	-3764
▁aa	-3765
[1],	-3766
plor	-3767
▁ack	-3768
▁bar	-3769
▁foo	-3770
FALSE	-3771
alpha	-3772
canton	-3773
▁1000;	-3774
APPLICA	-3775
agCompound	-3776
SCA	-3777
_12	-3778
("__	-3779
Nonc	-3780
Sugg	-3781
rInt	-3782
Canon	-3783
CharS	-3784
Wrong	-3785
▁Conn	-3786
Attach	-3787
GLOBAL	-3788
factur	-3789
▁watch	-3790
▁DOUBLE	-3791
IB	-3792
LD	-3793
OV	-3794
XY	-3795
nA	-3796
zk	-3797
▁~	-3798
AXB	-3799
EFE	-3800
HAS	-3801
ftS	-3802
rot	-3803
▁NB	-3804
▁pk	-3805
Curv	-3806
MEDI	-3807
rDao	-3808
that	-3809
volv	-3810
HttpH	-3811
ambda	-3812
▁10);	-3813
yboard	-3814
Actuator	-3815
-1	-3816
UB	-3817
Inh	-3818
\03	-3819
gma	-3820
CALL	-3821
▁("_	-3822
▁aud	-3823
▁lay	-3824
(2));	-3825
Mutat	-3826
dynam	-3827
ntPan	-3828
▁Plan	-3829
ournal	-3830
rCount	-3831
Populat	-3832
ProtocolProto	-3833
CI	-3834
cv	-3835
mc	-3836
Fly	-3837
IZA	-3838
alf	-3839
▁8)	-3840
▁cf	-3841
▁cz	-3842
MODI	-3843
llEd	-3844
rAdd	-3845
tOff	-3846
PoolS	-3847
GroupM	-3848
alform	-3849
FromNam	-3850
trocart	-3851
▁populat	-3852
85	-3853
YB	-3854
fu	-3855
NEW	-3856
nAp	-3857
ugg	-3858
▁14	-3859
FULL	-3860
apon	-3861
nOrd	-3862
ruby	-3863
▁(__	-3864
▁fak	-3865
▁tak	-3866
OutOf	-3867
\":\"	-3868
alAcc	-3869
ngPol	-3870
gGraph	-3871
hrough	-3872
SM	-3873
Haz	-3874
_);	-3875
mbl	-3876
("//	-3877
Grpc	-3878
avor	-3879
▁ADD	-3880
Inclu	-3881
durat	-3882
hotId	-3883
ndant	-3884
rSock	-3885
ZCommun	-3886
MILLISECONDS	-3887
FX	-3888
ECE	-3889
OAD	-3890
Pod	-3891
nSp	-3892
DULE	-3893
dOut	-3894
▁ptr	-3895
rtSam	-3896
yword	-3897
Canton	-3898
nColumn	-3899
▁ErrorCod	-3900
Py	-3901
lH	-3902
Loc	-3903
Mol	-3904
UNI	-3905
tPo	-3906
▁6;	-3907
CLUS	-3908
NotE	-3909
Vlan	-3910
matr	-3911
ntIt	-3912
▁Zon	-3913
▁zon	-3914
Facad	-3915
corat	-3916
ELEMEN	-3917
Packabl	-3918
culator	-3919
39	-3920
Km	-3921
IVA	-3922
alD	-3923
uda	-3924
▁3)	-3925
▁[%	-3926
KEYS	-3927
tyUt	-3928
▁[{}	-3929
▁pow	-3930
dBord	-3931
kData	-3932
parql	-3933
ttyPr	-3934
▁Matr	-3935
▁cand	-3936
arDown	-3937
concat	-3938
copyOf	-3939
▁Suppl	-3940
▁Packag	-3941
fp	-3942
corr	-3943
raff	-3944
bydan	-3945
Attack	-3946
ldCount	-3947
75	-3948
("{	-3949
1).	-3950
7);	-3951
>";	-3952
Arn	-3953
CUS	-3954
Pal	-3955
adS	-3956
mud	-3957
ntm	-3958
Adju	-3959
Hook	-3960
IMES	-3961
Para	-3962
Prot	-3963
nalP	-3964
uffl	-3965
zabl	-3966
Unmar	-3967
__");	-3968
chant	-3969
ulary	-3970
vmwar	-3971
ISynta	-3972
▁mCurr	-3973
calculat	-3974
CC	-3975
gt	-3976
Ant	-3977
Old	-3978
gUt	-3979
hou	-3980
▁60	-3981
▁La	-3982
▁zk	-3983
GUYB	-3984
OJEC	-3985
aplo	-3986
DataC	-3987
Stock	-3988
▁than	-3989
hortInfo	-3990
4)	-3991
EAM	-3992
WEB	-3993
ngK	-3994
▁"$	-3995
ENCE	-3996
QNam	-3997
rabb	-3998
{}",	-3999
▁31,	-4000
▁Mot	-4001
cProc	-4002
thNam	-4003
PUBLIC	-4004
yncJob	-4005
▁Futur	-4006
▁ICompl	-4007
48	-4008
QF	-4009
ku	-4010
01,	-4011
__)	-4012
odb	-4013
4");	-4014
atla	-4015
hInd	-4016
jack	-4017
pojo	-4018
prav	-4019
rank	-4020
▁Com	-4021
▁DAO	-4022
7816.	-4023
ABLED	-4024
ratur	-4025
▁buff	-4026
rStatu	-4027
▁Empty	-4028
Portfol	-4029
▁DynamoDb	-4030
▁Platform	-4031
96	-4032
JA	-4033
bd	-4034
jM	-4035
1.0	-4036
bad	-4037
nQu	-4038
nda	-4039
▁Pl	-4040
2").	-4041
SEPA	-4042
ckOn	-4043
ounc	-4044
vlan	-4045
▁0))	-4046
▁NUM	-4047
>>();	-4048
Stopp	-4049
▁wrap	-4050
COMPLE	-4051
althCh	-4052
gotMat	-4053
CALCULA	-4054
CommandS	-4055
rtyChang	-4056
▁Callback	-4057
▁controllabl	-4058
dI	-4059
mr	-4060
wM	-4061
14.	-4062
ANG	-4063
SSL	-4064
__,	-4065
▁"&	-4066
▁20	-4067
rbyt	-4068
rlap	-4069
▁\""	-4070
(100,	-4071
SCALE	-4072
▁'\''	-4073
CEL	-4074
OfW	-4075
\"\	-4076
rOp	-4077
rPr	-4078
thE	-4079
▁99	-4080
▁Wh	-4081
>>()	-4082
Into	-4083
fold	-4084
jLab	-4085
ntIn	-4086
vmMo	-4087
▁"</	-4088
▁4);	-4089
▁AND	-4090
▁{},	-4091
Probl	-4092
maNam	-4093
nImpl	-4094
▁Invo	-4095
dn	-4096
ECU	-4097
Idl	-4098
bpm	-4099
mac	-4100
rEv	-4101
rSu	-4102
▁lp	-4103
(1.0	-4104
ICON	-4105
tomF	-4106
▁Cur	-4107
(0)).	-4108
LABLE	-4109
MEDIA	-4110
▁room	-4111
dChann	-4112
▁BIGIN	-4113
▁quant	-4114
workflow	-4115
:\	-4116
YNC	-4117
raD	-4118
▁mH	-4119
FAIL	-4120
OKEN	-4121
calD	-4122
▁EGL	-4123
▁ann	-4124
Black	-4125
llabl	-4126
▁lookup	-4127
ynchronou	-4128
================	-4129
1[	-4130
Ol	-4131
jf	-4132
;",	-4133
></	-4134
CSV	-4135
SSF	-4136
SUF	-4137
mun	-4138
▁7;	-4139
▁NS	-4140
bulk	-4141
chat	-4142
dark	-4143
mNam	-4144
▁blu	-4145
▁cfg	-4146
."));	-4147
adoop	-4148
oauth	-4149
toUpp	-4150
urabl	-4151
Quorum	-4152
rtualD	-4153
tyPlay	-4154
unlock	-4155
▁analyz	-4156
cabulary	-4157
gS	-4158
AES	-4159
Cpu	-4160
EDI	-4161
[^/	-4162
tOr	-4163
una	-4164
▁IP	-4165
IfAb	-4166
lNam	-4167
ngId	-4168
ntUt	-4169
ntum	-4170
▁1),	-4171
Horar	-4172
ngConf	-4173
ntImpl	-4174
ndM	-4175
▁En	-4176
▁rv	-4177
JPan	-4178
baom	-4179
cour	-4180
lAdd	-4181
rOrd	-4182
tuff	-4183
▁Ela	-4184
▁mdr	-4185
BUFFE	-4186
InByt	-4187
[^/]+	-4188
▁Prog	-4189
▁Broadca	-4190
2[	-4191
fm	-4192
kv	-4193
ln	-4194
pD	-4195
0),	-4196
1()	-4197
CLE	-4198
ISH	-4199
▁8;	-4200
▁SH	-4201
▁ra	-4202
ambl	-4203
fund	-4204
tInt	-4205
tyId	-4206
Campa	-4207
formF	-4208
pound	-4209
quant	-4210
tStat	-4211
lHandl	-4212
▁Encod	-4213
▁Start	-4214
▁round	-4215
unknown	-4216
▁Workflow	-4217
_5	-4218
ftc	-4219
pad	-4220
pul	-4221
rCh	-4222
tSp	-4223
▁7,	-4224
▁df	-4225
ntBu	-4226
oAdd	-4227
tEnt	-4228
yarn	-4229
▁onD	-4230
(10);	-4231
Apply	-4232
Crawl	-4233
InAEL	-4234
archF	-4235
MANAGE	-4236
carbon	-4237
faultS	-4238
Company	-4239
ralEmpl	-4240
rooklyn	-4241
troCart	-4242
▁1000);	-4243
dG	-4244
("0	-4245
ACL	-4246
ILI	-4247
Mmo	-4248
mou	-4249
ngo	-4250
▁'%	-4251
▁md	-4252
(2).	-4253
Supp	-4254
ahoo	-4255
nLay	-4256
nNot	-4257
only	-4258
Quota	-4259
datog	-4260
▁Cond	-4261
ESPACE	-4262
tGroup	-4263
DY	-4264
UG	-4265
[5	-4266
dU	-4267
-01	-4268
1";	-4269
234	-4270
anS	-4271
ckS	-4272
dWr	-4273
ndS	-4274
▁11	-4275
▁19	-4276
FLOA	-4277
PACK	-4278
SBML	-4279
alyt	-4280
caff	-4281
ldap	-4282
mong	-4283
pant	-4284
tAnd	-4285
▁bot	-4286
DatoG	-4287
gular	-4288
nMatr	-4289
▁Cart	-4290
▁your	-4291
DECIMAL	-4292
dColumn	-4293
rUnpack	-4294
▁Contact	-4295
maryStorag	-4296
▁DataSourc	-4297
Pk	-4298
fn	-4299
DEL	-4300
OUN	-4301
PCB	-4302
Ptr	-4303
aco	-4304
lUt	-4305
LICY	-4306
SKIP	-4307
loor	-4308
rrar	-4309
▁","	-4310
KEYWO	-4311
ntaho	-4312
▁Stop	-4313
/[^/]+	-4314
Inform	-4315
POLICY	-4316
QualSp	-4317
SUFFIX	-4318
ntAndG	-4319
rtyNam	-4320
wallSub	-4321
▁Drawabl	-4322
▁download	-4323
▁paramParc	-4324
."	-4325
.2	-4326
PH	-4327
00)	-4328
10.	-4329
hon	-4330
ung	-4331
upo	-4332
▁km	-4333
Each	-4334
trad	-4335
▁Adm	-4336
▁Cpp	-4337
PoolE	-4338
▁LONG	-4339
ntInfo	-4340
voProv	-4341
Anonymou	-4342
Compartm	-4343
download	-4344
CLASSNAME	-4345
▁DataStructur	-4346
>("	-4347
Mac	-4348
Slf	-4349
amS	-4350
nha	-4351
onS	-4352
tOn	-4353
▁!(	-4354
▁ON	-4355
▁mI	-4356
Bank	-4357
ByPr	-4358
Dump	-4359
Many	-4360
nPan	-4361
rtyD	-4362
tryD	-4363
crambl	-4364
rollback	-4365
▁Protocol	-4366
-0	-4367
VK	-4368
nU	-4369
{"	-4370
)];	-4371
--)	-4372
/",	-4373
006	-4374
SEN	-4375
YEA	-4376
acl	-4377
don	-4378
▁da	-4379
IZON	-4380
Jdbc	-4381
copt	-4382
actly	-4383
parat	-4384
▁vmId	-4385
anInfo	-4386
factor	-4387
tOptFn	-4388
▁optFn	-4389
▁GLOBAL	-4390
-9	-4391
NG	-4392
oM	-4393
wD	-4394
JOB	-4395
Pdf	-4396
Unc	-4397
Vol	-4398
vol	-4399
▁OU	-4400
▁dl	-4401
▁fo	-4402
▁mF	-4403
▁mV	-4404
000,	-4405
<?>)	-4406
LINK	-4407
dInt	-4408
rtQu	-4409
▁cut	-4410
()");	-4411
IONAL	-4412
INFINI	-4413
NullOr	-4414
tBlock	-4415
upport	-4416
caffold	-4417
2:	-4418
65	-4419
oU	-4420
IFI	-4421
Mak	-4422
VIC	-4423
pub	-4424
thM	-4425
▁1:	-4426
▁MQ	-4427
▁Py	-4428
(5);	-4429
pawn	-4430
▁Pow	-4431
ADMIN	-4432
altar	-4433
nombr	-4434
▁mayb	-4435
umulat	-4436
Formula	-4437
Polygon	-4438
ufactur	-4439
tFactory	-4440
OutOfBound	-4441
:%	-4442
Hp	-4443
JO	-4444
VC	-4445
cH	-4446
cn	-4447
PKG	-4448
aff	-4449
oCh	-4450
rob	-4451
tyS	-4452
zur	-4453
▁Go	-4454
ANGE	-4455
Cand	-4456
Poll	-4457
YPES	-4458
ctat	-4459
nalD	-4460
tagl	-4461
▁Jar	-4462
▁Mol	-4463
▁zzF	-4464
Album	-4465
LAYOU	-4466
atory	-4467
turnG	-4468
FAILED	-4469
▁10000	-4470
▁Coord	-4471
▁World	-4472
87	-4473
EGL	-4474
UNC	-4475
Wat	-4476
ngL	-4477
onu	-4478
▁OB	-4479
▁PO	-4480
ANCE	-4481
nEnt	-4482
nFor	-4483
nVal	-4484
tCod	-4485
yaml	-4486
▁-9,	-4487
▁gap	-4488
▁tbl	-4489
Spark	-4490
Vmwar	-4491
chunk	-4492
▁100,	-4493
▁XmlS	-4494
▁curv	-4495
rodrom	-4496
tStatu	-4497
DISPLAY	-4498
PorIdPa	-4499
mulator	-4500
▁GlStat	-4501
▁attach	-4502
########	-4503
UploadNot	-4504
aB	-4505
cE	-4506
2).	-4507
AIL	-4508
PAY	-4509
SEC	-4510
Vot	-4511
tak	-4512
umm	-4513
++);	-4514
COLO	-4515
FFFF	-4516
orHo	-4517
zook	-4518
▁JBa	-4519
▁mob	-4520
ENCES	-4521
XCont	-4522
jobId	-4523
onPar	-4524
umbna	-4525
yahoo	-4526
INDING	-4527
gurabl	-4528
▁captur	-4529
ISUSAEJBHOME	-4530
3_	-4531
IX	-4532
qn	-4533
tI	-4534
GED	-4535
Unr	-4536
arl	-4537
ngF	-4538
uba	-4539
▁CH	-4540
▁jp	-4541
▁}\	-4542
1\1\	-4543
AndF	-4544
calc	-4545
ngPr	-4546
poll	-4547
tVar	-4548
tyQu	-4549
▁Mon	-4550
gnabl	-4551
malUt	-4552
rAttr	-4553
▁warn	-4554
DOUBLE	-4555
llStyl	-4556
nStrat	-4557
▁{"));	-4558
tractPlat	-4559
$$	-4560
<<	-4561
DP	-4562
vf	-4563
Jav	-4564
NEL	-4565
tdb	-4566
upp	-4567
urg	-4568
vot	-4569
▁mB	-4570
COMP	-4571
OnIt	-4572
rPan	-4573
tJob	-4574
▁Man	-4575
▁loc	-4576
2"));	-4577
>());	-4578
taMod	-4579
ACCESS	-4580
faultM	-4581
mporal	-4582
ngData	-4583
MISSION	-4584
tyParam	-4585
▁MCOMPA	-4586
productId	-4587
bt	-4588
kd	-4589
nI	-4590
rI	-4591
)";	-4592
fla	-4593
lId	-4594
rBa	-4595
rOr	-4596
Guru	-4597
Plot	-4598
bord	-4599
tlab	-4600
▁vol	-4601
Chrom	-4602
Contr	-4603
cData	-4604
pagat	-4605
portS	-4606
rStub	-4607
yForm	-4608
▁FILE	-4609
captur	-4610
ngBoot	-4611
tMatch	-4612
▁Solut	-4613
tCompar	-4614
PorNombr	-4615
UnknownF	-4616
rformanc	-4617
JS	-4618
bv	-4619
qp	-4620
0",	-4621
DIG	-4622
Dot	-4623
EAS	-4624
EGA	-4625
SDK	-4626
gml	-4627
moj	-4628
wap	-4629
▁OP	-4630
▁fa	-4631
Acqu	-4632
AndS	-4633
artb	-4634
attl	-4635
▁ant	-4636
▁two	-4637
BOOLE	-4638
Patch	-4639
▁atom	-4640
Ground	-4641
analyt	-4642
dArray	-4643
nStart	-4644
rthday	-4645
BlockPo	-4646
urround	-4647
Informac	-4648
▁Comparabl	-4649
0_	-4650
6_	-4651
89	-4652
QN	-4653
Hou	-4654
VEv	-4655
[],	-4656
fml	-4657
pdu	-4658
rWr	-4659
vro	-4660
▁dt	-4661
▁om	-4662
'");	-4663
Drag	-4664
HAND	-4665
Noth	-4666
aAct	-4667
atac	-4668
ntUn	-4669
tAll	-4670
unda	-4671
▁20;	-4672
▁Bad	-4673
▁att	-4674
▁cov	-4675
▁upp	-4676
(200,	-4677
JobSp	-4678
ackbar	-4679
rStack	-4680
togram	-4681
BOOLEAN	-4682
glEnabl	-4683
mongodb	-4684
▁paramInt	-4685
(\	-4686
;\	-4687
gD	-4688
hc	-4689
Mag	-4690
ooK	-4691
rID	-4692
rPo	-4693
Wall	-4694
chan	-4695
cook	-4696
dGap	-4697
nUrl	-4698
rPol	-4699
uddy	-4700
▁201	-4701
▁lbl	-4702
Charg	-4703
Spawn	-4704
ckNot	-4705
gValu	-4706
▁angl	-4707
SECOND	-4708
tCommand	-4709
27	-4710
dv	-4711
lm	-4712
nC	-4713
FIL	-4714
GUI	-4715
adF	-4716
adM	-4717
ddr	-4718
nct	-4719
ntV	-4720
oad	-4721
▁13	-4722
CPtr	-4723
DoFn	-4724
GAME	-4725
mLay	-4726
nPar	-4727
▁Clo	-4728
▁Pol	-4729
▁nav	-4730
▁pau	-4731
NoArg	-4732
lDato	-4733
uranc	-4734
▁Analy	-4735
NAMESPACE	-4736
daPorIdPa	-4737
Vocabulary	-4738
jScrollPan	-4739
47	-4740
fd	-4741
pE	-4742
("_	-4743
29.	-4744
LAS	-4745
alS	-4746
▁CA	-4747
▁Jo	-4748
▁Lo	-4749
▁pm	-4750
=");	-4751
LIGH	-4752
walk	-4753
AndWa	-4754
▁Styl	-4755
▁good	-4756
▁hour	-4757
ENSION	-4758
Purcha	-4759
agraph	-4760
rnalId	-4761
▁latch	-4762
Columna	-4763
DataAcc	-4764
Structu	-4765
through	-4766
▁follow	-4767
kControll	-4768
OA	-4769
pM	-4770
▁#	-4771
64.	-4772
SEL	-4773
apS	-4774
ona	-4775
tly	-4776
▁IM	-4777
1"),	-4778
INPU	-4779
PING	-4780
ctUr	-4781
nCon	-4782
rman	-4783
tacl	-4784
▁11,	-4785
▁Nat	-4786
▁mPa	-4787
tygml	-4788
SubClu	-4789
mFragm	-4790
nGroup	-4791
onProp	-4792
▁mCall	-4793
andatory	-4794
▁forward	-4795
▁CommandL	-4796
3/	-4797
oH	-4798
01;	-4799
Gau	-4800
Som	-4801
cPr	-4802
oda	-4803
▁(-	-4804
▁AL	-4805
("--	-4806
AMAN	-4807
Graf	-4808
Incl	-4809
Phra	-4810
oMod	-4811
jruby	-4812
▁Scal	-4813
archar	-4814
nChang	-4815
ryPlug	-4816
▁alpha	-4817
▁oprot	-4818
(1000);	-4819
nCommand	-4820
Calculator	-4821
3(	-4822
Jp	-4823
["	-4824
12.	-4825
MAY	-4826
WES	-4827
onN	-4828
pto	-4829
rtS	-4830
uta	-4831
▁hr	-4832
(-1,	-4833
Lazy	-4834
SPEC	-4835
YAML	-4836
adPo	-4837
akpo	-4838
ntQu	-4839
▁For	-4840
SPACE	-4841
▁Canc	-4842
▁Mark	-4843
Inflat	-4844
anchor	-4845
▁CharS	-4846
DcMotor	-4847
////////	-4848
SB	-4849
mW	-4850
rC	-4851
Enh	-4852
IID	-4853
dHo	-4854
ghb	-4855
hmc	-4856
ntG	-4857
ptS	-4858
ryo	-4859
▁EC	-4860
▁LA	-4861
▁am	-4862
CAME	-4863
Grav	-4864
tupl	-4865
▁ALL	-4866
▁COM	-4867
▁Eff	-4868
ntFor	-4869
umulo	-4870
lParam	-4871
ngStub	-4872
ntAtom	-4873
yManag	-4874
ENDPOIN	-4875
camunda	-4876
nActual	-4877
▁anchor	-4878
ShortNumb	-4879
▁productId	-4880
("*	-4881
2),	-4882
202	-4883
DOM	-4884
EPL	-4885
kan	-4886
tap	-4887
▁'}	-4888
▁IF	-4889
▁JB	-4890
▁fl	-4891
BINA	-4892
EXIS	-4893
JDBC	-4894
Shop	-4895
brar	-4896
gNam	-4897
▁200	-4898
▁hud	-4899
▁may	-4900
▁myS	-4901
\030\	-4902
wConn	-4903
▁prob	-4904
ESSION	-4905
XmlNam	-4906
ubPlan	-4907
▁robot	-4908
FullNam	-4909
cantonB	-4910
tagPool	-4911
▁contract	-4912
6-	-4913
lr	-4914
mM	-4915
(25	-4916
GEN	-4917
NaN	-4918
lon	-4919
mpD	-4920
nqu	-4921
oma	-4922
rby	-4923
1234	-4924
Bann	-4925
IMUM	-4926
Wrap	-4927
adoc	-4928
good	-4929
kOff	-4930
rcHo	-4931
ural	-4932
▁EMP	-4933
▁occ	-4934
IpAdd	-4935
Solut	-4936
ctInd	-4937
dConf	-4938
lavor	-4939
ngNam	-4940
nuBar	-4941
▁cook	-4942
▁doAn	-4943
CHANGE	-4944
dGraph	-4945
ntrant	-4946
tChang	-4947
▁Sampl	-4948
Malform	-4949
PullPar	-4950
onArray	-4951
rnalNam	-4952
Shutdown	-4953
▁Invocat	-4954
▁toolbar	-4955
rCallback	-4956
▁Controll	-4957
▁workflow	-4958
kD	-4959
tg	-4960
808	-4961
:",	-4962
AtL	-4963
ByE	-4964
kIn	-4965
kar	-4966
nOn	-4967
oUn	-4968
rCr	-4969
▁Aw	-4970
▁Br	-4971
POWE	-4972
Prob	-4973
Walk	-4974
cabl	-4975
hand	-4976
rAct	-4977
EndPo	-4978
algor	-4979
nProc	-4980
Amazon	-4981
Follow	-4982
LatLng	-4983
backup	-4984
branch	-4985
pManag	-4986
tError	-4987
▁Smart	-4988
ntPackag	-4989
vInvocat	-4990
▁allocat	-4991
▁APIError	-4992
45	-4993
DC	-4994
hw	-4995
lF	-4996
ALI	-4997
CBC	-4998
Eth	-4999
HAL	-5000
nID	-5001
▁2:	-5002
▁Mo	-5003
▁fn	-5004
▁mE	-5005
▁mb	-5006
Prom	-5007
brok	-5008
nOut	-5009
onal	-5010
onto	-5011
tart	-5012
▁DES	-5013
ABASE	-5014
XmEnt	-5015
ndAud	-5016
▁"]";	-5017
▁Null	-5018
▁cour	-5019
AMANIO	-5020
mCount	-5021
▁IData	-5022
ntGraph	-5023
onError	-5024
▁produc	-5025
▁jComboBo	-5026
▁actualBlob	-5027
IE	-5028
VG	-5029
rU	-5030
Alr	-5031
OLD	-5032
[3]	-5033
▁(2	-5034
▁mc	-5035
Foot	-5036
IELD	-5037
LEAN	-5038
ONLY	-5039
SqlS	-5040
brat	-5041
hoot	-5042
ngIn	-5043
zarB	-5044
▁MIN	-5045
▁rkm	-5046
IMAGE	-5047
bSock	-5048
black	-5049
ntOpt	-5050
▁Lock	-5051
▁bord	-5052
▁conc	-5053
▁poly	-5054
Advanc	-5055
toJSON	-5056
▁Volum	-5057
▁dynam	-5058
▁vmNam	-5059
▁ACCOUN	-5060
▁COLUMN	-5061
▁launch	-5062
zarActual	-5063
NullOrEmpty	-5064
.5	-5065
DH	-5066
kF	-5067
lE	-5068
},	-5069
FOO	-5070
abc	-5071
aut	-5072
dAc	-5073
ldM	-5074
qrt	-5075
rvo	-5076
tut	-5077
▁0:	-5078
▁36	-5079
▁UP	-5080
Goal	-5081
LEVE	-5082
MINU	-5083
OPEN	-5084
OPIC	-5085
[1].	-5086
cand	-5087
cron	-5088
onom	-5089
rpol	-5090
▁raf	-5091
forum	-5092
guard	-5093
ntInt	-5094
▁Aggr	-5095
▁Icon	-5096
▁JAXB	-5097
▁SBML	-5098
▁\001	-5099
▁func	-5100
▁")");	-5101
▁alarm	-5102
▁forum	-5103
▁paramK	-5104
rpolator	-5105
▁locator	-5106
▁onCompl	-5107
ndowManag	-5108
rControll	-5109
PayloadCat	-5110
****************	-5111
(9	-5112
86	-5113
CN	-5114
oP	-5115
("1	-5116
BAD	-5117
FOL	-5118
ODU	-5119
Plc	-5120
ngB	-5121
oap	-5122
pau	-5123
tyL	-5124
EGIS	-5125
acao	-5126
ctHa	-5127
ctoB	-5128
gEnt	-5129
mana	-5130
rcla	-5131
▁fdl	-5132
▁nom	-5133
-8");	-5134
nCall	-5135
ntSub	-5136
rottl	-5137
udadB	-5138
▁coll	-5139
dChang	-5140
ngValu	-5141
ntData	-5142
rchant	-5143
CHANNEL	-5144
▁HttpCl	-5145
▁factor	-5146
LocalVar	-5147
nControl	-5148
tantPool	-5149
rformControl	-5150
▁Controllabl	-5151
2<	-5152
8_	-5153
[6	-5154
▁,	-5155
('\	-5156
(15	-5157
6",	-5158
Jpa	-5159
PED	-5160
bra	-5161
ldW	-5162
mul	-5163
onv	-5164
utf	-5165
▁GE	-5166
000;	-5167
Gray	-5168
hAnd	-5169
hmct	-5170
rono	-5171
▁":"	-5172
▁BOO	-5173
OutPt	-5174
Purpo	-5175
VICES	-5176
bAppl	-5177
rypto	-5178
toInt	-5179
▁Clon	-5180
▁Comm	-5181
▁butt	-5182
▁hand	-5183
▁mInd	-5184
Manual	-5185
mGroup	-5186
ntStor	-5187
▁Googl	-5188
nonNull	-5189
>>>>>>>>	-5190
CommandL	-5191
▁UnaryCall	-5192
NI	-5193
NN	-5194
UD	-5195
XX	-5196
cV	-5197
kt	-5198
nZ	-5199
pf	-5200
(//	-5201
007	-5202
MOB	-5203
jvm	-5204
ntB	-5205
onF	-5206
pIn	-5207
▁PE	-5208
▁ol	-5209
Badg	-5210
INDO	-5211
artz	-5212
choo	-5213
ndOn	-5214
pAdd	-5215
▁Haz	-5216
▁Hyp	-5217
Intra	-5218
▁'{}'	-5219
▁0.0;	-5220
▁Bank	-5221
rBlock	-5222
▁Adapt	-5223
BINDING	-5224
hardwar	-5225
hotInfo	-5226
▁mHandl	-5227
rDrawabl	-5228
CommandEv	-5229
VocabularyValu	-5230
0:	-5231
HS	-5232
Io	-5233
gb	-5234
wF	-5235
yF	-5236
("@	-5237
Dnn	-5238
gaf	-5239
▁17	-5240
▁VA	-5241
▁ga	-5242
ANDA	-5243
SEVE	-5244
kotl	-5245
lood	-5246
rCod	-5247
rOut	-5248
▁Fak	-5249
▁MAP	-5250
EXECU	-5251
MAYBE	-5252
\022\	-5253
▁rand	-5254
MODULE	-5255
▁100);	-5256
▁Bound	-5257
OrUpdat	-5258
▁Backup	-5259
▁\001(\	-5260
▁balanc	-5261
maryStag	-5262
▁BOOLEAN	-5263
IEN	-5264
MOD	-5265
alH	-5266
cAg	-5267
ckD	-5268
dcr	-5269
dog	-5270
had	-5271
rkn	-5272
tyW	-5273
▁31	-5274
▁4)	-5275
▁lv	-5276
▁nl	-5277
Clon	-5278
Xgaf	-5279
dCon	-5280
flak	-5281
ltaX	-5282
nDao	-5283
yunc	-5284
▁1))	-5285
▁>>>	-5286
▁Car	-5287
▁pod	-5288
Xgafv	-5289
crual	-5290
front	-5291
nProp	-5292
oShap	-5293
▁Pool	-5294
ENCODE	-5295
akdown	-5296
▁nombr	-5297
nowflak	-5298
▁Launch	-5299
3:	-5300
Aw	-5301
mI	-5302
oa	-5303
(":	-5304
789	-5305
INC	-5306
aka	-5307
dza	-5308
fak	-5309
mbr	-5310
omb	-5311
thF	-5312
toH	-5313
▁bt	-5314
Solv	-5315
UNDE	-5316
ZkCl	-5317
]));	-5318
rAcc	-5319
rock	-5320
utor	-5321
▁cnt	-5322
Forum	-5323
FromM	-5324
HEIGH	-5325
bhook	-5326
ngInt	-5327
pData	-5328
yMock	-5329
▁vlan	-5330
PopupM	-5331
arProv	-5332
▁modal	-5333
Javadoc	-5334
▁chunkS	-5335
DataStor	-5336
thodCall	-5337
▁hardwar	-5338
UnaryCall	-5339
DataStructur	-5340
Va	-5341
ko	-5342
lc	-5343
rY	-5344
vr	-5345
(6,	-5346
ASS	-5347
Adv	-5348
HBa	-5349
JID	-5350
SAL	-5351
SEA	-5352
UNA	-5353
]))	-5354
glu	-5355
pWr	-5356
rdf	-5357
tan	-5358
▁"5	-5359
▁Pu	-5360
(201	-5361
0\1\	-5362
Slow	-5363
UNCH	-5364
tand	-5365
▁256	-5366
▁Sav	-5367
DataD	-5368
Partn	-5369
cInfo	-5370
▁1024	-5371
▁Subj	-5372
▁topo	-5373
attack	-5374
pBlock	-5375
PACKAGE	-5376
nackbar	-5377
ngGroup	-5378
▁rowInd	-5379
houldHav	-5380
Populator	-5381
bg	-5382
(1)	-5383
EDU	-5384
hub	-5385
nMa	-5386
tWr	-5387
udo	-5388
▁cm	-5389
▁mW	-5390
▁pf	-5391
Clob	-5392
jfac	-5393
onId	-5394
▁2).	-5395
▁pla	-5396
AIOpt	-5397
ambar	-5398
cAtom	-5399
factM	-5400
nProj	-5401
ndabl	-5402
ntInd	-5403
ually	-5404
unway	-5405
▁"1",	-5406
▁'}';	-5407
▁Stud	-5408
▁VMIn	-5409
Enhanc	-5410
coProv	-5411
goryId	-5412
rnally	-5413
ryConf	-5414
▁mData	-5415
IALIZED	-5416
Proporc	-5417
▁ParamK	-5418
DataProv	-5419
▁Program	-5420
ultColumn	-5421
ValorProporc	-5422
-"	-5423
Jm	-5424
PS	-5425
nJ	-5426
nz	-5427
ACC	-5428
ADE	-5429
ESE	-5430
HIS	-5431
mut	-5432
ryD	-5433
toU	-5434
▁Ea	-5435
▁ja	-5436
(21)	-5437
DING	-5438
EXPI	-5439
cEnt	-5440
hour	-5441
nPag	-5442
ngBu	-5443
ntly	-5444
ollo	-5445
ough	-5446
poly	-5447
unct	-5448
▁Cap	-5449
▁cor	-5450
▁dup	-5451
EXCEP	-5452
fStyl	-5453
ngton	-5454
▁Draw	-5455
▁Paym	-5456
achabl	-5457
ckStat	-5458
fyData	-5459
▁"'");	-5460
▁Board	-5461
EDEFAUL	-5462
carProv	-5463
populat	-5464
JComboBo	-5465
ColumnFam	-5466
▁JComboBo	-5467
▁Structur	-5468
▁throwabl	-5469
oolBarProv	-5470
53	-5471
?,	-5472
bj	-5473
fP	-5474
gE	-5475
wV	-5476
25.	-5477
ADO	-5478
OfS	-5479
[].	-5480
aId	-5481
dap	-5482
nCr	-5483
ptr	-5484
▁Bl	-5485
▁rh	-5486
("1.	-5487
(500	-5488
*");	-5489
AndD	-5490
Mono	-5491
ckup	-5492
ldId	-5493
yAnd	-5494
▁Att	-5495
▁Mou	-5496
▁gat	-5497
dProp	-5498
playM	-5499
ptCod	-5500
rFrom	-5501
▁chat	-5502
BagLay	-5503
onProc	-5504
▁Dummy	-5505
▁capab	-5506
▁conta	-5507
mockLuc	-5508
narProv	-5509
owCount	-5510
jackrabb	-5511
propagat	-5512
AW	-5513
Ea	-5514
[(	-5515
("(	-5516
999	-5517
AFE	-5518
FQN	-5519
Mav	-5520
Mut	-5521
hud	-5522
mol	-5523
mpu	-5524
por	-5525
rtL	-5526
▁(;	-5527
▁mP	-5528
$");	-5529
(0.0	-5530
(100	-5531
Dock	-5532
mach	-5533
▁pub	-5534
EXPEC	-5535
Major	-5536
NAMES	-5537
dFrom	-5538
fromJ	-5539
month	-5540
nStag	-5541
▁CODE	-5542
▁DESC	-5543
▁dupl	-5544
▁myDt	-5545
SINGLE	-5546
fMatch	-5547
maInfo	-5548
rBound	-5549
▁""));	-5550
▁DbEnt	-5551
ForValu	-5552
ncyNumb	-5553
anFactory	-5554
thodHandl	-5555
pcControll	-5556
DL	-5557
gK	-5558
hK	-5559
mP	-5560
oN	-5561
Dom	-5562
EAL	-5563
OrD	-5564
dUn	-5565
rCo	-5566
tAp	-5567
ySp	-5568
▁wl	-5569
/");	-5570
5");	-5571
chno	-5572
mtrl	-5573
thou	-5574
topo	-5575
▁cod	-5576
▁dto	-5577
01003	-5578
Study	-5579
ngEnt	-5580
rnalE	-5581
tCond	-5582
▁5));	-5583
▁Snap	-5584
▁marg	-5585
▁dbEnt	-5586
▁popup	-5587
COMMAND	-5588
ktopPan	-5589
toActual	-5590
nCallback	-5591
lw	-5592
1_1	-5593
DLE	-5594
Edm	-5595
Npr	-5596
]],	-5597
ovy	-5598
pAl	-5599
zzF	-5600
BLUE	-5601
Nrul	-5602
PUSH	-5603
SHOW	-5604
SQLS	-5605
cdwa	-5606
ctly	-5607
marg	-5608
oVar	-5609
oolt	-5610
tStr	-5611
tado	-5612
▁DIS	-5613
▁SSL	-5614
CLOSE	-5615
alloc	-5616
capac	-5617
nNumb	-5618
roPag	-5619
roovy	-5620
tCont	-5621
▁NAME	-5622
▁tupl	-5623
faultE	-5624
▁VALID	-5625
▁jobId	-5626
▁probl	-5627
DataSnap	-5628
andomAcc	-5629
ultMatch	-5630
toryGroup	-5631
2/	-5632
3[	-5633
8(	-5634
IV	-5635
_)	-5636
bp	-5637
1),	-5638
DaD	-5639
DaS	-5640
Grp	-5641
Lot	-5642
cao	-5643
dDt	-5644
fha	-5645
kku	-5646
nCh	-5647
rAp	-5648
}";	-5649
▁IG	-5650
▁WI	-5651
▁dv	-5652
("11	-5653
(2),	-5654
ABUI	-5655
DIGI	-5656
aDaS	-5657
mozu	-5658
nkag	-5659
▁dcl	-5660
BLACK	-5661
Kafka	-5662
MODIF	-5663
archS	-5664
chrom	-5665
contr	-5666
ngAct	-5667
ryOpt	-5668
▁Prom	-5669
▁onIt	-5670
analyz	-5671
mpukku	-5672
ralEnt	-5673
▁"]");	-5674
▁Candy	-5675
▁Horar	-5676
▁damag	-5677
▁propo	-5678
adCount	-5679
automat	-5680
........	-5681
ffffffff	-5682
maryHold	-5683
rCommand	-5684
umulator	-5685
▁Nullabl	-5686
NotSupport	-5687
faultXmlNam	-5688
4\	-5689
:/	-5690
MU	-5691
[:	-5692
cL	-5693
oV	-5694
}"	-5695
(10	-5696
(7,	-5697
123	-5698
EGO	-5699
PLA	-5700
WAI	-5701
jca	-5702
kQu	-5703
ngP	-5704
▁"1	-5705
▁gh	-5706
01);	-5707
Corn	-5708
HASH	-5709
dump	-5710
gurt	-5711
hLay	-5712
umpt	-5713
▁APP	-5714
▁Lay	-5715
▁myD	-5716
▁yyb	-5717
(3));	-5718
Grant	-5719
OVIDE	-5720
ghbor	-5721
owInd	-5722
produ	-5723
thodB	-5724
▁Cour	-5725
AllArg	-5726
llator	-5727
ngStat	-5728
foundat	-5729
ngEnabl	-5730
ngStrat	-5731
▁VALUES	-5732
CharArray	-5733
▁FormData	-5734
ProduProducto	-5735
0[	-5736
OD	-5737
XA	-5738
jc	-5739
pv	-5740
ANY	-5741
Cro	-5742
Fak	-5743
GES	-5744
GLE	-5745
agr	-5746
hab	-5747
ngW	-5748
ryS	-5749
zza	-5750
▁*=	-5751
▁BU	-5752
▁Sc	-5753
▁cb	-5754
▁lt	-5755
EXPO	-5756
Gaug	-5757
MASK	-5758
ODUC	-5759
ando	-5760
catt	-5761
▁10)	-5762
▁16)	-5763
▁got	-5764
▁tcp	-5765
(-1);	-5766
ALLOW	-5767
Intro	-5768
agNam	-5769
plann	-5770
rador	-5771
vatur	-5772
▁Show	-5773
▁Span	-5774
▁Stag	-5775
adPool	-5776
cArray	-5777
kManag	-5778
kStatu	-5779
llValu	-5780
ynchQu	-5781
▁OBJEC	-5782
▁confl	-5783
▁touch	-5784
nalValu	-5785
▁Hadoop	-5786
▁zzMark	-5787
ctColumn	-5788
yFactory	-5789
BulkJobSp	-5790
VmWorkJob	-5791
SQLSynchQu	-5792
]\	-5793
lk	-5794
pg	-5795
rX	-5796
SYN	-5797
VED	-5798
ctL	-5799
oak	-5800
yun	-5801
▁9,	-5802
SEQU	-5803
anUp	-5804
joda	-5805
lopm	-5806
ltaY	-5807
ndPo	-5808
ndly	-5809
rPag	-5810
trav	-5811
tyIn	-5812
ucur	-5813
umor	-5814
zEdg	-5815
▁"',	-5816
▁DOM	-5817
▁Ema	-5818
▁Lat	-5819
▁Put	-5820
▁mac	-5821
▁onS	-5822
AutoG	-5823
cpach	-5824
gCPtr	-5825
mData	-5826
unmar	-5827
▁Parc	-5828
▁acqu	-5829
▁turn	-5830
010101	-5831
InfoVo	-5832
YamlIn	-5833
govEmp	-5834
ldcard	-5835
▁motor	-5836
SortOrd	-5837
forward	-5838
▁VmWork	-5839
▁advanc	-5840
accumulo	-5841
factPlan	-5842
▁OSQLSynchQu	-5843
1-	-5844
54	-5845
fk	-5846
lW	-5847
mE	-5848
pS	-5849
():	-5850
Iam	-5851
SIS	-5852
Sol	-5853
kub	-5854
mpo	-5855
opc	-5856
pod	-5857
▁CU	-5858
▁HH	-5859
▁dy	-5860
▁mL	-5861
adWr	-5862
cdap	-5863
dPag	-5864
ntCh	-5865
ntor	-5866
pany	-5867
▁Laz	-5868
▁hdp	-5869
▁mav	-5870
▁},\	-5871
10000	-5872
Chall	-5873
Craft	-5874
Knowl	-5875
ntrum	-5876
▁Chat	-5877
<>());	-5878
ngboot	-5879
ynonym	-5880
▁Mongo	-5881
OrEqual	-5882
malHold	-5883
workJob	-5884
Bookmark	-5885
MQProduc	-5886
▁oldValu	-5887
ProtocolV	-5888
▁StandardSQL	-5889
']	-5890
/%	-5891
79	-5892
8)	-5893
GA	-5894
jd	-5895
3()	-5896
64;	-5897
Boo	-5898
DEX	-5899
Ill	-5900
ONY	-5901
Sat	-5902
chn	-5903
fly	-5904
nuS	-5905
▁"4	-5906
▁"@	-5907
▁VI	-5908
LIKE	-5909
brow	-5910
ckEv	-5911
gabl	-5912
kBar	-5913
latt	-5914
rGap	-5915
ralD	-5916
ruth	-5917
topp	-5918
undo	-5919
▁[[:	-5920
())))	-5921
LEVEL	-5922
aught	-5923
huffl	-5924
nSucc	-5925
oPool	-5926
rHold	-5927
rProc	-5928
rtDnn	-5929
tyNam	-5930
CANCEL	-5931
dCapac	-5932
ngAppl	-5933
▁actor	-5934
▁album	-5935
▁front	-5936
atagram	-5937
ngHandl	-5938
brooklyn	-5939
mockStor	-5940
valuator	-5941
InfoEnabl	-5942
LoadBalanc	-5943
WorkPackag	-5944
▁GlobalVar	-5945
_"	-5946
成功	-5947
2.0	-5948
Nom	-5949
OUS	-5950
San	-5951
ctS	-5952
mpa	-5953
udu	-5954
▁3:	-5955
▁Vk	-5956
▁pp	-5957
FILL	-5958
ForD	-5959
JAVA	-5960
LIMI	-5961
VOKE	-5962
prob	-5963
rAnd	-5964
▁"'"	-5965
▁Spl	-5966
("100	-5967
OAuth	-5968
capab	-5969
wData	-5970
▁Copy	-5971
▁grad	-5972
ldData	-5973
ntCont	-5974
tyMark	-5975
▁"%");	-5976
▁INDEX	-5977
thought	-5978
StartOff	-5979
▁Compound	-5980
faultMQProduc	-5981
Dn	-5982
JM	-5983
QS	-5984
异常	-5985
Alb	-5986
ByD	-5987
FEA	-5988
INF	-5989
IPO	-5990
Onc	-5991
SUP	-5992
ckF	-5993
ctV	-5994
gac	-5995
nBu	-5996
nlp	-5997
rNC	-5998
rly	-5999
rtN	-6000
tmq	-6001
wcc	-6002
▁"(	-6003
▁VE	-6004
▁pw	-6005
▁rc	-6006
Bold	-6007
INGS	-6008
SAML	-6009
Shad	-6010
[2];	-6011
andr	-6012
cInd	-6013
dupl	-6014
grav	-6015
tort	-6016
▁"-"	-6017
▁Eng	-6018
▁HAS	-6019
▁Inf	-6020
▁Mob	-6021
Mongo	-6022
ndMod	-6023
nkabl	-6024
rMock	-6025
tProp	-6026
▁Lang	-6027
taStor	-6028
▁Shard	-6029
cAtomQF	-6030
ollback	-6031
FromGroup	-6032
nProducto	-6033
rtNotEqual	-6034
50	-6035
CD	-6036
VS	-6037
aD	-6038
mV	-6039
("^	-6040
>[]	-6041
LOY	-6042
SCO	-6043
bCl	-6044
lbc	-6045
mkd	-6046
ncv	-6047
tcp	-6048
▁29	-6049
▁</	-6050
▁qc	-6051
▁tf	-6052
▁}.	-6053
ANNO	-6054
AnyD	-6055
BODY	-6056
Fabr	-6057
IOUt	-6058
ntMa	-6059
onUt	-6060
orth	-6061
ranc	-6062
▁"12	-6063
▁?>>	-6064
▁Doc	-6065
▁Nav	-6066
▁{",	-6067
Campo	-6068
FOLDE	-6069
dCont	-6070
tCard	-6071
wccgo	-6072
▁adju	-6073
IntVal	-6074
follow	-6075
ghbour	-6076
ortOrd	-6077
produc	-6078
ryCach	-6079
▁mutat	-6080
CHANGED	-6081
MAXIMUM	-6082
OfMonth	-6083
nControll	-6084
hanOrEqual	-6085
tyActuator	-6086
hp	-6087
wm	-6088
CSS	-6089
IAN	-6090
Imm	-6091
OLL	-6092
OrK	-6093
Utc	-6094
amF	-6095
arc	-6096
plo	-6097
rma	-6098
ryE	-6099
tQu	-6100
▁SU	-6101
SHIP	-6102
dock	-6103
tpop	-6104
▁"["	-6105
▁pkg	-6106
01000	-6107
Coold	-6108
ECEIP	-6109
HttpM	-6110
Smart	-6111
Squar	-6112
candy	-6113
dummy	-6114
tAuth	-6115
tPart	-6116
▁VOID	-6117
▁bann	-6118
▁parm	-6119
▁vmUu	-6120
▁wall	-6121
actAct	-6122
cronaut	-6123
hrownBy	-6124
tyGroup	-6125
Cooldown	-6126
ColumnInd	-6127
ntrantLock	-6128
0(	-6129
31	-6130
BH	-6131
FL	-6132
[8	-6133
mw	-6134
wW	-6135
yz	-6136
.0.	-6137
OWN	-6138
UDE	-6139
adt	-6140
thh	-6141
toM	-6142
▁"+	-6143
▁gc	-6144
▁jc	-6145
▁|\	-6146
anno	-6147
rCon	-6148
▁Can	-6149
▁Jvm	-6150
▁doG	-6151
damag	-6152
hStat	-6153
ldMod	-6154
mockM	-6155
nHold	-6156
ndCnt	-6157
ntrac	-6158
tPort	-6159
▁allu	-6160
DOMAIN	-6161
DataIt	-6162
PopupW	-6163
tSourc	-6164
▁algor	-6165
GraphQL	-6166
nFactor	-6167
turnVal	-6168
DataAdapt	-6169
thoughtwork	-6170
2>	-6171
3\	-6172
CY	-6173
fv	-6174
lP	-6175
/13	-6176
Ctl	-6177
GIN	-6178
MIX	-6179
arj	-6180
lHo	-6181
lIn	-6182
mtp	-6183
rOn	-6184
rca	-6185
▁JS	-6186
▁tl	-6187
▁tw	-6188
EMEN	-6189
Mant	-6190
ntOp	-6191
▁"30	-6192
▁"{:	-6193
▁Jpa	-6194
▁SAX	-6195
▁mIt	-6196
56789	-6197
ASYNC	-6198
BCNam	-6199
ByCod	-6200
Modal	-6201
album	-6202
nPlan	-6203
ntral	-6204
tduba	-6205
▁Bann	-6206
▁Drag	-6207
▁IOUt	-6208
▁choo	-6209
▁dump	-6210
▁mBtn	-6211
Durabl	-6212
Scalar	-6213
adFrom	-6214
faultD	-6215
planat	-6216
uctorV	-6217
ngCount	-6218
rtyStat	-6219
▁'{}'",	-6220
▁CONFIG	-6221
▁Improv	-6222
▁upgrad	-6223
Importac	-6224
hallLocat	-6225
▁workbook	-6226
toCharArray	-6227
SupportFragm	-6228
CountDownLatch	-6229
2]	-6230
5)	-6231
EU	-6232
vg	-6233
Anc	-6234
CAP	-6235
DEP	-6236
InS	-6237
JPA	-6238
OND	-6239
nAl	-6240
pom	-6241
rIO	-6242
▁'/	-6243
▁'0	-6244
▁bg	-6245
Atla	-6246
MEMO	-6247
actS	-6248
ckPo	-6249
nEnd	-6250
nada	-6251
ngCl	-6252
oInt	-6253
oLay	-6254
rUrl	-6255
tAcc	-6256
▁12,	-6257
▁20,	-6258
▁Blu	-6259
▁dot	-6260
InSEL	-6261
PConf	-6262
WINDO	-6263
flutt	-6264
nalyt	-6265
ntPar	-6266
rAppl	-6267
uracy	-6268
▁20);	-6269
▁Lazy	-6270
▁Mayb	-6271
▁cata	-6272
▁kotl	-6273
▁rank	-6274
LocalV	-6275
nAdapt	-6276
rError	-6277
▁dbNam	-6278
▁photo	-6279
Nonnull	-6280
cloudpr	-6281
zarProv	-6282
bcIntVal	-6283
;"	-6284
Hy	-6285
fw	-6286
mB	-6287
删除	-6288
').	-6289
008	-6290
ByM	-6291
ICK	-6292
aIn	-6293
apm	-6294
dml	-6295
ldB	-6296
mOn	-6297
nOf	-6298
ngA	-6299
▁By	-6300
▁IV	-6301
▁kv	-6302
Azur	-6303
ENCY	-6304
FUNC	-6305
OCOL	-6306
SdkM	-6307
lInd	-6308
lOpt	-6309
ntra	-6310
oObj	-6311
pung	-6312
rtNo	-6313
tOrd	-6314
▁31;	-6315
▁frc	-6316
IMSON	-6317
adByt	-6318
cflag	-6319
mongo	-6320
moryL	-6321
ntEnt	-6322
ntPag	-6323
tyMod	-6324
▁"}";	-6325
▁COUN	-6326
▁Info	-6327
▁Port	-6328
▁SHIF	-6329
▁Scan	-6330
▁prom	-6331
▁toto	-6332
Avatar	-6333
dAdapt	-6334
ngAttr	-6335
rModul	-6336
▁Shadow	-6337
Accuracy	-6338
StartInd	-6339
▁attrNam	-6340
Dy	-6341
kn	-6342
vn	-6343
NAP	-6344
NEX	-6345
War	-6346
chu	-6347
glo	-6348
jda	-6349
mdk	-6350
ntC	-6351
ntP	-6352
oPo	-6353
orD	-6354
pkg	-6355
qtt	-6356
▁lh	-6357
(200	-6358
EIID	-6359
Enqu	-6360
INAL	-6361
USED	-6362
cMod	-6363
coll	-6364
dSub	-6365
fMod	-6366
nDAO	-6367
ngUn	-6368
onaj	-6369
tPag	-6370
thQu	-6371
vmId	-6372
▁"\\	-6373
▁(++	-6374
▁Aff	-6375
▁INS	-6376
▁Non	-6377
▁adj	-6378
▁}",	-6379
01009	-6380
BUILD	-6381
CONFI	-6382
Unary	-6383
ldVar	-6384
mValu	-6385
nhanc	-6386
poNam	-6387
yProv	-6388
▁255,	-6389
▁Shap	-6390
▁phra	-6391
MODIFY	-6392
VALUES	-6393
attach	-6394
gChang	-6395
orConf	-6396
unwrap	-6397
▁Actor	-6398
▁Chart	-6399
/[^/]+/	-6400
ENABLED	-6401
portOpt	-6402
rtualSw	-6403
▁Struct	-6404
▁occurr	-6405
lControl	-6406
localVar	-6407
ngWorkJob	-6408
▁DataSnap	-6409
▁ColumnInfo	-6410
46	-6411
BS	-6412
CF	-6413
Pd	-6414
('.	-6415
DAP	-6416
Hol	-6417
LIB	-6418
OBS	-6419
Occ	-6420
Opc	-6421
adN	-6422
ban	-6423
cIn	-6424
lbl	-6425
ngj	-6426
rtE	-6427
▁&=	-6428
▁bp	-6429
Crud	-6430
DECO	-6431
Mojo	-6432
[2],	-6433
arku	-6434
lVal	-6435
mbar	-6436
nAnd	-6437
oolk	-6438
wNam	-6439
▁Ill	-6440
▁QUE	-6441
▁pha	-6442
▁plu	-6443
▁toV	-6444
CODES	-6445
OData	-6446
USAGE	-6447
_1_0_	-6448
alNam	-6449
ctOpt	-6450
mCurr	-6451
nStor	-6452
ngJob	-6453
oData	-6454
oPlay	-6455
rPlay	-6456
▁LOCK	-6457
▁half	-6458
DArray	-6459
DESIGN	-6460
ctStmt	-6461
dCount	-6462
rChang	-6463
▁kafka	-6464
▁mount	-6465
MISSING	-6466
SESSION	-6467
ntMatch	-6468
rtUpdat	-6469
▁onError	-6470
ProductAttr	-6471
49	-6472
Ep	-6473
KW	-6474
_7	-6475
dC	-6476
kr	-6477
nm	-6478
++,	-6479
/";	-6480
500	-6481
EXI	-6482
LEn	-6483
NON	-6484
SAX	-6485
SVG	-6486
VmD	-6487
WEE	-6488
[4]	-6489
clz	-6490
nkB	-6491
ntK	-6492
odp	-6493
opl	-6494
rPa	-6495
tMO	-6496
thN	-6497
▁"^	-6498
▁DI	-6499
(8);	-6500
ESHO	-6501
adUn	-6502
batf	-6503
ckIn	-6504
cthh	-6505
dVar	-6506
orph	-6507
plot	-6508
tAva	-6509
▁SUB	-6510
▁crc	-6511
▁lon	-6512
COLUM	-6513
EGION	-6514
FINED	-6515
Known	-6516
Solar	-6517
culty	-6518
hAndB	-6519
probl	-6520
▁Cata	-6521
▁Down	-6522
▁boot	-6523
▁four	-6524
▁vmSp	-6525
BUILDE	-6526
ChunkM	-6527
Crypto	-6528
DataIn	-6529
HANDLE	-6530
Portal	-6531
llAttr	-6532
ngular	-6533
tLabAp	-6534
wArray	-6535
▁Flutt	-6536
▁XCont	-6537
▁chapt	-6538
▁grant	-6539
▁haplo	-6540
Allocat	-6541
Unbound	-6542
rfCount	-6543
toolBar	-6544
ArrowBuf	-6545
faultCal	-6546
▁broadca	-6547
malFormat	-6548
rtualAttr	-6549
▁BlockStat	-6550
=?	-6551
Gl	-6552
LG	-6553
aE	-6554
cB	-6555
lg	-6556
yG	-6557
###	-6558
009	-6559
10-	-6560
Ann	-6561
CDA	-6562
EOF	-6563
Foo	-6564
JNI	-6565
Lon	-6566
alM	-6567
alg	-6568
kly	-6569
rog	-6570
tPa	-6571
▁AU	-6572
▁KW	-6573
▁Zk	-6574
HIGH	-6575
IDEN	-6576
Ingr	-6577
VELO	-6578
_8);	-6579
ball	-6580
cyIt	-6581
kbar	-6582
ltro	-6583
tPan	-6584
▁"%"	-6585
▁JCh	-6586
▁dtc	-6587
AndCh	-6588
AppId	-6589
COMMI	-6590
FromH	-6591
JFram	-6592
__++)	-6593
grant	-6594
mutat	-6595
nuMod	-6596
oLoad	-6597
pPort	-6598
unabl	-6599
▁Crud	-6600
▁FLOA	-6601
▁Sync	-6602
▁tank	-6603
("}");	-6604
IGINAL	-6605
WorkID	-6606
myProj	-6607
toolbar	-6608
NoSuchAlgor	-6609
▁NoSuchAlgor	-6610
58	-6611
[7	-6612
ah	-6613
2";	-6614
2))	-6615
7.0	-6616
Abr	-6617
EXP	-6618
IfE	-6619
OCK	-6620
raz	-6621
tOp	-6622
thV	-6623
▁?,	-6624
▁BO	-6625
▁FS	-6626
▁SP	-6627
▁rb	-6628
▁~0	-6629
("{}	-6630
Carr	-6631
Door	-6632
EADY	-6633
INCO	-6634
InDb	-6635
Unch	-6636
_000	-6637
culo	-6638
nahm	-6639
ndor	-6640
ngPo	-6641
▁8);	-6642
▁rpc	-6643
)"));	-6644
01001	-6645
SENSI	-6646
ckInt	-6647
crawl	-6648
dPart	-6649
lProp	-6650
tAttr	-6651
▁")";	-6652
▁[{}]	-6653
▁bonu	-6654
ASSIGN	-6655
AppNam	-6656
EPLICA	-6657
ESHOLD	-6658
Parall	-6659
Probab	-6660
XmlAcc	-6661
anValu	-6662
gSourc	-6663
nConta	-6664
ntropy	-6665
rStart	-6666
▁Clock	-6667
▁SELEC	-6668
▁clock	-6669
ULLABLE	-6670
onEndpo	-6671
rByProv	-6672
▁Amazon	-6673
▁cargar	-6674
BASELINE	-6675
ntFormat	-6676
onFactory	-6677
AV	-6678
DK	-6679
pB	-6680
rh	-6681
yD	-6682
信息	-6683
東京	-6684
7",	-6685
AWS	-6686
DFS	-6687
IFY	-6688
JDA	-6689
MoE	-6690
Pok	-6691
SBa	-6692
dID	-6693
dly	-6694
dup	-6695
mAg	-6696
mvc	-6697
nAn	-6698
onH	-6699
rQu	-6700
rVO	-6701
▁dm	-6702
▁vd	-6703
JACK	-6704
corn	-6705
dArg	-6706
dato	-6707
fNam	-6708
hwoo	-6709
llag	-6710
onPr	-6711
ttyP	-6712
ynth	-6713
▁2),	-6714
▁Inn	-6715
▁Mav	-6716
0000;	-6717
ABLES	-6718
BIGIN	-6719
FromD	-6720
SUPPO	-6721
clock	-6722
cular	-6723
dCall	-6724
floor	-6725
COLLEC	-6726
COMMEN	-6727
ENDING	-6728
LocalD	-6729
grator	-6730
aActual	-6731
yAndVal	-6732
▁EnumFac	-6733
▁Languag	-6734
faultCalConf	-6735
moduloActual	-6736
/2	-6737
CB	-6738
Fk	-6739
HH	-6740
MK	-6741
Oc	-6742
]]	-6743
mH	-6744
oz	-6745
tG	-6746
ByK	-6747
EME	-6748
Err	-6749
HAN	-6750
IDS	-6751
MQS	-6752
OnD	-6753
adv	-6754
dCh	-6755
opL	-6756
plc	-6757
ppl	-6758
tUr	-6759
vok	-6760
wCh	-6761
▁(%	-6762
▁Ok	-6763
▁SO	-6764
▁fk	-6765
.0);	-6766
MIME	-6767
NotB	-6768
SNAP	-6769
ntAc	-6770
oStr	-6771
▁"("	-6772
▁"-+	-6773
▁CHA	-6774
▁HOS	-6775
▁Pan	-6776
▁ktr	-6777
("1",	-6778
01008	-6779
JobId	-6780
arPor	-6781
dForm	-6782
goryA	-6783
ncorr	-6784
rCall	-6785
rForm	-6786
rStyl	-6787
▁Grav	-6788
▁HSSF	-6789
▁VIEW	-6790
aParam	-6791
ouchEv	-6792
owData	-6793
tVarIn	-6794
thValu	-6795
upgrad	-6796
vEndpo	-6797
faultPr	-6798
hboardD	-6799
uhnMatr	-6800
▁Surfac	-6801
BackStack	-6802
▁modalAgr	-6803
▁paramNam	-6804
=[	-6805
Sm	-6806
tX	-6807
yP	-6808
行っ	-6809
ANK	-6810
CKE	-6811
DNN	-6812
OOM	-6813
adr	-6814
far	-6815
jCh	-6816
lov	-6817
pcS	-6818
phy	-6819
rab	-6820
▁9;	-6821
▁Ov	-6822
NEGA	-6823
SHIF	-6824
adId	-6825
bugg	-6826
ckbo	-6827
gnat	-6828
lEng	-6829
ntBa	-6830
pann	-6831
▁Ign	-6832
01004	-6833
Plann	-6834
SMALL	-6835
Staff	-6836
Stand	-6837
agaEv	-6838
archV	-6839
battl	-6840
ctNam	-6841
robol	-6842
tCach	-6843
tPlay	-6844
▁Hand	-6845
▁bank	-6846
▁brok	-6847
▁para	-6848
▁trav	-6849
Cargar	-6850
LAUNCH	-6851
Markup	-6852
Unconv	-6853
cManag	-6854
calNam	-6855
nGrant	-6856
onProv	-6857
poArch	-6858
rtConv	-6859
yFormF	-6860
▁OAuth	-6861
Hardwar	-6862
charact	-6863
ngParam	-6864
▁contra	-6865
PackBuff	-6866
PackConv	-6867
DataChang	-6868
ntAnnotat	-6869
rPackBuff	-6870
rPackConv	-6871
Manufactur	-6872
PackUnpack	-6873
rPackUnpack	-6874
3]	-6875
69	-6876
Im	-6877
("'	-6878
('/	-6879
(8,	-6880
-02	-6881
512	-6882
Avg	-6883
BOX	-6884
IDF	-6885
ILD	-6886
Std	-6887
Sto	-6888
YES	-6889
\\.	-6890
cnt	-6891
gId	-6892
llS	-6893
ngV	-6894
rOb	-6895
tao	-6896
▁"?	-6897
▁'.	-6898
▁aw	-6899
▁tc	-6900
HALF	-6901
alUt	-6902
amId	-6903
nAll	-6904
pull	-6905
rPar	-6906
tUnt	-6907
talk	-6908
uman	-6909
vmUu	-6910
▁"].	-6911
▁16;	-6912
▁CAS	-6913
▁Hot	-6914
▁cho	-6915
▁dur	-6916
▁pat	-6917
▁vot	-6918
▁war	-6919
(20);	-6920
01005	-6921
01006	-6922
01007	-6923
Adjud	-6924
EMOVE	-6925
Party	-6926
anaIn	-6927
ntOut	-6928
rConv	-6929
wordF	-6930
▁Atla	-6931
▁brow	-6932
▁trad	-6933
BlockS	-6934
IALIZE	-6935
UNIQUE	-6936
faultN	-6937
ntralS	-6938
vInAEL	-6939
▁10));	-6940
▁AutoK	-6941
Automat	-6942
annotat	-6943
ntError	-6944
▁Quorum	-6945
▁Upload	-6946
Synchron	-6947
anyMatch	-6948
thodInfo	-6949
▁Flowabl	-6950
▁graphql	-6951
▁Download	-6952
archProduct	-6953
67	-6954
9_	-6955
GC	-6956
GS	-6957
KV	-6958
LC	-6959
fW	-6960
pL	-6961
tZ	-6962
▁`	-6963
125	-6964
DSA	-6965
IfP	-6966
ULO	-6967
VAI	-6968
nub	-6969
taD	-6970
yro	-6971
▁ZK	-6972
▁ZZ	-6973
▁{0	-6974
("12	-6975
CASE	-6976
CONF	-6977
OnWr	-6978
SBMP	-6979
Song	-6980
coBu	-6981
hNot	-6982
nCol	-6983
ngAp	-6984
njdk	-6985
olrj	-6986
ruoy	-6987
tHub	-6988
tadt	-6989
yNam	-6990
▁Agr	-6991
▁Emb	-6992
▁NEW	-6993
▁SHO	-6994
▁mCl	-6995
Authz	-6996
EQUAL	-6997
Fault	-6998
PlayM	-6999
abPan	-7000
alway	-7001
carEd	-7002
lapDa	-7003
nAttr	-7004
ownum	-7005
rnalS	-7006
thodG	-7007
tyAct	-7008
vmDao	-7009
▁PASS	-7010
▁UPDA	-7011
▁larg	-7012
▁ldap	-7013
▁mMol	-7014
▁orch	-7015
▁yaml	-7016
doNoth	-7017
ntProp	-7018
ograph	-7019
rpolat	-7020
ryptor	-7021
▁black	-7022
StartPo	-7023
onIgnor	-7024
rtyValu	-7025
▁Attach	-7026
NULLABLE	-7027
VAILABLE	-7028
faultCon	-7029
rInvocat	-7030
▁GraphQL	-7031
▁workJob	-7032
ColumnMod	-7033
playSound	-7034
ryFactory	-7035
▁InfWorkPackag	-7036
*[	-7037
43	-7038
93	-7039
cb	-7040
wl	-7041
()]	-7042
BIG	-7043
BUL	-7044
Ela	-7045
Ign	-7046
NoD	-7047
Pul	-7048
_1_	-7049
anM	-7050
crc	-7051
gmt	-7052
jmh	-7053
lPr	-7054
lla	-7055
mIn	-7056
mVm	-7057
nCo	-7058
nop	-7059
oPr	-7060
onG	-7061
tyF	-7062
ukp	-7063
▁:=	-7064
▁Sk	-7065
▁dk	-7066
▁ll	-7067
2();	-7068
;");	-7069
=").	-7070
ESEN	-7071
LASS	-7072
OnCl	-7073
atoG	-7074
ctIt	-7075
nAdd	-7076
ntCr	-7077
ntaj	-7078
plug	-7079
rCha	-7080
rStr	-7081
ubbo	-7082
yAgr	-7083
▁12;	-7084
▁SHA	-7085
Fully	-7086
NotIn	-7087
VmNam	-7088
ggabl	-7089
nEnum	-7090
nFram	-7091
nFrom	-7092
orNam	-7093
photo	-7094
ptNam	-7095
thodS	-7096
ullab	-7097
▁"\1\	-7098
▁COLO	-7099
▁Cant	-7100
▁Futu	-7101
)."));	-7102
VALIDA	-7103
tudarm	-7104
▁0.0);	-7105
▁charg	-7106
▁mProg	-7107
▁proto	-7108
▁rowId	-7109
ImportD	-7110
LocalId	-7111
nuManag	-7112
▁totalS	-7113
ShortNam	-7114
ultHandl	-7115
▁Factory	-7116
▁unknown	-7117
AuthGroup	-7118
JavaModul	-7119
▁INDArray	-7120
▁BlockData	-7121
zontalGroup	-7122
▁paramGroup	-7123
▁backgroundAr	-7124
1]	-7125
80	-7126
EB	-7127
GO	-7128
KB	-7129
OI	-7130
hL	-7131
101	-7132
AVE	-7133
Baz	-7134
ByS	-7135
IBE	-7136
IDA	-7137
SWI	-7138
cmc	-7139
dar	-7140
dtd	-7141
jdt	-7142
ktr	-7143
laz	-7144
nna	-7145
nuP	-7146
odd	-7147
pam	-7148
pnl	-7149
rKn	-7150
rLa	-7151
rMO	-7152
rak	-7153
rtF	-7154
rto	-7155
tBy	-7156
thH	-7157
▁Fu	-7158
▁SM	-7159
▁hS	-7160
(7);	-7161
2"),	-7162
>").	-7163
AGES	-7164
CLIC	-7165
IFIE	-7166
Kotl	-7167
ctCo	-7168
cula	-7169
dGam	-7170
dOpt	-7171
dStr	-7172
huto	-7173
kNam	-7174
ncyM	-7175
ntID	-7176
ntSp	-7177
orch	-7178
poBu	-7179
▁24)	-7180
▁6);	-7181
▁End	-7182
▁Pop	-7183
▁acl	-7184
▁cro	-7185
▁doD	-7186
▁mPr	-7187
▁mol	-7188
▁too	-7189
<?>[]	-7190
DELAY	-7191
Intak	-7192
OFILE	-7193
Oauth	-7194
omaka	-7195
rPort	-7196
▁INFO	-7197
▁onFa	-7198
00002,	-7199
ECEIVE	-7200
advanc	-7201
almMod	-7202
aturat	-7203
hutool	-7204
nArray	-7205
ncyCar	-7206
ntPlan	-7207
poConf	-7208
rSourc	-7209
wCount	-7210
▁VkPhy	-7211
▁XmEnt	-7212
▁favor	-7213
▁mFocu	-7214
Announc	-7215
ArrayEnt	-7216
DropDown	-7217
Shortcut	-7218
tAndPort	-7219
▁MESSAGE	-7220
dCallback	-7221
mporaryFold	-7222
1}	-7223
2}	-7224
Fh	-7225
YY	-7226
lb	-7227
mC	-7228
yu	-7229
EMS	-7230
HEN	-7231
PAI	-7232
PAS	-7233
Sun	-7234
aPr	-7235
atm	-7236
dal	-7237
fCt	-7238
gla	-7239
ndW	-7240
ngu	-7241
urv	-7242
wav	-7243
▁5)	-7244
("**	-7245
8");	-7246
ForM	-7247
IGNO	-7248
OrCr	-7249
WAYS	-7250
akar	-7251
bann	-7252
ctBu	-7253
humb	-7254
nPol	-7255
nclu	-7256
nucl	-7257
oByt	-7258
pNam	-7259
rmac	-7260
upon	-7261
▁aff	-7262
▁cmp	-7263
▁mIn	-7264
▁our	-7265
CONDI	-7266
Clazz	-7267
DataF	-7268
IFIED	-7269
cStor	-7270
corpu	-7271
ctAll	-7272
ducat	-7273
lInfo	-7274
rPart	-7275
umano	-7276
▁"201	-7277
("1");	-7278
(500);	-7279
CloudS	-7280
MODIFI	-7281
SCLASS	-7282
ldConf	-7283
quarku	-7284
ralDfa	-7285
rtValu	-7286
tyConf	-7287
▁DataC	-7288
▁EConv	-7289
▁Organ	-7290
▁Synth	-7291
▁workW	-7292
AppInfo	-7293
GroupNo	-7294
IfcProp	-7295
SNAPSHO	-7296
amHandl	-7297
graphql	-7298
monConf	-7299
▁XmlPar	-7300
mportanc	-7301
▁portfol	-7302
SCLASSWEB	-7303
!!	-7304
4(	-7305
Cc	-7306
lJ	-7307
("?	-7308
11;	-7309
={}	-7310
OME	-7311
UID	-7312
avg	-7313
crt	-7314
nDo	-7315
nWr	-7316
rAd	-7317
ura	-7318
▁WA	-7319
▁mm	-7320
▁tm	-7321
("==	-7322
0");	-7323
2.16	-7324
3));	-7325
CMDB	-7326
LOWE	-7327
SEND	-7328
Spot	-7329
ZONE	-7330
\">\	-7331
agat	-7332
ngPa	-7333
oUrl	-7334
pago	-7335
raml	-7336
▁Aja	-7337
▁Url	-7338
▁pul	-7339
CHEMA	-7340
Candy	-7341
FINAL	-7342
INDEN	-7343
actBu	-7344
dubbo	-7345
lData	-7346
naryS	-7347
▁1");	-7348
▁GInn	-7349
▁Html	-7350
▁Phon	-7351
▁pong	-7352
▁what	-7353
CODING	-7354
Enforc	-7355
PorPag	-7356
WorkIt	-7357
\""));	-7358
adword	-7359
archAg	-7360
awComb	-7361
lGroup	-7362
mConta	-7363
▁255.0	-7364
▁Alarm	-7365
ckHandl	-7366
dFranch	-7367
gurator	-7368
rColumn	-7369
▁Sparql	-7370
archCata	-7371
▁INVALID	-7372
INVISIBLE	-7373
rnallyAva	-7374
▁Datagram	-7375
ErrorHandl	-7376
PorPagarPor	-7377
cargarInformac	-7378
*)	-7379
98	-7380
JP	-7381
gz	-7382
hD	-7383
oj	-7384
vv	-7385
yM	-7386
(45	-7387
.__	-7388
304	-7389
ACO	-7390
GAS	-7391
MAS	-7392
_0(	-7393
aaa	-7394
ama	-7395
maV	-7396
nmp	-7397
oCl	-7398
oPu	-7399
oul	-7400
uml	-7401
▁"2	-7402
▁97	-7403
▁Fr	-7404
▁Ja	-7405
▁OA	-7406
▁pb	-7407
▁rt	-7408
▁ul	-7409
0801	-7410
?");	-7411
ADIX	-7412
Appo	-7413
BOOK	-7414
CAPE	-7415
CION	-7416
EGEX	-7417
MMoE	-7418
arth	-7419
badg	-7420
cOpt	-7421
dArt	-7422
ftDr	-7423
nalg	-7424
ncha	-7425
ndVm	-7426
obta	-7427
▁50;	-7428
▁Hom	-7429
▁Zfc	-7430
▁dnn	-7431
())),	-7432
3"));	-7433
cally	-7434
dBuff	-7435
kStat	-7436
propo	-7437
rStor	-7438
tNumb	-7439
▁16);	-7440
▁Coll	-7441
▁LENG	-7442
▁barr	-7443
▁zoom	-7444
CompDt	-7445
EndOff	-7446
ParamK	-7447
[][][]	-7448
mMatch	-7449
pStrat	-7450
ycloak	-7451
▁Campa	-7452
▁HttpM	-7453
▁locat	-7454
COMPLEX	-7455
DataOut	-7456
Flowabl	-7457
▁mSolar	-7458
Fallback	-7459
Workbook	-7460
rtualMod	-7461
ryGlobal	-7462
workInfo	-7463
nProtocol	-7464
tyCommand	-7465
rnalIdPConf	-7466
tworkAclInbound	-7467
tworkAclOutbound	-7468
BD	-7469
CW	-7470
II	-7471
Ja	-7472
jj	-7473
uz	-7474
("&	-7475
Cfg	-7476
Cpp	-7477
IBM	-7478
QUA	-7479
Sta	-7480
WSA	-7481
]";	-7482
jad	-7483
mgt	-7484
nSh	-7485
ndb	-7486
nov	-7487
thL	-7488
toB	-7489
umS	-7490
yal	-7491
▁Hy	-7492
▁fu	-7493
東京都	-7494
=\""	-7495
AAAA	-7496
ABLA	-7497
BUCK	-7498
Dark	-7499
HING	-7500
MOVE	-7501
ONEN	-7502
abyt	-7503
anUt	-7504
corp	-7505
focu	-7506
hopp	-7507
lPag	-7508
mpIn	-7509
nSch	-7510
ntPa	-7511
nuat	-7512
tDay	-7513
▁"")	-7514
▁1][	-7515
▁Bar	-7516
▁Cha	-7517
▁JPA	-7518
▁OFF	-7519
▁SEC	-7520
6-10-	-7521
BOUND	-7522
ELLOW	-7523
OOGLE	-7524
PodId	-7525
Workb	-7526
amByt	-7527
arDay	-7528
ngDao	-7529
ngLay	-7530
ntAct	-7531
rCach	-7532
tantF	-7533
thAud	-7534
▁"3",	-7535
▁BASE	-7536
▁HASH	-7537
▁SIZE	-7538
▁badg	-7539
▁ucar	-7540
▁}");	-7541
MANUAL	-7542
SUBJEC	-7543
UNNING	-7544
apollo	-7545
tryPol	-7546
tryabl	-7547
▁canon	-7548
▁toggl	-7549
Acknowl	-7550
InfoEnt	-7551
nFormat	-7552
houldNot	-7553
cordBatch	-7554
ntoGlobal	-7555
▁workFlow	-7556
/[^/]+$");	-7557
ratorAdapt	-7558
toothAdapt	-7559
InfoFactory	-7560
condaryHold	-7561
▁JScrollPan	-7562
.1	-7563
5_	-7564
68	-7565
LN	-7566
bD	-7567
cg	-7568
jD	-7569
mv	-7570
oC	-7571
(14	-7572
-03	-7573
014	-7574
70,	-7575
8",	-7576
GGP	-7577
NOW	-7578
Pdu	-7579
Spu	-7580
Zfc	-7581
adJ	-7582
bag	-7583
bol	-7584
cFp	-7585
jdb	-7586
kat	-7587
llu	-7588
ora	-7589
qNo	-7590
tVO	-7591
tyM	-7592
▁GB	-7593
▁NA	-7594
▁PN	-7595
▁bf	-7596
▁tp	-7597
ALOG	-7598
AUDI	-7599
bank	-7600
cAdd	-7601
crat	-7602
drag	-7603
lEnt	-7604
pron	-7605
rVal	-7606
▁18,	-7607
▁60;	-7608
▁Col	-7609
▁Crc	-7610
▁hql	-7611
▁onB	-7612
▁pok	-7613
()]);	-7614
00000	-7615
FIXED	-7616
IData	-7617
Mount	-7618
OpMod	-7619
[2]);	-7620
allur	-7621
archD	-7622
ckFor	-7623
dConc	-7624
jfrog	-7625
lural	-7626
ndCla	-7627
ntNum	-7628
ouncy	-7629
porty	-7630
wLock	-7631
▁0.0,	-7632
▁Only	-7633
▁apdu	-7634
(""));	-7635
AILING	-7636
Collap	-7637
Lambda	-7638
alStor	-7639
hrottl	-7640
nGraph	-7641
nLocal	-7642
nUpdat	-7643
ndPack	-7644
ngCall	-7645
orflow	-7646
rEndpo	-7647
rtSucc	-7648
talCod	-7649
tyAttr	-7650
▁200);	-7651
▁Kafka	-7652
▁LOCKI	-7653
▁could	-7654
▁jcuda	-7655
GroupIn	-7656
IMELINE	-7657
Produto	-7658
rtParam	-7659
tColumn	-7660
▁LatLng	-7661
lFactory	-7662
rnalStat	-7663
rowCount	-7664
▁Producto	-7665
("2016-10-	-7666
hotCommand	-7667
tyCommandC	-7668
▁populator	-7669
ctColumnChang	-7670
1<	-7671
Du	-7672
FU	-7673
PF	-7674
gC	-7675
'),	-7676
("2	-7677
1')	-7678
163	-7679
ALA	-7680
BUN	-7681
Ddl	-7682
ICS	-7683
PAD	-7684
Way	-7685
YLE	-7686
[10	-7687
_2_	-7688
doF	-7689
fun	-7690
gQu	-7691
nNo	-7692
nSt	-7693
npc	-7694
pfl	-7695
pur	-7696
rup	-7697
ryB	-7698
thP	-7699
ucl	-7700
upm	-7701
▁"*	-7702
▁98	-7703
▁Da	-7704
▁Jm	-7705
▁SS	-7706
▁ld	-7707
▁pv	-7708
11",	-7709
3").	-7710
AndE	-7711
BULK	-7712
Band	-7713
FLOW	-7714
JobE	-7715
LANG	-7716
Loan	-7717
YIDA	-7718
Zoom	-7719
atal	-7720
hood	-7721
mInd	-7722
nInM	-7723
nLab	-7724
nuou	-7725
tful	-7726
▁3).	-7727
▁Ack	-7728
▁Alb	-7729
▁Pat	-7730
▁clo	-7731
▁jwt	-7732
▁npc	-7733
▁onF	-7734
01002	-7735
ALOAD	-7736
Abort	-7737
GUMEN	-7738
HttpV	-7739
PLACE	-7740
QUEUE	-7741
Vault	-7742
abort	-7743
adAll	-7744
aptor	-7745
awByt	-7746
dFram	-7747
ldaNu	-7748
moryS	-7749
nCach	-7750
ndInd	-7751
ngEdg	-7752
rmock	-7753
tOrCr	-7754
▁"").	-7755
▁Allu	-7756
▁ECor	-7757
▁Shar	-7758
▁focu	-7759
▁jdbc	-7760
2.168.	-7761
7.0.0.	-7762
AutoCr	-7763
akarta	-7764
torPan	-7765
▁candy	-7766
▁mCont	-7767
ArrayUt	-7768
Journal	-7769
caCount	-7770
larProv	-7771
nSporty	-7772
▁unlock	-7773
mlPullPar	-7774
▁paramAnonymou	-7775
($	-7776
4_	-7777
[9	-7778
[_	-7779
bz	-7780
mU	-7781
mn	-7782
tY	-7783
uf	-7784
ASC	-7785
Got	-7786
IPE	-7787
Orc	-7788
Pct	-7789
SEG	-7790
ZIP	-7791
ala	-7792
boo	-7793
cpp	-7794
cpu	-7795
cub	-7796
jpg	-7797
ldS	-7798
lyD	-7799
owS	-7800
rmu	-7801
tOS	-7802
▁2]	-7803
▁OS	-7804
▁hp	-7805
("${	-7806
(0.5	-7807
(3).	-7808
001/	-7809
:///	-7810
AGEN	-7811
Calc	-7812
Fund	-7813
JAXB	-7814
MILY	-7815
alID	-7816
dNot	-7817
lAcc	-7818
lStr	-7819
mAdd	-7820
oooo	-7821
ootD	-7822
phab	-7823
phra	-7824
rSch	-7825
raPo	-7826
rrln	-7827
tOut	-7828
taPr	-7829
ynop	-7830
▁');	-7831
▁14,	-7832
▁304	-7833
▁Equ	-7834
▁Ifc	-7835
▁Pul	-7836
▁jdk	-7837
ACION	-7838
ANSFO	-7839
JobQu	-7840
andbo	-7841
grupo	-7842
motor	-7843
oolbo	-7844
oprod	-7845
rPool	-7846
tStyl	-7847
ultVo	-7848
▁3));	-7849
▁Brok	-7850
▁CONS	-7851
▁Jdbc	-7852
▁Scop	-7853
(10000	-7854
DEVELO	-7855
Summar	-7856
archBo	-7857
dGroup	-7858
fCount	-7859
ftHold	-7860
nEnabl	-7861
rowInd	-7862
toothD	-7863
tudyId	-7864
tyStat	-7865
yStrok	-7866
▁Chunk	-7867
▁JFram	-7868
▁VMwar	-7869
▁today	-7870
turnCod	-7871
▁JvmCon	-7872
▁jobNam	-7873
DISABLED	-7874
LookAndF	-7875
nullValu	-7876
▁accrual	-7877
▁jakarta	-7878
SupportAct	-7879
amWorkflow	-7880
oprodumano	-7881
▁localVarAp	-7882
(?	-7883
0"	-7884
4:	-7885
72	-7886
pW	-7887
tz	-7888
(""	-7889
3).	-7890
COS	-7891
DEF	-7892
Gov	-7893
LAP	-7894
Vac	-7895
[5]	-7896
_78	-7897
ckG	-7898
lfw	-7899
may	-7900
nbt	-7901
oop	-7902
tMa	-7903
tum	-7904
{\"	-7905
▁(0	-7906
▁bc	-7907
()='	-7908
(3),	-7909
6");	-7910
<<<<	-7911
AllE	-7912
Echo	-7913
IDEO	-7914
IdUn	-7915
MENU	-7916
Onto	-7917
SPAN	-7918
Soap	-7919
WEEK	-7920
adyE	-7921
ctEv	-7922
guou	-7923
howD	-7924
myDt	-7925
rDto	-7926
rOff	-7927
▁0).	-7928
▁123	-7929
▁30,	-7930
▁And	-7931
▁Cdm	-7932
▁Imp	-7933
▁POS	-7934
▁dom	-7935
▁por	-7936
CLOUD	-7937
IABLE	-7938
Synth	-7939
actQu	-7940
armup	-7941
bumpt	-7942
royal	-7943
rtNam	-7944
tWord	-7945
touch	-7946
tyAdd	-7947
ultId	-7948
▁Conc	-7949
▁Mojo	-7950
▁rowA	-7951
ACHMEN	-7952
ErrorD	-7953
InProg	-7954
PAYMEN	-7955
annabl	-7956
cParam	-7957
humbna	-7958
ntoSub	-7959
quorum	-7960
rEnabl	-7961
rtualN	-7962
▁Mutat	-7963
▁wrong	-7964
▁{}.",	-7965
ColumnS	-7966
Contoll	-7967
UIManag	-7968
ldArray	-7969
ralData	-7970
▁MODULE	-7971
▁PASSWO	-7972
▁mAdapt	-7973
ablaProv	-7974
productF	-7975
▁SoundEv	-7976
▁UNKNOWN	-7977
CHECKPOIN	-7978
ntCommand	-7979
portChann	-7980
ConGuardar	-7981
cAtomQFNot	-7982
6)	-7983
Mb	-7984
qc	-7985
tO	-7986
数据	-7987
财务	-7988
("4	-7989
0()	-7990
024	-7991
ALY	-7992
Bud	-7993
DHE	-7994
DOC	-7995
OAK	-7996
WSO	-7997
adU	-7998
adl	-7999
alF	-8000
bml	-8001
ckN	-8002
gIt	-8003
maS	-8004
rdo	-8005
tUn	-8006
wCl	-8007
{2}	-8008
▁22	-8009
▁AN	-8010
▁DL	-8011
▁IB	-8012
(6);	-8013
01",	-8014
5\1\	-8015
Capt	-8016
EADS	-8017
ELIF	-8018
Food	-8019
Gall	-8020
MAGE	-8021
NOMB	-8022
acqu	-8023
arqu	-8024
crud	-8025
ftCh	-8026
hang	-8027
lazy	-8028
mmun	-8029
ndIt	-8030
ngBa	-8031
ngEv	-8032
rJUn	-8033
tDao	-8034
yncE	-8035
▁11:	-8036
▁30;	-8037
▁END	-8038
▁Img	-8039
(5));	-8040
.2");	-8041
Appro	-8042
ELESS	-8043
FOCUS	-8044
Flutt	-8045
HttpU	-8046
XAttr	-8047
althy	-8048
andon	-8049
buddy	-8050
cAttr	-8051
charg	-8052
chuzh	-8053
dAppl	-8054
dWord	-8055
oInfo	-8056
tCall	-8057
taEnt	-8058
tutor	-8059
▁1.0,	-8060
▁Body	-8061
▁MEMO	-8062
("1.2.	-8063
()))).	-8064
(10));	-8065
=\"");	-8066
EPLACE	-8067
Python	-8068
VMSnap	-8069
cHandl	-8070
calOff	-8071
gManag	-8072
hardId	-8073
ndowEv	-8074
▁patch	-8075
AllAttr	-8076
faultMu	-8077
thStatu	-8078
▁Format	-8079
▁Import	-8080
▁SCHEMA	-8081
▁plotAr	-8082
cCommand	-8083
ngFactor	-8084
thodNonc	-8085
Paragraph	-8086
PlatformU	-8087
condaryStorag	-8088
################	-8089
/*	-8090
60	-8091
62	-8092
FN	-8093
KA	-8094
PV	-8095
bk	-8096
kA	-8097
kM	-8098
pb	-8099
tj	-8100
yr	-8101
032	-8102
12;	-8103
16,	-8104
32.	-8105
ABC	-8106
DEG	-8107
IBa	-8108
Inc	-8109
OBJ	-8110
OKE	-8111
OnE	-8112
Pwd	-8113
Shr	-8114
anp	-8115
dMa	-8116
mSp	-8117
nmr	-8118
oCr	-8119
php	-8120
rSh	-8121
tCr	-8122
▁35	-8123
▁4:	-8124
▁CM	-8125
▁Ph	-8126
▁na	-8127
▁oc	-8128
29);	-8129
EIGN	-8130
FEED	-8131
HEAD	-8132
[0])	-8133
algo	-8134
lark	-8135
ldEv	-8136
onap	-8137
ozon	-8138
rmal	-8139
rtHa	-8140
tCat	-8141
tUrl	-8142
traF	-8143
ubIt	-8144
what	-8145
▁"0"	-8146
▁Luc	-8147
▁Pdf	-8148
▁SYS	-8149
▁UNS	-8150
▁Vol	-8151
▁cmD	-8152
▁pdf	-8153
(255,	-8154
ANSAC	-8155
AndId	-8156
CLUDE	-8157
CUMEN	-8158
Datac	-8159
dInfo	-8160
mPort	-8161
ngDay	-8162
ngSch	-8163
popup	-8164
ptEng	-8165
ultar	-8166
▁200,	-8167
▁Buck	-8168
▁GENE	-8169
▁Kotl	-8170
▁UISp	-8171
▁ZooK	-8172
▁mAct	-8173
▁zOut	-8174
"))));	-8175
AndFlu	-8176
CLOSED	-8177
ENABLE	-8178
FAMILY	-8179
GraphF	-8180
Intrac	-8181
avatar	-8182
maData	-8183
mockGu	-8184
poProc	-8185
tArray	-8186
▁IntWr	-8187
▁jjMov	-8188
▁numOf	-8189
▁zzFPo	-8190
DISABLE	-8191
EMANAGE	-8192
orManag	-8193
ubtract	-8194
▁batchS	-8195
▁concat	-8196
▁drawCl	-8197
▁onCanc	-8198
23456789	-8199
DynamoDb	-8200
FullQual	-8201
Markdown	-8202
gFactory	-8203
rtyUpdat	-8204
tForCond	-8205
▁Callabl	-8206
▁Encrypt	-8207
▁Summary	-8208
▁conform	-8209
▁matchCr	-8210
▁onStart	-8211
FloatValu	-8212
NotAuthor	-8213
UNDEFINED	-8214
tCallback	-8215
rnalStorag	-8216
▁Background	-8217
////////////////	-8218
2-	-8219
<@	-8220
DM	-8221
HM	-8222
cG	-8223
dN	-8224
fS	-8225
tb	-8226
tk	-8227
yw	-8228
时间	-8229
设置	-8230
(':	-8231
00.	-8232
11,	-8233
9",	-8234
Aja	-8235
BUS	-8236
EES	-8237
EFO	-8238
InL	-8239
SHU	-8240
atr	-8241
ckM	-8242
dBB	-8243
dCl	-8244
dot	-8245
gnC	-8246
jdk	-8247
lad	-8248
mln	-8249
rta	-8250
tho	-8251
tyA	-8252
ubb	-8253
yml	-8254
you	-8255
▁'9	-8256
▁BA	-8257
▁ny	-8258
7");	-8259
AllD	-8260
ByQu	-8261
ENSE	-8262
MKOL	-8263
POOL	-8264
SYNC	-8265
VISO	-8266
[0-9	-8267
].",	-8268
amWr	-8269
lAct	-8270
ndOf	-8271
ndSh	-8272
opPo	-8273
pCod	-8274
wLab	-8275
wMod	-8276
▁"_"	-8277
▁way	-8278
>"));	-8279
AndHa	-8280
Armor	-8281
DataB	-8282
FAILU	-8283
InfoD	-8284
IntWr	-8285
_128_	-8286
atura	-8287
avour	-8288
cordS	-8289
dBlob	-8290
graal	-8291
ngFor	-8292
ngInd	-8293
rload	-8294
unMod	-8295
▁"\",	-8296
▁DELE	-8297
▁Empl	-8298
▁MAPI	-8299
▁Yarn	-8300
▁calc	-8301
▁mCam	-8302
-8"));	-8303
Around	-8304
BUNDLE	-8305
VmFrom	-8306
[0]));	-8307
curacy	-8308
lFutur	-8309
nSourc	-8310
olvabl	-8311
parall	-8312
rArray	-8313
ractor	-8314
▁"1");	-8315
▁Patch	-8316
▁Quant	-8317
▁mongo	-8318
▁partn	-8319
▁unmar	-8320
ACCESSO	-8321
DataMod	-8322
archFor	-8323
ngManag	-8324
tomAttr	-8325
yncJobE	-8326
NullValu	-8327
UrlParam	-8328
archStat	-8329
crollPan	-8330
nuInflat	-8331
CommonDao	-8332
ErrorInfo	-8333
naryBlock	-8334
0000000000000000	-8335
,"	-8336
.%	-8337
={	-8338
GM	-8339
Wc	-8340
qq	-8341
'))	-8342
384	-8343
Agg	-8344
GOV	-8345
GUA	-8346
INY	-8347
ISS	-8348
LAN	-8349
SAP	-8350
WAL	-8351
agl	-8352
bac	-8353
ctW	-8354
lAc	-8355
lro	-8356
muc	-8357
oOn	-8358
▁('	-8359
▁Dc	-8360
▁LE	-8361
▁MB	-8362
▁ln	-8363
▁mC	-8364
▁tb	-8365
))),	-8366
IFAC	-8367
Intr	-8368
Lamp	-8369
SAND	-8370
dInv	-8371
forn	-8372
ghtL	-8373
ldOf	-8374
ltIn	-8375
luck	-8376
nArt	-8377
nDto	-8378
ngVO	-8379
obol	-8380
pact	-8381
panJ	-8382
tClu	-8383
thPr	-8384
zzaQ	-8385
▁"//	-8386
▁3),	-8387
▁355	-8388
▁7);	-8389
▁bao	-8390
▁mMa	-8391
▁mgr	-8392
▁pal	-8393
▁pur	-8394
CANNO	-8395
OfDay	-8396
QNAME	-8397
aJInt	-8398
ctron	-8399
dProj	-8400
nBuff	-8401
ngOrd	-8402
pmInt	-8403
rEnum	-8404
razyp	-8405
tSort	-8406
▁EXIS	-8407
▁Grpc	-8408
▁Incr	-8409
▁Word	-8410
▁atla	-8411
▁mach	-8412
▁want	-8413
BLOCKS	-8414
INVOKE	-8415
SIMPLE	-8416
bChrom	-8417
lManag	-8418
nopart	-8419
ntMock	-8420
oLocat	-8421
rUpdat	-8422
▁Canva	-8423
▁Spark	-8424
ActualF	-8425
AppConf	-8426
CONFIGU	-8427
FromFac	-8428
dPackag	-8429
graalvm	-8430
ntParam	-8431
ntually	-8432
zardPag	-8433
▁avatar	-8434
▁crazyp	-8435
GlobalId	-8436
aLanguag	-8437
copyFrom	-8438
▁SmartDa	-8439
▁Support	-8440
dProtocol	-8441
▁Snackbar	-8442
▁crazypant	-8443
UploadProtocol	-8444
${	-8445
/{	-8446
51	-8447
KH	-8448
WH	-8449
fj	-8450
gM	-8451
pF	-8452
qr	-8453
zo	-8454
用户	-8455
11\	-8456
199	-8457
AFW	-8458
InP	-8459
LIN	-8460
PEG	-8461
aBu	-8462
alK	-8463
dCo	-8464
dPa	-8465
gun	-8466
jwt	-8467
mEv	-8468
oEm	-8469
onL	-8470
pmd	-8471
wat	-8472
▁23	-8473
▁37	-8474
▁AP	-8475
▁HO	-8476
▁Jp	-8477
▁bw	-8478
に行っ	-8479
10",	-8480
ACID	-8481
ANSI	-8482
BEAN	-8483
EDED	-8484
LEng	-8485
LING	-8486
OnCh	-8487
Pojo	-8488
Summ	-8489
Undo	-8490
VMIn	-8491
dEdg	-8492
ldOr	-8493
mann	-8494
nCha	-8495
nZon	-8496
ndCl	-8497
oGam	-8498
onIn	-8499
ptIn	-8500
rNot	-8501
tMov	-8502
thId	-8503
tual	-8504
vant	-8505
▁Gad	-8506
▁Num	-8507
▁PUB	-8508
▁tpl	-8509
に行った	-8510
(50);	-8511
)))).	-8512
32();	-8513
:{}",	-8514
Authn	-8515
CHILD	-8516
IDDEN	-8517
ISSUE	-8518
InfoS	-8519
bInfo	-8520
calar	-8521
nforc	-8522
oParc	-8523
orrow	-8524
pImpl	-8525
rCond	-8526
tStor	-8527
ymock	-8528
▁"));	-8529
▁"2",	-8530
▁12);	-8531
▁Bukk	-8532
▁Jack	-8533
▁Plot	-8534
▁Poly	-8535
▁cant	-8536
▁onAn	-8537
▁onto	-8538
▁proj	-8539
▁undo	-8540
EMPLOY	-8541
Flavor	-8542
GroupY	-8543
LoopIt	-8544
catorX	-8545
dShort	-8546
ntPlay	-8547
thdraw	-8548
toryEv	-8549
zzBuff	-8550
▁",");	-8551
▁Adjud	-8552
▁major	-8553
MyLocat	-8554
StackIn	-8555
acknowl	-8556
dFactor	-8557
ncyNano	-8558
ndByNam	-8559
ndlyNam	-8560
rarchyW	-8561
▁3042);	-8562
▁qualSp	-8563
▁vmConf	-8564
calGroup	-8565
mlPackag	-8566
tForward	-8567
▁ArrayUt	-8568
▁callabl	-8569
WrongAttr	-8570
aProducto	-8571
cardcrawl	-8572
phonyManag	-8573
controlProp	-8574
controllabl	-8575
▁ShowCommand	-8576
▁localVarCall	-8577
):	-8578
7_	-8579
Vc	-8580
[@	-8581
!";	-8582
('"	-8583
(')	-8584
(16	-8585
-1.	-8586
:{}	-8587
ABS	-8588
AGS	-8589
CHE	-8590
EPE	-8591
EVE	-8592
IMP	-8593
IOD	-8594
_3_	-8595
alL	-8596
amm	-8597
aqu	-8598
aya	-8599
cdk	-8600
dOr	-8601
dSp	-8602
mUt	-8603
nOb	-8604
oId	-8605
ony	-8606
pBa	-8607
rGu	-8608
rtB	-8609
▁FA	-8610
▁IL	-8611
▁LI	-8612
▁bd	-8613
▁ft	-8614
▁mN	-8615
(123	-8616
1000	-8617
?,?,	-8618
DINJ	-8619
JPEG	-8620
LDAP	-8621
LESS	-8622
PLUG	-8623
Quad	-8624
Your	-8625
[3];	-8626
_002	-8627
ftId	-8628
gacr	-8629
mSHA	-8630
nAcc	-8631
nalL	-8632
yInd	-8633
▁Gdb	-8634
▁LIS	-8635
▁jpa	-8636
▁toD	-8637
Nport	-8638
PLAIN	-8639
Storm	-8640
aStat	-8641
abLay	-8642
blank	-8643
opmod	-8644
rtUnr	-8645
ryAdd	-8646
▁"4",	-8647
▁Flum	-8648
▁Good	-8649
▁MQCl	-8650
▁look	-8651
▁onCh	-8652
Approv	-8653
Couldn	-8654
ESCAPE	-8655
GOOGLE	-8656
GroupI	-8657
HtmlUt	-8658
INDICA	-8659
Incorr	-8660
PoolVO	-8661
YELLOW	-8662
calLay	-8663
kParam	-8664
oIgnor	-8665
pboard	-8666
tConta	-8667
tomNav	-8668
▁Arrow	-8669
▁BUFFE	-8670
▁Black	-8671
▁Capab	-8672
▁DataS	-8673
▁Probl	-8674
▁Solar	-8675
▁mMarg	-8676
ArtWork	-8677
dAuthor	-8678
flowabl	-8679
▁[{}]",	-8680
▁onSucc	-8681
2.168.1.	-8682
DataProc	-8683
ParamNam	-8684
nSupport	-8685
zontalAl	-8686
▁CommonC	-8687
▁DataStor	-8688
▁poolConf	-8689
▁ArrayAdapt	-8690
▁jarCommand	-8691
3<	-8692
CX	-8693
Ec	-8694
Fo	-8695
IW	-8696
JW	-8697
LP	-8698
cU	-8699
hh	-8700
wN	-8701
zA	-8702
(',	-8703
(12	-8704
KED	-8705
Pom	-8706
[12	-8707
];"	-8708
_1.	-8709
aOr	-8710
adH	-8711
amE	-8712
amt	-8713
boy	-8714
cay	-8715
ctH	-8716
hur	-8717
jgl	-8718
moS	-8719
rAl	-8720
toS	-8721
tyE	-8722
ymp	-8723
▁CE	-8724
▁Cm	-8725
▁Gh	-8726
▁LN	-8727
▁lb	-8728
▁ml	-8729
▁vg	-8730
("")	-8731
(4),	-8732
<?>,	-8733
OLLE	-8734
ZooK	-8735
cSql	-8736
four	-8737
kual	-8738
layM	-8739
nEnv	-8740
ngOp	-8741
nhol	-8742
norm	-8743
ntPr	-8744
oCon	-8745
oEmp	-8746
parc	-8747
qNam	-8748
rtAc	-8749
rtUt	-8750
tcon	-8751
tunn	-8752
ubbl	-8753
▁;";	-8754
▁Cla	-8755
▁Cro	-8756
▁Day	-8757
▁Dom	-8758
▁GLU	-8759
▁Pub	-8760
▁Saf	-8761
▁UDA	-8762
▁abl	-8763
▁jca	-8764
▁mLa	-8765
▁mOn	-8766
▁mal	-8767
▁phy	-8768
▁pnl	-8769
')");	-8770
(16);	-8771
BEGIN	-8772
CONVE	-8773
DbNam	-8774
INYIN	-8775
ISHED	-8776
LotOK	-8777
PHONE	-8778
YABLE	-8779
alarm	-8780
ndOff	-8781
ngOpt	-8782
novat	-8783
rvMgr	-8784
ryPol	-8785
toSql	-8786
vmNam	-8787
▁11);	-8788
▁255)	-8789
▁30);	-8790
▁Plac	-8791
010100	-8792
DEVICE	-8793
ForNam	-8794
SIGNED	-8795
SparkL	-8796
conflu	-8797
dSourc	-8798
faultV	-8799
faultW	-8800
llStat	-8801
ngProv	-8802
poMano	-8803
portar	-8804
ptInfo	-8805
▁1024;	-8806
▁LOCAL	-8807
▁antlr	-8808
DOCUMEN	-8809
Enchant	-8810
YAMLStr	-8811
concurr	-8812
doStart	-8813
hortNam	-8814
orProto	-8815
rGround	-8816
rStruct	-8817
▁Analyz	-8818
▁HttpUt	-8819
▁warmup	-8820
ConnAtom	-8821
FILENAME	-8822
ProduEmp	-8823
faultClo	-8824
rDataDto	-8825
rtualEth	-8826
▁ComboBo	-8827
▁jjmatch	-8828
ProductId	-8829
UnknownHo	-8830
IdProducto	-8831
voGuardarCamb	-8832
poManoProduEmp	-8833
5\	-8834
90	-8835
Lt	-8836
Sa	-8837
oA	-8838
yl	-8839
óm	-8840
当前	-8841
0.5	-8842
:\\	-8843
AMS	-8844
Glo	-8845
HEA	-8846
OfD	-8847
SUM	-8848
SpD	-8849
Unt	-8850
\01	-8851
bbl	-8852
cac	-8853
ctE	-8854
dAb	-8855
fam	-8856
ftp	-8857
jna	-8858
tok	-8859
uco	-8860
utr	-8861
wpo	-8862
yCl	-8863
{1}	-8864
▁"|	-8865
▁2.	-8866
▁:"	-8867
▁Wa	-8868
▁vc	-8869
▁yA	-8870
(20,	-8871
HotK	-8872
ISpo	-8873
Spla	-8874
YPSH	-8875
[2].	-8876
arNo	-8877
cAct	-8878
lEma	-8879
lOpc	-8880
lobb	-8881
nalF	-8882
ndHr	-8883
ntCl	-8884
nunc	-8885
onWr	-8886
pton	-8887
rAdm	-8888
rtyK	-8889
ruly	-8890
tata	-8891
thym	-8892
wInd	-8893
▁0.1	-8894
▁11;	-8895
▁13,	-8896
▁Phy	-8897
▁hot	-8898
={}",	-8899
ACCEP	-8900
Favor	-8901
FormD	-8902
HOUSE	-8903
IMONY	-8904
VIDEO	-8905
broad	-8906
cdwaL	-8907
doEnd	-8908
nForm	-8909
oBull	-8910
rNumb	-8911
rPlug	-8912
raScr	-8913
tComm	-8914
▁CONF	-8915
▁INPU	-8916
▁NONE	-8917
▁Slot	-8918
▁bulk	-8919
▁chan	-8920
▁cycl	-8921
▁dock	-8922
▁lazy	-8923
ABUIAp	-8924
MatchE	-8925
SCHEME	-8926
Unlock	-8927
aLocal	-8928
abFold	-8929
alNumb	-8930
ngFram	-8931
portAg	-8932
tOrgan	-8933
thProj	-8934
thodSp	-8935
▁1000,	-8936
▁CLIEN	-8937
▁LoadS	-8938
▁NUMBE	-8939
▁Study	-8940
▁arrow	-8941
▁chall	-8942
▁myCat	-8943
BatchId	-8944
MAPPING	-8945
faultCl	-8946
ntUpdat	-8947
thGroup	-8948
zzFStat	-8949
▁Cannot	-8950
▁Lookup	-8951
▁SECOND	-8952
▁Symbol	-8953
▁workIt	-8954
ENCODING	-8955
ForUpdat	-8956
tFormatt	-8957
urroundM	-8958
▁mCurrPt	-8959
▁nonNull	-8960
arNoHorar	-8961
rFormProv	-8962
wallEndpo	-8963
zontalOff	-8964
▁fallback	-8965
SIZEPOLICY	-8966
ryCallback	-8967
ColumnCount	-8968
GroupYPackag	-8969
oolBarProducto	-8970
,\	-8971
74	-8972
91	-8973
92	-8974
:4	-8975
BG	-8976
OX	-8977
PM	-8978
SY	-8979
XC	-8980
]{	-8981
ht	-8982
mN	-8983
mh	-8984
vD	-8985
yo	-8986
zS	-8987
-12	-8988
01)	-8989
08.	-8990
116	-8991
21.	-8992
;";	-8993
ALP	-8994
CED	-8995
Cut	-8996
ECA	-8997
ENV	-8998
Glu	-8999
Ing	-9000
OPS	-9001
OnM	-9002
OnS	-9003
PIN	-9004
Pot	-9005
SPA	-9006
SPE	-9007
_15	-9008
aIt	-9009
cfa	-9010
chr	-9011
cru	-9012
dCr	-9013
fon	-9014
glV	-9015
joy	-9016
mbu	-9017
ndE	-9018
ndN	-9019
ndX	-9020
qId	-9021
rfM	-9022
zzl	-9023
▁')	-9024
▁'-	-9025
▁Av	-9026
▁CS	-9027
▁rm	-9028
▁ub	-9029
++],	-9030
2010	-9031
2\0\	-9032
ADAP	-9033
CENE	-9034
Coap	-9035
ENGL	-9036
Hood	-9037
IDLE	-9038
InEv	-9039
NonE	-9040
OnIn	-9041
Oppo	-9042
SUPE	-9043
Saga	-9044
[4];	-9045
alPo	-9046
cInt	-9047
ctAc	-9048
dCod	-9049
ghtS	-9050
nArg	-9051
ndat	-9052
proj	-9053
rOfH	-9054
tMar	-9055
wVal	-9056
▁91.	-9057
▁wal	-9058
("200	-9059
64();	-9060
AGMEN	-9061
Ancho	-9062
Corpu	-9063
LENDA	-9064
Sucur	-9065
VEVEN	-9066
XWalk	-9067
\"");	-9068
\",\"	-9069
_8));	-9070
cAuth	-9071
jbJar	-9072
nLoad	-9073
ntCod	-9074
ntDao	-9075
rGUID	-9076
rackF	-9077
rvalM	-9078
tMock	-9079
tplac	-9080
yncCl	-9081
▁"{\"	-9082
▁LIMI	-9083
▁Mach	-9084
▁Phra	-9085
▁cart	-9086
▁jpql	-9087
▁mHor	-9088
(0)));	-9089
Chrono	-9090
FACILI	-9091
FromVo	-9092
Voltag	-9093
\":\""	-9094
bouncy	-9095
ctStat	-9096
mojang	-9097
ntCach	-9098
rFragm	-9099
▁".");	-9100
▁20));	-9101
▁Front	-9102
▁Ignor	-9103
▁contr	-9104
▁mockW	-9105
▁valor	-9106
COLUMNA	-9107
OnError	-9108
Startup	-9109
faultCu	-9110
ftFront	-9111
goryEnt	-9112
ntCapac	-9113
東京都に行った	-9114
EMPLOYEE	-9115
ISDEVELO	-9116
Propagat	-9117
fallback	-9118
formData	-9119
hotChunk	-9120
howError	-9121
GadABUIAp	-9122
▁Contract	-9123
adProducto	-9124
cCommonDao	-9125
▁EmptyData	-9126
▁VmWorkJob	-9127
IdProductoD	-9128
StackInSlot	-9129
▁IBlockStat	-9130
ISDEVELOPING	-9131
▁programHandl	-9132
aProduProducto	-9133
▁LNGroupYPackag	-9134
-3	-9135
0/	-9136
1"	-9137
Cn	-9138
FW	-9139
LM	-9140
OY	-9141
[%	-9142
jv	-9143
kb	-9144
wf	-9145
══	-9146
错误	-9147
("9	-9148
(11	-9149
03,	-9150
32;	-9151
41.	-9152
598	-9153
CES	-9154
HEL	-9155
Hov	-9156
IGA	-9157
ILL	-9158
InD	-9159
NLG	-9160
ODO	-9161
SAB	-9162
Ult	-9163
Unf	-9164
[6]	-9165
dor	-9166
jac	-9167
lft	-9168
mIt	-9169
maH	-9170
nAc	-9171
nAg	-9172
ndY	-9173
onB	-9174
owK	-9175
owM	-9176
pov	-9177
rBr	-9178
rDo	-9179
ugc	-9180
unA	-9181
▁''	-9182
▁'_	-9183
▁BE	-9184
▁CD	-9185
▁MS	-9186
▁[]	-9187
▁cv	-9188
▁lm	-9189
))))	-9190
5));	-9191
BOSE	-9192
Bukk	-9193
ENDE	-9194
Half	-9195
KIND	-9196
Mayb	-9197
SAVE	-9198
[3],	-9199
_1_,	-9200
adFK	-9201
amDr	-9202
amOb	-9203
arEv	-9204
ctUt	-9205
half	-9206
jbpm	-9207
land	-9208
mumL	-9209
naco	-9210
ntur	-9211
oPag	-9212
ryAb	-9213
tDto	-9214
topS	-9215
▁"1.	-9216
▁1",	-9217
▁15,	-9218
▁15;	-9219
▁18;	-9220
▁32,	-9221
▁Gat	-9222
▁ICA	-9223
▁Inh	-9224
▁Inj	-9225
▁Kub	-9226
▁Orc	-9227
▁Pok	-9228
▁hdr	-9229
▁lbv	-9230
▁mBt	-9231
01");	-9232
22"),	-9233
JobIn	-9234
LOGIN	-9235
Morph	-9236
PValu	-9237
chron	-9238
ckabl	-9239
ctUrl	-9240
dayCh	-9241
goryS	-9242
kComm	-9243
llano	-9244
ntrat	-9245
pthMa	-9246
qBody	-9247
rById	-9248
trary	-9249
ucumb	-9250
▁COMM	-9251
▁Full	-9252
▁HIGH	-9253
▁doIn	-9254
▁glfw	-9255
▁roll	-9256
99995,	-9257
EHOUSE	-9258
ImgUrl	-9259
Prompt	-9260
adLock	-9261
alValu	-9262
cratch	-9263
ctByPr	-9264
ctData	-9265
dError	-9266
kywalk	-9267
laDato	-9268
markup	-9269
nantDo	-9270
ngProc	-9271
nkInfo	-9272
ntLoop	-9273
ntProv	-9274
rWorld	-9275
rcular	-9276
wnombr	-9277
▁abort	-9278
▁battl	-9279
▁humor	-9280
▁mDraw	-9281
ColumnD	-9282
ENGLISH	-9283
EdmProv	-9284
IntValu	-9285
JobInfo	-9286
Varchar	-9287
archabl	-9288
atCount	-9289
broadca	-9290
cloudbr	-9291
ctHandl	-9292
ctSourc	-9293
curChar	-9294
maManag	-9295
maSourc	-9296
ndError	-9297
ndFragm	-9298
ndParam	-9299
nkStrat	-9300
ntUnava	-9301
produFK	-9302
tworkId	-9303
▁Advanc	-9304
▁collap	-9305
▁mStart	-9306
▁manual	-9307
▁nullab	-9308
Curvatur	-9309
SEQUENCE	-9310
boundary	-9311
mdrOptVA	-9312
nColumnF	-9313
portData	-9314
tSortAcc	-9315
▁Imgproc	-9316
▁annotat	-9317
▁antProj	-9318
▁journal	-9319
conCargar	-9320
mActuator	-9321
ngCommand	-9322
▁KuhnMatr	-9323
▁aInvocat	-9324
000000"));	-9325
tyNotFound	-9326
▁DvInvocat	-9327
▁localVarH	-9328
cargarCombo	-9329
▁IDvInvocat	-9330
mockCommandEv	-9331
'"	-9332
->	-9333
2"	-9334
2=	-9335
4/	-9336
GH	-9337
HL	-9338
['	-9339
hM	-9340
hS	-9341
kw	-9342
oW	-9343
}\	-9344
存在	-9345
(*)	-9346
(2)	-9347
.//	-9348
306	-9349
8.7	-9350
>20	-9351
Arc	-9352
Arm	-9353
Dru	-9354
Dur	-9355
OXY	-9356
PIC	-9357
[++	-9358
anj	-9359
bly	-9360
cOp	-9361
dOb	-9362
dbm	-9363
jak	-9364
jun	-9365
nOr	-9366
nou	-9367
pId	-9368
prv	-9369
rAc	-9370
ryF	-9371
ryH	-9372
tVm	-9373
wId	-9374
▁!"	-9375
▁6)	-9376
▁nf	-9377
▁tz	-9378
▁zn	-9379
("./	-9380
8();	-9381
://"	-9382
AINE	-9383
AllM	-9384
AndV	-9385
Avro	-9386
Futu	-9387
HOLE	-9388
IALS	-9389
KING	-9390
Purg	-9391
SELF	-9392
UInt	-9393
UNAU	-9394
WSDL	-9395
aCod	-9396
adPr	-9397
arCl	-9398
dMta	-9399
fork	-9400
holo	-9401
larg	-9402
lyph	-9403
ndCh	-9404
ropp	-9405
tScr	-9406
tulo	-9407
wMOB	-9408
}").	-9409
▁"##	-9410
▁"{}	-9411
▁-3,	-9412
▁1])	-9413
▁AES	-9414
▁Acl	-9415
▁CAN	-9416
▁DEC	-9417
▁Eac	-9418
▁Jwt	-9419
▁MON	-9420
▁boy	-9421
▁gal	-9422
▁jvm	-9423
▁rnd	-9424
848);	-9425
ANALY	-9426
BackP	-9427
Battl	-9428
FontS	-9429
ILINE	-9430
MIXIN	-9431
NoMor	-9432
archL	-9433
chapt	-9434
ckAnd	-9435
dWork	-9436
lwjgl	-9437
mInfo	-9438
ncyPa	-9439
ngAdd	-9440
ngOff	-9441
ntArr	-9442
ntSch	-9443
onOpt	-9444
rCard	-9445
rOfIn	-9446
tBuff	-9447
▁""),	-9448
▁ENot	-9449
▁Fabr	-9450
▁Fold	-9451
▁MOCK	-9452
▁capt	-9453
▁oldS	-9454
(200);	-9455
FULLSC	-9456
MyData	-9457
PUBLIS	-9458
WINDOW	-9459
XMLStr	-9460
hotNam	-9461
jcloud	-9462
kyfram	-9463
mParam	-9464
naryOp	-9465
nnovat	-9466
onConv	-9467
quartz	-9468
toolbo	-9469
▁Endpo	-9470
▁MAPPE	-9471
▁MojoE	-9472
▁chanc	-9473
▁known	-9474
▁oauth	-9475
▁onOpt	-9476
▁pmInt	-9477
▁toInd	-9478
(5000);	-9479
AndInfo	-9480
EpochId	-9481
NonWork	-9482
SMALLIN	-9483
ngStack	-9484
ngUpdat	-9485
oughfar	-9486
ptorNam	-9487
zontalD	-9488
▁3553);	-9489
▁Branch	-9490
▁Lambda	-9491
▁PUBLIC	-9492
▁SolrQu	-9493
▁attack	-9494
▁mdrOpt	-9495
CallBack	-9496
ErrorPct	-9497
\030\001	-9498
bouncyca	-9499
ctorConf	-9500
rnalPlay	-9501
▁DcMotor	-9502
▁mLocalV	-9503
▁zzStart	-9504
faultImag	-9505
nchPackag	-9506
toryManag	-9507
▁localNam	-9508
▁toolbarD	-9509
BoardAdapt	-9510
wVmWorkJob	-9511
FactoryImpl	-9512
VmWorkJobVO	-9513
amWorkflowD	-9514
("#000000"));	-9515
-4	-9516
5(	-9517
Ic	-9518
KI	-9519
XS	-9520
bf	-9521
gW	-9522
lh	-9523
mG	-9524
tJ	-9525
ua	-9526
yB	-9527
为空	-9528
获取	-9529
','	-9530
../	-9531
19.	-9532
BAM	-9533
BBo	-9534
BOL	-9535
IDP	-9536
IMU	-9537
InU	-9538
Jvm	-9539
MOS	-9540
Sph	-9541
aca	-9542
bUt	-9543
cBr	-9544
cfg	-9545
ckL	-9546
ctK	-9547
dHa	-9548
ghL	-9549
hol	-9550
lEv	-9551
lFK	-9552
mcm	-9553
pok	-9554
wDt	-9555
▁(*	-9556
▁HE	-9557
'));	-9558
("$.	-9559
("00	-9560
(50,	-9561
++];	-9562
0808	-9563
ACKE	-9564
APDU	-9565
Alam	-9566
EDEN	-9567
Frag	-9568
IMPO	-9569
MESS	-9570
OnPr	-9571
POLA	-9572
SCAN	-9573
[]>>	-9574
actB	-9575
amqp	-9576
ftag	-9577
gluu	-9578
ldAt	-9579
nHom	-9580
oAll	-9581
oFar	-9582
oNam	-9583
orEv	-9584
rSub	-9585
wAdd	-9586
wVar	-9587
yCod	-9588
yard	-9589
▁((!	-9590
▁...	-9591
▁0.9	-9592
▁3.0	-9593
▁655	-9594
▁MyB	-9595
▁aga	-9596
▁arm	-9597
▁awa	-9598
-001/	-9599
.2"),	-9600
6_005	-9601
BodyD	-9602
Condu	-9603
ECIPE	-9604
FLAGS	-9605
Infra	-9606
SUBSC	-9607
[0]))	-9608
ckAcc	-9609
flagU	-9610
hcach	-9611
kProg	-9612
ndEnt	-9613
ndowD	-9614
onomy	-9615
partn	-9616
plugN	-9617
rMark	-9618
ralSg	-9619
rmark	-9620
tCurr	-9621
tFlag	-9622
tPack	-9623
thUrl	-9624
torPr	-9625
urnac	-9626
wInfo	-9627
yColl	-9628
▁"305	-9629
▁0)).	-9630
▁0.01	-9631
▁255;	-9632
▁8));	-9633
▁AtSp	-9634
▁Ingr	-9635
▁Succ	-9636
▁_005	-9637
▁cold	-9638
▁mLay	-9639
▁topL	-9640
99998,	-9641
:00:00	-9642
adBuff	-9643
cordOp	-9644
llBord	-9645
mHandl	-9646
mpData	-9647
ndBuff	-9648
ndData	-9649
nkStor	-9650
rDatoG	-9651
rnalCS	-9652
rtInto	-9653
tLatch	-9654
thProp	-9655
ummyAc	-9656
▁HttpG	-9657
▁MockW	-9658
▁allur	-9659
▁fontS	-9660
CONFIGS	-9661
Concurr	-9662
InBlock	-9663
SAMLVal	-9664
cColumn	-9665
ldStatu	-9666
ngLocal	-9667
▁FAILED	-9668
▁IDataH	-9669
▁Scalar	-9670
BottomPo	-9671
CommonUt	-9672
ftagPool	-9673
throwabl	-9674
▁DataAcc	-9675
▁JavaScr	-9676
▁callOpt	-9677
▁dummyAc	-9678
▁thumbna	-9679
AVAILABLE	-9680
Accumulat	-9681
StackFram	-9682
_0026_005	-9683
rtDummyAc	-9684
▁CopyOnWr	-9685
▁zzUnpack	-9686
JavaPackag	-9687
conCargarM	-9688
tworkManag	-9689
wordFactory	-9690
)\	-9691
42	-9692
8:	-9693
FB	-9694
WW	-9695
mj	-9696
rw	-9697
yK	-9698
0-9	-9699
01_	-9700
AUD	-9701
Arb	-9702
BAN	-9703
Crc	-9704
DSL	-9705
IAS	-9706
Jwt	-9707
Kub	-9708
OfB	-9709
PCS	-9710
Pub	-9711
SIN	-9712
ULE	-9713
VoL	-9714
arL	-9715
fan	-9716
gad	-9717
hut	-9718
lIf	-9719
ldL	-9720
mPr	-9721
nlr	-9722
obr	-9723
ota	-9724
rJo	-9725
thG	-9726
toa	-9727
ubS	-9728
van	-9729
ych	-9730
▁/=	-9731
▁27	-9732
▁3.	-9733
▁3]	-9734
▁Au	-9735
▁Gd	-9736
▁Nd	-9737
▁Up	-9738
▁cd	-9739
▁nm	-9740
▁zf	-9741
("01	-9742
1_);	-9743
ABDI	-9744
AXIS	-9745
Allu	-9746
BEFO	-9747
BarD	-9748
EXEC	-9749
GADO	-9750
Ldap	-9751
SPLI	-9752
Snak	-9753
actM	-9754
byQu	-9755
foot	-9756
gray	-9757
hony	-9758
hotD	-9759
jdom	-9760
ldIt	-9761
ngSt	-9762
prom	-9763
rByt	-9764
rarE	-9765
robo	-9766
tabl	-9767
thCu	-9768
▁1].	-9769
▁EPC	-9770
▁GMS	-9771
▁HOU	-9772
▁Mor	-9773
▁Por	-9774
▁Wav	-9775
▁ddl	-9776
▁pad	-9777
▁vpc	-9778
("{\"	-9779
ANDOM	-9780
Buddy	-9781
Ngram	-9782
OADON	-9783
SLIDE	-9784
Unmod	-9785
VANCE	-9786
VmDao	-9787
WEIGH	-9788
authn	-9789
cordD	-9790
dProc	-9791
draft	-9792
hData	-9793
lValu	-9794
labor	-9795
mooth	-9796
nAngl	-9797
nScop	-9798
ntCon	-9799
ntMgr	-9800
partK	-9801
party	-9802
ployD	-9803
rLoad	-9804
rmNum	-9805
tLoad	-9806
toMov	-9807
tyPro	-9808
vator	-9809
▁"'",	-9810
▁")",	-9811
▁0");	-9812
▁0.00	-9813
▁50);	-9814
▁Kudu	-9815
▁MODE	-9816
▁anno	-9817
▁purg	-9818
")))).	-9819
DotNam	-9820
EpochM	-9821
dModul	-9822
mAdapt	-9823
mpFold	-9824
nbound	-9825
ncPort	-9826
ngStor	-9827
otalPr	-9828
rtAttr	-9829
taInfo	-9830
tyImpl	-9831
wordEn	-9832
▁"0");	-9833
▁"}").	-9834
▁1)));	-9835
▁18));	-9836
▁Andro	-9837
▁CLASS	-9838
▁Found	-9839
▁Invok	-9840
▁MODEL	-9841
▁Proto	-9842
▁oppon	-9843
▁unabl	-9844
CallOpt	-9845
LOADING	-9846
NoSuchM	-9847
StartHr	-9848
mumNumb	-9849
rAmount	-9850
tFranch	-9851
ualConc	-9852
workDao	-9853
▁coluna	-9854
▁mAlarm	-9855
Backward	-9856
BlockEnt	-9857
DataBuff	-9858
faultNam	-9859
faultPlc	-9860
kLocator	-9861
nCallabl	-9862
onInclud	-9863
▁ColumnE	-9864
▁MockMvc	-9865
▁Unknown	-9866
▁horzEdg	-9867
cutorProv	-9868
ngtonConf	-9869
onDataAdapt	-9870
▁XmlPullPar	-9871
ControlEnabl	-9872
FromArrowBuf	-9873
▁VmWorkJobVO	-9874
-2	-9875
1=	-9876
LV	-9877
Mp	-9878
aW	-9879
cW	-9880
cj	-9881
dZ	-9882
hk	-9883
kE	-9884
vd	-9885
wI	-9886
ya	-9887
不能	-9888
(-1	-9889
/**	-9890
/1.	-9891
012	-9892
055	-9893
1_,	-9894
AMQ	-9895
EXC	-9896
GAN	-9897
LIE	-9898
Nfa	-9899
OfL	-9900
SOL	-9901
Udp	-9902
]).	-9903
alr	-9904
ara	-9905
bCr	-9906
cPo	-9907
dla	-9908
gap	-9909
jzy	-9910
kWr	-9911
ngG	-9912
nga	-9913
nyP	-9914
qmu	-9915
roF	-9916
roS	-9917
tNo	-9918
thA	-9919
wPr	-9920
▁"~	-9921
▁'1	-9922
▁AI	-9923
▁[{	-9924
▁nb	-9925
▁oa	-9926
2017	-9927
256_	-9928
BILI	-9929
Blur	-9930
IAcc	-9931
IamP	-9932
IdOr	-9933
Khau	-9934
LIVE	-9935
MMdd	-9936
PANE	-9937
SOAP	-9938
]++;	-9939
aman	-9940
bonu	-9941
glfw	-9942
hutt	-9943
lCon	-9944
llId	-9945
nInn	-9946
nOff	-9947
onFa	-9948
onOp	-9949
rSla	-9950
rron	-9951
tInv	-9952
tary	-9953
thNo	-9954
▁"14	-9955
▁-4,	-9956
▁0,"	-9957
▁0.8	-9958
▁40,	-9959
▁5).	-9960
▁50)	-9961
▁Fam	-9962
▁INC	-9963
▁INI	-9964
▁Plc	-9965
▁bud	-9966
▁mGr	-9967
▁onM	-9968
▁onN	-9969
▁rdf	-9970
(2)).	-9971
1")).	-9972
2006.	-9973
Ambar	-9974
BUCKE	-9975
IDFCo	-9976
IMXML	-9977
Inact	-9978
OpCap	-9979
Pagam	-9980
SIONS	-9981
actPr	-9982
agLab	-9983
anNam	-9984
cBond	-9985
couch	-9986
cropr	-9987
ctByE	-9988
doNot	-9989
flatt	-9990
hcard	-9991
nImag	-9992
nLock	-9993
nkCha	-9994
ntPat	-9995
pConf	-9996
rBody	-9997
tPool	-9998
▁"0";	-9999
▁MAKE	-10000
▁Qual	-10001
▁fmod	-10002
▁hora	-10003
▁jjCh	-10004
▁nrNC	-10005
▁onPr	-10006
▁poll	-10007
()[0];	-10008
Analyt	-10009
GroupD	-10010
GroupS	-10011
IamPol	-10012
LOADED	-10013
SEGMEN	-10014
ZkStat	-10015
anProp	-10016
ckNAdd	-10017
groovy	-10018
hangam	-10019
ldInfo	-10020
nBlock	-10021
nLocat	-10022
ndFunc	-10023
qualSp	-10024
rArrow	-10025
rtStat	-10026
tallat	-10027
thrown	-10028
▁255),	-10029
▁Datac	-10030
▁FIELD	-10031
▁Watch	-10032
▁mCach	-10033
▁{}));	-10034
AndIncr	-10035
ColumnH	-10036
ELACION	-10037
OrganId	-10038
dcrAppl	-10039
ghtInfo	-10040
horzEdg	-10041
nStorag	-10042
ndAllBy	-10043
onCompl	-10044
pandabl	-10045
▁2929);	-10046
▁COLLEC	-10047
▁popupM	-10048
▁quorum	-10049
▁unwrap	-10050
CallStat	-10051
ctorCach	-10052
ctoryNam	-10053
govEmpPo	-10054
tworkInt	-10055
▁NotImpl	-10056
▁dFranch	-10057
▁varchar	-10058
SPECIFIED	-10059
faultStat	-10060
nalFormat	-10061
rnalCSNam	-10062
althFactor	-10063
productadm	-10064
tAllocator	-10065
ultSupport	-10066
▁ForLoopIt	-10067
tForwardMod	-10068
BufAllocator	-10069
▁nonNullCount	-10070
1>	-10071
97	-10072
Cg	-10073
HD	-10074
fL	-10075
hd	-10076
kH	-10077
kl	-10078
zl	-10079
更新	-10080
线程	-10081
8).	-10082
80_	-10083
:59	-10084
ABO	-10085
ALS	-10086
Bug	-10087
Cql	-10088
DEM	-10089
Fat	-10090
MID	-10091
OfE	-10092
PBH	-10093
PDF	-10094
WPF	-10095
YMP	-10096
[7]	-10097
ckn	-10098
dAp	-10099
dBa	-10100
ffl	-10101
kol	-10102
lWh	-10103
nBa	-10104
ntN	-10105
orA	-10106
pkF	-10107
taA	-10108
tyP	-10109
▁BL	-10110
▁IC	-10111
▁JO	-10112
▁NE	-10113
▁Pd	-10114
▁fp	-10115
')",	-10116
("19	-10117
(2.0	-10118
1)).	-10119
4").	-10120
>().	-10121
AllS	-10122
AppD	-10123
ENAN	-10124
HODS	-10125
Horz	-10126
ICIP	-10127
IVEN	-10128
JOIN	-10129
LOpt	-10130
QAFW	-10131
QUAN	-10132
Shot	-10133
Spat	-10134
Swap	-10135
anda	-10136
atum	-10137
club	-10138
crow	-10139
ctOn	-10140
ctPo	-10141
dPar	-10142
dScr	-10143
fyEv	-10144
jpql	-10145
mula	-10146
ndEv	-10147
ntOn	-10148
ordS	-10149
orqu	-10150
rNum	-10151
rObj	-10152
ryId	-10153
tBar	-10154
trat	-10155
tron	-10156
tydb	-10157
zoom	-10158
▁"))	-10159
▁"11	-10160
▁0.2	-10161
▁16,	-10162
▁FIL	-10163
▁HBa	-10164
▁LEF	-10165
▁SUC	-10166
▁anc	-10167
▁baz	-10168
▁cpw	-10169
▁haz	-10170
("<==	-10171
(30);	-10172
,"));	-10173
4"));	-10174
AUDIO	-10175
UCENE	-10176
actKm	-10177
adNam	-10178
adjud	-10179
bArch	-10180
cStat	-10181
chool	-10182
dIbor	-10183
dkMod	-10184
factS	-10185
gnatu	-10186
ldEnt	-10187
nCont	-10188
nPool	-10189
nPump	-10190
nchOp	-10191
ncyOp	-10192
ontop	-10193
pBurn	-10194
vStor	-10195
workW	-10196
wrong	-10197
▁"\0\	-10198
▁Clob	-10199
▁EVEN	-10200
▁JDBC	-10201
▁corn	-10202
▁dato	-10203
▁doca	-10204
▁forb	-10205
▁fund	-10206
▁mNot	-10207
▁tota	-10208
▁zkCl	-10209
("/");	-10210
ADVISO	-10211
ALWAYS	-10212
AndAdd	-10213
Caught	-10214
ELEASE	-10215
ctorId	-10216
dLocal	-10217
faultF	-10218
ntById	-10219
oolcha	-10220
ormanc	-10221
rmutat	-10222
toProv	-10223
tworkF	-10224
yParam	-10225
▁100.0	-10226
▁CACHE	-10227
▁OData	-10228
▁_2010	-10229
▁authn	-10230
▁curPo	-10231
▁mockM	-10232
▁plotL	-10233
▁quota	-10234
▁traff	-10235
(2000);	-10236
AllSpac	-10237
Corrupt	-10238
OnUpdat	-10239
bmParam	-10240
mpchart	-10241
ngStatu	-10242
orGroup	-10243
▁10000;	-10244
▁ACCESS	-10245
▁Amount	-10246
▁UNSAFE	-10247
▁onLoad	-10248
FromParc	-10249
actModul	-10250
rtySourc	-10251
tAllData	-10252
▁CppComp	-10253
GlobalVar	-10254
InfoParam	-10255
Mandatory	-10256
Standalon	-10257
▁OkHttpCl	-10258
▁productS	-10259
GlobalConf	-10260
ProgramNam	-10261
▁allocator	-10262
formSummary	-10263
▁productStor	-10264
DynamoDbAutoG	-10265
Am	-10266
Bt	-10267
NF	-10268
Vd	-10269
_9	-10270
cP	-10271
301	-10272
360	-10273
BIP	-10274
Fun	-10275
Gra	-10276
Hab	-10277
Jcr	-10278
KDF	-10279
PID	-10280
Pad	-10281
SEP	-10282
SOF	-10283
Sur	-10284
UpW	-10285
anu	-10286
aop	-10287
bud	-10288
cpS	-10289
dra	-10290
fOr	-10291
gPr	-10292
gaF	-10293
hEv	-10294
jty	-10295
koh	-10296
mlu	-10297
nak	-10298
ndK	-10299
ndm	-10300
occ	-10301
rAg	-10302
rEn	-10303
rNo	-10304
wEd	-10305
zup	-10306
▁$$	-10307
▁Em	-10308
▁IA	-10309
▁ak	-10310
▁fm	-10311
▁jM	-10312
▁nc	-10313
▁vr	-10314
(15,	-10315
AndP	-10316
Ball	-10317
Farm	-10318
INGE	-10319
KEEP	-10320
SubM	-10321
UPPE	-10322
VIGA	-10323
_123	-10324
ackS	-10325
dEla	-10326
door	-10327
gnar	-10328
mqtt	-10329
nkBy	-10330
onIt	-10331
onar	-10332
rApp	-10333
rEdg	-10334
rcad	-10335
rtOn	-10336
tEnd	-10337
tomS	-10338
ucla	-10339
▁-8,	-10340
▁0.6	-10341
▁1.5	-10342
▁?";	-10343
▁DAY	-10344
▁Edm	-10345
▁LAB	-10346
▁Mag	-10347
▁Mkv	-10348
▁PBH	-10349
▁alg	-10350
▁dbf	-10351
▁dlA	-10352
▁luc	-10353
▁tok	-10354
("-->	-10355
ALIAS	-10356
Alway	-10357
CYCLE	-10358
ENDED	-10359
IVILE	-10360
InAny	-10361
MySQL	-10362
Mybat	-10363
[0]).	-10364
_1598	-10365
amOut	-10366
antlr	-10367
dlrMa	-10368
nIcon	-10369
nSync	-10370
ndowM	-10371
onPau	-10372
poAcc	-10373
tCMDB	-10374
tyCon	-10375
ubyHa	-10376
▁"\""	-10377
▁1.0;	-10378
▁100)	-10379
▁24);	-10380
▁256)	-10381
▁Cook	-10382
▁drag	-10383
▁dvSw	-10384
▁foot	-10385
▁grav	-10386
▁jobD	-10387
▁obta	-10388
▁onPo	-10389
FromIt	-10390
Hadoop	-10391
IALIZA	-10392
PASSED	-10393
PLUGIN	-10394
PanMod	-10395
PoolId	-10396
[]>();	-10397
adrado	-10398
afCach	-10399
fyCach	-10400
lStack	-10401
ntCall	-10402
onSucc	-10403
pubnub	-10404
rtData	-10405
thNull	-10406
wStatu	-10407
yChang	-10408
▁HttpH	-10409
▁YIELD	-10410
▁aValu	-10411
▁dlrMa	-10412
▁guard	-10413
▁mScal	-10414
▁mcjty	-10415
BlobNam	-10416
CountOf	-10417
SQLStat	-10418
StructF	-10419
aBagLay	-10420
abManag	-10421
factFac	-10422
hotStor	-10423
playOpt	-10424
portfol	-10425
ryManag	-10426
ryStrat	-10427
thParam	-10428
workMgr	-10429
▁LUCENE	-10430
▁ground	-10431
▁localD	-10432
▁numByt	-10433
▁ramByt	-10434
▁zzCurr	-10435
CommandE	-10436
ELEVANCE	-10437
FormData	-10438
GrayStat	-10439
Pulldown	-10440
rProgram	-10441
ralBlock	-10442
rnalCach	-10443
yncBatch	-10444
▁FormVal	-10445
▁FrontUt	-10446
▁boardId	-10447
▁toolBar	-10448
BlockInfo	-10449
moEdmProv	-10450
▁productF	-10451
IBlockStat	-10452
ngStubFull	-10453
▁accumulat	-10454
▁nullAllow	-10455
ctorFactory	-10456
notNullValu	-10457
57	-10458
Bg	-10459
HG	-10460
PB	-10461
UV	-10462
ZZ	-10463
aH	-10464
pn	-10465
yW	-10466
'])	-10467
(">	-10468
(++	-10469
({}	-10470
);\	-10471
10,	-10472
17.	-10473
6()	-10474
ACY	-10475
BEA	-10476
DEK	-10477
EAK	-10478
Eur	-10479
FML	-10480
GCM	-10481
LPC	-10482
Mkv	-10483
Nub	-10484
UNS	-10485
VAN	-10486
aOf	-10487
aha	-10488
arS	-10489
atD	-10490
ckH	-10491
gCl	-10492
llL	-10493
maD	-10494
mpp	-10495
nIf	-10496
nPa	-10497
ntI	-10498
oOp	-10499
oup	-10500
rWh	-10501
rrM	-10502
tBo	-10503
unD	-10504
▁-2	-10505
▁77	-10506
▁AD	-10507
▁DO	-10508
▁XA	-10509
▁fc	-10510
▁hu	-10511
▁jt	-10512
▁nu	-10513
▁rl	-10514
-1",	-10515
ASSE	-10516
OnFa	-10517
Saml	-10518
\032	-10519
actD	-10520
anba	-10521
anon	-10522
argo	-10523
avaj	-10524
dAnd	-10525
dEnd	-10526
fInt	-10527
hank	-10528
llNo	-10529
ltDr	-10530
ltaS	-10531
nAtt	-10532
nEff	-10533
ncyL	-10534
ngCa	-10535
ntBy	-10536
orId	-10537
ptId	-10538
rall	-10539
rtum	-10540
rtyS	-10541
rtyW	-10542
tNot	-10543
todo	-10544
ulta	-10545
▁"".	-10546
▁"="	-10547
▁'\\	-10548
▁(!"	-10549
▁ASC	-10550
▁AWS	-10551
▁Alt	-10552
▁Cql	-10553
▁IPr	-10554
▁Sal	-10555
▁UNI	-10556
▁blk	-10557
▁cpu	-10558
▁pot	-10559
▁{};	-10560
("==>	-10561
(0.0,	-10562
(400,	-10563
0000,	-10564
ALPHA	-10565
Almac	-10566
Blood	-10567
CODED	-10568
DataG	-10569
FILES	-10570
GUAGE	-10571
KEEPE	-10572
aStor	-10573
actIn	-10574
adMod	-10575
adapt	-10576
amNam	-10577
chall	-10578
colab	-10579
nColF	-10580
ngPar	-10581
ntAdd	-10582
ntAva	-10583
ntrav	-10584
oAttr	-10585
oracl	-10586
rFlag	-10587
rFram	-10588
rHttp	-10589
rPaym	-10590
rtAll	-10591
rtVar	-10592
tImag	-10593
tInWr	-10594
truth	-10595
turnH	-10596
udaDr	-10597
vGuru	-10598
valor	-10599
▁13);	-10600
▁1]);	-10601
▁4));	-10602
▁GAME	-10603
▁Gall	-10604
▁Onto	-10605
▁Shop	-10606
▁SqlS	-10607
▁mInt	-10608
("/").	-10609
(1000,	-10610
AuthAp	-10611
BatchG	-10612
CEEDED	-10613
CampoG	-10614
Collat	-10615
DECODE	-10616
EnvVar	-10617
IBlock	-10618
InCart	-10619
MILLIS	-10620
NAVIGA	-10621
SortBy	-10622
SubSch	-10623
Unload	-10624
VISION	-10625
[1]));	-10626
aOfEff	-10627
collap	-10628
ctInfo	-10629
ctMock	-10630
dMonth	-10631
nFragm	-10632
ndByUu	-10633
ngChar	-10634
ntBond	-10635
rFutur	-10636
tInAcc	-10637
talAdd	-10638
tomcat	-10639
tyCond	-10640
unwayD	-10641
vInSEL	-10642
▁MyByt	-10643
▁Popup	-10644
▁Unary	-10645
))."));	-10646
ArrayId	-10647
\022\02	-10648
alFutur	-10649
althInd	-10650
ckCount	-10651
ctPlayM	-10652
ldUpdat	-10653
ntConta	-10654
onStart	-10655
yPatron	-10656
▁Normal	-10657
▁mMatch	-10658
FEEDBACK	-10659
Playback	-10660
Surround	-10661
Uncaught	-10662
ntroduct	-10663
▁1000));	-10664
▁Malform	-10665
▁SUCCESS	-10666
▁frontVG	-10667
AutoCompl	-10668
OrAllSpac	-10669
gyFactory	-10670
portGroup	-10671
tWorkflow	-10672
▁SoundCat	-10673
▁actualLa	-10674
▁AppCompat	-10675
▁Stopwatch	-10676
Accumulator	-10677
ValorCampoG	-10678
▁actualEnqu	-10679
CallbackInfo	-10680
▁actualBlobS	-10681
PatronLocalId	-10682
mdrOptBOOLEAN	-10683
▁actualBlobUr	-10684
▁actualBlobNam	-10685
AO	-10686
BN	-10687
GD	-10688
Gc	-10689
MF	-10690
PD	-10691
WB	-10692
bF	-10693
dw	-10694
yb	-10695
修改	-10696
参数	-10697
批量	-10698
登录	-10699
(20	-10700
01.	-10701
10;	-10702
3),	-10703
4()	-10704
64(	-10705
>30	-10706
ANA	-10707
OMA	-10708
OnP	-10709
QUO	-10710
bob	-10711
cAn	-10712
gdc	-10713
mNu	-10714
maf	-10715
nOv	-10716
ndL	-10717
ndP	-10718
ngI	-10719
nul	-10720
oNu	-10721
onK	-10722
pwr	-10723
rMo	-10724
rSt	-10725
rng	-10726
yPo	-10727
▁5:	-10728
▁EM	-10729
▁JA	-10730
▁KV	-10731
▁MY	-10732
▁OM	-10733
▁dw	-10734
▁jf	-10735
▁vC	-10736
(0))	-10737
ANDS	-10738
AndM	-10739
Away	-10740
BBBB	-10741
ESOL	-10742
Gran	-10743
LOOK	-10744
_1);	-10745
_148	-10746
adoS	-10747
allo	-10748
amCr	-10749
arAp	-10750
cFor	-10751
crom	-10752
dSql	-10753
dUrl	-10754
fEmb	-10755
kFor	-10756
lDao	-10757
lInt	-10758
lLay	-10759
llap	-10760
lotH	-10761
mayb	-10762
nObj	-10763
ntNo	-10764
oCod	-10765
oInd	-10766
pabl	-10767
parm	-10768
rJob	-10769
tIam	-10770
toIn	-10771
tyCh	-10772
ubtr	-10773
uctu	-10774
udac	-10775
wSch	-10776
zzIn	-10777
▁'0'	-10778
▁((0	-10779
▁2.5	-10780
▁23,	-10781
▁CSV	-10782
▁DEN	-10783
▁EJB	-10784
▁GBM	-10785
▁LwM	-10786
▁avg	-10787
▁boo	-10788
▁fla	-10789
▁gbc	-10790
▁kma	-10791
▁mAn	-10792
▁mId	-10793
▁nam	-10794
▁rvn	-10795
▁ttl	-10796
▁unr	-10797
▁zza	-10798
▁}),	-10799
1_16_	-10800
69999	-10801
ADEUS	-10802
BAMWr	-10803
Boton	-10804
CovUn	-10805
EDUCE	-10806
IPPED	-10807
NAMIC	-10808
akabl	-10809
cConf	-10810
kImag	-10811
lAttr	-10812
ldOut	-10813
ldSch	-10814
moryU	-10815
nMark	-10816
nStyl	-10817
ntOff	-10818
portW	-10819
rCont	-10820
rnary	-10821
tFram	-10822
toryM	-10823
ultPa	-10824
wConf	-10825
▁Grad	-10826
▁IGNO	-10827
▁arrv	-10828
▁doPo	-10829
▁jmar	-10830
▁pull	-10831
▁tabb	-10832
(".");	-10833
(45.0,	-10834
ArgNam	-10835
Borrow	-10836
EXCLUS	-10837
EmpAtt	-10838
FromWh	-10839
JobOut	-10840
OPCION	-10841
alColl	-10842
alStat	-10843
amStop	-10844
batchS	-10845
calCat	-10846
ctConf	-10847
dEndPo	-10848
houldB	-10849
mManag	-10850
nchant	-10851
ntPubl	-10852
rConta	-10853
thData	-10854
thodIn	-10855
▁1.0);	-10856
▁24));	-10857
▁Blood	-10858
▁Damag	-10859
▁HttpU	-10860
▁})));	-10861
AmazonW	-10862
CommonC	-10863
HotWord	-10864
JobConf	-10865
PAYLOAD	-10866
WINDOWS	-10867
aPackag	-10868
arOpMod	-10869
ntStack	-10870
ntbound	-10871
ryHandl	-10872
tIamPol	-10873
turnabl	-10874
ycloakS	-10875
▁1024);	-10876
▁COMPLE	-10877
▁Portal	-10878
▁myProj	-10879
▁totalD	-10880
COMPONEN	-10881
ColumnId	-10882
PoolConf	-10883
arrDatoG	-10884
bookmark	-10885
dAnnotat	-10886
formValu	-10887
gIntHold	-10888
movalCau	-10889
wYAMLStr	-10890
▁polyOut	-10891
ISBINDING	-10892
JavaSourc	-10893
ScrollBar	-10894
houldShow	-10895
oolbarLay	-10896
orFactory	-10897
ptorSuppl	-10898
rtInfoEnt	-10899
wLockLoop	-10900
▁NotFound	-10901
▁rowCount	-10902
▁workInfo	-10903
wUnaryCall	-10904
▁Mandatory	-10905
archHotWord	-10906
ndowControl	-10907
▁workpackag	-10908
faultCalculat	-10909
archHotWordGroup	-10910
/:	-10911
41	-10912
5:	-10913
Aa	-10914
BP	-10915
Cp	-10916
FM	-10917
Nb	-10918
SF	-10919
Xm	-10920
ZK	-10921
gp	-10922
hf	-10923
jt	-10924
kp	-10925
yL	-10926
分类	-10927
查询	-10928
(1.	-10929
(9,	-10930
1/{	-10931
20.	-10932
21,	-10933
Aga	-10934
Blk	-10935
Cru	-10936
ENG	-10937
InF	-10938
InW	-10939
MAC	-10940
UMP	-10941
[8]	-10942
[];	-10943
__(	-10944
alv	-10945
bao	-10946
dSh	-10947
dSt	-10948
fab	-10949
fcS	-10950
lOn	-10951
ldJ	-10952
mHo	-10953
maW	-10954
nBo	-10955
otg	-10956
oyM	-10957
ptD	-10958
tCu	-10959
toD	-10960
|\\	-10961
▁',	-10962
▁']	-10963
▁50	-10964
▁CL	-10965
▁FX	-10966
▁NV	-10967
▁SC	-10968
▁py	-10969
▁rf	-10970
▁ut	-10971
(1))	-10972
2007	-10973
5").	-10974
8000	-10975
9");	-10976
:808	-10977
GING	-10978
InWr	-10979
OWNE	-10980
OnPo	-10981
PADD	-10982
POpt	-10983
SUPP	-10984
Shak	-10985
[4],	-10986
\">"	-10987
alId	-10988
avro	-10989
babl	-10990
bpmn	-10991
ckNo	-10992
cntr	-10993
dLab	-10994
flum	-10995
gnup	-10996
llow	-10997
lyCu	-10998
mAct	-10999
mang	-11000
nEng	-11001
ndId	-11002
ngCt	-11003
oman	-11004
onCr	-11005
quak	-11006
rtow	-11007
ryCl	-11008
than	-11009
toto	-11010
tyPr	-11011
ulty	-11012
vPar	-11013
vmIn	-11014
▁"~"	-11015
▁//\	-11016
▁24;	-11017
▁88.	-11018
▁9);	-11019
▁=",	-11020
▁CML	-11021
▁EDI	-11022
▁EOF	-11023
▁IBa	-11024
▁LAS	-11025
▁Nom	-11026
▁SOU	-11027
▁chr	-11028
▁hol	-11029
▁hou	-11030
▁jCh	-11031
▁tor	-11032
(".")	-11033
AtEnd	-11034
Calor	-11035
FLUSH	-11036
ForOp	-11037
FromS	-11038
Macro	-11039
SCOPE	-11040
USING	-11041
Vacat	-11042
WHILE	-11043
_256_	-11044
authz	-11045
avard	-11046
dStag	-11047
downD	-11048
drawL	-11049
drock	-11050
fyAll	-11051
ghtIn	-11052
kConf	-11053
lIfNo	-11054
mockS	-11055
nFlow	-11056
ngEnv	-11057
ondon	-11058
playA	-11059
rColl	-11060
roval	-11061
thumb	-11062
▁973.	-11063
▁Blaz	-11064
▁Bulk	-11065
▁Butt	-11066
▁Dock	-11067
▁Fork	-11068
▁Hood	-11069
▁JobE	-11070
▁Llap	-11071
▁Wall	-11072
▁akka	-11073
▁canM	-11074
▁mSpl	-11075
▁walk	-11076
(2000,	-11077
DELIMI	-11078
FormIn	-11079
Subcla	-11080
VlanId	-11081
WorkVO	-11082
adData	-11083
agData	-11084
archQu	-11085
charba	-11086
ctBuff	-11087
dCloud	-11088
dStart	-11089
jobNam	-11090
ndProp	-11091
ntLoad	-11092
ntNumb	-11093
orShap	-11094
rCapac	-11095
rChann	-11096
rCompl	-11097
tCampa	-11098
tStart	-11099
tdword	-11100
thBody	-11101
thCach	-11102
thStat	-11103
tractA	-11104
▁"1411	-11105
▁LABEL	-11106
▁MockS	-11107
▁Propo	-11108
▁autoD	-11109
▁docId	-11110
▁mConn	-11111
▁mIcon	-11112
▁{0}",	-11113
ALLOWED	-11114
CALENDA	-11115
HttpCod	-11116
NEWLINE	-11117
NotImpl	-11118
PADDING	-11119
StackSl	-11120
Unchang	-11121
announc	-11122
artzJob	-11123
dStorag	-11124
factNam	-11125
hookEmb	-11126
lPackag	-11127
ntChang	-11128
pagoEnt	-11129
tStorag	-11130
tantNam	-11131
wayStat	-11132
ymphony	-11133
zontalL	-11134
▁"\"");	-11135
▁CONNEC	-11136
Boundary	-11137
ControlS	-11138
EnumValu	-11139
MESSAGES	-11140
QuorumCh	-11141
cordStor	-11142
dCommand	-11143
flowConf	-11144
ldOrProp	-11145
nNotSucc	-11146
rAnnotat	-11147
▁Attachm	-11148
▁Concurr	-11149
▁Formatt	-11150
floatValu	-11151
hGrayStat	-11152
ngControl	-11153
rollbackN	-11154
thodParam	-11155
toryboard	-11156
(">>>>>>>>	-11157
ParamMatch	-11158
ndCallback	-11159
ngularAttr	-11160
ProtocolMar	-11161
ntGraphAtom	-11162
toActualProv	-11163
ngControlModul	-11164
ProductPopulator	-11165
!\	-11166
)"	-11167
4]	-11168
71	-11169
CV	-11170
Cd	-11171
EV	-11172
GG	-11173
UA	-11174
ZN	-11175
]"	-11176
aM	-11177
lA	-11178
oK	-11179
pV	-11180
tq	-11181
wK	-11182
wb	-11183
úb	-11184
内容	-11185
添加	-11186
("+	-11187
('#	-11188
04-	-11189
20,	-11190
2];	-11191
3";	-11192
5.6	-11193
>10	-11194
Ach	-11195
Bom	-11196
Bru	-11197
ByL	-11198
CCL	-11199
CFA	-11200
Cab	-11201
Cra	-11202
DIV	-11203
DNS	-11204
ESH	-11205
FSM	-11206
KEK	-11207
LON	-11208
Mom	-11209
NPC	-11210
Npc	-11211
Orm	-11212
WHE	-11213
[11	-11214
_19	-11215
aGa	-11216
bay	-11217
ckV	-11218
dBu	-11219
fff	-11220
fro	-11221
kom	-11222
lCa	-11223
nEd	-11224
ndH	-11225
ngt	-11226
oDo	-11227
ptE	-11228
rIp	-11229
tDb	-11230
tID	-11231
too	-11232
ubu	-11233
wMa	-11234
yhy	-11235
yug	-11236
▁32	-11237
▁FN	-11238
▁GA	-11239
▁MP	-11240
▁Su	-11241
▁Yo	-11242
▁mA	-11243
▁mf	-11244
0485	-11245
3\1\	-11246
ACLE	-11247
AllF	-11248
BLOB	-11249
CLEA	-11250
DONE	-11251
ForC	-11252
Gatt	-11253
Infu	-11254
LLAP	-11255
NANO	-11256
OBSE	-11257
OUPS	-11258
_2_,	-11259
aMat	-11260
abcd	-11261
bara	-11262
cSQL	-11263
calL	-11264
grow	-11265
hack	-11266
harv	-11267
kSch	-11268
know	-11269
ldVo	-11270
mpId	-11271
ndPr	-11272
ndam	-11273
oard	-11274
onID	-11275
purg	-11276
ryWr	-11277
tomH	-11278
trap	-11279
tySp	-11280
vata	-11281
vmSp	-11282
yang	-11283
▁%.2	-11284
▁0.4	-11285
▁101	-11286
▁20)	-11287
▁<",	-11288
▁>",	-11289
▁?>)	-11290
▁Dot	-11291
▁ICO	-11292
▁Mac	-11293
▁Ntm	-11294
▁Own	-11295
▁WAL	-11296
▁atL	-11297
▁clz	-11298
▁cpl	-11299
▁cúb	-11300
▁fad	-11301
▁lan	-11302
▁mAg	-11303
▁mQu	-11304
▁rgb	-11305
(1000	-11306
(15);	-11307
(4));	-11308
...",	-11309
00));	-11310
000",	-11311
02003	-11312
05000	-11313
5"));	-11314
Apron	-11315
AutoD	-11316
Award	-11317
CANCE	-11318
Carou	-11319
DBClu	-11320
EnLot	-11321
Enclo	-11322
Haplo	-11323
Natur	-11324
SNOMB	-11325
Scann	-11326
Scatt	-11327
SwapS	-11328
abubu	-11329
adVar	-11330
alMod	-11331
ambry	-11332
arant	-11333
authc	-11334
calNu	-11335
clamp	-11336
ctMod	-11337
dProv	-11338
dShow	-11339
facad	-11340
lStat	-11341
ldEnd	-11342
mannl	-11343
mlSBa	-11344
ngAnd	-11345
ntVal	-11346
oMany	-11347
ortBy	-11348
rShap	-11349
rayth	-11350
rnalD	-11351
rnalW	-11352
roPow	-11353
tHorz	-11354
tador	-11355
tyCod	-11356
vault	-11357
zzFPo	-11358
▁23);	-11359
▁<=",	-11360
▁<>",	-11361
▁>=",	-11362
▁Boot	-11363
▁CppH	-11364
▁LIKE	-11365
▁MINU	-11366
▁Slow	-11367
▁bond	-11368
▁dcMo	-11369
▁mNam	-11370
▁yOff	-11371
(')');	-11372
-01-01	-11373
99994,	-11374
Cartao	-11375
DataBa	-11376
JobNam	-11377
PABILI	-11378
ParamS	-11379
UALIZA	-11380
aPagam	-11381
ckBack	-11382
ftMarg	-11383
goProv	-11384
kCompl	-11385
lCount	-11386
maHall	-11387
mbrado	-11388
nArgum	-11389
ngSpan	-11390
oGroup	-11391
onData	-11392
rProto	-11393
tLocat	-11394
unconv	-11395
▁256);	-11396
▁Guard	-11397
▁Haplo	-11398
▁MySQL	-11399
▁occur	-11400
▁onClo	-11401
▁pStat	-11402
▁vpcNo	-11403
▁wIncl	-11404
(","));	-11405
AndValu	-11406
CLASSES	-11407
Comport	-11408
CountIn	-11409
EOPCION	-11410
SubCond	-11411
UnaryOp	-11412
\022\01	-11413
adPoolE	-11414
foundry	-11415
laborat	-11416
ldParam	-11417
portPan	-11418
rByClau	-11419
yugabyt	-11420
▁anyInt	-11421
▁myData	-11422
▁yStart	-11423
▁zzBuff	-11424
OkHttpCl	-11425
ProductF	-11426
alAttack	-11427
faultVal	-11428
rmatPack	-11429
Comportam	-11430
Encryptor	-11431
MFEEDBACK	-11432
SEQUENCES	-11433
faultAuth	-11434
maryDbNam	-11435
ndAnnotat	-11436
ptorProto	-11437
thodManag	-11438
▁11:22"),	-11439
JScrollPan	-11440
ltaCalculat	-11441
rByProducto	-11442
zarInformac	-11443
FullCalculat	-11444
ShutdownHook	-11445
cloudfoundry	-11446
▁localVarAcc	-11447
▁localVarCont	-11448
................	-11449
(%	-11450
(.	-11451
6:	-11452
6\	-11453
FD	-11454
IQ	-11455
Lf	-11456
Lp	-11457
Mn	-11458
Oa	-11459
Om	-11460
Pb	-11461
XN	-11462
kc	-11463
mY	-11464
pA	-11465
vC	-11466
'',	-11467
'],	-11468
112	-11469
258	-11470
99,	-11471
AGG	-11472
ANE	-11473
BED	-11474
Ban	-11475
CHO	-11476
COI	-11477
CPU	-11478
DUP	-11479
EJB	-11480
ELL	-11481
Ena	-11482
Mal	-11483
OSE	-11484
Qty	-11485
\">	-11486
_";	-11487
_1,	-11488
_18	-11489
acm	-11490
adB	-11491
cEv	-11492
cVO	-11493
ccg	-11494
ctj	-11495
dBo	-11496
dGr	-11497
fld	-11498
glB	-11499
hql	-11500
jfr	-11501
lmu	-11502
mCh	-11503
mvp	-11504
nca	-11505
ngk	-11506
npo	-11507
oIn	-11508
pmD	-11509
tEd	-11510
tgr	-11511
tyV	-11512
ubD	-11513
▁)"	-11514
▁00	-11515
▁21	-11516
▁AM	-11517
▁ES	-11518
▁II	-11519
▁IU	-11520
▁JD	-11521
▁JW	-11522
▁PU	-11523
▁SQ	-11524
▁[\	-11525
▁^=	-11526
▁jg	-11527
▁mk	-11528
▁rd	-11529
▁tg	-11530
▁tn	-11531
▁vp	-11532
▁})	-11533
("["	-11534
().<	-11535
(18,	-11536
0\2\	-11537
1"))	-11538
1();	-11539
2014	-11540
4\1\	-11541
<>()	-11542
>30]	-11543
CHES	-11544
EASE	-11545
ENDI	-11546
EndD	-11547
ForS	-11548
GOLD	-11549
LOME	-11550
MINA	-11551
ONGO	-11552
OUCH	-11553
UnJo	-11554
VmId	-11555
[5],	-11556
][0]	-11557
actP	-11558
alIt	-11559
apdu	-11560
bNam	-11561
cFam	-11562
cala	-11563
dMob	-11564
dOff	-11565
dPay	-11566
dSch	-11567
doma	-11568
fInd	-11569
jaku	-11570
ldIn	-11571
llIn	-11572
loom	-11573
mInt	-11574
nalH	-11575
nalS	-11576
nalV	-11577
ntCa	-11578
ntak	-11579
oday	-11580
rAdS	-11581
rato	-11582
taur	-11583
toUr	-11584
tyOp	-11585
▁"5"	-11586
▁(37	-11587
▁(53	-11588
▁10.	-11589
▁10:	-11590
▁4.0	-11591
▁60,	-11592
▁75.	-11593
▁FDB	-11594
▁GES	-11595
▁InM	-11596
▁Jca	-11597
▁Unr	-11598
▁cdn	-11599
▁mOr	-11600
▁mPo	-11601
▁{0}	-11602
("/**	-11603
(12);	-11604
02000	-11605
11\1\	-11606
<>(),	-11607
AndOv	-11608
COIJo	-11609
DINAL	-11610
Flatt	-11611
Grupo	-11612
OPPED	-11613
OnSub	-11614
[3]);	-11615
adEnt	-11616
ckSql	-11617
ctang	-11618
dbNam	-11619
gProp	-11620
junct	-11621
lJobD	-11622
mptId	-11623
nById	-11624
nPart	-11625
nSnap	-11626
ntCur	-11627
oCard	-11628
oJava	-11629
omcat	-11630
rEval	-11631
rQual	-11632
rScal	-11633
rmuda	-11634
tForm	-11635
toggl	-11636
▁"100	-11637
▁$("#	-11638
▁(!((	-11639
▁15);	-11640
▁1611	-11641
▁COMP	-11642
▁ENUM	-11643
▁Hold	-11644
▁JOIN	-11645
▁Kryo	-11646
▁MASK	-11647
▁Mqtt	-11648
▁Suff	-11649
▁XSSF	-11650
▁acct	-11651
▁band	-11652
▁plug	-11653
00001,	-11654
BarLay	-11655
DataAu	-11656
ICIPAN	-11657
OntMod	-11658
SolrQu	-11659
\">");	-11660
cordBO	-11661
dAUnJo	-11662
houldG	-11663
kStack	-11664
lwProg	-11665
ngNumb	-11666
onValu	-11667
ravata	-11668
taFram	-11669
ultCod	-11670
unData	-11671
▁Alpha	-11672
▁Capac	-11673
▁Cobol	-11674
▁DEBUG	-11675
▁Equal	-11676
▁Forum	-11677
▁HEIGH	-11678
▁Photo	-11679
▁atack	-11680
▁onCam	-11681
▁onPau	-11682
▁thumb	-11683
("/"));	-11684
CommonF	-11685
Compact	-11686
JCudaDr	-11687
MODIFIE	-11688
SHIPMEN	-11689
XMLLoad	-11690
bhookCl	-11691
ctManag	-11692
ctogram	-11693
fromSaf	-11694
joLocal	-11695
journal	-11696
lySampl	-11697
nOnMock	-11698
rtEqual	-11699
rtualHo	-11700
taBlock	-11701
taurant	-11702
topMarg	-11703
▁2848);	-11704
▁Analyt	-11705
▁Commun	-11706
▁Groovy	-11707
▁goodId	-11708
BlobStor	-11709
CALLBACK	-11710
Enchantm	-11711
JobManag	-11712
PUBLISHE	-11713
SBMLQual	-11714
StartNfa	-11715
dropdown	-11716
ncyStrat	-11717
ntAnchor	-11718
rowArray	-11719
tandalon	-11720
▁CharStr	-11721
▁acknowl	-11722
▁actualF	-11723
GlobalAct	-11724
Important	-11725
archManag	-11726
kDataStor	-11727
rtCommand	-11728
thPayload	-11729
▁ContactS	-11730
▁gbmParam	-11731
ColumnConf	-11732
anInfoImpl	-11733
ldaGuardar	-11734
ntControll	-11735
ntGraphPar	-11736
▁EConvFlag	-11737
▁buttonPan	-11738
nComparator	-11739
portImportD	-11740
▁MandatoryD	-11741
▁jjStartNfa	-11742
paramAnonymou	-11743
ldaGuardarProv	-11744
▁doInBackground	-11745
'\	-11746
(@	-11747
-%	-11748
5]	-11749
70	-11750
Dp	-11751
Nd	-11752
]*	-11753
wE	-11754
wu	-11755
}/	-11756
ño	-11757
1__	-11758
2.5	-11759
255	-11760
85.	-11761
AGO	-11762
Aut	-11763
Bat	-11764
Buy	-11765
CII	-11766
DoF	-11767
Ecl	-11768
FHI	-11769
Ftp	-11770
HIN	-11771
ICH	-11772
ICU	-11773
IED	-11774
IdG	-11775
IrS	-11776
LEA	-11777
LIO	-11778
NIL	-11779
NoS	-11780
ONS	-11781
OnF	-11782
OnU	-11783
Opn	-11784
Pra	-11785
Sha	-11786
VOK	-11787
agF	-11788
aoa	-11789
cFa	-11790
cUt	-11791
crm	-11792
ddl	-11793
ldG	-11794
nAI	-11795
nCu	-11796
oIp	-11797
oph	-11798
opr	-11799
owl	-11800
pSp	-11801
pUn	-11802
ryG	-11803
tFa	-11804
tHa	-11805
tdl	-11806
uan	-11807
vor	-11808
wPa	-11809
wPo	-11810
▁'*	-11811
▁'2	-11812
▁6:	-11813
▁9)	-11814
▁Hg	-11815
▁IK	-11816
▁Io	-11817
▁ZE	-11818
▁af	-11819
▁pD	-11820
▁td	-11821
▁{"	-11822
(11,	-11823
(16,	-11824
2020	-11825
4));	-11826
AppS	-11827
Butt	-11828
Ctrl	-11829
DOES	-11830
EMON	-11831
EMPO	-11832
EQUI	-11833
FIND	-11834
Fact	-11835
Jump	-11836
MANY	-11837
Naco	-11838
NotD	-11839
OnNo	-11840
PKCS	-11841
PNOp	-11842
SAFE	-11843
SIDE	-11844
SWAP	-11845
SunM	-11846
abIt	-11847
anot	-11848
dDoc	-11849
gall	-11850
jabr	-11851
loan	-11852
look	-11853
mAnd	-11854
mMol	-11855
mand	-11856
nOfB	-11857
nPro	-11858
nnak	-11859
ntOf	-11860
oton	-11861
owIt	-11862
pano	-11863
rClo	-11864
tPol	-11865
thIn	-11866
▁25,	-11867
▁26,	-11868
▁28,	-11869
▁32;	-11870
▁Ant	-11871
▁CMM	-11872
▁Dfp	-11873
▁Ell	-11874
▁Emp	-11875
▁SEA	-11876
▁SOF	-11877
▁agr	-11878
▁cbv	-11879
▁mot	-11880
▁nbt	-11881
▁onK	-11882
▁toJ	-11883
▁tol	-11884
02002	-11885
08000	-11886
>>>()	-11887
ASCII	-11888
BothS	-11889
CHAIN	-11890
Crypt	-11891
FOLIO	-11892
HBASE	-11893
Inhal	-11894
JavaM	-11895
MAPPE	-11896
NAMED	-11897
PAUSE	-11898
Story	-11899
XEnum	-11900
YoVar	-11901
cColl	-11902
callM	-11903
ckOut	-11904
ctInt	-11905
hMatr	-11906
kCach	-11907
kStor	-11908
mProp	-11909
nSlot	-11910
naryE	-11911
ndNot	-11912
ngBar	-11913
nkAct	-11914
nvVar	-11915
oConf	-11916
obotD	-11917
orApl	-11918
pAttr	-11919
pValu	-11920
portE	-11921
propr	-11922
rBuff	-11923
tantS	-11924
tchUu	-11925
ualIn	-11926
ubClu	-11927
upply	-11928
wayId	-11929
zFood	-11930
▁2");	-11931
▁MAIN	-11932
▁NODE	-11933
▁Spac	-11934
▁Subm	-11935
▁bfDt	-11936
▁btnS	-11937
▁hard	-11938
▁jona	-11939
▁mNav	-11940
▁mPag	-11941
▁nano	-11942
▁tata	-11943
(200).	-11944
2007_0	-11945
ByValu	-11946
DayOfW	-11947
ENDIAN	-11948
Intrat	-11949
LOOKUP	-11950
LocalM	-11951
MotEna	-11952
OUPING	-11953
ParaBu	-11954
SSLEng	-11955
adStat	-11956
cBlock	-11957
catorW	-11958
cordWr	-11959
dConta	-11960
hardIt	-11961
kGroup	-11962
lcraft	-11963
llInfo	-11964
martcr	-11965
nCompl	-11966
nCompo	-11967
nMatch	-11968
nalEma	-11969
ncyCod	-11970
ndValu	-11971
ngStyl	-11972
ntHttp	-11973
ntProj	-11974
oChann	-11975
oEmpty	-11976
oLocal	-11977
orStat	-11978
owFrom	-11979
ownumF	-11980
palant	-11981
rSuppl	-11982
raConn	-11983
roomcu	-11984
rypano	-11985
tchNam	-11986
thMult	-11987
truffl	-11988
unFlow	-11989
vParam	-11990
wBlock	-11991
▁255).	-11992
▁Allow	-11993
▁Party	-11994
▁Stock	-11995
▁Strat	-11996
▁andCl	-11997
▁bMatr	-11998
▁mImag	-11999
EAuthor	-12000
Inhalat	-12001
UNSUPPO	-12002
UploadS	-12003
cryptor	-12004
flowPar	-12005
▁IGroup	-12006
▁Scroll	-12007
▁hanaIn	-12008
▁myCach	-12009
▁tabPan	-12010
▁toolbo	-12011
BlockStr	-12012
CHANNELS	-12013
IVILEGES	-12014
InAnyOrd	-12015
MODIFIED	-12016
adAllByt	-12017
condValu	-12018
ctGroupI	-12019
fromValu	-12020
nEvaluat	-12021
pcglobal	-12022
rLocator	-12023
rProduct	-12024
rackData	-12025
rnalData	-12026
thmParam	-12027
yyyyMMdd	-12028
▁UIManag	-12029
▁corrupt	-12030
▁curChar	-12031
00000001)	-12032
ColumnSch	-12033
GUIDParam	-12034
ctangular	-12035
hadowConf	-12036
ldAnnotat	-12037
oArrowBuf	-12038
playGroup	-12039
portManag	-12040
toothGatt	-12041
tworkAclD	-12042
wallInval	-12043
▁productA	-12044
ColumnInfo	-12045
howCommand	-12046
ngBootAppl	-12047
ntCallback	-12048
▁andAuthor	-12049
▁mSolarNam	-12050
rBackground	-12051
toActualFor	-12052
ProductoCamb	-12053
▁AllProtocolV	-12054
▁BlockDataCon	-12055
FormatErrorCod	-12056
)[	-12057
IK	-12058
JD	-12059
PW	-12060
WF	-12061
bE	-12062
fB	-12063
kG	-12064
lN	-12065
mz	-12066
nw	-12067
yE	-12068
。"	-12069
开始	-12070
文件	-12071
服务	-12072
%",	-12073
(("	-12074
(\\	-12075
11:	-12076
13.	-12077
2")	-12078
204	-12079
232	-12080
5()	-12081
:30	-12082
ACI	-12083
APE	-12084
BOB	-12085
DOU	-12086
Fla	-12087
JMX	-12088
MED	-12089
MIC	-12090
MUC	-12091
NAU	-12092
_5_	-12093
amM	-12094
cQu	-12095
ckP	-12096
cup	-12097
dAn	-12098
hao	-12099
kog	-12100
lDB	-12101
lfS	-12102
lom	-12103
mUr	-12104
mWr	-12105
nho	-12106
oar	-12107
rAn	-12108
rrd	-12109
toE	-12110
voy	-12111
vpK	-12112
vpc	-12113
▁"6	-12114
▁28	-12115
▁39	-12116
▁40	-12117
▁45	-12118
▁Ga	-12119
▁Km	-12120
▁NK	-12121
▁Ol	-12122
▁PV	-12123
▁SK	-12124
▁SV	-12125
▁dd	-12126
▁kr	-12127
▁od	-12128
▁ud	-12129
▁wd	-12130
(5),	-12131
2().	-12132
64);	-12133
AnyS	-12134
Batt	-12135
Clan	-12136
DBUt	-12137
EAMS	-12138
EVAL	-12139
EXAC	-12140
INNE	-12141
IPLE	-12142
IfcS	-12143
LOut	-12144
Loot	-12145
MUCO	-12146
QUES	-12147
Symm	-12148
ULES	-12149
aAnt	-12150
adap	-12151
byId	-12152
cLab	-12153
capt	-12154
ctal	-12155
gPar	-12156
ghtn	-12157
glBl	-12158
howM	-12159
mOwn	-12160
mbok	-12161
nApp	-12162
nDay	-12163
nJob	-12164
nLoc	-12165
nNum	-12166
nOwn	-12167
nPop	-12168
nSpl	-12169
ndHp	-12170
ntVO	-12171
ntWh	-12172
oMov	-12173
rLab	-12174
rgyU	-12175
tarF	-12176
traH	-12177
uron	-12178
wnum	-12179
▁"10	-12180
▁%.1	-12181
▁0.7	-12182
▁19,	-12183
▁2))	-12184
▁64;	-12185
▁78.	-12186
▁GUI	-12187
▁Inc	-12188
▁MIS	-12189
▁Org	-12190
▁Oth	-12191
▁SEN	-12192
▁cub	-12193
▁mad	-12194
▁mut	-12195
▁rac	-12196
▁toP	-12197
▁wat	-12198
("2",	-12199
0001;	-12200
<?>>>	-12201
ASING	-12202
AllIt	-12203
BDNot	-12204
Catch	-12205
Chapt	-12206
EXCEL	-12207
IMPLE	-12208
InOut	-12209
OCEDU	-12210
Occup	-12211
OnHyp	-12212
SPIDE	-12213
Shown	-12214
Spann	-12215
Stuff	-12216
XCall	-12217
XData	-12218
cNumb	-12219
dayIt	-12220
dockS	-12221
ldfly	-12222
llInt	-12223
mLoad	-12224
mProv	-12225
major	-12226
nAwar	-12227
nPort	-12228
ndFor	-12229
oShow	-12230
otalS	-12231
plank	-12232
portD	-12233
ptLab	-12234
rAdju	-12235
rAwar	-12236
rOrEv	-12237
rSnap	-12238
thCon	-12239
thSav	-12240
thVal	-12241
tomak	-12242
wCach	-12243
yInfo	-12244
▁25);	-12245
▁?");	-12246
▁AOpt	-12247
▁CALL	-12248
▁Drop	-12249
▁Eval	-12250
▁FUNC	-12251
▁Pull	-12252
▁cftc	-12253
▁cmEn	-12254
▁lblN	-12255
▁mCur	-12256
▁mHom	-12257
▁mmgr	-12258
▁porc	-12259
▁tplt	-12260
("0"))	-12261
<>(1);	-12262
======	-12263
Coupon	-12264
Cucumb	-12265
DAEMON	-12266
MockCl	-12267
OfAttr	-12268
PutAll	-12269
UpInfo	-12270
actuat	-12271
barang	-12272
chatId	-12273
ctSock	-12274
cutorM	-12275
dCapab	-12276
nSuppl	-12277
ngCach	-12278
ngIcon	-12279
ngImag	-12280
ngPart	-12281
nkwrap	-12282
rboard	-12283
rnalWr	-12284
tCrawl	-12285
tagram	-12286
yncMgr	-12287
▁1000)	-12288
▁Album	-12289
▁adjac	-12290
▁clobb	-12291
▁mySty	-12292
▁workb	-12293
▁zzEnd	-12294
ArrayOf	-12295
CSSProp	-12296
ConfVar	-12297
INatura	-12298
JavaScr	-12299
LICENSE	-12300
LoadNam	-12301
ParDoFn	-12302
faultWr	-12303
moryByt	-12304
mySpawn	-12305
ntStrat	-12306
ootFold	-12307
thumbna	-12308
tyUpdat	-12309
unStatu	-12310
▁Crypto	-12311
▁EmpAtt	-12312
▁alphab	-12313
▁jjStop	-12314
AndUpdat	-12315
DOWNLOAD	-12316
Encodabl	-12317
Granular	-12318
NonEmpty	-12319
Watchdog	-12320
accuracy	-12321
hboardId	-12322
ncyError	-12323
ndantSVG	-12324
quantopr	-12325
rControl	-12326
rSupport	-12327
▁APPLICA	-12328
▁COMMAND	-12329
▁mBottom	-12330
▁mScroll	-12331
MKOLUpdat	-12332
SpanCount	-12333
caffoldBa	-12334
catorXOff	-12335
lControlI	-12336
llProduct	-12337
otalCount	-12338
portError	-12339
tworkInfo	-12340
▁Bookmark	-12341
▁JPAOData	-12342
▁\001(\01	-12343
▁loadData	-12344
▁rollback	-12345
▁totalByt	-12346
CarAnnotat	-12347
ColumnValu	-12348
horoughfar	-12349
▁CloudProv	-12350
▁Paragraph	-12351
▁cloudProv	-12352
hroughJobQu	-12353
taryEvaluat	-12354
▁ParamMatch	-12355
▁mSolarData	-12356
ablaProducto	-12357
({	-12358
0}	-12359
4[	-12360
7\	-12361
94	-12362
=*	-12363
=0	-12364
Dv	-12365
Fq	-12366
Gp	-12367
Kb	-12368
Kn	-12369
Kv	-12370
Nf	-12371
dj	-12372
gB	-12373
hb	-12374
hg	-12375
hz	-12376
jr	-12377
lL	-12378
qf	-12379
qw	-12380
yC	-12381
ím	-12382
ве	-12383
客户	-12384
文庫	-12385
("3	-12386
,\"	-12387
0))	-12388
15.	-12389
25;	-12390
33.	-12391
3];	-12392
567	-12393
64,	-12394
6];	-12395
>>(	-12396
Amt	-12397
BOA	-12398
DbH	-12399
GFK	-12400
Gwt	-12401
IGI	-12402
IPr	-12403
Mng	-12404
OOB	-12405
OOL	-12406
OPO	-12407
Oom	-12408
PCl	-12409
Unk	-12410
WAY	-12411
WEA	-12412
\\\	-12413
adD	-12414
agH	-12415
ald	-12416
auc	-12417
ccc	-12418
fad	-12419
mPo	-12420
myl	-12421
ngZ	-12422
ntU	-12423
ola	-12424
onM	-12425
owE	-12426
pCa	-12427
pap	-12428
poV	-12429
qno	-12430
rnD	-12431
tyH	-12432
wQu	-12433
▁':	-12434
▁=>	-12435
▁Cc	-12436
▁IE	-12437
▁If	-12438
▁OK	-12439
▁Va	-12440
▁dn	-12441
▁rp	-12442
(9);	-12443
ANAS	-12444
ASKS	-12445
AllB	-12446
AllW	-12447
Blaz	-12448
Duct	-12449
FINE	-12450
Gram	-12451
HEAL	-12452
HEME	-12453
Hard	-12454
IPAL	-12455
JobL	-12456
LOGY	-12457
Obfu	-12458
OnMa	-12459
SIVE	-12460
UEVO	-12461
WOOD	-12462
\022	-12463
][1]	-12464
acht	-12465
adMa	-12466
ahal	-12467
artB	-12468
bMvc	-12469
bull	-12470
dDay	-12471
dPat	-12472
dang	-12473
fang	-12474
ford	-12475
grap	-12476
hora	-12477
huyu	-12478
ldBy	-12479
ldPo	-12480
mMod	-12481
nDoc	-12482
narF	-12483
ndUn	-12484
owBa	-12485
owLa	-12486
plaf	-12487
rGam	-12488
rlac	-12489
roqu	-12490
tank	-12491
tapl	-12492
tcId	-12493
thub	-12494
tmov	-12495
ufor	-12496
wPar	-12497
▁"**	-12498
▁"{\	-12499
▁-0.	-12500
▁204	-12501
▁22,	-12502
▁404	-12503
▁Any	-12504
▁BLA	-12505
▁Pal	-12506
▁Pla	-12507
▁gmt	-12508
'])",	-12509
(500,	-12510
..");	-12511
02001	-12512
20140	-12513
ALLED	-12514
Annot	-12515
BlobS	-12516
CENIN	-12517
CHIVE	-12518
ChatS	-12519
Downm	-12520
IPAdd	-12521
MONGO	-12522
NAUpl	-12523
Polym	-12524
QUALI	-12525
Xform	-12526
_7808	-12527
arbag	-12528
atack	-12529
champ	-12530
dFunc	-12531
dPack	-12532
favor	-12533
ftHBa	-12534
gInfo	-12535
lPlug	-12536
lPool	-12537
lProj	-12538
macro	-12539
mpMod	-12540
nAppl	-12541
nAuth	-12542
ndByt	-12543
ndowS	-12544
pacht	-12545
playS	-12546
rIcon	-12547
rnalM	-12548
rogat	-12549
rport	-12550
rtAny	-12551
tAggr	-12552
tHold	-12553
tProv	-12554
thArg	-12555
tlabI	-12556
tyZon	-12557
upCon	-12558
yncop	-12559
▁0.0)	-12560
▁40);	-12561
▁50),	-12562
▁500;	-12563
▁Barr	-12564
▁Calc	-12565
▁Comb	-12566
▁ISpo	-12567
▁LOCA	-12568
▁MAND	-12569
▁SSLS	-12570
▁Stro	-12571
▁Stub	-12572
▁UIUt	-12573
▁fact	-12574
▁futu	-12575
▁guru	-12576
▁kryo	-12577
▁onEv	-12578
("0000	-12579
(',');	-12580
******	-12581
++)));	-12582
ArrayD	-12583
JPAMod	-12584
UPLOAD	-12585
Unpool	-12586
andraS	-12587
cCount	-12588
chunkS	-12589
dGrant	-12590
dHandl	-12591
dMatch	-12592
ldStat	-12593
nCombo	-12594
nantUu	-12595
ngDrop	-12596
ntAttr	-12597
ntQual	-12598
oDownm	-12599
onomou	-12600
paramK	-12601
rLocat	-12602
rQuant	-12603
ryProv	-12604
tagCod	-12605
▁"/");	-12606
▁16));	-12607
▁Alway	-12608
▁InOrd	-12609
▁Shnap	-12610
▁annot	-12611
▁mCorn	-12612
▁toAdd	-12613
ColumnF	-12614
Contour	-12615
DaoConf	-12616
ECEIVED	-12617
Employm	-12618
INCIPAL	-12619
InChunk	-12620
ProtoUt	-12621
SlowCon	-12622
Sparrow	-12623
adShort	-12624
almAwar	-12625
ampPack	-12626
attrNam	-12627
authSch	-12628
cBatchS	-12629
codahal	-12630
cordSan	-12631
dcMotor	-12632
factura	-12633
forhold	-12634
galValu	-12635
globalF	-12636
howProg	-12637
mportAg	-12638
nalData	-12639
odoProv	-12640
qDOUBLE	-12641
rtConta	-12642
tDayOfW	-12643
tFormat	-12644
zontalC	-12645
▁...");	-12646
▁Collap	-12647
▁HttpPo	-12648
▁UNUSED	-12649
▁conIrS	-12650
▁mLocat	-12651
▁mParam	-12652
▁mXWalk	-12653
▁parall	-12654
▁vlanId	-12655
Approval	-12656
BlockFor	-12657
CAPABILI	-12658
CENINHAS	-12659
Collator	-12660
INDArray	-12661
Subgraph	-12662
arthquak	-12663
factStor	-12664
faultMod	-12665
modCount	-12666
rOrEqual	-12667
rUnbound	-12668
tchCount	-12669
topwatch	-12670
▁Journal	-12671
▁XmlAttr	-12672
▁formula	-12673
▁onBackP	-12674
▁propNam	-12675
▁throttl	-12676
FormParam	-12677
FullyQual	-12678
althStatu	-12679
dCompound	-12680
faultCall	-12681
ndCommand	-12682
tGroupInn	-12683
tchCompat	-12684
▁ArrowBuf	-12685
▁Spannabl	-12686
▁cuadrado	-12687
▁docCount	-12688
actualValu	-12689
manufactur	-12690
mlCompartm	-12691
ntoryCount	-12692
▁paragraph	-12693
▁StandardOp	-12694
BackupStorag	-12695
▁tagCompound	-12696
▁CallbackInfo	-12697
▁accrualStart	-12698
throughControl	-12699
toolBarProducto	-12700
ffffffffffffffff	-12701
#>	-12702
52	-12703
7)	-12704
BQ	-12705
Kt	-12706
VF	-12707
^2	-12708
cN	-12709
hB	-12710
hF	-12711
kP	-12712
lG	-12713
pw	-12714
输入	-12715
06.	-12716
149	-12717
16;	-12718
25,	-12719
ASM	-12720
Bay	-12721
Cta	-12722
Cub	-12723
Ghc	-12724
Hub	-12725
ISE	-12726
InN	-12727
LOL	-12728
NES	-12729
OnH	-12730
PLE	-12731
SLO	-12732
SMO	-12733
SQS	-12734
Syn	-12735
VmK	-12736
YOU	-12737
_01	-12738
_2.	-12739
adI	-12740
alb	-12741
amo	-12742
arW	-12743
ccd	-12744
chS	-12745
ckB	-12746
cmu	-12747
cot	-12748
dDo	-12749
dVo	-12750
dWh	-12751
dnn	-12752
dtm	-12753
fyS	-12754
kDr	-12755
mLa	-12756
mom	-12757
myS	-12758
ndA	-12759
oVM	-12760
pkc	-12761
pvp	-12762
rmD	-12763
rtX	-12764
tAl	-12765
tDB	-12766
tIp	-12767
tto	-12768
unb	-12769
uul	-12770
wOp	-12771
wpf	-12772
▁-5	-12773
▁30	-12774
▁7)	-12775
▁<"	-12776
▁CK	-12777
▁GP	-12778
▁OC	-12779
▁WC	-12780
▁]\	-12781
▁bn	-12782
▁fw	-12783
▁gz	-12784
▁lc	-12785
▁mG	-12786
▁mY	-12787
▁ot	-12788
▁pA	-12789
▁ua	-12790
%");	-12791
("("	-12792
(4).	-12793
1_9_	-12794
2)).	-12795
2.0,	-12796
256.	-12797
2\1\	-12798
8601	-12799
<>((	-12800
AndB	-12801
AndL	-12802
CHED	-12803
DAYS	-12804
ECDH	-12805
ForE	-12806
Fork	-12807
GACY	-12808
Glob	-12809
Gyro	-12810
HEAP	-12811
HSHA	-12812
LEND	-12813
ONEY	-12814
PULL	-12815
SAME	-12816
SOLE	-12817
Soul	-12818
Vmdk	-12819
abol	-12820
band	-12821
ctBy	-12822
dCat	-12823
dNum	-12824
dOrd	-12825
fyWr	-12826
goto	-12827
habl	-12828
lVar	-12829
llar	-12830
lton	-12831
mClo	-12832
moon	-12833
mpot	-12834
mukt	-12835
nAPI	-12836
nNom	-12837
nrNC	-12838
ntHa	-12839
oUnd	-12840
oolW	-12841
orPo	-12842
qNum	-12843
rEur	-12844
rInv	-12845
rtIn	-12846
ryQu	-12847
tdar	-12848
uctM	-12849
voll	-12850
wHaz	-12851
wInt	-12852
wOrd	-12853
▁-2;	-12854
▁13;	-12855
▁21,	-12856
▁Bra	-12857
▁CUS	-12858
▁IEv	-12859
▁NPC	-12860
▁OVE	-12861
▁Std	-12862
▁Unc	-12863
▁XUt	-12864
▁You	-12865
▁arb	-12866
▁bug	-12867
▁fdb	-12868
▁mbr	-12869
▁mvc	-12870
▁myU	-12871
▁orm	-12872
▁toB	-12873
▁tub	-12874
▁wak	-12875
▁ypo	-12876
('.')	-12877
(403,	-12878
0[5],	-12879
:00",	-12880
ANGLE	-12881
BACKG	-12882
Brand	-12883
Dataf	-12884
Dragg	-12885
EASON	-12886
Floor	-12887
FromU	-12888
FullM	-12889
InAcc	-12890
InOrd	-12891
LEMEN	-12892
MockS	-12893
NODES	-12894
NUEVO	-12895
PANEL	-12896
PPack	-12897
PlugN	-12898
SOCKE	-12899
SPEED	-12900
Subtr	-12901
UpInd	-12902
UrlEn	-12903
VMwar	-12904
YIELD	-12905
actIt	-12906
adCur	-12907
alAct	-12908
amabl	-12909
cLock	-12910
colat	-12911
dConn	-12912
dFlag	-12913
dMult	-12914
daFor	-12915
ghtPo	-12916
lSnap	-12917
larry	-12918
ngCod	-12919
north	-12920
ntuml	-12921
onClo	-12922
onSav	-12923
ootJo	-12924
pStat	-12925
quota	-12926
rBrok	-12927
rLock	-12928
rWork	-12929
tForD	-12930
tauco	-12931
thSHA	-12932
toolk	-12933
toryV	-12934
yDown	-12935
▁"/";	-12936
▁"0",	-12937
▁"1.0	-12938
▁("".	-12939
▁0.5)	-12940
▁Dupl	-12941
▁QAFE	-12942
▁Undo	-12943
▁mFor	-12944
▁many	-12945
▁morD	-12946
▁myGL	-12947
▁myMa	-12948
▁nonc	-12949
▁parc	-12950
▁topH	-12951
▁vmod	-12952
("0");	-12953
("2015	-12954
(":");	-12955
("{");	-12956
('/');	-12957
AlarmD	-12958
DENIED	-12959
GENKEY	-12960
Impact	-12961
LlapDa	-12962
MockAr	-12963
Occurr	-12964
OnLoad	-12965
Shuffl	-12966
Upward	-12967
_10485	-12968
alPlan	-12969
ckMark	-12970
cordId	-12971
dlProp	-12972
gAlpha	-12973
kanban	-12974
mockCl	-12975
ndSubj	-12976
ngBond	-12977
ngEntr	-12978
orData	-12979
orValu	-12980
orphan	-12981
plural	-12982
rtFrom	-12983
ruptor	-12984
tDbInv	-12985
tStrat	-12986
tomCod	-12987
ultPar	-12988
wArgum	-12989
▁0)));	-12990
▁Ambar	-12991
▁CONDI	-12992
▁Craft	-12993
▁HEADE	-12994
▁Knowl	-12995
▁Morph	-12996
▁Plann	-12997
▁charF	-12998
▁fully	-12999
▁grupo	-13000
▁onSav	-13001
201406.	-13002
AuthNam	-13003
CODELIS	-13004
COLUMNS	-13005
CommonS	-13006
ENSIONS	-13007
INCLUDE	-13008
OnNoCon	-13009
ParaAcc	-13010
PoolNam	-13011
adyStat	-13012
alDamag	-13013
arVacat	-13014
calStat	-13015
ctCount	-13016
goryNam	-13017
mBottom	-13018
ngStart	-13019
ntCoord	-13020
oomHour	-13021
ouchBar	-13022
playabl	-13023
tStruct	-13024
tomAuth	-13025
unctuat	-13026
▁Dragon	-13027
▁GdbMod	-13028
▁INVOKE	-13029
▁JNAUpl	-13030
▁onStop	-13031
AutoComm	-13032
BULKLOAD	-13033
ContactS	-13034
ErrorPar	-13035
LocalAdd	-13036
LookupOp	-13037
\030\002	-13038
actuator	-13039
alProbab	-13040
allocIfN	-13041
atorFram	-13042
bhookEmb	-13043
ctoryStr	-13044
nSummary	-13045
ncryptor	-13046
oooooooo	-13047
plantuml	-13048
playImag	-13049
rAndLoad	-13050
rarchyUt	-13051
▁2014");	-13052
▁JobConf	-13053
▁actualD	-13054
▁automat	-13055
▁fromInd	-13056
▁mockMvc	-13057
▁myChang	-13058
CompanyId	-13059
DataArray	-13060
EmptyBord	-13061
Stacktrac	-13062
ntAccrual	-13063
ntProgram	-13064
yProtocol	-13065
▁CommonUt	-13066
▁ItWorkVO	-13067
▁WorkFlow	-13068
▁propagat	-13069
ArrayAdapt	-13070
DayOfMonth	-13071
QuotaManag	-13072
▁CandyData	-13073
▁VoltDbInv	-13074
BranchLocat	-13075
cordSupport	-13076
▁accrualEnd	-13077
▁jScrollPan	-13078
▁localVarQu	-13079
▁manufactur	-13080
oGuardarCamb	-13081
▁EJavaPackag	-13082
▁mAlarmClock	-13083
cordBatchStat	-13084
▁NoSuchColumn	-13085
AttackCooldown	-13086
ntAccrualFactor	-13087
$.	-13088
3}	-13089
BF	-13090
Cm	-13091
JE	-13092
JK	-13093
MV	-13094
Vk	-13095
aG	-13096
jw	-13097
lX	-13098
vy	-13099
wH	-13100
zf	-13101
增加	-13102
状态	-13103
结果	-13104
$$$	-13105
-08	-13106
/1/	-13107
/\"	-13108
02;	-13109
104	-13110
12,	-13111
1];	-13112
23;	-13113
=",	-13114
>(_	-13115
ABY	-13116
AUF	-13117
EPA	-13118
ICO	-13119
InV	-13120
Juk	-13121
LAF	-13122
Lbl	-13123
MIE	-13124
MSE	-13125
NSO	-13126
OPH	-13127
Opr	-13128
QLE	-13129
UCE	-13130
UGC	-13131
VES	-13132
VOL	-13133
\"}	-13134
apk	-13135
bEn	-13136
bro	-13137
bub	-13138
cIp	-13139
ctu	-13140
cuc	-13141
cyc	-13142
dSl	-13143
ffu	-13144
ftb	-13145
kEv	-13146
kaS	-13147
kvt	-13148
ldF	-13149
lóm	-13150
nAu	-13151
ndo	-13152
ngN	-13153
nny	-13154
oAc	-13155
oEl	-13156
onc	-13157
ptH	-13158
ptW	-13159
pwd	-13160
qDA	-13161
qVA	-13162
rUn	-13163
rWa	-13164
rtM	-13165
ryM	-13166
ryP	-13167
tDo	-13168
tML	-13169
thI	-13170
thW	-13171
ulf	-13172
uma	-13173
unL	-13174
wAc	-13175
yAb	-13176
ymm	-13177
yyy	-13178
zap	-13179
▁.5	-13180
▁Sm	-13181
▁WS	-13182
▁kw	-13183
▁mp	-13184
▁oo	-13185
▁rw	-13186
▁wF	-13187
(404	-13188
(42,	-13189
.").	-13190
06",	-13191
250.	-13192
ASOU	-13193
DtID	-13194
HHmm	-13195
Icmp	-13196
KAUF	-13197
MAIL	-13198
NumE	-13199
Oval	-13200
PLAN	-13201
SEED	-13202
SWIG	-13203
UNDA	-13204
VOID	-13205
What	-13206
YING	-13207
[6];	-13208
acad	-13209
alIn	-13210
arBu	-13211
argv	-13212
baft	-13213
bond	-13214
cVar	-13215
caId	-13216
ctIn	-13217
dJob	-13218
fuzz	-13219
gInd	-13220
gyro	-13221
hman	-13222
lJob	-13223
layB	-13224
ltSp	-13225
mack	-13226
mulc	-13227
nalM	-13228
ngHa	-13229
ngJo	-13230
njpa	-13231
nnap	-13232
nvAp	-13233
oIdl	-13234
owId	-13235
owav	-13236
phan	-13237
qCHA	-13238
rgyL	-13239
rony	-13240
tByt	-13241
tlOv	-13242
toAb	-13243
uban	-13244
vmPr	-13245
wang	-13246
zuCl	-13247
▁"13	-13248
▁"19	-13249
▁0.3	-13250
▁12\	-13251
▁2",	-13252
▁2,"	-13253
▁24,	-13254
▁32)	-13255
▁33,	-13256
▁Bot	-13257
▁Cmd	-13258
▁Dao	-13259
▁FIN	-13260
▁Foo	-13261
▁MOD	-13262
▁Pha	-13263
▁Pod	-13264
▁War	-13265
▁aut	-13266
▁btM	-13267
▁cru	-13268
▁dra	-13269
▁vfr	-13270
▁wav	-13271
▁{}.	-13272
"))),	-13273
("-",	-13274
-1"),	-13275
0[0],	-13276
0[2],	-13277
ADDED	-13278
ANSFE	-13279
ANSWE	-13280
Allur	-13281
Apach	-13282
AttrL	-13283
BPACH	-13284
ByInd	-13285
CallS	-13286
Comma	-13287
DockS	-13288
DownD	-13289
ECDSA	-13290
EELIF	-13291
ENAME	-13292
EPACH	-13293
ESUME	-13294
FLAKE	-13295
MODAL	-13296
OrgId	-13297
PLAYE	-13298
Pvlan	-13299
SENSO	-13300
SSLHo	-13301
Shoot	-13302
Vouch	-13303
archH	-13304
cBarr	-13305
catal	-13306
ctorD	-13307
dAdju	-13308
dCond	-13309
dPojo	-13310
docId	-13311
fValu	-13312
fffff	-13313
gData	-13314
glEnd	-13315
ldInj	-13316
luckp	-13317
maryM	-13318
moryP	-13319
nFlag	-13320
nPlug	-13321
nQual	-13322
ntAcc	-13323
ntEPC	-13324
ntImp	-13325
numOf	-13326
playH	-13327
rPlan	-13328
rgoCl	-13329
rtNot	-13330
tAzur	-13331
tSnap	-13332
torno	-13333
traWh	-13334
tyFor	-13335
yncWr	-13336
▁".";	-13337
▁"/",	-13338
▁"1";	-13339
▁((((	-13340
▁128,	-13341
▁18).	-13342
▁200;	-13343
▁4)).	-13344
▁DBUt	-13345
▁EndS	-13346
▁Focu	-13347
▁GLFW	-13348
▁SNOW	-13349
▁SOAP	-13350
▁Saga	-13351
▁Star	-13352
▁ZVal	-13353
▁btnN	-13354
▁docb	-13355
▁frag	-13356
▁mApp	-13357
▁tarj	-13358
▁zook	-13359
(")");	-13360
("/"))	-13361
(':');	-13362
AppEng	-13363
Favour	-13364
LockQu	-13365
MIDDLE	-13366
SCHEDU	-13367
alonFX	-13368
bonacc	-13369
braryS	-13370
brator	-13371
cOrgan	-13372
cyclop	-13373
dArgum	-13374
dOrgan	-13375
dcrApp	-13376
dcrInd	-13377
houldU	-13378
lambda	-13379
manual	-13380
nSampl	-13381
ngMult	-13382
nnapod	-13383
ntmAdd	-13384
oSourc	-13385
rtyAcc	-13386
varMod	-13387
voltdb	-13388
▁255);	-13389
▁?")).	-13390
▁Fault	-13391
▁JavaH	-13392
▁OFFSE	-13393
▁andCr	-13394
▁bcInd	-13395
▁mShar	-13396
▁panSp	-13397
▁podId	-13398
▁roomS	-13399
(3000);	-13400
ANALYZE	-13401
Angular	-13402
AttrNam	-13403
CharStr	-13404
FlowLay	-13405
ForLoop	-13406
FormatS	-13407
GadYIDA	-13408
LEASING	-13409
PoolDao	-13410
ProtoOp	-13411
Unmanag	-13412
XmlConf	-13413
factCat	-13414
malPlac	-13415
mockOpt	-13416
nPopUpW	-13417
nalNumb	-13418
oFormat	-13419
oStrPtr	-13420
portAct	-13421
portLay	-13422
portNam	-13423
ptPurpo	-13424
rlayNam	-13425
tomLoad	-13426
ubGroup	-13427
ultAggr	-13428
▁100));	-13429
▁Compar	-13430
▁DoPlay	-13431
▁LAUNCH	-13432
▁LlapDa	-13433
▁UNIQUE	-13434
▁daught	-13435
▁lambda	-13436
▁mSourc	-13437
▁plural	-13438
99999999	-13439
AnchorPo	-13440
FINISHED	-13441
FromSnap	-13442
ScrollEv	-13443
akdownIt	-13444
authStat	-13445
dForAttr	-13446
faultOpt	-13447
lloWorld	-13448
nGroupId	-13449
ntLookup	-13450
playback	-13451
qDECIMAL	-13452
▁ConfVar	-13453
▁FormLay	-13454
▁Inbound	-13455
▁SortOrd	-13456
▁StackSl	-13457
▁zzFStat	-13458
00000002)	-13459
Introduct	-13460
LocalCach	-13461
alCharact	-13462
faultData	-13463
mMatchCon	-13464
rFactoryB	-13465
rNotFound	-13466
rflowProc	-13467
yboardUnd	-13468
▁HIGHLIGH	-13469
▁bookBrow	-13470
▁fromValu	-13471
▁jobManag	-13472
ControlMod	-13473
FormCanton	-13474
randomNumb	-13475
rtyFactory	-13476
▁NotAuthor	-13477
▁ProtocolV	-13478
PoolCommand	-13479
UNSPECIFIED	-13480
▁QuorumConf	-13481
SYSSEQUENCES	-13482
CompoundGraph	-13483
MarkEvaluator	-13484
ldaGuardarCamb	-13485
$|	-13486
73	-13487
7:	-13488
?)	-13489
DN	-13490
DQ	-13491
Gh	-13492
KF	-13493
NU	-13494
Za	-13495
jS	-13496
kK	-13497
mJ	-13498
mK	-13499
oI	-13500
rj	-13501
uo	-13502
yd	-13503
(18	-13504
(3)	-13505
03;	-13506
192	-13507
1])	-13508
300	-13509
32_	-13510
35.	-13511
404	-13512
40_	-13513
ALE	-13514
EDE	-13515
IDX	-13516
IVO	-13517
JCh	-13518
Joy	-13519
KVM	-13520
LOS	-13521
MyS	-13522
NEB	-13523
ODD	-13524
OfN	-13525
OnK	-13526
Pac	-13527
Pgm	-13528
Qut	-13529
SHE	-13530
SSH	-13531
UND	-13532
Voc	-13533
XSD	-13534
XXM	-13535
ZOO	-13536
[\\	-13537
\")	-13538
\00	-13539
_3.	-13540
_88	-13541
agS	-13542
ago	-13543
bby	-13544
bfd	-13545
bru	-13546
buy	-13547
cDB	-13548
cEn	-13549
cog	-13550
fat	-13551
gdb	-13552
gno	-13553
hdr	-13554
hov	-13555
hpl	-13556
htm	-13557
jay	-13558
kyo	-13559
lBy	-13560
lNo	-13561
maM	-13562
myD	-13563
nSk	-13564
nSl	-13565
nma	-13566
nok	-13567
ntX	-13568
oku	-13569
olf	-13570
onP	-13571
orS	-13572
pra	-13573
ptz	-13574
rEl	-13575
roz	-13576
tBa	-13577
tLa	-13578
tpu	-13579
tup	-13580
wCa	-13581
▁**	-13582
▁9:	-13583
▁PL	-13584
▁Pt	-13585
▁gw	-13586
▁hh	-13587
▁yd	-13588
▁yo	-13589
(1.5	-13590
(204	-13591
+");	-13592
0001	-13593
0\0\	-13594
1/{+	-13595
12",	-13596
:"))	-13597
ALGO	-13598
ASSO	-13599
AddS	-13600
CMAP	-13601
Dotd	-13602
ENUM	-13603
Earl	-13604
ForK	-13605
Forb	-13606
IGGE	-13607
LASH	-13608
Noop	-13609
OfOp	-13610
Orch	-13611
Plov	-13612
Porc	-13613
SSID	-13614
Snow	-13615
[10]	-13616
[13]	-13617
[14]	-13618
[3].	-13619
[8];	-13620
][];	-13621
_2).	-13622
_2);	-13623
____	-13624
achV	-13625
acot	-13626
arby	-13627
bdav	-13628
cDAO	-13629
cDao	-13630
calC	-13631
carl	-13632
ckPr	-13633
ctAn	-13634
dInD	-13635
dMom	-13636
dano	-13637
doPo	-13638
drog	-13639
hScr	-13640
jara	-13641
kryo	-13642
mgmt	-13643
mpon	-13644
mulv	-13645
myHp	-13646
mySh	-13647
nByt	-13648
nbow	-13649
nchD	-13650
ngHo	-13651
ntAZ	-13652
oFad	-13653
oSav	-13654
opol	-13655
pInt	-13656
ralM	-13657
rmar	-13658
rpop	-13659
rtyE	-13660
ryPr	-13661
tPar	-13662
thOn	-13663
ultS	-13664
vacy	-13665
vmod	-13666
wOut	-13667
wayD	-13668
yNum	-13669
zkCl	-13670
▁'/'	-13671
▁(!_	-13672
▁12)	-13673
▁37,	-13674
▁4),	-13675
▁4).	-13676
▁50,	-13677
▁CSS	-13678
▁EQU	-13679
▁MUL	-13680
▁Sdk	-13681
▁Sol	-13682
▁VEN	-13683
▁arc	-13684
▁buy	-13685
▁fmt	-13686
▁mCh	-13687
▁mSp	-13688
▁mSw	-13689
▁oct	-13690
▁opc	-13691
▁tun	-13692
▁vlc	-13693
▁}";	-13694
批量删除	-13695
(//*[	-13696
(10),	-13697
(1234	-13698
-1");	-13699
0"));	-13700
02004	-13701
04000	-13702
0[1],	-13703
0[3],	-13704
0[4],	-13705
ALIGN	-13706
ANSPA	-13707
Clobb	-13708
CmdAn	-13709
DoAct	-13710
DocId	-13711
ECDHE	-13712
FlagD	-13713
ForPr	-13714
IWXXM	-13715
InfoV	-13716
MONEY	-13717
OnPag	-13718
Plovd	-13719
StrUt	-13720
Swapt	-13721
andha	-13722
atrac	-13723
ckHou	-13724
ctAlt	-13725
cutar	-13726
guava	-13727
knowm	-13728
lStyl	-13729
laCab	-13730
mayor	-13731
mdkAb	-13732
morph	-13733
nSubj	-13734
ndrom	-13735
ntCat	-13736
ouchH	-13737
ouchS	-13738
rSong	-13739
rackS	-13740
tFlow	-13741
tForS	-13742
thodr	-13743
today	-13744
tyEng	-13745
ultVO	-13746
▁0.5;	-13747
▁3)).	-13748
▁300;	-13749
▁6));	-13750
▁Azur	-13751
▁Cron	-13752
▁EXPI	-13753
▁Gray	-13754
▁LDAP	-13755
▁SAML	-13756
▁Spat	-13757
▁XSpr	-13758
▁ccfg	-13759
▁dotS	-13760
▁gold	-13761
▁mBlu	-13762
▁mSub	-13763
▁myCh	-13764
▁opac	-13765
▁prod	-13766
▁rabb	-13767
▁rowB	-13768
▁tagS	-13769
▁tgtD	-13770
▁vmIn	-13771
']"));	-13772
("\"",	-13773
CardId	-13774
ENGINE	-13775
GANIZA	-13776
InCour	-13777
OOBAct	-13778
OfPlay	-13779
SqlDao	-13780
acotta	-13781
almNam	-13782
arcach	-13783
cannot	-13784
crcStr	-13785
ctorUt	-13786
dLocat	-13787
dSpawn	-13788
dStock	-13789
dmProp	-13790
dragon	-13791
fromAp	-13792
hStatu	-13793
hanCon	-13794
kStart	-13795
london	-13796
mLocat	-13797
maProv	-13798
malDay	-13799
nChann	-13800
nDurat	-13801
nModul	-13802
nMotor	-13803
nPoolS	-13804
ngCond	-13805
ngConv	-13806
ngHour	-13807
ojalgo	-13808
pCount	-13809
rackId	-13810
rtWork	-13811
ryConv	-13812
tStack	-13813
tabPan	-13814
tagNam	-13815
thAppl	-13816
toryId	-13817
workUt	-13818
▁"}");	-13819
▁500);	-13820
▁Abort	-13821
▁Appro	-13822
▁EXECU	-13823
▁XMLGr	-13824
▁accum	-13825
▁calor	-13826
▁fromJ	-13827
()))));	-13828
600002,	-13829
ColumnM	-13830
FromUrl	-13831
IfEmpty	-13832
LAUNCHE	-13833
PNStatu	-13834
SUPPLIE	-13835
Scratch	-13836
ShardOp	-13837
actMojo	-13838
adStart	-13839
amSourc	-13840
andomUt	-13841
archStr	-13842
catorIn	-13843
dFormat	-13844
dSurfac	-13845
ghtShap	-13846
gnatura	-13847
ldChang	-13848
ldaCanc	-13849
mMockAr	-13850
mumCach	-13851
naPopup	-13852
ngError	-13853
ntGroup	-13854
ntStatu	-13855
nullabl	-13856
oCaptur	-13857
raManag	-13858
rtBound	-13859
tAmount	-13860
tBalanc	-13861
tVmStat	-13862
▁Anchor	-13863
▁Franch	-13864
▁JcaMon	-13865
▁PubNub	-13866
▁WdkMod	-13867
▁tabInd	-13868
▁vArray	-13869
▁valObj	-13870
0000000;	-13871
AutoConf	-13872
BarChart	-13873
FFFFFFFF	-13874
FontStyl	-13875
KuhnMatr	-13876
Occupanc	-13877
PatronId	-13878
Subgrupo	-13879
ZOOKEEPE	-13880
halfCurv	-13881
nDrawabl	-13882
ntamount	-13883
oramount	-13884
producto	-13885
rracotta	-13886
▁DECIMAL	-13887
▁DISPLAY	-13888
▁HttpEnt	-13889
▁allData	-13890
▁through	-13891
CountDown	-13892
ngFactory	-13893
toryInfoV	-13894
traColumn	-13895
▁FXMLLoad	-13896
▁Workbook	-13897
▁armMotor	-13898
▁mArtWork	-13899
▁onScroll	-13900
("127.0.0.	-13901
0123456789	-13902
BlockCount	-13903
CountryCod	-13904
GErrorInfo	-13905
ProtocolUt	-13906
archUpward	-13907
caffoldNam	-13908
dDataSourc	-13909
hutdownNow	-13910
mockInProg	-13911
ntProtocol	-13912
▁BlockBlob	-13913
▁\001(\005	-13914
▁globalAct	-13915
IconFactory	-13916
ptorFactory	-13917
ralProducto	-13918
thGroupAttr	-13919
▁SBMLQualSp	-13920
▁plotBottom	-13921
PutBulkJobSp	-13922
faultComboBo	-13923
▁ProductSort	-13924
▁accumulator	-13925
▁cargarCombo	-13926
CallbackHandl	-13927
uploadProtocol	-13928
▁uploadProtocol	-13929
%3	-13930
.@	-13931
/_	-13932
3|	-13933
95	-13934
;&	-13935
AZ	-13936
Jc	-13937
▁	-13938
t	-13939
r	-13940
a	-13941
n	-13942
o	-13943
.	-13944
l	-13945
c	-13946
(	-13947
)	-13948
u	-13949
p	-13950
;	-13951
m	-13952
d	-13953
b	-13954
f	-13955
h	-13956
,	-13957
"	-13958
g	-13959
=	-13960
S	-13961
v	-13962
C	-13963
{	-13964
}	-13965
I	-13966
A	-13967
y	-13968
E	-13969
w	-13970
P	-13971
_	-13972
D	-13973
k	-13974
N	-13975
M	-13976
O	-13977
L	-13978
F	-13979
0	-13980
B	-13981
U	-13982
1	-13983
>	-13984
<	-13985
V	-13986
G	-13987
+	-13988
H	-13989
2	-13990
W	-13991
:	-13992
j	-13993
z	-13994
-	-13995
q	-13996
[	-13997
]	-13998
K	-13999
J	-14000
!	-14001
3	-14002
/	-14003
\	-14004
&	-14005
Y	-14006
4	-14007
5	-14008
Q	-14009
X	-14010
'	-14011
7	-14012
|	-14013
6	-14014
8	-14015
*	-14016
9	-14017
?	-14018
Z	-14019
%	-14020
#	-14021
$	-14022
@	-14023
^	-14024
~	-14025
`	-14026
失	-14027
败	-14028
に	-14029
的	-14030
数	-14031
た	-14032
の	-14033
е	-14034
不	-14035
用	-14036
и	-14037
о	-14038
为	-14039
行	-14040
务	-14041
。	-14042
成	-14043
入	-14044
时	-14045
っ	-14046
ó	-14047
а	-14048
信	-14049
除	-14050
常	-14051
、	-14052
る	-14053
异	-14054
功	-14055
в	-14056
し	-14057
息	-14058
户	-14059
新	-14060
请	-14061
т	-14062
р	-14063
删	-14064
を	-14065
加	-14066
在	-14067
京	-14068
東	-14069
错	-14070
都	-14071
取	-14072
í	-14073
单	-14074
文	-14075
置	-14076
と	-14077
存	-14078
н	-14079
は	-14080
据	-14081
な	-14082
出	-14083
查	-14084
件	-14085
分	-14086
类	-14087
设	-14088
も	-14089
录	-14090
间	-14091
号	-14092
名	-14093
い	-14094
す	-14095
财	-14096
已	-14097
程	-14098
к	-14099
能	-14100
前	-14101
开	-14102
空	-14103
て	-14104
中	-14105
é	-14106
═	-14107
修	-14108
接	-14109
未	-14110
参	-14111
当	-14112
ñ	-14113
ú	-14114
收	-14115
误	-14116
配	-14117
д	-14118
是	-14119
法	-14120
á	-14121
л	-14122
更	-14123
有	-14124
定	-14125
获	-14126
с	-14127
量	-14128
で	-14129
回	-14130
大	-14131
改	-14132
无	-14133
点	-14134
线	-14135
码	-14136
结	-14137
内	-14138
发	-14139
始	-14140
м	-14141
が	-14142
れ	-14143
值	-14144
到	-14145
方	-14146
登	-14147
п	-14148
一	-14149
增	-14150
批	-14151
у	-14152
动	-14153
启	-14154
容	-14155
果	-14156
系	-14157
重	-14158
体	-14159
支	-14160
正	-14161
认	-14162
询	-14163
ま	-14164
或	-14165
提	-14166
服	-14167
添	-14168
こ	-14169
ー	-14170
下	-14171
了	-14172
返	-14173
║	-14174
人	-14175
输	-14176
上	-14177
客	-14178
小	-14179
か	-14180
字	-14181
实	-14182
庫	-14183
调	-14184
з	-14185
я	-14186
地	-14187
报	-14188
本	-14189
状	-14190
理	-14191
目	-14192
块	-14193
态	-14194
日	-14195
次	-14196
ы	-14197
交	-14198
今	-14199
付	-14200
任	-14201
天	-14202
标	-14203
页	-14204
П	-14205
ン	-14206
事	-14207
匹	-14208
合	-14209
否	-14210
复	-14211
あ	-14212
后	-14213
密	-14214
年	-14215
度	-14216
消	-14217
统	-14218
菜	-14219
蓝	-14220
表	-14221
证	-14222
超	-14223
连	-14224
ら	-14225
例	-14226
器	-14227
图	-14228
属	-14229
找	-14230
断	-14231
模	-14232
注	-14233
牙	-14234
确	-14235
者	-14236
载	-14237
ã	-14238
个	-14239
使	-14240
列	-14241
口	-14242
导	-14243
式	-14244
期	-14245
没	-14246
生	-14247
自	-14248
被	-14249
账	-14250
送	-14251
作	-14252
保	-14253
应	-14254
性	-14255
所	-14256
称	-14257
立	-14258
选	-14259
à	-14260
き	-14261
く	-14262
停	-14263
关	-14264
写	-14265
可	-14266
最	-14267
示	-14268
端	-14269
等	-14270
级	-14271
组	-14272
该	-14273
进	-14274
道	-14275
部	-14276
よ	-14277
会	-14278
传	-14279
典	-14280
型	-14281
子	-14282
月	-14283
知	-14284
私	-14285
第	-14286
默	-14287
Ç	-14288
б	-14289
ậ	-14290
さ	-14291
り	-14292
击	-14293
商	-14294
场	-14295
对	-14296
持	-14297
操	-14298
片	-14299
索	-14300
編	-14301
计	-14302
记	-14303
面	-14304
项	-14305
đ	-14306
й	-14307
ず	-14308
ス	-14309
你	-14310
公	-14311
制	-14312
化	-14313
址	-14314
我	-14315
敵	-14316
暂	-14317
现	-14318
符	-14319
Ã	-14320
ạ	-14321
う	-14322
そ	-14323
だ	-14324
以	-14325
位	-14326
嗨	-14327
备	-14328
工	-14329
建	-14330
执	-14331
择	-14332
检	-14333
段	-14334
渠	-14335
病	-14336
维	-14337
编	-14338
艦	-14339
贼	-14340
路	-14341
转	-14342
集	-14343
高	-14344
ь	-14345
め	-14346
义	-14347
份	-14348
初	-14349
区	-14350
古	-14351
处	-14352
完	-14353
寒	-14354
岩	-14355
径	-14356
意	-14357
波	-14358
白	-14359
经	-14360
解	-14361
警	-14362
话	-14363
軍	-14364
车	-14365
通	-14366
问	-14367
ç	-14368
ш	-14369
ア	-14370
マ	-14371
ラ	-14372
レ	-14373
与	-14374
受	-14375
必	-14376
换	-14377
撃	-14378
机	-14379
条	-14380
来	-14381
款	-14382
联	-14383
至	-14384
身	-14385
限	-14386
에	-14387
В	-14388
С	-14389
ん	-14390
ジ	-14391
価	-14392
値	-14393
刷	-14394
包	-14395
布	-14396
引	-14397
情	-14398
手	-14399
描	-14400
搜	-14401
权	-14402
束	-14403
板	-14404
此	-14405
版	-14406
电	-14407
种	-14408
节	-14409
订	-14410
过	-14411
降	-14412
预	-14413
题	-14414
ư	-14415
ẩ	-14416
ゾ	-14417
于	-14418
从	-14419
别	-14420
句	-14421
员	-14422
局	-14423
戦	-14424
按	-14425
插	-14426
攻	-14427
析	-14428
格	-14429
画	-14430
移	-14431
窗	-14432
色	-14433
要	-14434
读	-14435
需	-14436
러	-14437
°	-14438
ê	-14439
ا	-14440
د	-14441
ả	-14442
【	-14443
】	-14444
け	-14445
つ	-14446
べ	-14447
ッ	-14448
ド	-14449
メ	-14450
三	-14451
创	-14452
即	-14453
同	-14454
和	-14455
対	-14456
市	-14457
後	-14458
得	-14459
態	-14460
打	-14461
政	-14462
效	-14463
時	-14464
水	-14465
求	-14466
特	-14467
秋	-14468
签	-14469
算	-14470
装	-14471
试	-14472
运	-14473
钥	-14474
钮	-14475
门	-14476
闭	-14477
验	-14478
글	-14479
력	-14480
제	-14481
Á	-14482
É	-14483
ä	-14484
ö	-14485
г	-14486
ầ	-14487
“	-14488
”	-14489
お	-14490
わ	-14491
イ	-14492
ク	-14493
ダ	-14494
主	-14495
二	-14496
供	-14497
元	-14498
印	-14499
及	-14500
只	-14501
品	-14502
张	-14503
心	-14504
您	-14505
扫	-14506
指	-14507
暑	-14508
源	-14509
準	-14510
王	-14511
申	-14512
相	-14513
管	-14514
箱	-14515
网	-14516
考	-14517
角	-14518
触	-14519
访	-14520
购	-14521
邮	-14522
雪	-14523
非	-14524
생	-14525
정	-14526
ô	-14527
ü	-14528
Đ	-14529
ı	-14530
М	-14531
О	-14532
ه	-14533
ی	-14534
「	-14535
」	-14536
ど	-14537
书	-14538
买	-14539
产	-14540
仕	-14541
佣	-14542
允	-14543
全	-14544
切	-14545
刊	-14546
历	-14547
压	-14548
厳	-14549
去	-14550
反	-14551
变	-14552
国	-14553
報	-14554
填	-14555
家	-14556
尊	-14557
序	-14558
形	-14559
愛	-14560
播	-14561
放	-14562
教	-14563
整	-14564
明	-14565
春	-14566
显	-14567
柄	-14568
止	-14569
活	-14570
発	-14571
素	-14572
絶	-14573
终	-14574
续	-14575
聊	-14576
般	-14577
议	-14578
许	-14579
这	-14580
露	-14581
¥	-14582
ý	-14583
З	-14584
Н	-14585
ч	-14586
щ	-14587
ب	-14588
ش	-14589
و	-14590
ề	-14591
‚	-14592
→	-14593
コ	-14594
テ	-14595
ト	-14596
何	-14597
假	-14598
先	-14599
共	-14600
册	-14601
冬	-14602
力	-14603
勤	-14604
原	-14605
吃	-14606
圆	-14607
夏	-14608
多	-14609
如	-14610
山	-14611
师	-14612
库	-14613
待	-14614
总	-14615
敬	-14616
普	-14617
書	-14618
機	-14619
步	-14620
每	-14621
矩	-14622
禁	-14623
秒	-14624
稍	-14625
経	-14626
约	-14627
络	-14628
详	-14629
象	-14630
退	-14631
钟	-14632
际	-14633
雷	-14634
발	-14635
삭	-14636
성	-14637
요	-14638
을	-14639
일	-14640
출	-14641
Ó	-14642
ø	-14643
ă	-14644
ć	-14645
ł	-14646
ś	-14647
И	-14648
ж	-14649
ב	-14650
י	-14651
م	-14652
ن	-14653
ớ	-14654
ụ	-14655
ủ	-14656
ử	-14657
—	-14658
€	-14659
♖	-14660
♗	-14661
♘	-14662
♜	-14663
♝	-14664
♞	-14665
え	-14666
ち	-14667
ぬ	-14668
ば	-14669
み	-14670
む	-14671
や	-14672
ろ	-14673
エ	-14674
タ	-14675
パ	-14676
ム	-14677
ル	-14678
且	-14679
业	-14680
举	-14681
互	-14682
亚	-14683
亮	-14684
代	-14685
众	-14686
医	-14687
単	-14688
却	-14689
台	-14690
向	-14691
含	-14692
外	-14693
女	-14694
嬴	-14695
宝	-14696
実	-14697
影	-14698
往	-14699
従	-14700
思	-14701
感	-14702
托	-14703
拟	-14704
排	-14705
昼	-14706
根	-14707
業	-14708
毕	-14709
流	-14710
测	-14711
清	-14712
済	-14713
激	-14714
照	-14715
爱	-14716
班	-14717
男	-14718
療	-14719
秦	-14720
税	-14721
籍	-14722
继	-14723
脚	-14724
臨	-14725
芒	-14726
补	-14727
見	-14728
视	-14729
誠	-14730
請	-14731
评	-14732
费	-14733
込	-14734
速	-14735
達	-14736
選	-14737
針	-14738
链	-14739
锅	-14740
隊	-14741
雨	-14742
须	-14743
饭	-14744
驚	-14745
농	-14746
는	-14747
다	-14748
류	-14749
리	-14750
번	-14751
산	-14752
서	-14753
오	-14754
주	-14755
품	-14756
️	-14757
£	-14758
§	-14759
Í	-14760
Ö	-14761
Ø	-14762
è	-14763
ą	-14764
č	-14765
μ	-14766
σ	-14767
Д	-14768
х	-14769
ح	-14770
ر	-14771
ص	-14772
ل	-14773
ở	-14774
ợ	-14775
–	-14776
‘	-14777
’	-14778
》	-14779
せ	-14780
ィ	-14781
セ	-14782
フ	-14783
プ	-14784
ベ	-14785
企	-14786
低	-14787
備	-14788
其	-14789
剪	-14790
卡	-14791
命	-14792
响	-14793
四	-14794
土	-14795
域	-14796
場	-14797
夜	-14798
季	-14799
少	-14800
层	-14801
帖	-14802
恢	-14803
旧	-14804
易	-14805
李	-14806
架	-14807
样	-14808
標	-14809
権	-14810
残	-14811
永	-14812
滑	-14813
满	-14814
灣	-14815
热	-14816
物	-14817
环	-14818
甲	-14819
略	-14820
百	-14821
直	-14822
看	-14823
短	-14824
稿	-14825
章	-14826
終	-14827
纳	-14828
缩	-14829
而	-14830
藏	-14831
裁	-14832
规	-14833
言	-14834
計	-14835
読	-14836
论	-14837
豆	-14838
赋	-14839
走	-14840
远	-14841
述	-14842
释	-14843
金	-14844
関	-14845
霜	-14846
音	-14847
额	-14848
首	-14849
가	-14850
고	-14851
과	-14852
내	-14853
세	-14854
스	-14855
입	-14856
잉	-14857
자	-14858
째	-14859
파	-14860
항	-14861
해	-14862
¢	-14863
·	-14864
¿	-14865
â	-14866
ò	-14867
Ś	-14868
ż	-14869
ƒ	-14870
̳	-14871
Г	-14872
К	-14873
ф	-14874
э	-14875
ю	-14876
ד	-14877
ה	-14878
ע	-14879
ק	-14880
ר	-14881
ת	-14882
گ	-14883
ế	-14884
ễ	-14885
ồ	-14886
ộ	-14887
•	-14888
╔	-14889
╗	-14890
╚	-14891
╝	-14892
♔	-14893
♕	-14894
♚	-14895
♛	-14896
✔	-14897
々	-14898
〈	-14899
〉	-14900
《	-14901
『	-14902
』	-14903
〔	-14904
〕	-14905
〖	-14906
〗	-14907
ひ	-14908
へ	-14909
ほ	-14910
ァ	-14911
ェ	-14912
カ	-14913
キ	-14914
シ	-14915
チ	-14916
デ	-14917
ニ	-14918
ポ	-14919
ミ	-14920
ュ	-14921
万	-14922
之	-14923
乏	-14924
五	-14925
令	-14926
价	-14927
伯	-14928
便	-14929
候	-14930
储	-14931
再	-14932
农	-14933
冲	-14934
准	-14935
划	-14936
刚	-14937
励	-14938
動	-14939
北	-14940
千	-14941
卓	-14942
占	-14943
吗	-14944
哦	-14945
哪	-14946
善	-14947
囲	-14948
坐	-14949
坛	-14950
基	-14951
夹	-14952
好	-14953
委	-14954
姬	-14955
威	-14956
学	-14957
安	-14958
宜	-14959
审	-14960
射	-14961
就	-14962
屋	-14963
屏	-14964
希	-14965
带	-14966
幀	-14967
干	-14968
平	-14969
广	-14970
強	-14971
弹	-14972
归	-14973
循	-14974
志	-14975
恥	-14976
惊	-14977
想	-14978
慰	-14979
懇	-14980
截	-14981
房	-14982
才	-14983
技	-14984
拉	-14985
拒	-14986
拦	-14987
拿	-14988
捕	-14989
授	-14990
控	-14991
推	-14992
揮	-14993
敗	-14994
斐	-14995
既	-14996
昭	-14997
景	-14998
望	-14999
末	-15000
校	-15001
核	-15002
框	-15003
歇	-15004
歓	-15005
气	-15006
浏	-15007
温	-15008
港	-15009
演	-15010
潜	-15011
澳	-15012
火	-15013
烟	-15014
煩	-15015
爆	-15016
牌	-15017
玩	-15018
現	-15019
番	-15020
異	-15021
疑	-15022
痛	-15023
盛	-15024
睡	-15025
砲	-15026
確	-15027
社	-15028
福	-15029
種	-15030
穂	-15031
突	-15032
策	-15033
範	-15034
粛	-15035
美	-15036
群	-15037
翻	-15038
耗	-15039
聚	-15040
背	-15041
致	-15042
航	-15043
花	-15044
苦	-15045
范	-15046
草	-15047
营	-15048
著	-15049
蔽	-15050
虔	-15051
蛰	-15052
西	-15053
規	-15054
览	-15055
訂	-15056
訳	-15057
謙	-15058
護	-15059
讃	-15060
识	-15061
语	-15062
课	-15063
谷	-15064
豊	-15065
責	-15066
貴	-15067
費	-15068
質	-15069
越	-15070
跨	-15071
跳	-15072
蹤	-15073
輸	-15074
辉	-15075
辑	-15076
迎	-15077
还	-15078
适	-15079
途	-15080
遊	-15081
遜	-15082
遠	-15083
適	-15084
酬	-15085
醒	-15086
里	-15087
錯	-15088
钉	-15089
锁	-15090
開	-15091
阅	-15092
队	-15093
隔	-15094
際	-15095
響	-15096
频	-15097
风	-15098
飞	-15099
養	-15100
香	-15101
鼠	-15102
계	-15103
군	-15104
기	-15105
니	-15106
드	-15107
들	-15108
디	-15109
렉	-15110
로	-15111
료	-15112
를	-15113
만	-15114
목	-15115
보	-15116
수	-15117
습	-15118
실	-15119
알	-15120
어	-15121
완	-15122
용	-15123
의	-15124
이	-15125
작	-15126
전	-15127
줄	-15128
즘	-15129
지	-15130
체	-15131
케	-15132
토	-15133
특	-15134
판	-15135
패	-15136
평	-15137
하	-15138
했	-15139
😜	-15140
¡	-15141
©	-15142
±	-15143
Ä	-15144
Æ	-15145
Ê	-15146
Õ	-15147
Ü	-15148
ß	-15149
å	-15150
æ	-15151
ï	-15152
ð	-15153
ù	-15154
ę	-15155
ğ	-15156
Ł	-15157
ń	-15158
Œ	-15159
œ	-15160
ř	-15161
ş	-15162
Š	-15163
š	-15164
Ÿ	-15165
ź	-15166
Ż	-15167
Ž	-15168
ž	-15169
Ə	-15170
ơ	-15171
ə	-15172
ˆ	-15173
́	-15174
̃	-15175
Ѐ	-15176
А	-15177
Б	-15178
Ж	-15179
Л	-15180
Р	-15181
Т	-15182
У	-15183
Ф	-15184
Х	-15185
Ч	-15186
Ш	-15187
ц	-15188
ё	-15189
آ	-15190
ج	-15191
خ	-15192
ظ	-15193
ع	-15194
پ	-15195
چ	-15196
ژ	-15197
ک	-15198
ẞ	-15199
ặ	-15200
ể	-15201
ệ	-15202
ị	-15203
ứ	-15204
ự	-15205
„	-15206
†	-15207
‡	-15208
‰	-15209
‹	-15210
›	-15211
※	-15212
₡	-15213
₲	-15214
₺	-15215
₿	-15216
↻	-15217
└	-15218
◀	-15219
♀	-15220
♂	-15221
✗	-15222
✘	-15223
❄	-15224
ズ	-15225
ナ	-15226
ネ	-15227
バ	-15228
ヒ	-15229
ボ	-15230
モ	-15231
ャ	-15232
ョ	-15233
リ	-15234
ロ	-15235
东	-15236
丢	-15237
丽	-15238
也	-15239
乡	-15240
些	-15241
享	-15242
仅	-15243
他	-15244
们	-15245
休	-15246
伝	-15247
余	-15248
個	-15249
健	-15250
像	-15251
優	-15252
充	-15253
光	-15254
免	-15255
六	-15256
具	-15257
养	-15258
军	-15259
况	-15260
冷	-15261
冻	-15262
刘	-15263
则	-15264
別	-15265
刻	-15266
削	-15267
剩	-15268
割	-15269
办	-15270
助	-15271
努	-15272
午	-15273
半	-15274
华	-15275
南	-15276
厕	-15277
县	-15278
叫	-15279
史	-15280
右	-15281
叶	-15282
听	-15283
告	-15284
周	-15285
呼	-15286
售	-15287
啊	-15288
因	-15289
围	-15290
均	-15291
城	-15292
培	-15293
境	-15294
声	-15295
够	-15296
太	-15297
头	-15298
姓	-15299
娘	-15300
孙	-15301
寅	-15302
寝	-15303
寸	-15304
将	-15305
導	-15306
尾	-15307
履	-15308
岭	-15309
峰	-15310
川	-15311
差	-15312
己	-15313
币	-15314
幕	-15315
并	-15316
店	-15317
康	-15318
延	-15319
弾	-15320
御	-15321
德	-15322
忘	-15323
忽	-15324
急	-15325
戌	-15326
承	-15327
投	-15328
折	-15329
护	-15330
括	-15331
捉	-15332
援	-15333
摄	-15334
擎	-15335
故	-15336
早	-15337
昌	-15338
映	-15339
昵	-15340
术	-15341
松	-15342
某	-15343
树	-15344
桁	-15345
椒	-15346
歌	-15347
比	-15348
毫	-15349
汇	-15350
池	-15351
泛	-15352
泽	-15353
潭	-15354
為	-15355
熊	-15356
爬	-15357
父	-15358
率	-15359
珊	-15360
珠	-15361
璩	-15362
监	-15363
盒	-15364
真	-15365
磁	-15366
租	-15367
积	-15368
笑	-15369
粮	-15370
粽	-15371
紧	-15372
結	-15373
緯	-15374
繼	-15375
續	-15376
红	-15377
纬	-15378
细	-15379
绘	-15380
给	-15381
绿	-15382
缀	-15383
缓	-15384
缴	-15385
罗	-15386
罪	-15387
翅	-15388
習	-15389
翔	-15390
老	-15391
脑	-15392
膀	-15393
良	-15394
艾	-15395
荐	-15396
虫	-15397
補	-15398
覧	-15399
见	-15400
觉	-15401
訊	-15402
設	-15403
診	-15404
誤	-15405
让	-15406
说	-15407
负	-15408
责	-15409
货	-15410
赁	-15411
起	-15412
足	-15413
載	-15414
轿	-15415
辆	-15416
辖	-15417
辣	-15418
辰	-15419
辽	-15420
迟	-15421
逮	-15422
運	-15423
遍	-15424
避	-15425
邀	-15426
那	-15427
録	-15428
针	-15429
钱	-15430
铺	-15431
销	-15432
键	-15433
闹	-15434
防	-15435
附	-15436
陆	-15437
陣	-15438
随	-15439
隐	-15440
頃	-15441
顯	-15442
颗	-15443
马	-15444
驳	-15445
驻	-15446
鸟	-15447
鸡	-15448
鸵	-15449
鹅	-15450
鹰	-15451
값	-15452
게	-15453
결	-15454
공	-15455
까	-15456
닫	-15457
댓	-15458
도	-15459
래	-15460
록	-15461
말	-15462
매	-15463
문	-15464
받	-15465
비	-15466
선	-15467
시	-15468
쓰	-15469
업	-15470
없	-15471
연	-15472
원	-15473
유	-15474
으	-15475
음	-15476
장	-15477
저	-15478
조	-15479
족	-15480
중	-15481
차	-15482
최	-15483
추	-15484
클	-15485
택	-15486
형	-15487
호	-15488
회	-15489
︎	-15490
～	-15491
🍺	-15492
🎵	-15493
📃	-15494
🥒	-15495
🧀	-15496
